#version: 0.2
Ġ Ø
Ø §
Û Į
Ø ±
Ù Ĩ
Ù ĩ
Ø ¯
Ù ħ
Ù Ī
Ø ª
Ù Ħ
ĠØ §
Ú ©
Ø ³
ĠØ ¨
Ġ Ùħ
Ø§ ÙĨ
ĠØ ¯
Ø ²
Ø ¨
ĠØ ±
Ġ Ù
Ø¯ Ùĩ
Ú ¯
Ø§ ÛĮ
Ø ´
Ġ Ú©
Ø§ Ø±
Ø³ Øª
Ġ Ùĩ
ĠØ¯ Ø±
ĠØ ª
ĠØ ´
ĠØ ³
Ġ ÙĨ
ÛĮ ÙĨ
Ø§ ÙĦ
Ù ģ
ĠØ± Ø¯Ùĩ
Ø ¹
ĠØ ¢
ÙĨ Ø¯
ĠÙ ģ
ÙĪ Ø±
Ù Ĥ
ĠØ¨ Ø§
ĠØ¨ Ùĩ
ÛĮ Ú©
ĠÙ ¾
ĠÙħ ÛĮ
Ø§ Ø¯
Ø ®
ĠØ§ Ø²
Ø ¬
Ø§ Ùħ
ĠØ ¬
ĠÙĩ Ø§ÛĮ
ĠØ§ Ø³Øª
ÙĪ Ø¯
Ø Ń
ÛĮ Ø±
ĠØ¨ Ø±
Ġ ÙĪ
Ø§ Ùĩ
ÙĦ ÛĮ
ÙĪ ÙĨ
Ġ Ú¯
Ø§ Ø¨
ĠØ ®
Ø§ Øª
ĠØ ²
ĠÚ© Ùĩ
Ø ·
Ø± Ø¯
ĠØ ¹
Ú Ĩ
Ù ¾
Ø³ ÛĮ
ÙĪ ÛĮ
Ø µ
ÛĮ ÙĦ
ĠØ¨Ø§ Ø²
Ø± ÛĮ
ÛĮ Ø§
ĠÙ Ĥ
ĠØ§ ÛĮÙĨ
ĠØ± Ø§
ĠØ Ń
Ø´ Øª
ĠØ§ ÛĮ
Ø§ÙĨ ÛĮ
ĠÙħ ÙĨ
Ùĩ Ø±
ÙĪ ÙĦ
Ø§Ø± ÛĮ
Ø§Ø¯ ÛĮ
ÙĪ Øª
ĠØ§ Ùĩ
Ġ ÛĮÚ©
ÙĪ Ø§ÙĨ
ĠØ¢ ÙĨ
ÛĮ Øª
Ú¯ Ø§Ùĩ
Ø§ Ø²
Ùħ Ø±
ÙĨ Ú¯
ĠÙĩ Ø§
Ø§ÛĮ ÛĮ
ÙĪ Ùħ
Ùģ Øª
ĠØ´ Ø¯Ùĩ
Ø ¦
ĠØ§Ùĩ ÙĦ
ĠÙħÛĮ ÙĦ
Ùħ Ø§ÙĨ
ĠÙģ Ø±
Ġ ÚĨ
Ø³Øª Ø§ÙĨ
Ú¯ Ø§ÙĨ
ĠÙħ Øª
ĠØ³ Ø§ÙĦ
ÛĮ Ø¯
ÛĮ Ùħ
ĠÙħÛĮÙĦ Ø§Ø¯ÛĮ
Ú ĺ
Ø® Øª
ĠØ´ Ø¯
ĠÙģ ÛĮÙĦ
Ø± Ø§
Ùĩ Ø§ÛĮ
Ø± ÙĪ
Ø ¶
ĠÙģÛĮÙĦ Ùħ
ĠØ§ ÙĦ
Ø °
Ġ ÙĦ
Ú¯ Ø±
Ø¨ Ø§ÙĦ
Ø§ Ø¯Ùĩ
ĠÙĩ Ùħ
ĠØ± ÙĪ
ĠØ§ ÙĪ
ĠÚ© Ø±Ø¯
Ø§ Ø³
ÙĨ Ø§ÙĨ
ĠØ§ ÙĨ
Ø º
ĠØ§ Ø³
ĠØ ·
ĠØ¨ ÙĪØ¯
ĠØª ÙĪ
ĠØ´ ÙĩØ±
ĠØ µ
ĠØ¨Ø§ Ø´
ĠØ¨Ø± Ø§ÛĮ
Ø «
Ø± Ú©
ÙħØ± ÛĮÚ©
ĠÙģ ÙĪØª
ĠÙ¾ ÛĮ
ĠØ¨Ø§Ø² ÛĮÚ©
ĠØ¨Ø§Ø² ÛĮ
Ø¨ ÛĮ
ĠØ¢ ÙħØ±ÛĮÚ©
ĠÙģÙĪØª Ø¨Ø§ÙĦ
Ùģ Ø±
Ø§Ø¨ Ø¹
ĠØ¯ Ø§Ø±
Øª Ø±
ĠÙħ ØŃ
ĠÙħ ÙĪ
ĠÚ© Ø§Ø±
Ø§ÙĦ ÛĮ
ĠÙħÙĨ Ø§Ø¨Ø¹
ĠØ§ Ùħ
ĠØ¨Ø§Ø²ÛĮÚ© ÙĨØ§ÙĨ
Ø ¸
Ø¨ Ø±
Ø² ÛĮ
ÙĨ ÛĮ
Ġ ÛĮ
ÙĦ Ø§
ĠÙħ Ø¯
ÙĨ Ø¯Ùĩ
ĠØ§ ÛĮØ±
ĠÚ© ÙĨ
Ø§ÙĦ Ø§Øª
Ø§Ø± Ùĩ
Ø§ÙĨ Ùĩ
ĠØ¨ ÛĮ
ÙĪØ± ÛĮ
ĠÙĨ Ø§Ùħ
Ġ ÛĮØ§
ĠØ¯ Ø§
Øª ÛĮ
ĠØ´ ÙĪØ¯
Ùħ ÛĮ
ĠØ¯ Ø§ÙĨ
ĠØ® ÙĪØ¯
Ø§ Ú©
ĠØ¢ÙħØ±ÛĮÚ© Ø§
ĠÙħ Ø³
ÙĤ ÛĮ
ÙĪ ÙĨØ¯
ĠØ¯ ÛĮ
ĠÙħØª ØŃ
ĠÙħ Ø¹
ĠØ¯ ÙĪ
ĠÙĨ ÛĮ
ĠØª Ø±
ĠØ³ Ø±
ĠØ¯ Ùĩ
ĠØª Ø§
ĠÚ¯ Ø±
ĠÙħØªØŃ Ø¯Ùĩ
ÙĦ Ùĩ
ĠÙ¾ Ø±
ĠØ§ÛĮ Ø§ÙĦØ§Øª
Ùĩ Ø§
ĠÚ© Ø±
ÙĨ Ø§
ĠØ¨Ø§Ø´ Ú¯Ø§Ùĩ
Ø´ Ú©
ĠÙħ Ø¬
ĠÙħ Ø±
ĠÙĪ ÛĮ
ĠÙĨ ÙĪ
ĠØ¬ Ùħ
Ú¯ ÛĮ
Ø¯ ÛĮ
ÙĪÙĨ ÛĮ
Ø§ ÙĤ
Ø³Øª Ùĩ
a n
ĠØ§ÛĮØ± Ø§ÙĨ
Ø´ ÛĮ
ĠØ¯ ÙĪØ±
Ùħ ÙĪ
ÙĪØ± Ø¯
Ġ s
ÙĨØ¯ Ú¯Ø§ÙĨ
ĠÙĤ Ø±
ĠØ³ ÛĮ
Ø¹ Ùĩ
Ġ Úĺ
e r
ĠØ º
ĠÙħ Ø±Ø¯
ĠØ§ Ø±
i n
ĠÙĨ ÙĤ
Ġ p
ĠÚ© ÙĨØ¯
ĠØ¢ ÙĦ
Ġ t
ĠÚ© Ø´
Ġ c
Ùħ Ø§ÛĮ
ĠØ³ Ø§
ĠØ¹ ÙĨ
ÙĪ Ø§
Ø´Øª Ùĩ
Ùħ Ø¯
ĠØ§ÙĦ Ùħ
ĠØ¯Ø§Ø± Ø¯
ÙĪ Ø³
ĠÙħ ÙĤ
ĠØ¯Ø§ÙĨ Ø´
ĠØ¹ÙĨ ÙĪØ§ÙĨ
Ùħ ÛĮÙĨ
o n
ÛĮ Ùĩ
Ø¯ Ø§
ĠØ§ ÙĨØ¯
ĠÙ¾ Ø³
Ġ a
ĠØª ÙĪØ§ÙĨ
Ġ ÙĦÛĮ
ÙĤ Ùĩ
ĠØªÙĪ Ø³
Ø§Ùħ Ùĩ
ĠØ¯ Ø³Øª
ÙĨ ÙĪ
ĠØ§ ÙĨÚ¯
Ø¨ Øª
Ø¹ ÛĮ
Ùģ ÛĮ
ÙģØª Ùĩ
Ġ m
Ø¨ Ø§ÙĨ
Ø§ÙĨ Ø³
ĠÚ© ÙĪ
Ø¨ Ùĩ
Ø² Ùĩ
Ø§Ùħ ÛĮ
Ø§Ø± Ø§ÙĨ
ĠØ³ Ø§Ø²
Ø§ Ù¾
o r
Ġ ÙĪØ±
ĠÙĨ Ø¸
ĠØ¨ ÛĮØ±
ĠØ¬ Ùĩ
Ø§Ø± Ø¯
Ø§ÙĨ Ø¯
ĠØ§ Ø¹
e n
ĠÚ¯ Ø°
ĠÚ© Ùħ
ĠØ´ Ùħ
ĠÙĪ Ø§ÙĤ
Ø§ Ø·
ĠÙħ ÙĦÛĮ
ĠØ§ ÙģØ±
Ø§Ø±ÛĮ Ø®
Ø¬ Ùĩ
Ø§Ø± ÙĩØ§ÛĮ
ĠÙĨ Ø´
ĠØ´ÙĩØ± Ø³ØªØ§ÙĨ
ĠØ¨Ø§Ø²ÛĮ Ú¯Ø±
ÙĪÛĮ Ø³
ĠØ¨ Ø®
ĠØª Ø§Ø±ÛĮØ®
ĠØ§ Ùģ
ÙĪ Ø¦
ĠØ¨ ÛĮÙĨ
ĠØ§ÙĨ Øª
ĠÙ¾ÛĮ ÙĪÙĨØ¯
ĠØ¨ÛĮØ± ÙĪÙĨ
ĠÚ©Ø± Ø¯Ùĩ
ĠÙĨÛĮ Ø²
Ġ f
ĠØ§ÙģØ± Ø§Ø¯
ĠØ§ Øµ
ÙĨ ÛĮÙĨ
Ø¬ Ø±
Ø±Ú© Øª
ĠØªÙĪØ³ Ø·
ÙĪ Ø´
a r
ĠÙ¾ Ø§ÛĮ
ĠÙĪØ§ÙĤ Ø¹
ĠØ³Ø§ Ø®Øª
Ġ b
Ġ j
ĠØ§ Ø´
ĠØ¯ Ø§Ø¯
ĠØ§ Ú©
ĠÙĤØ± Ø§Ø±
ĠÙĩ Ø±
ĠÙ¾ÛĮ Ø´
ĠÚ© ÙĦ
ÙĪ Ú©
ĠÙĩÙħ ÚĨ
ÙĨ Ø§ÙħÙĩ
ÙĪØ± Øª
Ø² Ø§Ø±
ĠØ§ Øª
ĠØ§Ø³Øª Ùģ
Ø ¢
ĠÙħ Ùĩ
ĠØ§ ÙĪÙĦ
ĠØ² ÙĨ
ĠØ¨Ø§Ø´ Ø¯
Ø§Ø¯ Ú¯Ø§ÙĨ
Ø§Ø± Ú©
Ġ d
ĠØ§ Ø¯
ĠØ³ Ø¯Ùĩ
ĠÙħ Ø´
e s
ĠØª ØŃ
ĠØ§Ø³ØªÙģ Ø§Ø¯Ùĩ
Ùħ Ø§ÙĨÛĮ
ÛĮÙĨ ÛĮ
Ø² Ø±
Ùĩ ÙĨÚ¯
ĠØ¬ Ø§ÛĮ
ĠÙĪ Ø§Ø¨
a l
ĠØª ÛĮÙħ
ĠØ¬ Ø³Øª
Ø £
Ùħ ÙĨ
ĠØ´ Ø±Ú©Øª
ĠÙĪØ§Ø¨ Ø³ØªÙĩ
ĠØ² Ø§Ø¯Ú¯Ø§ÙĨ
ÙĩØ± Ø³Øª
Ø¹ Ø¯
ĠÙģ ÙĩØ±Ø³Øª
Ø§ ØŃ
ĠØ¹ Ùħ
Øª Ø§Ø¨
ĠØ¹ ÙĦ
ĠØª ÙĦ
Ù¾ ÛĮÚ©
ĠØ´ ÙĨØ§
ĠÚ©Ø´ ÙĪØ±
ÙĪ Ùĩ
Ø¨ Ø§Ø±
Ú¯ Ø°
Ú© Ùĩ
ÛĮØ± ÛĮ
Ø¯ Ø±
a t
ĠÙĨ ÙħØ§ÛĮ
ĠØ§ÙĦÙħ Ù¾ÛĮÚ©
ĠØ² Ø¨Ø§ÙĨ
ĠØ¬Ø³Øª Ø§Ø±ÙĩØ§ÛĮ
ĠØ± ÙĪÛĮ
ÛĮ Ø³
ĠØ³ Ù¾
Ùģ Ø§
Ø³Øª ÙĨØ¯
ÙĪ Ø¨
ÙĪ Ø²
ĠØ¬ ÙĨÚ¯
Ùħ Ø§
ÙĦ Ø³
Ø§Ùħ ÙĦ
ĠØ¨ ÙĪ
ĠØ¢ Ø¨
ĠØ¯Ø§ÙĨØ´ Ú¯Ø§Ùĩ
ĠØ´ Ú©
ĠØ¨Ø® Ø´
ĠÙĨÙĤ Ø´
Ø¹ ÛĮØª
Ġ w
Øª Ø´
Ø® Øµ
Ùģ Ùĩ
ĠÙĪØ± Ø²
ĠØ¨ ÙĦ
Ø§Ùħ Ø¨Ø±
Ø³Øª Ø§ÙĨÛĮ
l e
Ø¬ ÙĪØ¯
ĠÙĨ ÙĪÛĮØ³
ĠØ¯ÛĮ Ú¯Ø±
Ġ h
ĠØ± Ø³
ĠÙĩÙħÚĨ ÙĨÛĮÙĨ
Ø´Øª ÛĮ
Ġ r
ĠÙģØ± Ø§ÙĨØ³
Øµ Ø±
ĠØ¢ Ø±
ĠØ¨Ø§Ø²ÛĮÚ¯Ø± Ø§ÙĨ
ĠÛĮÚ© ÛĮ
ĠØ´ Ø±
Ø± Ø¨
ĠØ² ÛĮØ±
ĠÚ© ØªØ§Ø¨
Ġ o
Ú¯ Ø±Ø¯
ĠØ¨ Ø²Ø±
ĠØ§Ø³Øª Ø§ÙĨ
Ø§ÙĨ ÛĮØ§
Ø§ Ø´
ĠÚ©ÙĨ ÙĨØ¯
ĠÙħØ¯ Ø§ÙĦ
i s
ĠØ² ÙĨØ¯
ĠØ¯Ø§ Ø´Øª
ĠØ² Ø§Ø¯Ùĩ
ÙĨ Ø±
ĠØ±ÙĪ Ø²
ĠÚ¯ Ø±ÙĪ
ĠÙħ Ú©
ĠØ® ÙĪ
Ùħ Øª
ĠØª ÙĨ
Ú© ÛĮ
ĠØ² ÛĮ
ĠØ§Ùħ Ø§
ĠÙħØ¬ ÙħÙĪ
ĠÙħ Ø§ÙĨ
ĠÚ¯ Ø±Ø¯
ĠÙħ Ø±Ú©
Ø§ Ùģ
ĠØ§ ÙĤ
ĠÙħ ÙĪØ±Ø¯
ĠÙĩØ§ÛĮ ÛĮ
ÙĨ Ø¬
ĠØ´ÙĩØ± ÙĩØ§ÛĮ
ĠØ§ÙĨ Ø¬
ĠØ¨ Ø¯
ĠØ¢ÙħØ±ÛĮÚ© Ø§ÛĮÛĮ
Ø± Ø§Øª
ÙĪÙĨ Ùĩ
i c
Ġj p
ĠÚ¯Ø±ÙĪ Ùĩ
i t
ĠÙħÙĨ Ø·
ĠÙĦÛĮ Ú¯
ĠØ³ ÙĪ
ĠØ² ÙĨØ¯Ùĩ
Ġ g
ĠØ±ÙĪ Ø³Øª
Ġjp g
ĠØ® Ø§ÙĨ
ĠØµ ÙĪØ±Øª
Ø§Ùĩ ÛĮ
Ø± Ùĩ
Ø· ÙĨ
ĠØ¬Ùħ Ùĩ
ĠØ§ ØŃ
ĠØ¨ ÙĨ
ĠØ «
Ú© ÙĨ
h e
ĠØ¬ Ø§Ùħ
ĠÙĨ Ùħ
ĠØ§Ø³ ÙĦ
Ġ l
Ġ n
ĠØ¨ Ø³ÛĮ
ØªØ± ÛĮÙĨ
ĠÙĨ ÙģØ±
ÙĪØ¯ ÛĮ
ĠØ¨ Ø§Ø±
Ø§ÙĦ ÛĮØ§
ĠØª Ø£
ĠÚĨ Ùĩ
ĠØ¯ ÙĪÙħ
ĠØ± ÛĮ
ĠÚ¯Ø° Ø§Ø±ÛĮ
Ø§Ø² ÛĮ
Ø§ÛĮ Øª
ĠØ¨Ø²Ø± Ú¯
ÙĪÛĮ Ø²ÛĮ
ĠØ¬ ÙĨÙĪ
ĠØ§ Ø¬
ĠØªÙĦ ÙĪÛĮØ²ÛĮ
ĠØª Ø±Ú©
ĠØ§Ùĩ Ø§ÙĦÛĮ
ĠØ¯ÙĪØ± Ùĩ
ĠØ¨ ÙĨÛĮ
e d
ÚĨ Ùĩ
ĠÙħÙĨØ· ÙĤÙĩ
ĠØ¨ÙĪ Ø¯Ùĩ
Ø´ Ùħ
Ø§Ø± Øª
ÙĨØ¯ ÛĮ
ĠØ§ÙĨÚ¯ ÙĦÛĮ
ĠØ¯Ø± Ú¯Ø°
ÛĮÚ© ÛĮ
Ø§ÙĦ Øª
ĠØª Øµ
ĠÙĨ Ø³
Ø® ÛĮ
ÛĮÙĨ Ú¯
ĠÚ¯ ÙĦ
ĠØ´ ÙĪØ±
ĠÙĩ Ø³ØªÙĨØ¯
Ø¨ Ø¯
ĠÙĪ Ø¬ÙĪØ¯
ĠØ² ÙħÛĮÙĨ
Ø§ÙĨ Øª
ĠØ¯Ø± ÛĮØ§
ĠØ³ ÙĨ
ĠØ ¶
ĠØ³ ÛĮØ§
ĠÙģ Ø¹
ĠÙħÙĪ Ø³ÛĮ
ĠØ§Ø³ Ù¾
Ø² Ø¯
ĠØ¢ ÙħÙĪ
ĠØ¨ Ø§ÙĦ
Ø§Ø¨ Ø±
ĠØ¨Ø± ÛĮØª
ĠØ² ÙħØ§ÙĨ
ĠØ³ ÙĦ
ÙĨ Ùĩ
ĠÙģØ±Ø§ÙĨØ³ Ùĩ
ĠÙĩ ÛĮ
ĠØ¢ Ø«
Ø± Ø§ÙĨ
Ø« Ø±
ĠØ³ Ùĩ
ĠØ¯Ùĩ Ùĩ
ĠØ¢ Ø²
ÙĦÛĮ Ø¯
ØŃ ÛĮ
Ø´ ÙĨ
ĠØ§ÙĨÚ¯ÙĦÛĮ Ø³ÛĮ
ĠØ§ÛĮ Øª
ĠØ¢ ÙĪØ±
ÙĤ ÙĦ
ĠØ¢Ø« Ø§Ø±
ÙĨØ¯ Ø§ÙĨ
Ø§Øª ÛĮ
Ø¹ Øª
Ø§ Ø¦
ĠØŃ Ø³
ĠØ¯ Ø§Ø¯Ùĩ
Ø¨ ÙĪ
ĠÙħØ¬ÙħÙĪ Ø¹Ùĩ
ĠØ¯Ùĩ Ø¯
ĠØ¬ÙħÙĩ ÙĪØ±ÛĮ
Ø³Øª Ø±
ĠØ¯Ø±Ú¯Ø° Ø´Øª
ĠÚ¯Ø± ÙģØª
ĠØ§Ø´ Ø§Ø±Ùĩ
ĠØ¬Ùħ Ø¹ÛĮØª
ĠÙħÙĪØ³ÛĮ ÙĤÛĮ
ĠÚĨ ÙĨØ¯
ĠÙħØŃ ÙħØ¯
Ùħ Ùĩ
ĠØ¨ÛĮ Ø´Øª
ĠÙģØ± ÙĪØ¯
ĠØ¹ ÙĦÛĮ
ĠØ´ ÛĮ
Ø§ Øµ
ĠÙĨ ÛĮØ±
ĠØ´ Ùĩ
Ø§Ø¨ ÙĦ
ÙĪÙħ ÛĮ
ĠØ® ÙĪØ§ÙĨ
Ø³ Ú©
ĠØ¢ÙĦ ÙħØ§ÙĨ
ĠÙĨ Ú¯
ÙĩØ± Ø§ÙĨ
ĠÙģØ¹ Ø§ÙĦ
ÙĪÛĮ ÛĮ
Ø¯ ÛĮØ¯
ĠØ¬Ùĩ Ø§ÙĨÛĮ
ĠØ§ÙĨÚ¯ ÙĦ
ÙĪÙĨ Ø¯Ùĩ
ĠØ´ Ø§Ùĩ
Ø¨ Ø§
ĠÙĨ Ø®
ĠØ´ ÙĪÙĨØ¯
ĠØªÙĦÙĪÛĮØ²ÛĮ ÙĪÙĨÛĮ
ĠØ²ÙĨØ¯ Ú¯ÛĮ
ĠØ± Ø§Ùĩ
Ø¶ Ø§
ĠØ´ Ø¨
ĠØ¯ ÙĪÙĦ
Úĺ Ùĩ
Ø§Ø¯ Ø±
ĠÚ© Ø§ÙĨ
ĠØ¨ÙĨÛĮ Ø§ÙĨ
Ġt he
ĠÙħ Ø§Ø±
ĠÙħØª Ø±
ĠÙĩ ÙĨØ±
ĠØ¨Ø± Ø¯
ĠÚ©Ø§Ø± Ú¯Ø±Ø¯
ĠÙħ Ø·
ĠØª Ø§Ø¨
Ø§Ø¨ ÙĤ
ĠØª ÙĩØ±Ø§ÙĨ
ĠØ§ÙĨÚ¯ÙĦ Ø³ØªØ§ÙĨ
ĠØ³Ø§Ø² ÙħØ§ÙĨ
Øª Ø¨
ĠÚ©Ø±Ø¯ ÙĨØ¯
ĠÙģØ± ÙĩÙĨÚ¯
Ø³ Ùĩ
e l
ĠÙħ ÙĦ
Ø³ Ø§ÙĨ
ĠØ¢ Ùħ
ĠØ³ Ø·
ĠØŃ Ø¯
ĠÙĨ Ùĩ
Ø¬ ÛĮ
Ø±ÛĮ ÙĤ
ÙĦÛĮ ÙĦ
Ø§ÛĮ Ø´
ĠÙĪ Ø·ÙĨ
Ú¯ Ø±ÛĮ
ĠØ¬ ÙĪ
ĠØª Ú©
Ø¨ Ø±ÛĮ
ĠØ¢ÙĨ ÙĩØ§
Ø®Øª Ùĩ
ĠØªÙĪ ÙĦÛĮØ¯
ĠÙģØ±ÙĪØ¯ Ú¯Ø§Ùĩ
ÛĮÙĨ Ùĩ
a s
ÛĮÙħ ÛĮ
ĠØ¬ ÙĨ
Ø§ÛĮ ÙĨ
ĠØ§Øµ ÙĦÛĮ
ĠØ§ÙĨØ¬ Ø§Ùħ
ĠØ¬ Ø§ÙĨ
ĠØª ÙĤ
ĠØ® Ø·
ĠÙĨØ´ Ø§ÙĨ
ĠØ± Ø³ÛĮ
Ø§ÛĮ Ø¯
ĠØ¨Ø± ÙĨØ¯Ú¯Ø§ÙĨ
ĠØ¢ Ø³ÛĮ
ĠØ¨Ø± ÙĨØ§ÙħÙĩ
u s
ĠØ®ÙĪ Ø§Ùĩ
ĠØ¬Ø§ÛĮ Ø²Ùĩ
ĠÚĨÙĩ Ø§Ø±
ĠÚĺ Ø§Ù¾
ĠÚ¯Ø± ÙģØªÙĩ
Ġ i
Ø§ Ø®
ĠØ¨ÛĮØ´Øª Ø±
ĠØŃ Ø§ÙĦ
ĠÙģ Ø§Ø±
ĠØ§ Ø·
Ø¶ ÛĮ
Ġ k
ÙĦ ÙĪ
o m
ĠÙ¾Ø± ÙĪÙĨØ¯Ùĩ
Ø¨ Ø§Ø±Ùĩ
Ø§Ø² Ùĩ
Ø® Ø§Ø¨
Ġo f
ÙĦ ÙĨØ¯
Ø§ÛĮ Ø±
ĠØº ÛĮØ±
u r
i on
Ø± Ø¨ÛĮ
ĠØªØ± ÛĮÙĨ
ĠÚ© ÛĮÙĦ
ĠÙĨØ¸ Ø±
Ø¹ Ø§Øª
ĠØ§ Ø±ÙĪ
ĠÙĪØ±Ø² Ø´Ú©
ĠØ¯Ø§ Ø´ØªÙĩ
Ø¨ ÙĦ
ĠØ¯Ø§Ø± Ø§ÛĮ
ĠÙħÙĨ Ø§Ø·
u n
Ú© Ø³
ĠÚ¯ ÛĮØ±
ĠØª Ø¹
ĠØ· ÙĪØ±
Ġ in
ĠÙħØ§ÙĨ ÙĨØ¯
Ø´ Ùĩ
Ø³ Ø±
ĠÙħØ³ Ú©
Ø® Ø§ÙĨÙĩ
ĠØ¨ Ø¹Ø¯
ĠØ§ÙĦÙħ ÙĦ
ĠØ¬ Ø²
ĠØŃ Ùħ
ÛĮ Ø²
ĠÙĤ Ø·
Ø± Ùģ
ĠØ¨Ø±ÛĮØª Ø§ÙĨÛĮØ§
ĠÙħÙĨØ§Ø· ÙĤ
Ú© Ø±
ĠØ§ÛĮØª Ø§ÙĦÛĮØ§
Ø´ Ø§Ø±
a m
an d
ĠÙħ Ø§Ùĩ
o l
ĠØ§ÙĪÙĦ ÛĮÙĨ
ĠÙ¾ Ø±Ø¯
i l
Øº ÛĮ
ĠÙħØ¹ Ùħ
ĠØ§ÙĨØª Ø®Ø§Ø¨
ĠÙħ Ø®Øª
Ġ v
ĠØ³Ø· ØŃ
ĠØ¬Ùĩ Ø§ÙĨ
ĠØ± ÙĪØ¯
ĠÙĨØ® Ø³Øª
ĠØ§Ø³ Ú©
ĠØ¨ÙĪØ¯ ÙĨØ¯
Ø³Øª Ùħ
Ø§ Ú¯
ĠØ¨Ø± Ú¯
Ù¾ Ø§
ĠØ´ Ø®Øµ
ÙĪÙĨ Øª
ĠØª Ùħ
ĠÚ© ÙĦÛĮ
ĠÛĮ ÙĪÙĨ
ĠÙĨØ§Ùħ Ùĩ
Ø· Ùĩ
ĠÙ¾ Ø±ÙĪ
ÛĮØ± Ùĩ
ĠÚ© Ø§Ùħ
Øµ ÛĮ
Ø¯Ùĩ Ø§ÛĮ
ĠØ· ÙĪÙĦ
ĠÙĤ ÙĩØ±
Ø¨ Ø¹
ĠØ¯Ø±Ú¯Ø°Ø´Øª Ú¯Ø§ÙĨ
Ø¨ Ú©
ĠØ± Ø¦
ĠØ§ Ø«Ø±
ĠÙĪØ±Ø²Ø´Ú© Ø§Ø±Ø§ÙĨ
ĠÙħÛĮ Ø§ÙĨ
Ø± Ùħ
ĠÙĪ Ø²
Ù¾ ÛĮ
Ø³Øª ÛĮ
ĠØ¢ Øº
ĠØ °
ĠÙĩ ÙĨØ¯
ĠØ³ Ø±ÛĮ
Ø¶ Ø§ÛĮ
ĠØªØ§Ø¨ Ø³ØªØ§ÙĨÛĮ
Ġ e
ĠÙĤ ÙĦ
Ø¯ Ùħ
ĠÙĩ ÙħØ±
i a
ÙĪ ÙĦÛĮ
ĠØ¬ÙĨÙĪ Ø¨ÛĮ
ÙĨ ÛĮØ§
ÙĪ ÙĤ
Ø¯ Ø§ÙĨ
ĠÙħ Ø³Øª
ĠØ§Ùģ Ø²
Ø³ Ùħ
Ø¨ Ø±Ø¯
ĠØª Ø¬
ĠØ¯ ÙĦ
ĠØ¢ ÙĩÙĨÚ¯
Øµ ÙĦ
ÙĪÛĮ Ùĩ
ĠØ§ Ø®Øª
Ø¶ ÙĪ
ĠØ¨Ø§Ø²ÛĮÚ© ÙĨ
ĠØ¨ ÛĮÙħ
ĠØ§ÙĦÙħÙĦ ÙĦÛĮ
ĠØ¨Ùĩ ØªØ±ÛĮÙĨ
ĠÙħØ³Ú© ÙĪÙĨÛĮ
Ø§ÙĦ Ùĩ
Ú© ØªØ±
ĠÙģ ÙĦ
ĠÚ© ÛĮ
Ø¬ Ø§Ø¯
Ø±Ø§ Ø¦
ĠØ´ Ø§ÙħÙĦ
Ø¯ Ø§Ø±
ĠÚĺØ§Ù¾ ÙĨ
ĠØ´ÙĨØ§ Ø³ÛĮ
ĠØ´Ø¯ ÙĨØ¯
ĠÙħÙĨ ØªØ´
ĠØ¢Øº Ø§Ø²
ĠÚ¯ ÙĪ
ĠÙģØ¹Ø§ÙĦ ÛĮØª
Ø® Ùĩ
Ø§ ÙĪØ±
Ø§ Ø¬
ĠØ² ÙĨØ§ÙĨ
ĠÙħÙĨØªØ´ Ø±
ĠØ§ÛĮ Ø¬Ø§Ø¯
ĠÙħ Ø«
ĠØ¯ÙĪÙĦ Øª
ĠØ³ Øª
ĠØ¨ Ø¹
ĠÙĨ ÙħÛĮ
ÙĪ Ùģ
ĠØ®Ø§ÙĨ ÙĪ
ÙĪÙħ Øª
ĠÙħØ±Ø¯ Ùħ
ĠÙĨÙħØ§ÛĮ Ø´
e t
ĠÙĩ ÙĪØ§
ĠØŃ Ú©
ĠØ¯ ÙĦÛĮÙĦ
ÙĪ ÙĩØ§ÛĮ
ĠØ¨Ø± Ø®ÛĮ
Ø§ÛĮ ÙĦ
ĠØª Ùĩ
ÙĨ Øª
Ø§Ùĩ Ø§ÛĮ
ĠÙĩÙħØ± Ø§Ùĩ
ĠØ« Ø¨Øª
ĠÚ© Ø§
ĠØ± ÙģØª
ĠØµ ÙĨ
Ø´ Ø§ÙĨ
ĠØ§Ø³ÙĦ Ø§ÙħÛĮ
ĠØ±ÙĪ Ø³ÛĮ
Ø³ ÙĦ
Ø² Ø¨
ĠØ³ÛĮ Ø§Ø±Ú©
ĠØ³ ÛĮÙĨ
ĠØ¨Ø³ÛĮ Ø§Ø±
ĠÚĺ ÙĪØ¦
Øµ Ø¯
ĠÙħ Ø®
Ø¯ Ø§Ùħ
ĠÚ©ÙĪ ÚĨ
ĠÙĩ ÙĪ
ĠÙ¾ ÛĮØ±
ĠØŃ ÙĤ
ĠÙħ Ø±Ø§
ĠØª ØºÛĮ
ÙĦ Ùģ
Ø§Ø¨ ÛĮ
ĠØ´ ÙĨ
in g
ĠØ§ÛĮØ± Ø§ÙĨÛĮ
ĠØ® Ø§Ø±
Úĺ ÛĮ
c h
ĠÚĺ Ø§ÙĨ
ĠØªØºÛĮ ÛĮØ±
ĠÙĨ Ø§
ĠÙħØ±Ú© Ø²ÛĮ
Ø§ÙĨ Ú©
Ú¯ ÛĮØ±ÛĮ
ĠØ¯Ø± Ø¨Ø§Ø±Ùĩ
i r
ĠØ¯Ø§Ø± ÙĨØ¯
ĠØª Ø¨Ø§Ø±
ĠØ³ ÙĨÚ¯
Ú¯ Ø²
ĠÙħØ±Ú© Ø²
Ú© Ø§ÙĨ
ĠÙħ Ùħ
ĠØ§ Ø¬Ø±
Ø§Øª Ø±
ÛĮØª ÛĮ
ĠØ±Ø¦ ÛĮØ³
ĠØ´Ø¯ ÙĨ
Ġp x
ĠÛĮØ§ ÙģØª
ĠÙħ ÙĩØ§
ĠÚ©ÙĪ Ùĩ
ĠØ§ Ú¯Ø±
ĠÚ©Ø±Ø¯ ÙĨ
ĠØ³ ÙĪÙħ
ĠÙħØ¯ ÛĮØ±
r o
ĠØ¬ ÛĮ
ĠØ³Ù¾ Øª
ĠØ¢ÙħÙĪ Ø²
ÙĪ Ø³Øª
ÙĪØ± Ø´
ĠØ´Ú© ÙĦ
ĠÙĨ Ø²Ø¯
ĠØ³Ù¾Øª Ø§ÙħØ¨Ø±
ĠØ³Ø§Ø² ÛĮ
ĠØ±Ø³ÛĮ Ø¯
Ø¬ Ø§
ĠØª ÛĮ
ĠÚ© Ø´ØªÛĮ
Ø³ ÙĨ
Øª Ùħ
ĠÙ¾ Ø§Ø¯
ĠØ³Ø§Ø®Øª Ùĩ
ÙĦ Ø§Ùħ
Ø§ Ø³ÛĮ
ĠØ¬ Ø¯ÛĮØ¯
ĠÚ¯ ÙĪÙĨÙĩ
ĠÙħÛĮ ÙĦÛĮ
ĠØ§ Ø¨
ÙĪØ± Ú©
Øª Ø¨Ø±
ĠØª Ø´Ú©
ÙĪÛĮ Ø¯
ĠÙĩ ÙħØ§ÙĨ
Ù¾ Ø±
ĠØªÙĨ ÙĩØ§
ĠØ® ÛĮ
ÛĮØ§ Ø²
ĠÙħØ³ Ø§Ø¨ÙĤ
ĠÙģØ± ÙħØ§ÙĨ
ĠØ¯Ø§ Ø³ØªØ§ÙĨ
ĠÙ¾ Ø§ÙĨ
Ø ¤
ĠØ§ÙĤ Øª
ĠØ¬Ùħ ÙĦÙĩ
ÙĪØ±ÛĮ Ùĩ
a g
a d
i d
Ú© Øª
Ø§ÛĮ Ø¬
ĠÙħØ³Ø§Ø¨ÙĤ Ø§Øª
ĠÙĨÙĪÛĮØ³ ÙĨØ¯Ú¯Ø§ÙĨ
ĠÙ¾ ÙĨØ¬
ĠØ³ Ùģ
ĠØ³ ÙĪØ¦
ĠÙĩ ÙĨÚ¯
ĠØ® Ø§ÙĨÙĩ
ĠÙ¾ Ø§Ø±
ÙĪÙĦ Ø§
ĠØ¯ÙĪØ± Ø§ÙĨ
ĠØ¢ÙĦ Ø¨
ĠØµ Ùģ
ĠØ§Ø³Øª Ø±
ĠØ ¸
ĠØªØ§Ø±ÛĮØ® ÛĮ
ĠØªÙĪØ§ÙĨ Ø¯
ĠØ±ÙĪ Ø´
ĠÙĩÙħ Ùĩ
ĠØ³ÛĮØ§ Ø³Øª
ĠØ±ÙĪØ³ÛĮ Ùĩ
ĠØ³ÛĮ Ø³ØªÙħ
ĠØªØ´Ú© ÛĮÙĦ
Ø¯Ø§ Ø´Øª
ÙĦØ§ ØŃ
ĠØª Ø¹Ø¯
Ø±ÛĮ Ø§ÙĨ
Ø§Ú© ÙĨ
ĠØ¯Ø± ÛĮ
ĠØ¨Ø± Ø§Ø¨Ø±
ĠØ§Ø³Ù¾ Ø§ÙĨÛĮØ§
ĠÙħØ¬ ÙĦØ³
ĠÙħ Ø§
ĠØ§ ÙģØª
ĠØ§Ø· ÙĦØ§
ĠØ´Ø¨ Ú©Ùĩ
ĠØªØ± Ø§ÙĨÙĩ
ĠÙģ Ø±Ø¯
ĠØ§Ø±ÙĪ Ù¾Ø§
ĠØ¨Ø³ÛĮ Ø§Ø±ÛĮ
ÙĤÛĮ ÙĤ
Ø±Ø§ Ùģ
ÙĪÙħ ØªØ±
Ø¨ ÙĪØ±
ĠØŃ Ø¶
ĠÚ¯ ÙģØª
ĠÙħØ¯ Ø±
ĠÙĤ Ø§ÙĨ
ĠÛĮ Ø§Ø¯
ĠØ¢ Ùģ
ĠÚ©ÙĨ ÙĨØ¯Ùĩ
ÙĪ Ø§Ø±
r e
ĠØ¯Ø±ÛĮØ§ ÙģØª
ĠØ¢ Ø°
ĠÚ¯ ÛĮ
ĠØªÙĪ Ø¬Ùĩ
ĠÙĪ ÙĤ
ĠØ§Ú© ØªØ¨Ø±
ĠÙ¾Ø§ÛĮ Ø§ÙĨ
ĠØ¨ÛĮ Ø´
ĠÙĨØ¸ Ø§ÙħÛĮ
ĠØ¨ Ø§ÛĮØ¯
ĠØ´ ÛĮØ±
ĠÙĤ Ø¯Ø±
ĠÙĪ ÙĦ
ÙĦ ÙĤ
ĠØ§ÙĤØª Øµ
ĠÙģ ÛĮ
Ø§Ø¯ Ø§
ĠÚ© ÙĪØ¯
ĠØ¨Ø± ÙĨØ¯Ùĩ
ĠÙĨÙħ ÙĪØ¯
Ø± Ø²
ĠÚ© Ø±ÛĮ
ĠØ¯ ÛĮØ¯
ĠÙ¾ ÙĦ
Ġs t
Ø± Ø³ÛĮ
ĠÙĨØ®Ø³Øª ÛĮÙĨ
ĠØŃØ¯ ÙĪØ¯
ĠØ· Ø±Ø§
ĠØªØŃ Øª
Ø³ ÙĪÙĨ
ÙĨ Ø²
ĠØ´Ùħ Ø§Ø±Ùĩ
ĠØ¯Ø± Ø§Ùħ
ÛĮØ¯ Ø§
o s
Ø¯Ùĩ Ø§
ĠØ§ ÙĪØª
ĠÙĨ ÙĪØ±
Ø´ Ø¯
ĠÛĮ Ùĩ
en t
Ø±ÛĮ Ùĩ
Ø³ÛĮ Ø³
ĠÚĨ ÛĮÙĨ
ĠÚ©ÛĮÙĦ ÙĪÙħØªØ±
ĠÙħ Øµ
Ùģ ÙĤ
ĠØ³ÛĮØ§ Ø³ÛĮ
Ø ¡
ĠØ§ ÙħØ±
ĠØ¯Ø§ Ø®
ĠØ± Ùĩ
a c
ĠÚ© Ø³
Øª ÙĤ
ĠÙħØ± Ø¨ÙĪ
ĠØªØ±Ú© ÛĮ
Ø§Ø¨ Øª
ĠÚ©Ø± Ùĩ
ÚĨ ÛĮ
ĠÙ¾Ø§ÛĮ Ùĩ
ĠØŃ Ø²Ø¨
ĠÚ©Ø§Ø±Ú¯Ø±Ø¯ Ø§ÙĨÛĮ
u t
ĠØ§Øª ØŃ
ĠÙħØ± Ú¯
ĠØ§Ùħ Ù¾
ĠØ§Ø¹ Ø¶Ø§ÛĮ
Øª Ø§
i p
ĠÙ¾Ø§Ø¯ Ø´
ĠØ®Ø§ÙĨÙĪ Ø§Ø¯Ùĩ
ĠØ· Ø¨
ĠÙĪ ÙĦÛĮ
ĠØ§ÛĮ Ø§ÙĦØª
ĠÙĪ Ø§
ĠØ± ÙħØ§ÙĨ
ĠØ§ÙĨØª Ø´Ø§Ø±
ĠØ´ Ø§
ĠÚ¯ ÙģØªÙĩ
ĠØ± ÙĤ
Ø® Ø±
ĠØ¹Ùħ ÙĦ
ĠØ¢ ÛĮ
ĠÚ©Ø´ Ùģ
ĠÙħØ§Ø± Ø³
ĠØŃØ¶ ÙĪØ±
ĠÙħØ®Øª ÙĦÙģ
ĠØ¹ ÙĦØ§
ĠÙħØ±Ø¨ÙĪ Ø·
ĠÙħ ØµØ±
ĠÙģ ØµÙĦ
ĠÚ© ÙĪØª
ĠØ§Ø¬ Øª
ĠØ± ÛĮØ§
Ú¯ ÙĪ
u m
ĠÙĨÙĪ Ø¹
ĠÚ©ÙĪÚĨ Ú©
ĠØ´ÙĨØ§ Ø®ØªÙĩ
ĠØ¨Ø± ØªØ±
ĠØ´Ùħ Ø§ÙĦÛĮ
ĠÙ¾ Ø¯Ø±
ÙĪ ÛĮØ±
ĠÙĤ Ø³
ĠØº Ø±Ø¨ÛĮ
ĠØ¢ÙĦØ¨ ÙĪÙħ
ĠØ¬ÙĨÙĪ Ø¨
ĠØ´ÙĪØ± Ø§ÛĮ
Ú¯ Ø´ØªÛĮ
ĠØ± ÙĨÚ¯
Ø±ÛĮ Ø¯
Ġ and
ĠØª ÙĪØ±
ĠØªÙĩ ÛĮÙĩ
ĠÚ© Ø§ÙĦ
Ø§ÛĮ Ùĩ
ĠÙģØ±ÙĩÙĨÚ¯ ÛĮ
ÙĪÙĦ Ø¯
ĠØ¨ Ø§ÙĦØ§Øª
ĠÙĤ Ø¯
ÙĦ Ø¨
ĠÚ©Ø§Ø±Ú¯Ø±Ø¯ Ø§ÙĨ
ĠØŃ Ø§
Ø± ØŃ
ĠÙĩ Ø¯
ĠÙĩÙħ ÛĮÙĨ
ĠÙĨØ³ Ø¨Øª
ĠØ§Ø³ Ø§Ø³
ĠØ¢Ùģ Ø±ÛĮÙĤ
ĠØŃ ÙĪ
ĠÙĪ ÛĮØ¯
ĠÙħÙħ Ú©ÙĨ
Ú© ÙĦ
ĠØ§ Ø´Øª
ÙĪÛĮ Øª
o t
Ø² Ø´Ú©
ÛĮÙĨ Ø¯
ĠØ´Ùħ Ø§ÙĦ
ĠØ² Ø¯
ĠØ¨Ø¯ ÙĪÙĨ
Øª ÙĪÙĨ
Ø§Ø² Ø§ÙĨ
ÙħØ§ Ø¹ÛĮ
ĠØ´Ùĩ Ø±ÛĮ
ĠÙħÛĮ Ø²
Ø° ÛĮØ±
ĠØ¢ÙħÙĪ Ø®Øª
ĠØ± Ø§ÛĮ
ĠØ§Ø¹ ÙĦØ§Ùħ
ĠÙĤØ³ ÙħØª
ĠØ§ Ø±Ø¯
Ú© Ø§Ø±
Ú¯ ÛĮØ±
Ùħ ÙĨØ¯
ĠÙ¾ ÙĦÛĮ
ĠÙĨÙĪ Ø´ØªÙĩ
ĠØ¨Ø§ÙĦØ§Øª Ø±
ĠÚ© Ø§ÙĦÛĮ
ĠÙħØ± Ø¨ÛĮ
Ø§ÛĮ Ø¹
ĠØ§ÙħÙ¾ Ø±Ø§Øª
ĠØ§ Ø®
ĠÙĤ Ø§Ø¨ÙĦ
ĠÙĨÛĮØ± ÙĪÛĮ
Ø¨ ÛĮÙĨÛĮ
i k
ĠØ¯ Ø³
Ø· ÛĮ
ØªÛĮ Ø¬Ùĩ
Øµ ÙĪ
ĠÙģØ§Ø± Ø³ÛĮ
ĠØ¨ ÙĨØ¯Ø§ÙĨ
ØŃ Ùĩ
ĠØ´ Ø¹
ĠØ§ Ø¨Øª
i le
ĠØ³ ÛĮØ¯
Ø¨ Ø§ÙĨÛĮ
ĠÙħÙĩ Ùħ
ÙĪ Ù¾
ĠØ¨ÙĨØ¯Ø§ÙĨ Ú¯Ø´ØªÛĮ
ĠØ´ÙĨ Ø§Ø³
Ø¹ Ø«
Ø§ Ø®Øª
ĠÙĪ Ø¨
ĠØ§ÙĨØª ÙĤ
Ø§ØŃ ÛĮÙĩ
Ø¯ ÛĮÙĨ
ĠÙĨ ØªÛĮØ¬Ùĩ
ĠØ¯ ÙĨ
ĠØ¨Ø§ Ø¹Ø«
Ú¯Ø± Ø§ÙĨ
ĠÙħ Ø¤
ĠØªÙĪØ³ Ø¹Ùĩ
Ø¨ ÙĪØ¯
ĠÙħØ¹ Ø±
Øª ÙĦ
ĠØ´Ø± ÙĤÛĮ
ĠØªÙħ Ø§Ùħ
ĠÙĪ ÛĮØ±
ĠØ¯ Ø®Øª
ĠÙħØŃ Øµ
ĠÙĨÙĪ Ø§ÙħØ¨Ø±
Ø® Ø´
ĠØŃ Ø±
ĠØ³Ù¾ Ø³
ĠÚĺØ§ÙĨ ÙĪÛĮÙĩ
ĠØ¨Ø§Ø² Ø¨ÛĮÙĨÛĮ
ĠÙĨÛĮ ÙĪÛĮ
ĠØ§ ÙĪØ±
Øº Ø§ÙĨ
ĠØ§ÙģØ² Ø§ÛĮØ´
ĠÙ¾ Ø²Ø´Ú©
ĠØ¯Ø³ Ø§ÙħØ¨Ø±
ĠÙħÙĤ Ø§ÙĦÙĩ
ĠØ® ØµÙĪ
ĠÙĪØ±Ø² Ø´
ÙģØ§ Ø¹
ĠØ® Ø¯
ĠÚ©Ùħ Ú©
ĠÙĪÛĮ ÚĺÙĩ
ĠÙĩÛĮ ÚĨ
ĠØ¯ Ø³ØªÙĩ
i g
ĠÚ¯ Ø³ØªØ±
ĠØ·Ø±Ø§ ØŃÛĮ
ĠØ¨ ÙĨØ¯ÛĮ
ĠØ¬ ÙĪØ§ÙĨ
r a
ĠØ± ÙĪÙħ
ĠØ³ Ø¨
ĠÙĨÛĮÙĪÛĮ ÙĪØ±Ú©
ĠØª Ø¦
ĠÙĨ Ø§ØŃÛĮÙĩ
u l
at ion
ĠØ¢ÙħÙĪØ®Øª Ú¯Ø§ÙĨ
ĠÙħÙĩØ§ Ø¬Ø±
ÙĪÙĦ ÙĪ
ĠÙĤØ± ÙĨ
ĠØ¹ÙĦ ÙħÛĮ
ĠÙĤ Ø¨
ĠØ§Ø¯ Ø¨ÛĮ
ĠÙĤØ§ÙĨ ÙĪÙĨ
ĠÚ©Ø§ÙĨ Ø§Ø¯Ø§
ĠØ§Ø¬Øª ÙħØ§Ø¹ÛĮ
ĠØ¢Ø² Ø§Ø¯
ĠÙĪ Ø§Ø±Ø¯
ĠØ³Ø§Ø®Øª ÙħØ§ÙĨ
ĠØªØ¹Ø¯ Ø§Ø¯
ĠÙ¾ ÙĨ
ĠÙħ Øº
ĠØ´ÙĪØ± ÙĪÛĮ
ĠØ± Ø´ØªÙĩ
ĠÙĨ ÛĮÙħ
ĠØ±ÙĪØ³Øª Ø§
Ùħ Ø§ÛĮÛĮ
ĠØ² ÙħØ§ÙĨÛĮ
Ø±ÙĪ Ùģ
ĠØ¢Ø¨ Ø§Ø¯
ĠØ· ÛĮ
ĠØ´Ø®Øµ ÛĮØª
ĠÙ¾ ÛĮÚ©
ĠÙĨÛĮ Ø³Øª
ĠÚ¯ ÙħØ±
Ùħ Ø²
i v
ĠØ§Ø± ØªØ´
ØŃ ÙĦ
ĠØ· Ø±ÛĮÙĤ
ĠÙĩ Ø²Ø§Ø±
ĠØ§ÛĮÙĨ Ú©Ùĩ
ĠØªØ£ Ø³ÛĮØ³
ĠØ· Ø¨ÛĮ
ĠÛĮÙĩ ÙĪØ¯ÛĮ
ÙĪÛĮ Ø§ÙĨ
ĠÙĩ ÙģØª
ĠØµ ØŃ
ĠÙĪØ² ÛĮØ±
Øµ ÛĮÙĦ
ĠÚ©Ø§ÙĦÛĮ ÙģØ±
ĠØ¢ ÙĪØ±Ø¯
ĠÙħÚ© Ø§ÙĨ
e m
ĠÙħØŃØµ ÙĪÙĦ
ĠØ¹ÙĦ ÙĪÙħ
ĠØ®ÙĪØ§Ùĩ Ø¯
Ø§Ø± Ø³ØªØ§ÙĨ
ĠØµ Ø¯
ÙĦ Ø§Øª
ÙĦÛĮ Ùĩ
ĠØ§Ø¯ Ø§ÙħÙĩ
ÙĨ Ø³
ĠØª Ø¨Ø¯
ĠÙĤ Ø¨ÙĦ
ĠØ¢ ÙħØ¯
ĠØªØ¨Ø¯ ÛĮÙĦ
ĠÚ© Ø§Ùĩ
ĠÚ¯ÛĮØ± Ø¯
ĠØ¢ÙĪØ± Ø§ÙĨ
Ø² ÛĮÚ©
Øª ÙĪ
ĠÛĮ ÙĪ
ĠØ²ÙħÛĮÙĨ Ùĩ
ĠØ³ ÙħØª
ĠØ³ Ø§Ùħ
ĠØ§ÙĦ Ú©ØªØ±
Ø³ÛĮ ÙĪÙĨ
Ø§Ø¨ ÙĤÙĩ
ĠÙĦ Ùĩ
ĠØ¢ÙĪØ± ÛĮÙĦ
ĠØŃÙĤ ÙĪÙĤ
ĠÙĤÙĩØ± ÙħØ§ÙĨ
ÛĮØ¯ ÛĮ
ĠÙħØ· Ø§ÙĦ
Ø§Ú© ÛĮ
Ø¯ Ø§Ø±ÛĮ
ĠÚ©Ø§ÙĦÛĮÙģØ± ÙĨÛĮØ§
ĠÙħ Ø´Øª
Ù Ĭ
Ø±ÛĮ Ùģ
Ø§ÙĨÛĮ Ø§ÛĮÛĮ
Ø« ÛĮØ±
ĠØ¨Ø± Ø²
ĠØ§ÙĨ Ø³Ø§ÙĨ
Øª ÙĨ
ĠÚĨ Ø´Ùħ
ÙĪ ÛĮÙĨ
e c
ĠÙģ ÙĪØ±ÛĮÙĩ
ĠØ²ÛĮ Ø§Ø¯ÛĮ
ĠØ®ÙĪØ¯ Ø±ÙĪ
ĠÙģØ± Ø²
ĠÙĨØ³ Ø®Ùĩ
ĠØ¢ Ø³
ĠÙĪÛĮØ¯ Ø¦
Ø¯ Ø§Ø¯
ĠØ¬ ÙĦ
ĠÚ¯ Ø²Ø§Ø±
ĠØ±Ø³ ÙħÛĮ
ĠÙħ Ø°
ĠØ§ÙĨ ÙĤÙĦ
ĠÙħÙĪ Ø§Ø¯
Ø³ÛĮ Ùħ
ĠÚĨ Ø§Ù¾
ĠØ§Ø·ÙĦØ§ Ø¹Ø§Øª
ĠØ´ ÙĪ
ĠÚ¯ ÛĮØ±ÛĮ
ĠÙĨÛĮØ± ÙĪÙĩØ§ÛĮ
Ø¨ Ø§Øª
ĠØ´ Ø±ÙĪ
ĠÙħÙĪ ÙģÙĤ
ĠÙħ Ø§ÙĦ
ĠØ¹ Ø¶ÙĪ
Ùĩ ÙĨ
Ġc h
ĠØ³ ÙĪÛĮ
ĠØ¨Ø§Ø´ ÙĨØ¯
ĠØ®ÙĪØ§ÙĨ ÙĨØ¯Ú¯Ø§ÙĨ
ĠØ¨Ø§ÙĦ Ø§
ĠØ¯Ùĩ ÙĨØ¯
ĠØ¢ Ø®Ø±
ÙĪ Ø³ÛĮ
ĠÙ¾Ø³ Ø±
Ø§ÙĨ Ú¯
ĠØ³ÛĮ Ø§Ùĩ
Ø¨ Ø§Ø³
ĠÙĨ ÛĮØ§Ø²
ĠÙĩ ÙĨ
ÛĮÚ© Ø³
Ġf ile
ĠØ¹ Ø¨Ø¯
ĠÙĤÙĩØ± ÙħØ§ÙĨÛĮ
i m
ĠØ¹ Ø±Ø§
ĠÙģ ÙĤ
ÙĪÙĨ Ú¯
Ø² Ø¯Ùĩ
ĠÚ©Ùħ Ø¯ÛĮ
ĠØ¬ Ø§
ĠÙħØŃ ÙĦ
Ø§Ùħ Øª
ĠØ® ÙĪØ§
ĠÚ©ÙĨ ÙĨØ¯Ú¯Ø§ÙĨ
ĠÙħØ¹Ùħ ÙĪÙĦØ§
Ø§ÙĨ Ø§
Ø§ØŃ Øª
ĠØ¹Ùħ ÙĪÙħÛĮ
ĠÙħØŃ Ø¯
ĠØŃÙħ ÙĦÙĩ
ĠØ¨ÛĮÙħ Ø§Ø±ÛĮ
ĠÙ¾ Ø§Ø³
ĠÚ© Ø§ÙħÙĦ
Ø³ Ø§
Ùħ ÙĨØ¯Ø§ÙĨ
Ø· Ø§ÙĨ
o p
ĠØŃ ÙĦ
Ø´ ÙĨØ§
ĠÙħØ³ Ø¦
ĠØ§Ø³ÙĦ Ø§Ùħ
Ø¬ Ùħ
ĠØ§Ø³ØªØ± Ø§ÙĦÛĮØ§
ĠØªØ±Ú© ÛĮÙĩ
Ùħ ÙĨÛĮ
ĠØ±ÙĪØ³Øª Ø§ÛĮ
ĠØ³ Ú©
ĠØ® Ø§Øµ
ĠØ§Ùħ ÙĨ
ĠÙ¾ Úĺ
ĠØª Ùģ
ĠØ§Ø± ØªØ¨
ĠØ§Ø±ØªØ¨ Ø§Ø·
t er
Øª Ø¨Ùĩ
ĠØ§Ø³Øª Ø§Ø¯
ĠØ¨Ø±Ø² ÛĮÙĦ
ĠÙĪ Ø³
ĠØ§Ø± Øª
Ø¦ ÛĮ
ĠØ´Ø±ÙĪ Ø¹
ĠØ¯Ùĩ Ø³ØªØ§ÙĨ
ĠÙģ ÙĦØ³
ĠÚ©Ø§Ùĩ Ø´
ĠÙħÛĮÙĦÛĮ ÙĪÙĨ
ÙģØ§ ÙĪØª
Ø¨ ÛĮØ±
Ġ en
ĠÚ¯Ø²Ø§Ø± Ø´
ĠÙħØ¯ Øª
ĠØ± Ø§Ø¨
ĠØ¹Ùħ ÙĦÛĮ
Ø±Ø§Ø¦ Ùĩ
ĠÙ¾ Ø°ÛĮØ±
ĠØ§ Ø±Ø§Ø¦Ùĩ
Ùħ Ø¨
Ø¸ Ùĩ
Ġ y
ĠÙħØ³ Ø§ØŃØª
Ø³ Ø§Ø²ÛĮ
ĠÙħ ÙĪØª
ĠÙħØ³ ÙĦ
ĠØ¯ÛĮ Ú¯Ø±ÛĮ
ĠØ¬ Ø±ÛĮØ§ÙĨ
ĠØ· ÙĦØ§
ĠØ§ÙĨØ¬ ÙħÙĨ
ĠØ§ Ø¨Ø±
Ú© Ø§Ø±ÛĮ
ĠØ¯Ø± Ø¢
ĠÙħ Ø§ÛĮ
ĠØ¢ÙħÙĪØ² Ø´
ĠÚ© Ø¯
ĠØ® ÙĪØ±Ø´
ĠÙħÙĪ Ø¬ÙĪØ¯
ÙĪ Ø²ÛĮ
Ø´Ùħ Ø§Ø±ÛĮ
ĠÙħÙĪ ÙĤ
ĠØ´Ú© Ø³Øª
Ùħ ÛĮØª
ĠØ¹Ø¨Ø¯ Ø§ÙĦ
Ø±Ø§ ÙģÛĮ
ĠÙĨÚ¯ Ø§Ø±
Ù¾ ÛĮÙħ
ÙĪÙĦ Ùĩ
ĠÙĤØ¯Ø± Øª
ĠØ¬Ø§Ùħ Ø¹Ùĩ
ĠÙħ Ø§ÙĦÛĮ
ĠÙħØ´ Ø®Øµ
Ø®Øª ÛĮ
ĠØ§Ùģ ØºØ§ÙĨ
ĠÙħØ¯ ÙĦ
ĠØ¨Ø± Ø®
Ø¬ ÙħÙĩ
ÙĨØ¯ Ú¯ÛĮ
ĠØ® Ø§Ø·
ĠØŃÚ© ÙĪÙħØª
ĠØ±ÙĪØ² ÙĨØ§ÙħÙĩ
ĠØª Ø®
ĠÚ©ÙĪØª Ø§Ùĩ
ĠÙħ ÙĪØ±
ĠÚ©ÙĨ ØªØ±
ĠØ¹ Ø¨Ø§Ø±
ĠÙħØ¹Ø± ÙģÛĮ
ĠÚ©Ø´ÙĪØ± ÙĩØ§ÛĮ
ĠØ¨Ø± Ø¬
ĠØŃØ³ ÛĮÙĨ
Ú© Ø±Ø¯
ĠÙħ Ø³ÛĮ
ĠÙĪ Ø§ÙĦ
ĠÙĩÙĨ Ø±ÛĮ
ĠÚĺÙĪØ¦ ÛĮÙĩ
ĠÛĮ Ø¹
ĠØ· Ø±Ùģ
ĠÙħØ´ Ùĩ
ÙĪØ± Ø§ÙĨ
ĠØ§Ø¹ Øª
Ġa r
ÙħÙĨ Ø³ØªØ§ÙĨ
ĠØ§ÙĨØ¯ Ø§Ø²Ùĩ
ĠØ³Ø± Ø´ÙħØ§Ø±ÛĮ
ĠÚ¯Ø±Ø¯ Ø´
Ġa l
Ø± Ø®
Ø´ ÙĨÙĪ
Ø§ ÙĪ
ĠÙĨÙħ ÙĪÙĨÙĩ
Ø¯ ÙĨ
ĠÙħØ±Ø¨ÛĮ Ø§ÙĨ
ÙĦØ§ Ùģ
ĠØª Ø´
ĠÙ¾ ÛĮØ¯Ø§
Ù¾ Ùĩ
ĠÙĨØ´ Ø¯Ùĩ
Ø³ Ø§ÙĦ
ĠØ´ ÛĮÙħÛĮ
ĠÚĺÙĪØ¦ ÙĨ
ĠØ¯Ø³Øª ÛĮ
ĠØ§ÛĮ Ø³Øª
ĠØ¬Ùĩ Øª
ÙĤ Ø±
ĠØ³ Ø§ÛĮØ±
ĠØ¢Ø° Ø±Ø¨
ĠØ²ÛĮ Ø³Øª
Ġ or
Úĺ ÙĨ
a y
ĠØ¢Ø³ÛĮ Ø§
ĠÙĨØ²Ø¯ ÛĮÚ©
ĠØ® Ø§Ú©
ĠØ¨Ø±Ú¯ Ø²Ø§Ø±
ĠØ¹ Ø±Ø¨
ÙĪØ§ Ø¬
ĠØ¢Ø°Ø±Ø¨ Ø§ÛĮØ¬
Ú© ÙĪ
ĠØ¬ Ø´ÙĨÙĪ
ĠØªØ£ Ø«ÛĮØ±
ĠÛĮØ§ ÙģØªÙĩ
ĠØ¬Ø´ÙĨÙĪ Ø§Ø±Ùĩ
ĠÙģØ±Ø§ÙĨØ³ ÙĪÛĮ
ĠÙħ Ø´Ú©
ĠÙĨÙĪÛĮØ³ ÙĨØ¯Ùĩ
ĠØ¨Ø® Ø´ÛĮ
ĠÙħÙĩ ÙĨØ¯
Ø´ Ø±
ĠØ¨Ø±Ø¯ Ø§Ø±ÛĮ
ĠØ¹Ø±Ø§ ÙĤ
ĠÙ¾Úĺ ÙĪÙĩ
ĠØª ÛĮØ±
ĠØ§ ÛĮÙĦ
o d
ĠØ¯Ø± Ø¬Ùĩ
ĠÙĦ ÙĪ
ÙĨ ÙĪÙĨ
ĠØ³ Ø¹
ĠÙħØŃ ÛĮ
ĠÙħØ¯Ø± Ø³Ùĩ
ĠÙ¾Ø§ÙĨ ÙĪÛĮØ³
ĠØ¬ Ø¯
ĠØ¯ÙĨ Ø¨Ø§ÙĦ
ĠØ³ Ø§ÙĨ
ĠØ¯Ø§ÙĨ Ø§ÙĨ
ed ia
ÙĨØ¯ Ø±
Ø¬ ÙĪ
is t
ĠÙĩ Ø²
ĠÚ©ÙĨØªØ± ÙĦ
ÙĪØ± Ùĩ
or t
ÛĮÙĨ Ø§
er s
ĠÙĩÙĪØ§ Ù¾ÛĮÙħ
Ø§Ø¯Ùĩ Ø§ÛĮ
ĠÚ¯ Ø±ÛĮ
ĠØ¢ÙĦ ÙħØ§ÙĨÛĮ
Øº Ø§ÙĦ
ĠÚ© Ø§Øª
ĠÙĨ Ø¯
ĠØªØ± Ø¬ÙħÙĩ
ĠÙ¾ ÙĪØ´
ĠÚ©ÙĦ Ø§Ø³
ĠØ§ÙĨÙĤÙĦ Ø§Ø¨
Ø§Ø¨ Ùĩ
ĠÙĨÙħØ§ÛĮ ÙĨØ¯Ú¯Ø§ÙĨ
ÙĪÙĨ Ø§
ĠÙħÙĪ Ø¶ÙĪ
Ø§Ùĩ Ø¯Ùĩ
ĠÚ©ÙĨ Ø§Ø±
ĠÙħØ± ØŃ
ĠØ§ÙħÙ¾Ø±Ø§Øª ÙĪØ±ÛĮ
Ø±Ø§ Ú©
ĠÙħÙĨ Ø¸
ĠÙĨ Ø±Ùħ
ĠÚ©Ø³ Ø¨
ĠÙĩÙĪ Ø§ÛĮÛĮ
ĠØª Ø¯
o w
ĠØªØŃ ØµÛĮÙĦ
ĠØ¨Ø± Ø±Ø³ÛĮ
ĠÙħØ¬ÙħÙĪ Ø¹
ĠØ¯Ø®Øª Ø±
ĠÙģ Ø¶
ĠÚĨ ÙĪÙĨ
ĠØ¹ÙĦ Øª
ĠØ§Ø³ Ø±Ø§Ø¦
ĠØ¹Ø¨Ø§Ø± Øª
Ø§Ø¨ Ø§ÙĨ
ĠØªØµ ÙĪÛĮØ±
Ø¦ Øª
Ġd e
ĠØª Ø¨
ĠØ§Ø± ÙħÙĨØ³ØªØ§ÙĨ
ĠØ¯Ø³Øª Ú¯Ø§Ùĩ
ĠÙĨ Øª
ĠÙħ Ø§Ø¯Ø±
Ø³ ÛĮÙĨ
ĠØªØŃ ÙĤÛĮÙĤ
ĠØ± ØªØ¨Ùĩ
ĠØº Ø±Ø¨
Ø§Ùĩ Ø§
ĠØ¯Ø±ÛĮ Ø§ÛĮÛĮ
ĠØªØ¦ Ø§ØªØ±
Ġw ik
ĠÙħÙĤ Ø§Ùħ
Ø§ÙĨ ÙĪ
ĠØ¨ ØŃ
Ù¾ ÙĦ
Ùħ ÛĮÙħ
ĠØ§ØŃ ØªÙħ
ĠÙħØ¹ Ø§
ĠÙ¾ Ø§Ú©
ĠØ¯Ø± ØµØ¯
Ùħ ÙĦ
Ø±ÛĮ Ø´
ĠØ¹ Ø±Ø¨ÛĮ
Øª ÛĮÚ©
ĠÙĩ Ø´Øª
ĠØ§ÙģØºØ§ÙĨ Ø³ØªØ§ÙĨ
ĠØ³Ø± Ø¹Øª
ĠØ¹ Ø±
ĠØ¬Ø² ÛĮØ±Ùĩ
ĠÙ¾ Ø§Ø±Ú©
ĠÙĨÙĪÛĮØ³ Ø§ÙĨ
ĠÙĦ ÙĨØ¯
Ø² ÙħÛĮÙĨ
ÛĮ Ø¯Ùĩ
ĠÙĩØ¯ Ùģ
ĠÛĮØ¹ ÙĨÛĮ
ĠØ³ Ø¨Ú©
ĠÙ¾Ø²Ø´Ú© ÛĮ
ĠÙ¾Ø±Ø¯ Ø§Ø®Øª
ĠØª ÙĦØ§
ĠÙĨÙĤ Ø±Ùĩ
ĠÙħ ÙĩØ±
ĠØ¯ ÙĨÛĮØ§
ĠÙħØ±ØŃ ÙĦÙĩ
ĠÙĪ Ø²Ø§Ø±
ĠØ³ Ø±Ø§
ĠØ§ÙĨ Ø±
ĠØ¯ ÛĮÙĨ
ĠÚ© Ø´ØªÙĩ
ĠØ§Ø² Ø¯
Ø§Ø± Ø§Øª
Ø§ÛĮ Ø²
ĠÙģØ± ÙĪØ´
ĠØ± Ú©
ĠÙĤÙĦ Ø¹Ùĩ
ĠÚ¯Ø±Ø¯ Ø¯
ĠØ¬ Øº
ĠÚĨ ÙĨÛĮÙĨ
t t
ĠØ¯Ø§Ø® ÙĦÛĮ
ĠÚ¯Ø±Ø¯ ÛĮØ¯
ĠØ³ÙĨ Øª
ĠÙĪØ²Ø§Ø± Øª
ĠØ§ØŃ ÙħØ¯
ĠØ¢ ØªØ´
ĠØ·Ø¨ÛĮ Ø¹ÛĮ
ĠÙħØ± Ø¨Ø¹
ĠÙĪÛĮØ¯Ø¦ ÙĪÛĮÛĮ
ĠÚĨÙĨØ¯ ÛĮÙĨ
ÙĪØª ÛĮ
ĠÙĪ Ø³ÛĮ
ÙĨ Ø§ÛĮ
ÙĪ Ø·
Ġc om
Ø§ÛĮ Ø§ÙĨ
o g
ĠØµÙĨ Ø§ÛĮØ¹
ĠØ¢Ø°Ø±Ø¨Ø§ÛĮØ¬ Ø§ÙĨ
ĠØ³Ø§ Ø¹Øª
ĠØ§Ø¯Ø¨ÛĮ Ø§Øª
ĠØ¢Ùħ Ø¯Ùĩ
ĠÙĨÙĪ Ø´Øª
ĠÙħÙĨ Øª
ĠØµÙģ ØŃÙĩ
o c
ĠØ³ Ø±Ø¯
ĠÙħØ¹ Ø±ÙĪÙģ
Ø§ÙĨÛĮ Ø§ÙĨ
ĠØ¢ÙĨ Ø¬Ø§
a p
ĠÙģØ±ÙħØ§ÙĨ Ø¯Ùĩ
Ø¶ Ø±
ĠÙħ Ø§Ø¯
ĠØ¹ Ø¯
ĠØ®ØµÙĪ ØµÛĮ
Ø´Ú© Ø¯Ùĩ
ĠÙ¾Ø± Øª
i e
ĠØ±Ø³ÛĮ Ø¯Ùĩ
ĠØ´Ø§ Ø¹
ĠÙħØ³ Ø§Ø¨ÙĤÙĩ
ĠÙħÛĮ Ø±Ø§
ĠØŃ Ø§ÙĦØª
ĠØ±ÙĪ ØŃ
ĠØ¢Ø³ÛĮ Ø§ÛĮÛĮ
ĠØ¨ ÙĪØ±
es s
ĠØ§Ø²Ø¯ ÙĪØ§Ø¬
Ø§ Ø³Øª
es t
Ø§ÙĦÛĮ Ø§ÛĮÛĮ
ĠÙĪ Ø§ØŃ
ĠØ³ ÙģØ±
ĠÙĨ ÛĮÚ©
ÙĦ ÛĮÙĨ
ĠØ§Ùħ Øª
ĠØ· Ø±ØŃ
ag e
ĠØ§Øµ ÙģÙĩ
ĠÙħØ¯ÛĮØ± ÛĮØª
ĠÙĨØ¸ Ø±ÛĮÙĩ
ĠÙħØ± ØªØ¨
ĠØ¨Ø§ Ø³ØªØ§ÙĨ
ĠØŃ ØªÛĮ
ĠØ¯ Ø§Ùħ
ĠØŃØ³ ÙĨ
ĠÚĨ Ù¾
ĠØ´Ø± ÙĤ
ĠØ® Ø¨Ø±
ĠØŃÙĪ Ø²Ùĩ
Ú¯ ÙĨ
ĠÚ© ÙħÛĮ
ĠØŃ Ø§ÙĦÛĮ
ĠØ§ÙĨØ± ÚĺÛĮ
s t
ĠØŃØ± ÙģÙĩ
ĠØ§ØªØŃ Ø§Ø¯
ĠØ¨ÙĪØ¯ ÙĨ
ĠÚ¯ÛĮ Ø§Ùĩ
ĠÙĩÙĨÚ¯ Ø§Ùħ
Ø³Ú© Øª
ĠÙģ ÛĮØ²
Ø§Ø³ Ø¨
ĠÙĩ ÙĦÙĨØ¯
ĠØ§ÙĦ ÙĦÙĩ
a b
ĠØ§ Øº
ĠØº Ø°
ĠÙ¾Ø§Ø¯Ø´ Ø§Ùĩ
ĠØ§Ø± Ø²
Ġ un
Ø¯ Ø§Ø±Ø§ÙĨ
ĠØ§ÙĪ ÙĦÛĮÙĩ
ĠÙĤ Ùħ
ĠÙ¾ Ø®Ø´
Ø´ÙĨØ§ Ø³ÛĮ
ĠÙħ Ø§Ø¯Ùĩ
Ġt h
Ø± Ø®Ùĩ
ĠØ¹ Ùĩ
ĠØ®Ø§Ø± Ø¬
ĠÙĩÙħÚĨ ÙĪÙĨ
ĠÙħÛĮ Ø¯
ĠÙĪ ÛĮÚ©ÛĮ
ÛĮØª Ø±
ĠØ³Ø±ÛĮ Ø§ÙĦ
ĠØ§ ÙĦÛĮ
ÙĨ Ø´
Ø ©
ĠÙħØŃ Ùħ
Ø§Ùģ Ø¹
ĠÙħÙĪ Ø¬
Ġi m
ĠØªÙĤ Ø³ÛĮÙħ
ĠØ³ Ø®
ĠÙħ Ø§ÙĩÛĮ
ĠØ¨ Ø³Ú©Øª
ĠÙħÛĮØ±Ø§ Ø«
ĠÙħÙĤ Ø§Ø¨ÙĦ
ĠÙĦÙĨØ¯ ÙĨ
ĠØ¨Ø³Ú©Øª Ø¨Ø§ÙĦ
ĠØ¢ ÛĮØ¯
Ø¨ Ø§Ùĩ
ĠØ³ Ø§Ø¨ÙĤ
ĠÙħÙĤ Ø¯
ĠÙħØ« Ø§ÙĦ
ĠÙħÛĮ Ø¯Ø§ÙĨ
ĠØ§ÙĤØªØµ Ø§Ø¯ÛĮ
ĠÚ¯Ø±Ø¯Ø´ Ú¯Ø±ÛĮ
ĠØ´ÙĩØ± Ú©
ĠØŃ Ø±Ú©Øª
ĠÙĨÚ¯ Ùĩ
Ġf r
Úĺ Ø§ÙĨØª
Ø¹ ÙĦÛĮ
Ġr e
ÙĪÛĮ Ø´
ĠÙģÙĤ Ø·
ĠÙĨ Ùģ
ĠÙĦÙĩ Ø³ØªØ§ÙĨ
ĠØ¢Ø² ÙħØ§ÛĮ
ĠØ± ÙĪØ§ÙĨ
Ø³ ÙĪ
Ú¯ Ø´Øª
Ø§Ø± Ø§
ĠØ§Ø³Ø±Ø§Ø¦ ÛĮÙĦ
ĠØ¢ Ø´
ĠØ§ÛĮÙĨ ØªØ±
ĠØ¢Ø± ÚĺØ§ÙĨØª
ĠØ³ÙĦ Ø·ÙĨ
ÙĦÛĮ Øª
ĠØ§Ø¬Ø± Ø§Ùħ
ĠØ¹ ÙĤ
ĠØ§Ùħ Ú©Ø§ÙĨ
ÙĪØ± ÛĮØª
Ø§Ø³ Ø§
a k
Ø¨ Ø§Ø¯
ĠÚĨ ÛĮ
ĠØ§Ø¬ Ø±Ø§
Ġ an
ĠØ® Ø±
ĠØªÙĦØ§ Ø´
Ø§ Ø´ÛĮ
ĠÙĪÛĮ Úĺ
ĠØ§ÙĤØªØµ Ø§Ø¯
ĠØ¯Ø§Ø´Øª ÙĨØ¯
ĠØª Ø§ÛĮ
ĠØŃ ÙħØ§ÛĮ
Ú© Ø²
ĠÙħ ÙĪÙĦ
ĠØ§Ùħ ÛĮØ±
ĠØªÙĪ ØµÛĮ
ĠÙģØ± Ø§ÛĮ
ĠÙĪ ÛĮÙĦ
ĠØªØ±Ú©ÛĮ Ø¨
ĠØ¢ ÙĤ
ĠØ³ ÛĮÙħ
ĠÚ© ÙĪØ±
ĠØ¨ÛĮ Ø§ÙĨ
ĠÙħÙĪ Ø²Ùĩ
ĠØª Ù¾Ùĩ
ĠÙĩÙħ Ú©Ø§Ø±ÛĮ
ĠØ¢ Ú©
ĠÚĨ Ú©
ĠØ´Ø± Ø§ÛĮ
Ú¯ Ø§ÙĨÛĮ
ĠØŃ ÛĮ
ĠØ§ÙĨØªØ®Ø§Ø¨ Ø§Øª
Ø§ÙĦ Ø¨
ĠØ² Ùħ
ĠØ¨ÙĨ Ø§Ø¨Ø±
ĠØ´Ùħ Ø§Ø±
ĠØ²ÛĮØ± Ø§
ĠÙĪÛĮÚĺ Ú¯ÛĮ
ĠÙħÛĮÙĦ Ø§Ø¯
ĠÙħØŃ ÙĦÛĮ
ĠÚĨÙĩØ§Ø± Ùħ
ĠÙħÙĪØª ÙĪØ±
ĠÙ¾Ø± ÙĨØ¯Ú¯Ø§ÙĨ
ĠÙģ ÙĨØ§
i an
ĠØ¨Ø± ÙĨØ²
ĠØŃÙħØ§ÛĮ Øª
ĠÙ¾ Ùĩ
c e
ĠØ¬ÙĨ Ø³ÛĮ
ĠØ§ØŃØªÙħ Ø§ÙĦ
ĠØªÙĪØµÛĮ Ùģ
o v
ĠØ¢ Ø¨ÛĮ
ĠÙĦ Ø§Øª
ĠØ¹ÙĦÛĮ Ùĩ
ĠÙĨØ¯ Ø§Ø±Ø¯
ĠÙĨÛĮÙħ Ùĩ
ĠØ¹ Ø´
ĠØ§Ú© ÙĨÙĪÙĨ
Úĺ ÛĮÚ©
ĠÙĪ Ø¶
ĠØ®ÙĪØ§ÙĨ ÙĨØ¯Ùĩ
ĠØ§Ø¨Øª Ø¯Ø§
ĠÙĨ ÙģØª
Ġ q
ĠØ®ÛĮ Ø§Ø¨Ø§ÙĨ
ĠÙħØ¤ Ø³
ĠÙħØ³ Ø¬
ĠØ¢Ø®Ø± ÛĮÙĨ
ĠØ¯Ø³Øª ÙĪØ±
ĠÙ¾Ø§ÛĮ ÛĮÙĨ
ĠØ¹ÙħÙĦÛĮ Ø§Øª
ĠØ³ ÛĮØªÛĮ
ĠØ³ÛĮØ§Ø³Øª ÙħØ¯
ĠØ¨Ø§ Øº
ĠÙĩØ§ Ùģ
ĠÙħÙĪ Ø§Ø±Ø¯
ĠÙģ ÙĨ
ĠØªØ± ØªÛĮ
ĠØ¯ Ú©ØªØ±
Ġ u
ĠØ® ÙĪÙĨ
ĠØ· ÙĦ
ĠØ³Ø± Ø²ÙħÛĮÙĨ
ĠÙ¾ ÙĪØ±
ĠØ´ Ø´
ĠØ§Ø´Øª Ø¨Ø§Ùĩ
Ġc on
ĠØ³ÙĪØ¦ Ø¯
ĠØ±ÙĤ Ø§Ø¨Øª
ĠÙĩÛĮ Ø¦Øª
tt p
ĠØ¯Ø§Ø¯ ÙĨ
ĠÙģÙĨØ§ ÙĪØ±ÛĮ
ĠÙ¾Ø±Ø¯ Ø§Ø²
ÙĪÛĮ ÙĦ
ĠØ® Ø¯Ùħ
ĠÙħ Ø§ÙĨØ¯
ĠÚ©Ø´ Ø§ÙĪØ±
Ġh ttp
ĠØ®Ø§Ø± Ø¬ÛĮ
ĠØ±Ø§Ø¨ Ø·Ùĩ
ĠÙħØ³ ÛĮØ±
ĠØ¨ Ø§ÙĨÚ©
ĠÙħ ÛĮÚ©
ĠØ³Ùģ ÛĮØ¯
ĠÙħ ÛĮÙĨ
Ø§Ø±Ùĩ Ø§
ĠØ±ÛĮØ§ Ø³Øª
ĠÙĪØ±Ø²Ø´ Ú¯Ø§Ùĩ
ĠØ³Ø± Ø®
ĠØ¨Ø§Ø² Ø§Ø±
ĠØ¯Ø§ÙĨ Ø´Ú©Ø¯Ùĩ
ĠØ± Ø§ÙĨ
ĠÙħÙĪØ¶ÙĪ Ø¹
ĠØ§Ø± ÙħÙĨÛĮ
ĠØ¶ Ø¯
Ø¨ ÛĮÙĨ
ĠØŃØ§ Ø¶Ø±
ĠÙĨ Ø¬
Ø§Ùħ Ø§
ĠØµ Ø¯Ø§
ĠØ¨ Øª
ĠØ¹ÙĦØ§ ÙĪÙĩ
ĠØ§ÙĨ ÙĪØ§
ĠØ§Ùħ Ø§Ùħ
ĠØ§Øº ÙĦØ¨
ĠØ§ØµÙģÙĩ Ø§ÙĨ
ĠØŃ Ø°
ĠÚ¯Ø° Ø§
ĠØ®Ø§Ø· Ø±
Ø³ Ø§ÛĮ
Ø² Ø§Ø¯Ùĩ
ĠÙ¾ Ø§Ù¾
ĠÙħ Ùģ
ĠÙ¾ ÙĪ
ĠÙĩÙħ Ø³Ø±
Ø³ÛĮ ÙĦ
ĠØ¢Ø±ÚĺØ§ÙĨØª ÛĮÙĨ
Ùĩ Ùħ
ĠÙħØ® Ø§ÙĦ
ĠÙħØŃÛĮ Ø·
Ùħ ÙĪÙĨ
ĠØ± Ø´Ø¯
ĠØ§ÙĪ Ú©Ø±
ĠÙĪØ±Ø² Ø´ÛĮ
Ø³ Ø§ÙĨÛĮ
ĠØ¹ Ø§ÙĦÛĮ
ĠÚ© ÙĨÚ¯
ĠÙħØ±ØªØ¨ Ø·
ĠØ§ÙĨÙĪØ§ Ø¹
ĠØ¨Ø± Ø§Ø¯Ø±
ĠÙħØŃØ¯ ÙĪØ¯
ĠÙĪØ§ ÚĺÙĩ
ĠÙħØª ÙĨ
ĠØ± Ø²
Ø±ÛĮ Ø¨
ĠØ³ ÙĤ
ĠØªØµ ÙħÛĮÙħ
ĠÚ¯Ø± Ùħ
ĠØ¢Ø² Ø§Ø¯ÛĮ
ĠØ³Øª Ø§Ø±Ùĩ
ĠØ§ÙħÙĨ ÛĮØª
ĠØ±ÙĪØ³Øª Ø§ÛĮÛĮ
Ø§Ø¨ Ø·
ĠÚ© Ø´Øª
ĠØ¯ Ø§Ø±ÛĮ
ĠÚ©Ø± ÙħØ§ÙĨ
ĠØªÙĦÙĪÛĮØ²ÛĮ ÙĪÙĨ
ĠØ¨Ø§Ø² Ú¯Ø´Øª
ĠØ§Ùħ ÙĪØ±
ĠØªØ±ØªÛĮ Ø¨
ĠØ¯ÛĮ Ø¯Ùĩ
ĠÙģØ±Ø² ÙĨØ¯
ÙĩØ± Ùĩ
ĠØ§ÙĤ Ø¯Ø§Ùħ
ĠÙħØ° Ùĩ
ĠÙ¾ Ø´Øª
ĠØ±Ø§ Ø³Øª
ĠØ´Ùĩ Ø±Ø¯
ĠÙĨ Ø¨Ø±Ø¯
ĠØ¨ÙĦ ÙĨØ¯
ĠØ¢ÙĨ Ø¬
ĠÙħ Ø§Ø±Ú©
Ġwik ip
ĠØ® ÙĪØ´
ÙħÙĪ Ú©
Ġwikip edia
ĠØ§Ø³Ú© Ø§Øª
ĠÙħØ¹Ùħ Ø§Ø±ÛĮ
ĠÚ©Ø§Ø± Ø¨Ø±
ĠØ¨ Ø§ÙĨ
ĠØ± Ø¯
ĠÙħØ¯ Ø§ÙģØ¹
ĠØ§Ø±Øª ÙģØ§Ø¹
ĠØ¸ Ø§Ùĩ
a v
ĠÛĮ Ø§Ø¨
ĠØ¬Ùħ Ø¹
ĠØ¬Øº Ø±Ø§ÙģÛĮ
ĠÚ© Ø´ÛĮ
Ùģ Ø¸
ĠØ¯Ø§Ø¯ ÙĨØ¯
ĠØ¹ ÙĪ
ĠØ§Ø¬Ø± Ø§ÛĮ
ĠÙ¾ ÙĪÙĦ
ĠØ¯ÙĪÙĦ ØªÛĮ
ĠØ§ÛĮØª Ø§ÙĦÛĮØ§ÛĮÛĮ
ĠÙħÙĪÙĤ Ø¹ÛĮØª
ĠØ¨Ø§ ÙĤÛĮ
Øª Ø±ÛĮ
ĠØ¢ ÙĪ
ĠØ¯ÙĪÙħ ÛĮÙĨ
ĠØ¢Ø²ÙħØ§ÛĮ Ø´
ĠØ§ÙģØª Ø®
Øª ØŃ
Ø§Ø¯ÛĮ Ùĩ
ĠÙ¾Ø±ÙĪ ÚĺÙĩ
ĠØ± Ø®
ĠÚ©Ø§Ø± Ø¨Ø±Ø¯
Ġ le
ĠÙĨ ÙĩØ§ÛĮ
Øª ÙĪØ±
Ú¯ ÙĦ
ĠÙģ Ø§Øµ
ÙĪ Ø¯Ùĩ
ĠÙĩØ§Ùģ Ø¨Ú©
ĠØ¬ Ø¯Ø§
ĠØªÙĪØ§ÙĨ ÙĨØ¯
ĠØ±ÙĪ Ø§Ø¨Ø·
ĠØ§ÙĨØªÙĤ Ø§ÙĦ
ĠØ§ÙĦ Ùĩ
ĠÙ¾Ø± ÙĪØª
ĠØ¢Ø± Ø§Ùħ
ĠØ±Ùĩ Ø¨Ø±
ĠÙħÛĮ Ø±Ø²
ĠØ³Ø± Ø¨
ĠØ²Ø¯ Ø§ÛĮÛĮ
ĠÙ¾Ø§Ø¯Ø´ Ø§ÙĩÛĮ
ĠÙĩ Ø§Ø±
ĠÙĩ Ø¬
ĠÙĨØ¸ Ø§Ùħ
ĠÚ¯ Ø§Ùĩ
ĠØ´Ø¹ Ø±
ĠØ¯Ø± Ø®Øª
ĠØ§Ø³Øª Ø§ÙĨØ¯
ÙħØ§ÛĮ Ùĩ
ÙĪÚ© Ø³
ĠÙ¾ÛĮØ´ Ø±
ĠØ´Ø±Ø§ÛĮ Ø·
ĠØª Ø±ÛĮ
Ø¦ ÛĮÙĨ
Ú© Ø§
Ø§ÛĮ ÙĤ
Øº ÙĪÙĦ
ĠØ§Ùģ Ø³
ĠÚ¯ ÛĮÙĦ
ĠØ¬ÙħÙĩ ÙĪØ±
ar d
ĠØ¯ ÙħÙĪÚ©
ĠØ®Ø¯Ùħ Ø§Øª
ÙĦ Ø§ÙĦ
ĠÙĪ Ø§Ú©ÙĨ
ÙĪ Ø§ÙĦ
ĠØ¹ ÙħØ±
ĠØ® Ø±Ø§
ĠÙħØµØ± Ùģ
ĠÙħØ±Ø¯ Ø§ÙĨ
ĠÙĪ ØŃ
ĠÙĤØ¯ ÛĮÙħÛĮ
ÙĦÛĮ Ùħ
Ø¹ ØªÛĮ
ĠÙ¾ÚĺÙĪÙĩ Ø´
ĠÙħØª ÙģØ§ÙĪØª
Ø³ÛĮ Ø¯
ĠØ¬ ÙĦÙĪ
ĠØª Ø³
ĠØ¬ÙĪ Ø§ÛĮØ²
Ø¸ Øª
i b
ĠØ§ØªØŃ Ø§Ø¯ÛĮÙĩ
ÙĪÙĦ ÛĮÙĨ
ĠØ± Ø§Ø¯ÛĮ
ĠØªÙĤ Ø±ÛĮ
ĠÙħÛĮØ² Ø§ÙĨ
ĠØ¯Ø± ÙĪ
ĠÙħØ³Ø¬ Ø¯
ĠØ¨Ø±ÛĮØª Ø§ÙĨÛĮØ§ÛĮÛĮ
Ø¬ Ø§ÙĨ
il l
ĠÙħØ´Øª Ø±Ú©
Ú¯ Ø§
ĠØ¢ ÙĩÙĨ
ĠØ§ÛĮØ³Øª Ú¯Ø§Ùĩ
ĠØ® Ø¯Ø§
i f
ĠØ¯ÙĪ ÚĨ
ĠØ§ Ø¨Ùĩ
Ú¯ Ø§Ø±
al l
ĠØ¨ ÙĨØ§
ĠÚ© Ø§Ø±ÛĮ
Ø¶ Ùĩ
ĠÙģØ§Øµ ÙĦÙĩ
ĠØ§Ø³Øª ÛĮ
ĠØ´ Ø§ÙĨ
Ø¨ÛĮ Ùĩ
Ø¸ ÛĮÙħ
ĠØ§Ø³Øª Ø®
ĠÙħØ³Øª ÙĤÙĦ
ÙĪ Ø§Ø±Ùĩ
Ø±ÛĮ Ø³
ĠØ¢ÙĨ Ø§ÙĨ
ĠÙĨÙĪ Ø§Ø²
ĠÚ¯Ø° Ø´ØªÙĩ
ĠÙħØ¬ ÙĦÙĩ
ĠÙħØ´ ØºÙĪÙĦ
ĠØ§Ø¯ Ø§Ø±Ùĩ
Ø§Øª Ø§
Ø² Ø§
ĠØ¨ÙĨØ§Ø¨Ø± Ø§ÛĮÙĨ
ĠÙ¾ Ø§Ø±ÛĮ
Ø±ÛĮ Ùħ
ĠØ±Ø³ Ø¯
c t
ĠØ´Ø®Øµ ÛĮ
ĠÚ¯Ø³ØªØ± Ø¯Ùĩ
Ø¦ ÙĪ
ĠØ³ Ùħ
ĠÙĪ Ø§Ø±
ĠÙħÛĮØ¯ Ø§ÙĨÛĮ
ĠØªØ¹ Ø±ÛĮÙģ
ĠØ§Øµ Ø·
Ġt o
Ø³ Ú©ÛĮ
ĠØ¯Ø± ÙħØ§ÙĨ
ĠØ§Ø¨Ùĩ Ø§Ùħ
ĠØ¬ Ø±
ĠØ§ Ø¨ÙĪ
Ø³Øª Ú¯ÛĮ
Ġ x
ĠØ·Ø¨ ÙĤ
Ø²Ø¯Ùĩ Ùħ
ĠØ¯ÙĪÚĨ Ø±Ø®Ùĩ
ĠÙħ ÙĪÙĨ
ĠÙħÙĩÙĨØ¯ Ø³ÛĮ
ĠÚ© Ø±ÙĪ
Øµ Ùĩ
ĠÙĪØ§Ú©ÙĨ Ø´
ĠØ¯Ø±Ø¢ ÙħØ¯
ĠØ® ÙĦÛĮ
ĠØ³Ù¾ Ø§Ùĩ
Ġs h
Ġp h
ĠÙĦ Ø§
Ø§Ø¯ ÙĦ
ĠÙħÙĦ Øª
ĠØ¨ Ø³ØªÙĩ
in e
ÛĮÚ© Ø§
ĠØ¯ÙĦ Ø§Ø±
ĠØ® Ø±Ø¯
ĠØ§Ø³Øª ÙĤÙĦ
ÙĦØ§ ÙĤ
Ùħ Ø§ÙĦ
ĠØªØ§ Ø¬
Ø¨ Ø´
ĠØ¯Ø§Ø® ÙĦ
ĠØ§Ø³ØªÙĤÙĦ Ø§ÙĦ
ĠÙĨÙĩ Ø§ÛĮÛĮ
ĠØ³Ø± ÙħØ§ÛĮÙĩ
ĠÙĪÛĮ ÙĦÛĮ
ĠÙħØ¯ Ø§Ø±
ĠÙħÙĨ Ø¬Ø±
Ø´ Ø¯Ùĩ
ĠÙĪØ³ÛĮ ÙĦÙĩ
Ġp r
ĠØ¨Ø¹ Ø¯ÛĮ
ĠÙħØ³ÙĦ ÙħØ§ÙĨ
ĠØ³ÛĮÙĨ ÙħØ§
e b
ĠØª Ø§ÙĦ
Ø±Ø§ Ø¬
ĠÙĤØ· Ø¹
ĠÙħ Ø§Ø´
ĠÙĩÙĨØ± ÙħÙĨØ¯Ø§ÙĨ
ĠÙħØ« ÙĦ
ĠØ³ ÛĮÙĦ
ĠÙħ Ø¨
Ú© Ø´
ĠØ¨Ø¯ ÙĨ
ĠØ³ Ø§ÛĮØª
Ú¯Ø° Ø§Ø±ÛĮ
ĠØ§ÙĦÚ©ØªØ± ÙĪÙĨ
ĠØ¨Ø±Ø® ÙĪØ±Ø¯
ĠÙĪ ÛĮÙĨ
ĠØ¢Ùħ Ø§Ø±
ĠØª Ø¹ÛĮ
ĠØ³Ø§ÙĦ Ú¯ÛĮ
Ġ on
ĠÙħÙĩØ§Ø¬Ø± Øª
ĠØ¯ÙĪ Ø³Øª
Ú¯Ø§Ùĩ ÛĮ
ÙĪ Ø§Ø±Ø¯
ÙĪ ÚĨ
ÙĤ ÛĮÙħ
ĠØªØ¹ÛĮ ÛĮÙĨ
ĠØ§ÙĪÚ©Ø± Ø§ÛĮÙĨ
ĠØ±Ø³ Ø§ÙĨÙĩ
ĠÙĤ Ø§Ø¬
ĠØªÙĪØ§ÙĨ Ø³Øª
Ġf or
Ġs p
Ġc o
ĠÙĩ ÙĨØ¯ÛĮ
Ġ is
ĠÚ¯Ø³ØªØ± Ø´
ĠÙģ ÙĪÙĦ
ĠØ¨Ùĩ Ø±Ùĩ
ĠØª ÙĪÙħ
ĠØŃ Ø§Ú©
ĠÙģØ§Ø± Ø³
ĠÙĨ Úĺ
ĠØ³Ø§ÙĦ Ùĩ
Ø¨ÙĪØ± Ú¯
ĠÙĨ Ø±ÙĪ
Ø¨Ø± Ú¯
ĠØ§ÙĦ Ú¯
ĠØ¹Ùĩ Ø¯Ùĩ
ĠÚ©Ø´Ø§ÙĪØ± Ø²ÛĮ
ĠØ¢ÙĩÙĨÚ¯ Ø³
Ø§Ø² Ùħ
ĠÙħÙĨ Øµ
ĠÙ¾ÛĮØ´ ÙĨÙĩ
Ġp ro
ĠÙĪØ¶ Ø¹ÛĮØª
Ø§Ùĩ ÛĮÙħ
ĠÙħØ¹ ÙĨÛĮ
ĠÙ¾ Ø¯ÛĮ
ĠØ¬Ø§ÛĮ Ú¯Ø²
ĠÛĮÙĪÙĨ Ø§ÙĨ
ĠØ¹ÙĦ Ùħ
ĠØ® ÙĪØ±
Ø± Ø³
ĠØ¯ÙĪ Ø¨Ø§Ø±Ùĩ
ĠØ¯ ÙĨÛĮ
ĠÚĨ Ø§Ø±
ĠÙĦØ§Øª ÛĮÙĨ
ĠÚ©ÙĪØ¯ Ú©Ø§ÙĨ
Ø³Øª ÙĪÙĨ
ĠÙĨÙĤ Ø·Ùĩ
ĠÙ¾Ø±ÙĪ Ø§Ø²
ĠÙħ Ø£
ĠÙĩ Ø³ØªÙĩ
ĠØ§ÙĨØªØ´Ø§Ø± Ø§Øª
u d
u b
Ġor g
ĠÙħØŃ ÙĦÙĩ
ĠØª Ø§Ø¨Ø¹
Ø§Ø® Ø±
ĠØ³Ø§Ø®Øª Ø§Ø±
ĠØª Ø¬Ø±
ĠØ®Ø¯ ÙħØª
ĠØªØ¬ Ø§Ø±ÛĮ
ĠØ³Ø¨ Ø²
Ġn e
ĠØ§ Ø´Ú©
ĠÙħÙĨ Ø¨Ø¹
ĠÙĨÙħØ§ÛĮ ÙĨØ¯Ùĩ
ĠØ±ÛĮØ§ Ø¶ÛĮ
ĠÙĪ Ø§ÙĦÛĮ
ĠÙģØ± ÙĪ
ĠØ² Ø±
ĠÙħØª Ø¹
ĠÙĦ ÛĮÙĨ
ĠÚ¯ Ø§Ø²
Ø± Ø¶Ø§
ÙĪ Ø§ÙĨÛĮ
ĠÙĤ ØªÙĦ
ÙĤÛĮ Ø§ÙĨ
ĠÙ¾ Ø§ÙĦ
ĠÙģØ± Ùħ
ÙĦ Ø²
ĠØ§ Ø¶Ø§
ÛĮ Ø§Ø±
ĠØªÙĤØ±ÛĮ Ø¨Ø§
ĠØ¨ Ø§ÙĨØ¯
ĠØ¯Ø± ÙĪÙĨ
ĠÙħØ³ Ø§
ĠØ±ÙĪØ³Øª Ø§ÙĩØ§ÛĮ
ĠÙ¾Ø§Ø±ÛĮ Ø³
ĠØ¶ Ø±
ĠØ·Ø¨ ÙĤÙĩ
ĠÙĨ Ø¨
ĠØ¯ Ø¨ÛĮØ±
ĠÙħ Ø¨Ø§Ø±
ÛĮØ¯ ÙĨ
ĠÙħØª ÙĪÙĦØ¯
ĠÙĩ ÙĦ
ÙģØª Ø±
ĠÙħØ± Ø²
ĠØ±Ú© ÙĪØ±Ø¯
ĠÙħØ±Ø§ Ø³Ùħ
ĠÚ¯ ÙĪÛĮØ¯
it y
ĠÙħÛĮØ±Ø² Ø§
ĠÙħÙĪ Ø³
ĠÙħØ´Ùĩ ÙĪØ±
ÙĪØª Ø±
Ø§Ùĩ Ùħ
ĠØ¯ ÙĤÛĮ
Ø¨ ÙĨ
ĠØ±ÙĪØ¯ Ø®Ø§ÙĨÙĩ
ĠÙĪÙĤ ØªÛĮ
Ø±Ø§ Ø¶
ĠÙħÙĤ Ø§
ĠØ³ÙĪØ¦ ÛĮØ³
Ùħ Ø¹
ĠÙĪØ§ØŃ Ø¯
ĠØ¬ÙĪØ§ÙĨ Ø§ÙĨ
ĠØ¬ ÛĮÙħ
ĠØ¹ Ø§ÙħÙĦ
ĠÙĩØ² ÛĮÙĨÙĩ
ĠØ§Øª Ø±ÛĮØ´
ĠÙĦ ÙĪØ¦
Ġa t
ĠØ³Ú© ÙĪÙĨØª
ÙĨÙĪ Ø²
ĠØ± Ø¶Ø§
ĠØ¹Ø±Ø¨ Ø³ØªØ§ÙĨ
ĠÙĨÙĤ Ø§Ø´ÛĮ
ĠÙ¾ Ø§
ĠÙĨÙĩØ§ÛĮ Øª
ĠØ¯ Ùħ
Ø³Ú© ÙĪ
Ø´ Ø§Ùĩ
ĠÙħØ¤Ø³ Ø³Ùĩ
ÛĮ Ø´Ùĩ
Ġm ar
ĠØ§Ø±ÙĪ Ù¾
ĠÙĨÙĤ ÙĦ
Ø´ ÛĮØ±
ÙĪØ± Ø§
ĠÙĪ ÛĮØª
ĠÙħÚ© Ø²ÛĮÚ©
ĠØ¯Ùĩ ÙĨØ¯Ùĩ
ĠØª Ú¯Ø²
ĠÙĦ ØŃ
Ùģ ÙĪØ±Ø¯
ĠØµÙĨ Ø¹Øª
ĠØ¹Ø´ ÙĤ
ĠØ´ÛĮÙħÛĮ Ø§ÛĮÛĮ
ĠØ® ÙĪØ±Ø¯
ÙĨÚ¯ ÛĮ
ĠÙĪØ² ÙĨ
Ø¨ ÙĨØ¯
Ø§ÙĨÛĮ Ùĩ
ĠØªÚ¯Ø² Ø§Ø³
ĠØ¯ ÙģØ§Ø¹
ĠØ§ÙĪ Ø§ÛĮÙĦ
ĠØ¬ Ø§Ø¯Ùĩ
el l
Ø§Ø¦ ÙĪ
ĠØ¢ÙģØ±ÛĮÙĤ Ø§
ĠØ§ Ø«
ĠØ®ÙĪØ¯Ø±ÙĪ ÙĩØ§ÛĮ
ĠÙ¾ÛĮØ´ ÛĮÙĨ
ĠØ±Ø§ÛĮ Ø§ÙĨÙĩ
ĠØ´ÙĩØ±Ø¯ Ø§Ø±ÛĮ
ĠØ¨Ø§ Ø³ØªØ§ÙĨÛĮ
ĠÙ¾Ø§ÛĮ Ú¯Ø§Ùĩ
ĠØ§Ø¬ Ø§Ø²Ùĩ
ĠØ³ ÙĪØ±ÛĮÙĩ
ĠØ¬ ÙĪØ±
ĠÙħØ³Øª ÙĤÛĮÙħ
ĠØ± Ùħ
ĠØ§Øµ ÙĦØ§ØŃ
Ø³ ÙĪØ¨
Ùģ Ø§ÙĤ
ĠÙĤ Ø²
ĠÙ¾Ø§Ø³ Ø®
ĠÙħØ·Ø§ÙĦ Ø¹Ùĩ
ĠØ¨Ø§ Ø¨
ĠÙħÙĤ Ø¯Ø§Ø±
ĠÙģ Ø´Ø§Ø±
Ø¢ ÙĨ
Ù¾ÛĮ Ø´Ùĩ
ĠÙĩÙĨÚ¯ Ø§ÙħÛĮ
ĠÙĦ Ø±
ĠØ¨ÛĮ Ø³Øª
ĠÚ¯ ÙĨ
Ġt e
Ġ z
Ġim age
ĠØ³ Ø§Ø³
ĠÙĩ ÙģØªÙĩ
ĠÙģÛĮÙĦÙħ ÛĮ
ĠÚ¯ ÙĪØ±
ĠØ¯Ø± Ø®
ĠÙħ Ø¨Øª
ĠÙ¾ Ø´ØªÛĮ
ĠÙĩ ÙĨÙĪØ²
Ùģ ÙĨ
ĠÚ©Ùħ ØªØ±
ĠØ³ÙĦ ÙĪÙĦ
ĠÙĪÛĮÙĦÛĮ Ø§Ùħ
ĠÙģÙĦØ³ ÙģÙĩ
ĠÚ¯Ø° Ø±
ĠÙģÛĮØ² ÛĮÚ©
ĠØª Ø§Ø±
ĠÙħØ³ÛĮ ØŃÛĮ
Ø´ Ø§
ĠÚ©Ø´ ÙĪØ±ÛĮ
ĠÙ¾ ÛĮØ§
ĠØ±ÙĪÛĮ Ø¯
ĠÛĮØ§Ø¨ Ø¯
ĠØª Ø¨Ø±ÛĮ
ĠØª Ø§Ú©ÙĨ
p h
ĠÙħÙĨ ØªÙĤ
Ø³ Ù¾
ĠÚ© ÙĪÙħ
ĠØªØ§Ú©ÙĨ ÙĪÙĨ
ĠÙħÙĨØ¸ ÙĪØ±
r an
ĠØ¬Ø¯ ÙĪÙĦ
ĠØ§ØµØ· ÙĦØ§ØŃ
ĠÙĨÚ¯Ø§Ø± Ø®Ø§ÙĨÙĩ
ĠØ´Ø± ØŃ
ĠØ± Ø¶
Ú¯ ÙĪÙĨÙĩ
ĠØ¹ Ø«
ĠÙĨÛĮ ÙĪ
ÙĪÙĦÙĪ ÚĺÛĮ
ĠØ¬ÙĨ Ø¨Ø´
ĠØ§ÙĪ Ø§Ø®Ø±
Ø±ÛĮ Øª
ĠÙħØ§Ø´ ÛĮÙĨ
ĠØ¨Ø±Ø¬ Ø³ØªÙĩ
ĠÙĪØ¨ Ú¯Ø§Ùĩ
ÙĪ Ø²Ùĩ
ĠØ¹ÙħÙĦ Ú©Ø±Ø¯
ĠØ±Ø³ Ø§ÙĨØ¯
Ø² ÙĨ
ĠÚĨ Ø±Ø§
ĠØ±Ùĩ Ø¨Ø±ÛĮ
ĠÙħÙĩ Ø¯ÛĮ
Ø¹ ÙĪØ¯
ĠØ¯ ÙģØªØ±
ĠØ¨ÙĦ ÚĺÛĮÚ©
ĠØ³ Ø®Øª
ĠØ´ Ø§Ø®
b er
ĠÙģØ± Ø³Øª
ĠØ±Ø§ Ú©
Ùħ ÛĮØ±
ÙĪØª Ø§
ĠØ¹ Ø¶
ĠÙħØ¹ ÙĨØ§ÛĮ
ĠØ® Ø±ÙĪ
Ú¯ ÛĮÙĨ
ĠÚ¯ ÙĪÙĨ
t h
ĠØ¯ÙħÙĪÚ© Ø±Ø§Øª
ĠØ¯ÙĤÛĮ ÙĤÙĩ
Ø§ÙĦ Ø¯
Ø¬ Ø§Ùħ
ĠØ§Øª ÙģØ§ÙĤ
ĠØ³Ø§Ø² Ùĩ
ĠÙĨ Ø¨ÙĪØ¯
ÙĤ Ø§ÙĨ
ĠØŃ ÙģØ¸
ĠÚĺØ§Ù¾ ÙĨÛĮ
ĠÙģØ±Ø§ÛĮ ÙĨØ¯
ĠÙĪÙĤ Øª
ĠØ²ÙĨØ¯ Ø§ÙĨ
ĠØ± ÙģØªÙĩ
ĠÚ©Ø§Ø± Ø¢
ĠØŃ Ø§Ùģ
ĠÙ¾ÛĮØ± ÙĪØ²ÛĮ
ĠØ´ÙĩØ± ÙĩØ§
ĠÙĦ Ø¨
ĠØ¬ Ø¹
ĠØ¢ÙħØ±ÛĮÚ© Ø§ÛĮ
ĠØ³ÛĮØ§Ø³ØªÙħØ¯ Ø§Ø±Ø§ÙĨ
ĠÙħØ£ Ùħ
ĠÚ©Ø±ÛĮ Ø³Øª
ĠØ¬ Ø§ÛĮÛĮ
Ã ©
ÛĮØª Ùĩ
Ø¢ Ø¨Ø§Ø¯
ĠÙħ Ø³ØªÙĨØ¯
ÙĦ Ø§ÙĨØ¯
Ø§ÙĨØª Ø²
ĠÙ¾Ùĩ ÙĦ
ĠÙĨ Øµ
ĠØ§Ø³ Ø§Ø³ÛĮ
ĠØ®ÙĪØ±Ø´ ÛĮØ¯ÛĮ
ĠÙ¾Ø§Ú© Ø³ØªØ§ÙĨ
Ø§ÛĮØª Ø¯
ĠÚ© ÙħØ±
ĠØ³ Ø±ÙĪ
ÙĪÛĮ Ø²
ĠÚ©ÙĪØ¯ Ú©
ĠÚ¯Ø±ÙĪÙĩ ÛĮ
Ø¬ ÙħØ§ÙĨ
ĠØªØ§Ø±ÛĮØ® ÚĨÙĩ
ÙĪØ± ÙĪ
ĠÙĤØ± Ø§Ø±Ø¯
Ø§Ùģ ÙĤ
a h
ĠØ®ÙĪØ±Ø´ ÛĮØ¯
ĠÚ© Ø§Ù¾
ĠÙĦ Ø³
Ø¨ ÛĮÙĦ
ÛĮÙĨ Ø¯Ùĩ
Ø¯ÛĮ Ú¯Ø±
ĠÙĤÙĦ ÙħØ±
ÙĪ Ø¬
ÙĪÙħØª Ø±ÛĮ
ÙĪÛĮ Ø³ÛĮ
ĠØµÙĨ Ø¹ØªÛĮ
ĠØ³ Ø§Ø¯Ùĩ
ĠØ§ Ù¾
ĠØ³ ÛĮØ±
ØŃ Ø§Øª
ĠÛĮÙĪÙĨ Ø§ÛĮØªØ¯
ĠÙħ ÙĪÙĨØª
ĠØ® Ø±ÛĮØ¯
ĠØ® ÙĦÙĤ
ĠÚ©ÙĦÛĮ Ø³Ø§ÛĮ
ÙĪØ± ÙĩØ§ÛĮ
ĠÙĪ Ø§Ø´
ĠÙ¾Ø± Ø§ÙĨØªØ²
ĠØªÙĪ Ø¶ÛĮ
Ġs e
ĠÚ©ÙĦ ÙħØ¨
ĠÙħ Ø²
ÙĦ Ùħ
ĠÙģ Ø¶Ø§ÛĮ
ĠÙħØ¯Ø§ÙģØ¹ Ø§ÙĨ
ĠÛĮÙĩÙĪØ¯ÛĮ Ø§ÙĨ
ĠØ³Ø± Ø§ÙĨ
ĠØ§Ø®Øª Øµ
ĠØµØŃ ÙĨÙĩ
ĠÙĨØ±ÙĪ Úĺ
ĠÚ¯ ÛĮØª
ĠØ¹ Ø¯Ùħ
ĠØª Ø±Ø§
ĠØ¢ÙģØ±ÛĮÙĤ Ø§ÛĮÛĮ
ĠØª Ú©ÙĨ
ĠÚ©ØªØ§Ø¨ Ø®Ø§ÙĨÙĩ
ĠÚ©Ø§Ùħ Ø§
ØªØ¨ Ø§Ø³
Ø§Ø¯ ÙĪ
ĠÙħØªØŃ Ø¯
Ú¯Ø§ÙĨ Ùĩ
ĠØ¢ ÙħÛĮ
ĠÚ©Ø§ÙĦ Ø¬
ĠÙģÛĮ ÙĦÛĮ
ĠÙħØ´ Ø§Ø¨Ùĩ
ĠØ¹ ØµØ±
ĠØ¢Ø³ÛĮ Ø¨
ĠØ¬Ø§ÛĮÚ¯Ø² ÛĮÙĨ
ĠØªØŃÙĤÛĮÙĤ Ø§Øª
ĠØ²ÛĮ Ø§Ø¯
ĠØ®ÙĪØ¯ Ø´
ĠÙĨ Ø§Ù¾
ĠØ® ÙĦØ§
ĠÙ¾ Ø³Øª
ĠØ±ÙĪ Ø´ÙĨ
Ø§Ø¦ ÙĦ
ĠØ§Ø· Ø±Ø§Ùģ
ĠØ§ÙĦ Ø¹
ĠÙħØ¬ Ø¯
ĠØ§ÙĤ ØªØ¨Ø§Ø³
ĠØ® ÙĦ
ĠÚ©Ø§Ø±Ú¯Ø±Ø¯Ø§ÙĨ Ø§ÙĨ
Ġa s
ĠÙģÙĦ ÙĪØ±
Ùĩ Ø§ÛĮÛĮ
ĠØ³ÙĨ ØªÛĮ
ĠØª Ø§Ùħ
ĠØ§ÙħØª ÛĮØ§Ø²
ĠØ¬Ø² Ø¦ÛĮ
ĠÙĤ Ø§
ĠØªÙĨ Ø¸ÛĮÙħ
l d
ĠÙĨØ§Ùħ ÛĮØ¯Ùĩ
ĠÙħØ§ÙĨ Ø¯Ùĩ
ĠØ¢ ÙĦÛĮ
ĠØ¹ Øµ
ĠÙĨÙĤØ´ Ùĩ
Ø§Ú© Ø³
ĠÙĨØ²Ø¯ ÛĮÚ©ÛĮ
ÙĪØ§ Ø³Øª
ĠÙĪØ§ÙĤ Ø¹ÛĮ
ĠØ®Ø· Ø±
ĠØ±ÛĮ Ø´Ùĩ
ĠÙ¾ÛĮØ´ÙĨÙĩ Ø§Ø¯
Ùħ Ø§Ø±Ú©
ĠÙħØŃ Ú©
ĠÙħØ°Ùĩ Ø¨ÛĮ
ĠØ§ ÚĨ
ĠÙ¾Ø±Øª ØºØ§ÙĦ
Ùħ Ø§Øª
g e
ĠØ¨Ø± Ø¯Ùĩ
ÛĮÙĨ ÙĪ
ĠÚ© Ø³ÛĮ
ĠÙĨØ§Ùħ Ø²Ø¯
ĠØ¨ ÙĨØ¯
h t
ĠÙ¾Ø¯Ø± Ø´
ĠØ¨ ÙĪÙħÛĮ
Ø® Ø§ÙĨ
ĠÙħØ®Øª ÙĦ
ĠÙĨ Ø§Ø¨
ĠÙħØ´ Ø§ÙĩØ¯Ùĩ
ĠØŃÙĦ ÙĤÙĩ
ĠØ§ ÙĤÛĮØ§ÙĨ
Ø§Øµ ÙĦ
ÛĮÙĨ Ø²
ĠØ®ÙĪØ§ Ø³Øª
ĠÙ¾ÙĦÛĮ Ø³
ĠÙ¾ÛĮÚ© Ø³ÙĦ
ÙĪØ§ÙĨ Ø¯
ĠØªÙĪ Ø§Ø¨Ø¹
ĠØªÙĪ Ù¾
ĠÙģ ÛĮÙĨ
ĠØ§Ùģ Ø²Ø§Ø±
ĠØ§ÙĦ Ø¯ÛĮÙĨ
ĠØªØ´ Ø®ÛĮ
u e
ĠØ¨Ø§ Ø¯
Ø§Ø¨ Ø±ÛĮ
ĠØ³ÙĦØ·ÙĨ ØªÛĮ
Ø± Ø§Ø±
ĠÙĨÙĪ Ø¹ÛĮ
ĠØ¹ Ø¨Ø§Ø³
ĠÙĤ ÙĪØ§ÙĨ
ĠÙħÙĦ ÙĦ
ÛĮÙĦ ÙĨØ¯
Û Ģ
ĠØ¨ Ú¯ÛĮØ±
ĠØ³ÙĪ Ø³ÛĮ
ĠØ´ÛĮ Ø®
ĠØµ Ø§Ø¯
ĠØ§Ø³Øª ÙĪØ¯ÛĮ
ĠÙ¾ÛĮ Ø§Ùħ
Ø¯ Ø±Ø§
ĠØ¬ Ø°
ĠÚ¯Ø±ÙģØª ÙĨ
ĠÙģØ± Ø§ÙĨÚ©
ĠÙĤ Ø§Ø¨
ĠØ´ Ø¨ÛĮÙĩ
ĠØ§Ø³ Ùģ
Ú¯Ø° Ø§Ø±
ĠØ¨ ÛĮÙĦ
Ø³ Ø¯
Ø§Ø¦ ÛĮ
ĠØ¢ÙĨ Øª
ÙĪ Ú¯
ĠÙĦ ÙĪÚ©
ĠØ§Øµ ÙĦ
ĠÙħØŃ Ø³ÙĪØ¨
ĠÚ©ÛĮÙĦ ÙĪÙħØªØ±ÛĮ
ĠÚ©ÙĦØ§Ø³ ÛĮÚ©
ĠÙħØŃ Ø§Ùģ
Ø§Ø¯ Ø«
ĠØ²ÛĮ Ø¨
ĠØ®Ø±Ø§ Ø³Ø§ÙĨ
ĠØ³ ÙĪØ¯
ĠÙħØª Ø±ÛĮ
ĠÙĤ Ø§ÛĮÙĤ
ĠÙĨÚĺ Ø§Ø¯
t r
Ø®ÛĮ ÙĦÛĮ
ĠÙ¾ÛĮ ÙĪØ³Øª
ĠØ§Ø³Ú© Ø§Ø±
ĠÙĪØ± ÙĪØ¯
ĠØ§Ø·ÙĦØ§ Ø¹
Ø§Ùĩ Ø¯
ĠØ§Ø¯ Ø¹
ĠÙĨ Ø§Øª
ĠØ§Ø±Ø² Ø´
ĠÙĨ Ø¯Ø§Ø´Øª
ĠØ§Ø± Ø´Ø¯
ĠØ² Ø§
ĠØª Ø®ÛĮÙĦÛĮ
Ø²ÛĮ Ø¯Ùĩ
ĠÙĪØ§ÙĦÛĮ Ø¨Ø§ÙĦ
Õ ¡
ĠÚ©ÙĦÙħØ¨ ÛĮØ§
ĠÚ¯ Ø§ÙĩÛĮ
Ġa m
ĠÙħØ¹ Ø§ÙĩØ¯Ùĩ
Ġp ar
ĠØ¢ÙħÙĪØ² Ø´ÛĮ
ĠÙħØ³Ø¦ ÙĦÙĩ
ĠÙĩÙĨØ± Ù¾ÛĮØ´Ùĩ
ĠØ® Ø´Ú©
ĠØ° Ø®
ĠØ¯Ø§ÙĨØ´ Ø¬
ĠÙħ Ø§Ø±Øª
ĠØ¯Ø§Ø¯ Ú¯Ø§Ùĩ
ĠØ³Ø§Ùħ Ø§ÙĨÙĩ
ĠÙĤ ÛĮÙħ
ĠØ§Ú¯Ø± ÚĨÙĩ
ĠØ§ÙĨ Ø³Ø§ÙĨÛĮ
ĠÙĦ Ø´Ú©
ĠÙħØ¯Ø± ÙĨ
ĠØ¨Ø¹ Ø¶ÛĮ
ĠÙħÙĨ Ø§Ø³Ø¨
ĠØªÙĪ Ø²ÛĮ
Ø² ÙĪ
Øª Ø³
ĠØ¹ Ø§Ø´
ĠØ³Ø±Ø§ Ø³Ø±
Ġa ir
ÛĮÙĨÚ¯ ØªÙĨ
ĠØ§Ø¹Øª Ø±Ø§Ø¶
Ùģ Ø¹
ĠÙ¾ÙĪØ´ Ø´
Ø§Ø¯ Ø§Ø±
ĠØ±ÙĪ ÙĨØ¯
ĠØªØ£ ÛĮ
ÙħÛĮÙĨ ÛĮ
ĠØª ÙĪÙĦØ¯
ĠÙĪÛĮØ± Ø¬
ĠÛĮ Ø®
Ø¸ Ùħ
at e
ĠÙħ Ø§Ø²
ĠØ¨Ø± ÙĤ
ĠÛĮÙĪÙĨ Ø§ÙĨÛĮ
ĠÙħÙĪØ¬ Ø¨
ĠØ¢ÙĨØ¬ ÙĦØ³
ĠÙģØ± Ø§ÙĩÙħ
ĠØ³ Ø§ÛĮ
ĠÙħØŃÙħ ÙĪØ¯
Ø§ÙĨØ¯ Ø±
ĠÙħØ®Ø§ÙĦ Ùģ
ĠÛĮÚ© Ø¯ÛĮÚ¯Ø±
ĠÙħ ÙģÙĩ
ĠØ§Ú© Ø´ÙĨ
ĠÙħØŃØµÙĪÙĦ Ø§Øª
ĠÙħÙĤØ§ ÙĪÙħØª
ĠØ³ÙĦ Ø·Ø§ÙĨ
ĠØ¨ÛĮØ´Øª Ø±ÛĮ
ĠÙħÙĤØ¯ Ø³
ĠÙĨ Ø§Ø´
ĠØªØŃ ÙĦÛĮÙĦ
ĠÙĨØ³ ÙĦ
ĠÙĨØ´ Ø±
ĠØ¨Ø± Ø§Ø³
Ø´ÙĨ Ø§Ø³
ĠØ¢Ø° Ø±
ĠØª ÙĨÛĮ
ĠÙĦ Ø¨Ø§Ø³
Ø´ ÛĮÙĨ
ĠØªØ´Ø®ÛĮ Øµ
ĠØ¢ ÛĮÙĨØ¯Ùĩ
ÙģØ± ÛĮÙĨ
ĠØ« Ø§Ø¨Øª
ĠØ¯Ø±ÙĪ Ø§Ø²Ùĩ
ĠØ¯Ø§ÙĨ ÙħØ§Ø±Ú©
ĠØ¯Ø±ÛĮ Ø§ÛĮ
ec t
ÙħØ± Ú©Ø²
ĠØ¯ÛĮ ÙĪÛĮØ¯
ĠØªØ£ÛĮ ÛĮØ¯
ĠØªÙĪØ²ÛĮ Ø¹
ĠØ¬ÛĮÙħ Ø²
ĠÙĤØ· Ø¹Ùĩ
ĠØŃØ³ Ø§Ø¨
ÙĪÛĮ ÚĨ
Ø¨Øª Ùĩ
ĠÛĮÚ© Ùħ
ĠÙĪØ§Ø´ ÛĮÙĨÚ¯ØªÙĨ
o k
ĠÚ¯ÙĪ ÛĮÙĨØ¯
ÛĮÙĦ Ø¯
ĠÙĩ ÙĪØ´
Ø¯Ø±Ø§ Ø³ÛĮÙĪÙĨ
ĠØ¯Ø§ Ø³ØªØ§ÙĨÛĮ
ĠÙĤÙĪØ§ÙĨ ÛĮÙĨ
d e
ĠØ¢ ÙĨØ¯
ĠØ§Ø¶Ø§ ÙģÙĩ
ĠØ¢Ú© Ø§Ø¯
ĠØ¨Ø§ÙĦ Ø§ÛĮ
ĠÙĩ ÛĮØ¯
ĠØ¹Ø« ÙħØ§ÙĨÛĮ
ĠØ§Ùĩ Ø¯Ø§
ĠÚĨ ÛĮÙĨÛĮ
ĠØ§ÙĦ Ø¨ØªÙĩ
Ùģ ÙĦ
ĠÙħ Ø§Ø±ÛĮ
i o
ĠØ¹ÙĦØ§ ÙĤÙĩ
ĠØ¨ÛĮÙħ Ø§Ø±Ø³ØªØ§ÙĨ
ĠØ¬Ø§ÛĮ Ú¯Ø§Ùĩ
ĠØ¨Ø±Ø§Ø³ Ø§Ø³
i al
Ø´ ÛĮØ¯
ĠÙģÛĮÙĦÛĮ Ù¾
ĠØ³ ÙĪØ±
ĠØªØ¨Ø±ÛĮ Ø²
ĠØ² Ø¯Ùĩ
ĠØŃ Ø§ØµÙĦ
ÙĨÙĪ Ø¹
Ø³ ÙĪÙģ
ĠÚ©ÛĮÙĦ ÙĪ
ĠØ¬ Ø±Ùħ
ĠØªØ£ ÙħÛĮÙĨ
ĠÙ¾ÙĩÙĦ ÙĪÛĮ
ĠØ¨ÙĦ Ú©Ùĩ
ĠÙĨ Ø§Ø±
ĠØ¯ Ø´
Ø· Ø±
ĠØ¯Ø±Ú¯Ø° Ø´ØªÙĩ
it h
ĠÙĤÙħ Ø±ÛĮ
Ø§Ùħ ÛĮÙĨ
ÙĪÛĮ Ø§
ĠÙħÛĮ Ø±
Ø¬ Ø²
ĠÙħØ·Ø§ÙĦ Ø¹Ø§Øª
ÙħØ§ Ø¹
ĠÙĦ Ø§ÛĮÙĩ
ĠØ³Ø± Ø·Ø§ÙĨ
ĠØ§ÙħØ± ÙĪØ²Ùĩ
ĠØ§ÛĮØ± ÙĦÙĨØ¯
ĠÙģ Ø±ÛĮ
ÙĪÛĮ Ø¨
Ø§ÙĨØ¯ Ø§ÙĨ
ĠØ±ÛĮ Ø²
ĠÙħØ¬ Ø§Ø±Ø³ØªØ§ÙĨ
ĠØ±ÙĤ Øµ
ĠØ§Ø³Ú©Ø§Øª ÙĦÙĨØ¯
ĠØ± ØŃ
ĠØ¨ ÛĮØª
ĠØ´ÙĨØ§ Ú¯Ø±Ø§ÙĨ
ĠÙĪ ÙĨ
ĠÚ©Ø§Ùħ ÙĦØ§
u c
ÙĪÙĦ ÛĮÚ©
ĠÙĪ Ø¸
ÙĪØ§ÙĨ Ùĩ
ĠØ·ÙĪÙĦ Ø§ÙĨÛĮ
ĠÙħÙĪ Ø²ÛĮÚ©
ĠÙ¾ÙĨØ¬ Ùħ
ĠØ§Ø¨ ÙĨ
ĠÙ¾ÛĮØ§ Ø¯Ùĩ
ĠØ¨Ø± Ø§Ø¯
ĠÚ¯ Ø´Øª
ĠØ¬ÙĦÙĪ Ú¯ÛĮØ±ÛĮ
ĠØ´Ø¯ Øª
ĠØ®ØµÙĪ Øµ
ĠØ³ Ø§ÙĨØª
ĠØµ ÙĦÛĮ
ĠØ¬ÙĪØ± Ø¬
ĠØ¨Ø¹ Ø¯ÙĩØ§
ĠÚ¯Ø± Ø§ÙĨ
ĠÚ¯ÛĮØ± ÙĨØ¯
ĠØ¸Ø§Ùĩ Ø±
an t
ĠÙģØ±ÙĪØ¯Ú¯Ø§Ùĩ ÛĮ
Ġa c
u g
ĠÙħÙĪÙģÙĤ ÛĮØª
ÚĨ Ø§Ø±
ĠØ¨ÛĮÙĨ ÛĮ
ĠØ¯ ÙĪØ¯
an g
ĠØ§Ø³ Ø¨
ĠØ¯ Ø¹
ĠØ³ Ú¯
ĠÚ©Ø§Ø± ÙĦ
Ø§ Ø¸
ĠØ¯ ÙĤÛĮÙĤ
ĠØµ Ø§ØŃ
ĠØ¯Ø± Ú¯ÛĮØ±ÛĮ
ĠÙĪÙĦ Ø§ÛĮØª
ĠØ¨ Ø§ÛĮ
ĠØ¢ Ø¯
ĠØªÙħ Ø§ÙħÛĮ
ĠÙĦ Øº
ĠÚ©ÛĮ Ùģ
Ø¨ ÛĮØª
Ø§Ø¯ Ú¯ÛĮ
a in
Ú¯Ø± Ùħ
ĠØ§ØŃ Ø³
ĠÙ¾Ø´ØªÛĮ Ø¨Ø§ÙĨÛĮ
ĠØ®ÙĦÛĮ Ø¬
Ø¨Ø±Ø¯ Ø§Ø±ÛĮ
ĠØ§Ø³ØªØ§ÙĨØ¯ Ø§Ø±Ø¯
ĠÙħØ§ÛĮ Ú©ÙĦ
Ø¦ ÙĪÙĨ
ÙĨØ¬ ÛĮ
Ø² ÙĦ
ĠØ§Ø±ÙĪÙ¾ Ø§ÛĮÛĮ
ĠØ´Ø§Ø¹ Ø±Ø§ÙĨ
ĠØ¹ Ø±ÙĪ
ĠØ® Ø§ÙĨØ¯Ø§ÙĨ
ĠØªØµ ÙĪÛĮØ¨
ĠØµ ÙĦ
ĠØª ÙĪÙĨ
ĠÙĪ ÛĮÚ©
ĠØ° Ú©Ø±
ĠØ± Ø§Ø¨Ø±
Ġs c
ĠÙ¾ Øª
ĠØ± ÙĪÙħÛĮ
ĠÚ©ÙĨ ÛĮÙħ
ĠÙħÛĮ Ø§ÙĨÙĩ
ĠÚ¯ÛĮØ§Ùĩ Ø§ÙĨ
ĠÙĩÙħ Ø³
ĠÚ¯Ø°Ø§ Ø´Øª
Ġ ed
ĠØ¹Ø¯ Ø¯
ĠÚ©Ùħ ÛĮØªÙĩ
ĠÚ¯ ÙĪØ´
ĠØ¯ ÙĪÙĨ
ĠØ±ÛĮ ÚĨ
ĠØ³Ú©ÙĪÙĨØª Ú¯Ø§Ùĩ
ĠÙĨÛĮØ± ÙĪ
ĠØ¯ Ø§ÛĮ
ĠØ±ÛĮ Ø²ÛĮ
ĠØ´Ø§Ø® Ùĩ
ĠÙħÙĤ Ø¯Ùħ
ĠÚ©Ùħ Ù¾
p ort
ĠÚ©ÙĨ ÛĮØ¯
ĠÙģÛĮÙĦ Ø³ÙĪÙģ
ĠØ³ÛĮÙĨ ÙħØ§ÛĮÛĮ
ĠØ¨ Ø´Ø±
Ú¯ ÙĪÙĨ
ĠÙģØ± Ø§
Ú¯ Ø³
ĠØ§Ùĩ ÙħÛĮØª
ĠÙģ ÙĨÛĮ
ĠÙħØª ÙĪØ³
ĠØ§Øª Ø§ÙĤ
ĠØ¬ÙĨÚ¯ ÛĮ
ĠØ§Ø³Ù¾ Ø§ÙĨÛĮØ§ÛĮÛĮ
ĠØ§Ø¹ Ø¯Ø§Ùħ
ĠÙĪ Ø§ÛĮ
ĠØ¨Ùĩ ÙħÙĨ
Ø¨Ø± Øª
ĠØª ÙģØ§ÙĪØª
ĠØ¬ØºØ±Ø§ÙģÛĮ Ø§ÛĮÛĮ
ÙĪÙĨÛĮ Ø³Øª
ĠØ³Ø¨ Ø¨
Ġb y
Ø³Øª Ø±ÛĮ
ĠØ¬ÙĨÚ¯ ÙĦ
ĠÙĤØ· Ø±
Ø² Ø§Ø±ÛĮ
ĠØ³ÙĪ Ù¾Ø±
ĠØ¨ ÙħØ¨
Ġr o
ĠÙħØ¹ ØªÙĤ
ĠÙĨÙĤ Ø§Ø´
ÙĪÙĦÛĮ Øª
ĠØ³Ø±ÛĮ Ø¹
ĠØ²Ùħ Ø³ØªØ§ÙĨÛĮ
ĠØ§Ø³ØªØ§Ø¯ Ø§ÙĨ
ĠÙħØª ÙĪ
ĠÙĨ ÙħÙĪ
Ø§ÙĤ ÙĦ
Ùĩ ÛĮ
ĠØŃØ° Ùģ
Øº Ø°
as t
ĠØ¯Ø³Øª Ø±Ø³ÛĮ
ĠØ¯Ø±ÛĮØ§ ÚĨÙĩ
ĠØ´ÛĮØ± Ø§Ø²
ĠØ§Ø¨Ø± Ø§ÙĩÛĮÙħ
Ùĩ Ø§Ùħ
ĠÙĩØ¬ Ø±ÛĮ
ĠÙĨ Ø§ÛĮ
ĠØ®ØµÙĪØµÛĮ Ø§Øª
ĠØ³Ø¹ ÙĪØ¯ÛĮ
Ġb r
Ùģ Ø§ÛĮ
ĠØ¨Ø± ÛĮ
ĠØ´Ùħ Ø§
ĠØ³ Ø§Ú©
ĠÙĦ Ø§Ø²Ùħ
Ø¬ ÙĪØ§ÙĨ
Ø§ÙĦ Ø¯ÛĮÙĨ
Ø§ÛĮ Ø³Ùĩ
ĠÙĨ Ú¯Ø±
c l
i z
ĠØº Ø±
ĠØ§Ø¨Øª Ø¯
ĠØªØ¬Ø± Ø¨Ùĩ
ĠØ¢ Ø±ÛĮ
ĠÙĪØ± ÙĪØ¯ÛĮ
ĠÙħÙĤ Ø§ÛĮØ³Ùĩ
ĠØ´ Ø§Ø±
ĠÙĦÛĮÚ¯ Ø§
ĠØ³Ø±Ø§ÙĨ Ø¬Ø§Ùħ
ĠÙħØ¯ ØªÛĮ
ĠØŃ ÙģØ§
ĠØªÙĪØ§ÙĨ Ø§ÛĮÛĮ
ĠÙĨØ§ Ø´ÛĮ
ĠÚ¯Ø± Ø§ÛĮÛĮ
Ø¯Ùĩ Ùħ
ĠØŃÙħ ÙĦ
ĠØ¢ Ú¯
ĠÙħØŃ Ø¨
ĠØ¨ Ø³
ĠÙħØª Ø¹Ø¯
ĠÚ¯ Ø²
ĠÙ¾ ÙĪØ³Øª
ĠØ°Ø® ÛĮØ±Ùĩ
Øª Ø®Øª
ĠÙĨÙħØ§ÛĮØ´ ÙĨØ§ÙħÙĩ
ĠØª Ø§Ú©
ĠØ¯Ø±Ø® ÙĪØ§Ø³Øª
Ø³ Ø¨
ĠØ±ÙĪÛĮØ¯ Ø§Ø¯ÙĩØ§ÛĮ
ĠÙģØ¶ Ø§ÛĮÛĮ
ĠÙĨ ÛĮØ§
ĠØ§Ø®ØªØµ Ø§Øµ
ĠÙĩ Ø³Øª
Ġp l
ĠØ¹ Ú©Ø³
ĠØ±ÙģØª Ø§Ø±
ĠÙħØ¨Ø§Ø± Ø²Ùĩ
ĠØªÙĨÛĮ Ø³
ĠØªØ§ ÙĪÙĨ
ĠÙ¾ ÙĪÛĮØ§ÙĨ
Øª Ùĩ
ĠØ´Ø§Ø¹ Ø±
ĠÙĨ ÙĪØ±ÛĮ
ĠÙħÙĩØ§ Ø¬ÙħØ§ÙĨ
ĠÙħÙĨØª ÙĤÙĦ
ÙĨØ§ Ø³Øª
ĠÙ¾ Ø±ÛĮ
Ø® ÙĪ
ĠØ´ÙĨØ§Ø³ Ø§ÛĮÛĮ
ĠØµÙĦ ØŃ
ĠØ²ÙħÛĮÙĨ ÛĮ
ĠØ¯Ø± Ùĩ
ÙĪØ± ØªÛĮ
ĠÙħØ¹ØªÙĤ Ø¯
ĠÙĤØ± ÙħØ²
ĠÙħØ· ÙĦÙĤ
ÙĤÛĮ Ùĩ
ĠØ¸ Ø±Ùģ
u p
ĠØ´ÛĮ ÙĪÙĩ
Ġc l
ĠØ³ ÙĨØ¯
ĠÙĪ Ú©
ĠÙħØ· Ø±ØŃ
Ø§Øª ÙĪØ±
ĠÙħØ´Ú© ÙĦ
ÙĪÙħ Ø§
ĠØ¨Ø§ ÙģØª
ÙĪÙħ Ùĩ
ĠÙģØ± Ø§ÙĨ
ĠØ§Ø¹ ÙħØ§ÙĦ
Ø§Ø± Ùģ
ĠÙģØ± Ø§Ø±
ĠØ´ Ø¨Ùĩ
ĠÙħØ± Øª
ĠÙĩØ¯ Ø§ÛĮØª
ĠØ³ Ø¯
ĠØª Ø§Ø²Ùĩ
ĠØ± Ø£
ĠÚ¯ Ø±Ø§Ùģ
ĠÚĨ ÙĩØ±Ùĩ
ĠØ±Ø§Ø¨Ø± Øª
ĠØ¢ Ù¾
ÛĮØ§ Ø³
ĠØ¨ÙĨÛĮ Ø§Ø¯
ĠÙģ ÙĪÙĤ
ĠØ® Ø§Ùħ
ĠÙĤÛĮÙħ Øª
ĠÙ¾ ÙĪØ±Øª
ĠØ¹Ø± Ø¶Ùĩ
ĠØ¬ÙĦ Ø¯
ĠØ§ØŃØ³ Ø§Ø³
ĠØ± ÙĪÙĨ
ĠÙĤÙĩØ±ÙħØ§ÙĨ Ø§ÙĨ
ĠÙĤØ§Ø¬ Ø§Ø±
ĠØªØ¹Ø¯ Ø§Ø¯ÛĮ
ĠÙħØŃ Ø§Ø³
ĠØ§Ø®Øª ÛĮØ§Ø±
ĠÙħØŃÚ© ÙĪÙħ
ĠÙģÙĨ ÙĦØ§ÙĨØ¯
ĠÙħ Ø§Øª
ĠØ¢Ø³ ÙħØ§ÙĨÛĮ
ĠÚĨÛĮ Ø²ÛĮ
ĠØ¨Ø§ ÙĪØ±
ĠØ¹ÙĤ Ø¨
ĠØ¨ØŃ Ø«
ĠÙĩÙĨØ± ÙĩØ§ÛĮ
ĠØ´ÛĮ Ø¹Ùĩ
ĠØ¹ ÙĨØ§
ĠØŃÚ© Ùħ
ĠÙĤ Ø§ÙĦØ¨
ĠØ¢Ú©Ø§Ø¯ ÙħÛĮ
ĠÙĨÙħØ§ÛĮ Ø¯
Ġ Ð
ĠÙħØ³ÛĮ ØŃ
ĠÙ¾ Ø³ØªØ§ÙĨ
ĠÚ©ÙħØ± Ø¨ÙĨØ¯
ĠØªØŃØµÛĮÙĦ Ø§Øª
ĠÙħØªØ¹ ÙĦÙĤ
ĠÙħØ§ÙĦ Ú©
ÙĪ Ø°
ĠÙĨ Ø§Ø³Ø§
ĠØªØ¬ Ø§Ø±Øª
ĠØ±ÙĪ Ø³
ĠÙ¾Ø± ÚĨ
Ùħ Ø¯ÛĮ
ĠØ´ÙĨØ§Ø³ Ø§ÙĨ
Ø¨ Ø·
ĠÙĤ Ø¶
Ø² ÙħØ§ÙĨ
ĠØ³ Ø±Ú©
ĠÙĨ Ø§ÙĨ
ĠØ´Ø¯ ÛĮØ¯
ĠØ¶ Ø±Ø¨
ÙĨ Ø§Ø¯
ĠØ§Ø® ÛĮØ±
ĠÙģ Ø¯Ø±
Ø§Ùĩ ÛĮØ±
or d
ĠØ¨Ø²Ø± Ú¯ÛĮ
ig ht
i es
ÙĪÚ© ÛĮ
ĠÚ©ÙĨ Øª
ĠÙħÙĨØªÙĤ Ø¯Ø§ÙĨ
Ġl a
Ø§ÙĦ ÙĦÙĩ
ĠÙħØ¹Ø§ ØµØ±
ĠØªØºÛĮÛĮØ± Ø§Øª
Ġb e
ÙĪØ¦ Ùĩ
ĠØ¯Ø§Ø´Øª ÙĨ
ĠØ¨Ø§Ø² Ø§ÙĨ
ĠÚ¯Ø±ÙģØª ÙĨØ¯
ar y
ĠØ±ÙĪÙħ Ø§ÙĨÛĮ
ĠÚ¯ÙĪÙĨ Ø§Ú¯
iv e
ĠØ¹Ø¨Ø§Ø±Øª ÙĨØ¯
ĠØ¯Ø§ÙĨ Ø³Øª
Ø± ÛĮÚ©
ĠÙħØ´Ú© ÙĦØ§Øª
ĠØ§Ø®Øª ÙĦØ§Ùģ
Ø²ÛĮ Ùĩ
ĠØ§ÙĤÛĮØ§ÙĨ ÙĪØ³
ĠØ¨Ùĩ Ø¨ÙĪØ¯
ĠØ± Ø§ÛĮØ¬
ĠØ¬ Ø´ÙĨ
Ø´ ÙĩØ±
Ø§ÙĦ ØªÛĮ
ĠØ±ÙĪØŃ Ø§ÙĨÛĮ
ation al
as s
ĠØ®ÙĪ Ø¨ÛĮ
ĠÛĮ Ø§ØªØ§
Ú¯Ø±Ø¯ Ø§ÙĨ
ĠØ¯ÙĪ Ø³ØªØ§ÙĨ
ĠÙĨØ´ Ø¯
ĠÚ©Ø§Ø± ÙĩØ§ÛĮ
ÙĪØ± Ø¯ÛĮ
ĠØ§ÙĨØª Ø¸
ĠÚ© Ø§Ø®
ĠÙ¾Ø§ÛĮ ØªØ®Øª
ĠÙħØŃØ¨ ÙĪØ¨
ĠØ¹Ø§Ø´ ÙĤ
Ø³ ÛĮØ±
ĠÙĩØ§ Ú©ÛĮ
ĠØ§ÛĮ Ø¯Ùĩ
ĠÙħØ¹Ø§ ÙĪÙĨ
Ùģ Ø§Øª
ĠØŃØ¯ Ø§ÙĤÙĦ
ĠØ±ÙĪ Ø§ÛĮØª
ĠØ¹ Ø¨ÙĪØ±
ÙĪ Ø¹
ÙĪ ÙĪØ¯
ĠØ¯Ø± Ø³Øª
ĠØ³ÙĪØ³ÛĮ Ø§ÙĦÛĮ
ĠØ´ÙĩØ± ÙĪÙĨØ¯
ĠØªØ¨ ÙĦÛĮ
ĠÙħØ®ØªÙĦ ÙģÛĮ
ĠÙħØ´ Ø§Ø±Ú©
Ø² Ø§Ø¯
ĠØ¢ÙĨ ÚĨÙĩ
Øº ÛĮØ±
ĠÙģ ØªØŃ
ĠØ® Ø´
ĠØ§Øª Ùħ
Ø§ÙĦ ØŃ
Ġs o
ĠÙĨÚ¯ Ø§Ø±Ø§ÙĨ
ĠØµØ§ØŃ Ø¨
ĠÙĨ Ø§Ø¯Ø±
ĠÙ¾ÙĪÛĮØ§ÙĨ ÙħØ§ÛĮÛĮ
ĠØ³ ÙĦÛĮ
ĠÙĨØª Ø§ÛĮØ¬
ÛĮÙħ ÙĨØ§Ø³Øª
ĠØ§ÙĦ Ùģ
ĠØ§Øµ ÙĪÙĦ
ĠÙħÙģÙĩ ÙĪÙħ
ĠÙĨ Ø±
ĠØ¢ÙĪ Ø§Ø²
ĠØ®Ø§ÙĨÙĪ Ø§Ø±
ĠØª Ø®Øª
ĠØŃÙģØ§ Ø¸Øª
Õ¡ Õ
ĠØ§ÙĦ ØŃ
ĠØ¢ Øª
ĠØ¢ Ùĩ
Ġb l
ĠØ¢ÙĩÙĨÚ¯Ø³ Ø§Ø²Ø§ÙĨ
ĠÙĨ ØŃ
ĠØ¨ ÙĪØª
Øº Ùĩ
ĠØª Ø®Øµ
ĠØ¯ÛĮØ¯ Ú¯Ø§Ùĩ
Ùģ Ø³
ĠØµ Ø±Ø¨
ĠÙħÙĪ Ø´Ú©
ĠØ¯Ø§ÙĨØ´ ÙħÙĨØ¯Ø§ÙĨ
ĠÙĨÙĪ Ø¬ÙĪØ§ÙĨ
ĠÙħØ´Ùĩ Ø¯
ĠÚ©Ø§Øª ÙĪÙĦÛĮÚ©
ĠÚ© Ø§Ø¨
ĠÚ¯ Ø±Ø§
ĠØ¯ ÛĮØ±
ĠØ§ÙĦ Ú©Ø³
ĠØ¹Ùħ Ø¯Ùĩ
ĠÙģØ±Ø¯ ÛĮ
ĠØ¹Ø¨Ø¯Ø§ÙĦ ÙĦÙĩ
ĠØŃ Ø¬
ĠÙħ Ø§Ø³
ĠØµØ¯ Ø§ÛĮ
ĠÙĦØ¨ ÙĨØ§ÙĨ
ĠÙĩÙĨØ± ÙħÙĨØ¯
en s
ĠØ¢ÙĪØ± Ø¯Ùĩ
Ú© Ø´ÛĮ
ĠØ§Ø³Øª Ø¹
Ø¨ Ø±ÙĪ
ic h
ĠØ¨Ø¯ ÛĮÙĨ
ĠØ§ ÛĮÚ©Ø³
ĠÙĨÚ¯Ùĩ Ø¯Ø§Ø±ÛĮ
ĠÙģØ±ÙħØ§ÙĨØ¯Ùĩ ÛĮ
ĠØ§Ø¬Ø± Ø§ÛĮÛĮ
Ġt r
ĠÙĨÙĪØ§Ø² ÙĨØ¯Ú¯Ø§ÙĨ
ĠØ® Ø³
ĠÙĨÙĤ Ø§Ø·
it e
ÙĪ Ø¨ÛĮ
ĠØªÛĮØ± Ø§ÙĨØ¯
ĠØ§Øª ÙĪÙħ
ĠØ² Ø±Ø¯
Ġb o
ĠÙĤØ§Ø¨ ÙĦÛĮØª
ĠØ¨Ø± Ø¢
ĠØ¨ ÙĦØ§
ĠÙĨÙģ ÙĪØ°
ĠÚ©Ø§Ø± ÙĪÙĦÛĮÙĨ
n g
ĠØ¹ÙĪ Ø§ÙħÙĦ
ĠØ¯ÙĪ Ø§Ø²
m an
or y
ĠØ¨ ÙĨØ¯Ø±
ĠØ§ÙĦ Ø¬Ø²
ĠØ§ØŃØªÙħØ§ÙĦ Ø§
ĠÚĺ ÛĮÙħÙĨØ§Ø³Øª
ÙĦ Ø§ÙĨ
ĠØ±Ø§Ø¯ÛĮ ÙĪ
ĠÙĤ Ø¨Ø±
ĠØ¹ Ú©
Ú©Øª Ø±ÛĮ
Ø§Ø³ Ùħ
ĠØ§ÙĦÚ¯ ÙĪØ±ÛĮØª
ĠØªØ¨ÙĦÛĮ Øº
i i
Ùħ Ø§Ø±
Ġne w
ĠØ® ÙĪØ¨
ĠÙĤØ§ÙĨ ÙĪÙĨÛĮ
ĠÙ¾ÙĨ Ø§Ùĩ
ĠÙĨØ§ ØµØ±
ĠÚ¯ Ø§ÙĦ
ĠØ³ÙĤ ÙĪØ·
ĠÙħØ³Ø¦ ÙĪÙĦ
ĠÛĮ ÙĪÙĨÛĮ
ĠÙĨÛĮ ÙĪØ²
ĠØŃØ§Ú© Ùħ
Ð °
Ø³Øª Ø§
Ø¨ ÙĪÙĦ
ĠÙĨ ÙĪÛĮØ³ÛĮ
ĠÙģ Ø±ÛĮØ¯
n e
ĠÚ¯ÛĮØª Ø§Ø±
Ø² Ø¯ÛĮ
ĠÚ©Ø§Ø± Ø´ÙĨØ§Ø³ÛĮ
ĠØ³ÙĪÙħ ÛĮÙĨ
ĠØ´ÙĩØ± Øª
ĠÙĤØ± Ø¢ÙĨ
ĠØ¢ÙģØ±ÛĮÙĤ Ø§ÛĮ
Ġj o
ĠØ§ÙħÙ¾Ø±Ø§Øª ÙĪØ±
s h
ĠÙħ Ø±ÛĮ
ĠÙħÙĨ ØŃÙĦ
ĠØ±Ø³ÛĮØ¯ ÙĨ
ÛĮ Ø³ÛĮ
ĠØ³ÙĪ Ø§Ø±Ø§ÙĨ
ĠØ³ ÙĪØ²
ĠÙģÙĦØ³ Ø·
ÙĪØ¦ ÙĦ
ĠÙģØ± Ø¶
Ø§ Ø¡
Ġf l
ĠØ¬ Ø±Ø§
ĠÚĨ Ø±Ø®
Ùħ ÛĮÙĦ
ĠØ´ Ø´Ùħ
ĠÙĩÙħÚĨ ÙĨØ§ÙĨ
ĠØ¨ Ø´
ĠÙĩ Ø§ÙĦ
Ø¹ Ø§Ø±
ĠØ¨Ø¹ Ø¯Ø§
ĠØ¬Ø² Ø§ÛĮØ±
ĠÚ©Ø§Ø± Ø®Ø§ÙĨÙĩ
ĠØ³Ø¹ ÛĮØ¯
ĠÙĩÙĪØ§ Ú¯Ø±
ĠÙħØ´Ø§Ø±Ú© Øª
ĠÚĨ Ø±
ĠÙħØ³ÙĦÙħØ§ÙĨ Ø§ÙĨ
ĠØ§ÙĨØ¯ Ø§Ø²ÛĮ
ĠÙħÙĪ Ø§
Ø¯Ùĩ ÛĮ
ĠÙ¾ÛĮ ÙħØ§ÙĨ
ĠÙ¾Ø±ÚĨ Ùħ
ĠÙĩÙħ ÛĮØ´Ùĩ
Ġfr om
ĠÚ©ÛĮÙĦÙĪ Ú¯Ø±Ùħ
ĠÙħÛĮÙĦÛĮ Ø§Ø±Ø¯
is h
ĠÙ¾ÛĮØ´Ø± ÙģØª
ĠÙģÙĦÙĪØ± ÛĮØ¯Ø§
ÛĮÙĦ Ùĩ
ĠÙħØŃÙħØ¯ Ø±Ø¶Ø§
ĠÙĨØ´ Ø§ÙĨÙĩ
ØµØ± Ùĩ
ĠØ± Ø§Ùħ
ĠØ¢ ÙĪØ±ÛĮ
ÙĪØ³ Ùģ
ĠØ®Ø· ÛĮ
ĠÚ© ÛĮÙħ
ĠØ³ÛĮÙĨ ÙħØ§ÛĮ
ĠØ§ ÙħØ±ÛĮÚ©
Ø¬ ÛĮØª
Ù¾ ÙĪØ±
ĠÙĤ ÙĨ
ĠÙĦ Ø§ÛĮ
ĠØ·ÙĦ Ø§ÛĮÛĮ
ĠØ¬Ø§Ùħ Ø¹
ĠÙĨÙħ Ø§Ø¯
ĠØ§Ú© Ø«Ø±
ĠÙħÙĨ ØŃ
ĠØ³ Ø§Ø¨ÙĤÙĩ
Ø¬ ÙĨØ³
ĠØª Ø¬Ùĩ
Ġw w
ĠÙħØ´ Ø§ÙĪØ±
Ġa d
ĠØ¹ ÙħØ¯
t e
ĠÙ¾Ø¯ÛĮ Ø§ÛĮ
ÙħØ± Ø¨Ø¹
ĠØ§ÙģØ³ Ø§ÙĨÙĩ
ĠØ¯Ø§Ø± ÙĪ
ĠØ³ Ø§Ø±
ĠÚ© Ùģ
or s
n a
ĠÚ©Ø±ÙħØ§ÙĨ Ø´Ø§Ùĩ
ĠØ¯ÛĮ Ù¾ÙĦ
ĠØ¶ Ø¨Ø·
ĠØ¯ ÚĨØ§Ø±
ĠØ³Ø± Ø¯Ùĩ
ĠÚ¯ ÙĨØ¬
ÙĤ Ø¨
Ø´ ÙĪ
Ùģ ÛĮÙĦØ¯
ĠØ¨Ø§Ø² Ø±
ÙħØ± Ùĩ
ĠØªØ¬Ùĩ ÛĮØ²
ĠØ¨Ø¯ Ø³Øª
ĠØ¯ÙĨÛĮ Ø§ÛĮ
ac k
ĠÙĤ ÛĮ
ĠØ§ÙĦÚ¯ÙĪØ±ÛĮØª Ùħ
ĠÙĪ Ø§Ø³
ĠÙ¾Ø± ÙĪØ±Ø´
ĠØ® Ø§ÙĦ
ÛĮÙĨ Øª
ĠØ¨Ø§ Ø®Øª
ĠØ¨Ø§Ø² Ø¯Ø§Ø´Øª
Ø² Ø§Ø³
ĠÙħØ³Ø§ ÙģØ±
ĠØ´ÙĨØ§ Ø®ØªÛĮ
ĠØ§ÙĦÚ©ØªØ± ÛĮÚ©ÛĮ
ĠÚ© Ø§Ø´
ĠØ§Ø³ Ùħ
ĠØ® Ø§ÙĪØ±
Ú©ÛĮ ÙĪ
ĠÚĺ ÙĨ
un d
ĠÙĨÙħÙĪ Ø¯Ùĩ
a z
ĠÙ¾Ø± ØªØ§Ø¨
ĠØ¯ÛĮ ÙĪ
ÛĮÙĨ ÙĪÛĮ
ĠØªØ± Ø³ÙĨ
ĠÚ¯ ÙĪÛĮØ´
ĠÙħØŃ ÙĪØ±
ĠÙĨ Ú¯Ø§Ùĩ
Øº ÙĦ
ĠÙħ Ø§Ø³Ø§
ĠÙĪ Ø§ÙĨ
ĠØ§ÙħØ± ÙĪØ²
ĠØ± Ø¨Ø§Øª
ĠØ¯ Ø¨
ĠØ§Ú© Ø¨Ø±
ÙĨ Ø§Ùħ
ÙĤØ± Ø§Ø±
ĠØ®ÛĮ ÙĦÛĮ
ĠÙĨØ¬ Ø§Øª
ĠÙģØ§Ø± Øº
ĠØªØ±Ø³ÙĨ Ø§Ú©
ÛĮÚ© ÙĪ
ĠÙĪ Ø³Øª
ĠØ¬Ø° Ø¨
ĠØ® ÛĮØ±
ĠØ³ ÙĦØ³
ĠÚĨØ´Ùħ Ùĩ
re e
ĠØ²ÙĨ Ø¬
Ġe x
ĠØ± Ø¯ÛĮ
ĠØ¨ÛĮØ´ØªØ± ÛĮÙĨ
ĠØ§Øª Øµ
ĠØ§Ùħ ÛĮØ¯
Ġa p
ĠØ¢ÙĤ Ø§ÛĮ
ĠØ´Ùĩ ÛĮØ¯
ĠØ¨Ø± ÙĦÛĮÙĨ
Ú¯ Ø§Ø±ÛĮ
ĠØ¨Ø²Ø±Ú¯ ØªØ±ÛĮÙĨ
ĠØ¢ÙĨ Ú©Ùĩ
ĠÙħ Ø§Ú©
ur e
ĠÙĤ ÙĪÛĮ
ĠØ®Ø§Øµ ÛĮ
ĠØ± ÙħØ²
Ø§Ù¾ ÙĪØ±
ĠØ±ÛĮÚĨ Ø§Ø±Ø¯
ĠÙħÛĮ Ø´
ĠÙĤØ±Ø§Ø±Ø¯ Ø§Ø¯
Ġa b
ĠØ´Ú© Ø§Ø±
Ø¨Ø§ Ø³ÛĮ
ĠÙħØŃ ÙĤ
ĠÚ©Ø´ÛĮ Ø¯Ùĩ
ÙĪ Ø·Ùĩ
ĠÙħØ´ Ø±ÙĪ
ĠÙħØ³ Ø§Ø¦ÙĦ
Ø¢ ÙĪØ±ÛĮ
ĠÙħØ¹ Ø§Ø¯
ĠØªØ±Ú©ÛĮ Ø¨ÛĮ
ĠØ¨ ÙĪÚ©Ø³
ĠØ¬ Ø¨Ùĩ
ĠÙĩ ÛĮÙĦ
ĠÙĨØ´ ÛĮÙĨ
ĠÙģ Ø¯Ø±Ø§Ø³ÛĮÙĪÙĨ
ĠØ§ÙĪ ÙĩØ§ÛĮ
ĠØ®ÙĪØ§Ùĩ Ø±
ĠÙĦØ´Ú© Ø±
ĠÙħØª ØµÙĦ
ĠÙĤØ·Ø¹ ÙĨØ§ÙħÙĩ
ĠÙĦØŃ Ø§Ø¸
ÙĨØ± Ø§ÙĦ
ĠØºØ° Ø§ÛĮÛĮ
ĠØ§ Ø¸Ùĩ
ĠØ¨Ø§Ø² Ø³Ø§Ø²ÛĮ
ĠÚ©Ø§Ø±ÙĪÙĦÛĮÙĨ Ø§ÛĮ
ĠØ¢Ùħ Ø§Ø¯Ùĩ
ĠØ®ÙĪ Ø§Ø¨
Ø¸ Ø±
Øª ÛĮÙĨ
ĠÙĨÙĩ Ø§Ø¯
ĠÙģØ±Ùħ ÙĪÙĦ
ĠØ§ÙĪÙĩØ§ÛĮ ÙĪ
Ø« ÛĮ
ĠÚĨ ÛĮØ²
ĠÚ©Ø´ÙĪØ± ÙĩØ§
ĠÙĤ ØµØ¯
ĠÚ¯Ø° Ø§Ø±
ĠÚ©Ø§Ùħ Ù¾ÛĮ
ĠØ¯ÙĨØ¨Ø§ÙĦ Ùĩ
ĠØ§Ú© Ø³
ĠÙĨ Ø§Ú¯
ĠØ§Ø³ÙĦ ÙĪ
ÙĪ Ø§ÛĮ
Ġ us
ĠØ¨ ÙĪÙĦ
ĠÚ©ÙĦ ÙħÙĩ
t s
ĠÚ©Ø§ ÙģÛĮ
l y
ĠØ§ÛĮÙĦ ÛĮÙĨÙĪÛĮ
ÙĤ Ø§
ĠØ¬ÙĨ Ø§ÛĮÛĮ
ĠØ¢ Ø±Ø§
ĠØ§ÛĮÙĨØªØ± ÙĨØª
ĠØ¯Ø§ Ø¦
ĠÙ¾Ø± Ø³Øª
ĠÙĤØ± Ø¨Ø§ÙĨÛĮ
ĠØ³Ø§ ØŃÙĦ
ĠØ¬ ÙĪÙĨ
ĠØªÙĪ Ú©ÛĮÙĪ
Ø¬ Ø¹
ĠÚ©ÙĨ ÙĪÙĨÛĮ
ĠØŃØ° ÙģÛĮ
ĠØ³ÙĦØ³ ÙĦÙĩ
r y
ĠØ§Ø³ Ú©ÛĮ
ÙĪØª ÙĪ
ĠØ§ ÛĮÚ©
Ø§Ø±ÛĮ Ø§ÙĨ
ĠØ¯ ÙħØ§ÛĮ
ĠÙħÙĤ Ø±
ĠØª ÙħØ§ÛĮ
ĠØ³ Ø§Ú©ÙĨ
Øµ Øª
ĠØ´ÛĮ ÙĦÛĮ
ÙĦ Ø±
ĠÙĩØ§ÛĮ Ø´
ĠØ¨ ÙĪÙĨØ¯
ĠØ§ÙĦ ØªØŃ
ĠÙ¾ Ø¯ÛĮØ¯
ĠÙħØªÙĪØ³ Ø·
ĠØ¬Ø¨Ùĩ Ùĩ
ĠØª Ø²
ĠØ¨ÛĮ Ø³ØªÙħ
ĠØ®Ø±Ø¯ Ø§Ø¯
ĠØ¨ ÙĪØ´
Ġc ol
ĠÛĮØ§Ø¯ Ø¯Ø§Ø´Øª
ÛĮÙĨ ÛĮØ§
ĠÙģ ÙĪØ±
ÙĤ Øª
ĠØ§ Ø±Ú©
ic al
ĠÚ©Ø§ÙĨ Ø§ÙĦ
ĠØ¯ ÛĮÙĨÛĮ
ĠØ¯ÛĮØ¯ Ø§Ø±
ĠÚ© ÙĪÙĦ
ĠØ¬ ÛĮÙĨ
Ùħ Ù¾
ĠÙħØ¬ Ø¨ÙĪØ±
Ú© Ø§Ùħ
ĠÙĤ Ø§Ø¯Ø±
ĠØ´Ùħ Ø´ÛĮØ±
ĠØ³Ø® ÙĨ
ĠÙĤØ§ÛĮÙĤ Ø±Ø§ÙĨ
ĠØªØ¬ Ø²ÛĮÙĩ
ÙĪ ÙĪØ§
ĠØ¨Ø±Ú¯ Ø²ÛĮØ¯Ùĩ
ĠØ¹ÙĦ ÛĮØ±
ĠØ®Ø· ÙĪØ·
ĠØ§ÛĮ ÙģØ§ÛĮ
ĠØªØ§Ø¨ Ø³ØªØ§ÙĨ
ĠÛĮ Ø²Ø¯
ÛĮØ± ÙĪ
ĠØ³ÙĦØ·ÙĨ Øª
ĠÙĩÙĪØ§Ù¾ÛĮÙħ Ø§ÛĮÛĮ
ĠÚ¯Ø°Ø§ Ø´ØªÙĩ
ĠØ¯Ø§ÙĨ Ø¯
ĠØ³Ø§ÙĦ ÙĨ
ĠÙħÙĪÙĦ Ú©
Ġhttp s
ĠÙħØ³Ú© ÙĪ
ĠÙ¾ Ø¯
ĠÙĨØ¸ ÛĮØ±
ĠØªÙĪØ¶ÛĮ ØŃ
ĠØ´ÙĩØ±ÛĮ ÙĪØ±
Ġw ith
ĠØ´ ÙĦ
ÙĦ ÙĨØ¯ÛĮ
ĠØ·Ø¨ÛĮ Ø¹Øª
ĠØ³ÙĪ Ø®Øª
ĠØ®ÙĦØ§ ØµÙĩ
Ø² ÙĨÛĮ
Ø² Ø§ÙĨ
ĠØ® ÙĪÛĮØ´
Ø± Øª
Ġw eb
ĠÙħÙĦ Ú©
ĠÙĤ Ø§Ø±Ùĩ
Ú©ÙĨ ÙĨØ¯Ùĩ
ĠÙħØ±Ø§ Ú©Ø²
ĠÙħÛĮØ² Ø¨Ø§ÙĨ
ĠÙ¾ÛĮ ÙĪ
ĠØ¨Ùĩ Ø§Ø±
ĠÙ¾ÛĮ ÚĨ
ØŃ Ø³ÛĮÙĨ
ĠØ´ÙĪØ± Ø´
ĠÙ¾ ÛĮØªØ±
ĠØ®ÙĪØ§ÙĨ Ø¯
ĠÚ©ÙĨÚ¯ Ø±Ùĩ
ĠØ¯Ø± Ú©
ĠÙĨÙĤ Ø¯
ĠØ· Ø±
ĠÙĤÙĦ Ø¨
ĠØ·Ø±Ø§ ØŃ
ÙĪÙĦÛĮ Ø³
ĠØ¨ Ø³Øª
ĠØ§Ø³Ùģ ÙĨØ¯
ĠÙħØ± Øº
ĠÚ©Ø³ Ø§ÙĨÛĮ
ĠØ¬ ÙĦØ³
Ø² Ø§ÛĮ
Ø§ÙĦ Ùħ
ĠØ±Ø£ ÛĮ
Ø®Øµ ÙĪ
ĠØ³Øª Ø§Ø±
q u
ÛĮØ§ Ú¯Ø§ÙĨ
ĠØ¯ÛĮ Ø¬ÛĮØª
ĠÙ¾Ø±ÙĪØª Ø¦ÛĮÙĨ
ĠÙĤØ¨ ÙĦÛĮ
ĠÙħØ§Ø¯ Ø±ÛĮØ¯
ĠØ¯ Ø´Øª
ĠØ§Ø¯ ÙĪØ§Ø±Ø¯
ĠÙĪ Ø§Ú©
ĠØŃØ§Ùģ Ø¸Ùĩ
ĠØ¨ Ú©
ĠÙħØ¯ ÙĨÛĮ
ĠÙĩÙģØª Ùħ
ĠØµØ±Ø¨ Ø³ØªØ§ÙĨ
Ø§ØŃ ÛĮ
ÙħØ§Ø¹ ÛĮÙĦ
Ø§ÙĨØ¯ ÙĨ
ĠÚ¯ÛĮÙĦ Ø§ÙĨ
ĠÙģØ¯Ø± Ø§ÙĦ
ĠØ¹ÙħØ¯ ØªØ§
Ø§Ùħ Ù¾
ÙĪØ§ÙĨ ÛĮØ§
ÚĨ Ø³ØªØ±
ĠÚ©ÛĮÙĦÙĪÙħØªØ± ÙħØ±Ø¨Ø¹
Ġww w
ĠØ¨Ùĩ ØªØ±
ĠØ¢ Ø¨Ø§ÙĨ
Ø§Ú¯ ÙĪ
ĠÚ©ÛĮÙģ ÛĮØª
ØµØ± Ùģ
ĠØ§ Ø¯ÛĮ
ĠÚ©Ø± Ø¨ÙĨ
ĠÙħØ§Ø³Ø§ ÚĨ
Ø¨ Ø§Ø¨
ĠØ³ ÙĪÙĨ
ĠØ´ Ø§ÛĮ
ÛĮ ÙĦÛĮ
Ø² Ùħ
ĠØ¯Ø§Ø¯ Ú¯Ø§ÙĨ
ĠÙħÚ© Ø§ÙĨÛĮ
ĠÙĩ ÙĪØ±
ĠÙģÛĮÙĨ Ø§ÙĦ
ĠÙħØª ØºÛĮØ±
ĠÚ©Ø§Ø± Øª
ĠØ±ÙĪ Ø¦
ĠÙħØ§Ø³Ø§ÚĨ ÙĪØ³Øª
ĠØ« Ø§ÙĨÛĮÙĩ
ĠÙĨØ¸ Ø§Ø±Øª
ĠØ±Ø¦ Ø§ÙĦ
ĠØŃÛĮ ÙĪØ§ÙĨ
ĠÙģÛĮÙĦÙħ Ø¨Ø±Ø¯Ø§Ø±ÛĮ
ĠØ§ÙģØªØ® Ø§Ø±
ÙħØ§ÙĨ Ø¯
Ø¹ ÙĦ
ĠØ¨ÙĪØ± Ø³
ĠØªØ¬ÙĩÛĮØ² Ø§Øª
ĠØ¨Ø± ÙĨØ¯
ĠÙħØ¯ Ø±Ú©
ĠØ³Ø§ÙĨ ØªÛĮ
ĠØ§ÙģØª Ø§Ø¯
ĠÙ¾Ø³ØªØ§ÙĨ Ø¯Ø§Ø±Ø§ÙĨ
ĠÙģÙĦ Ø²
ĠØ®ÙĪØ§ÙĨ Ø¯Ùĩ
ĠÙħ Ø§Ø¬
ĠØª ÙĨØ¯
ĠØ¨Ø±Ø§Ø¯ Ø±Ø§ÙĨ
ĠÙħØ¹Ùħ ÙĪÙĦ
ÙĨÙĪ Ø¹ÛĮ
Ø§Øª ÛĮÚ©
Ø³ÛĮÙĦ ÙĪØ§ÙĨÛĮØ§
ĠØ±ÙħØ§ÙĨ ØªÛĮÚ©
ĠØ®Ø§ÙĨ Ú¯ÛĮ
ĠØµØŃ Ø¨Øª
ÙĦ ÙħØ§ÙĨ
ĠØ¨Ø± ÙĨ
ĠØ®Ø§Ø± Ø¬Ùĩ
ĠØª ÛĮØ±Ùĩ
ĠÚ©Ø§Ø±Ø¢ ÙģØ±ÛĮÙĨ
Ø´ÙĨ Ø¨Ùĩ
ĠØ¨ÙĦ Øº
ĠØ¯ÛĮ ÙĪØ§ÙĨ
ĠÙħØ§ÛĮ Ú©
ĠØ³ ÙĪÙĦ
ĠØ³Ø§ ØŃ
ĠØ´Ø§Ùĩ Ø²Ø§Ø¯Ùĩ
Ø³ÛĮ Ø§
ĠÙĨÛĮÙĪ Ø¬Ø±
ĠÙħØº Ø²
ĠØ¨Ø±Ø®ÙĪØ±Ø¯ Ø§Ø±
ĠØ§Ø³ ÙħØ§Ø¹ÛĮÙĦ
ĠÙĩÛĮØ¯ Ø±ÙĪ
ĠØªÙĪØ¬Ùĩ ÛĮ
Ġh e
ĠØªÙĦ ÙģÙĨ
Ú¯ Ùĩ
ĠÙĦ ÙĪÙĦÙĩ
ĠØ² ÙĨÛĮ
ĠÙĨÛĮÙĪØ¬Ø± Ø³ÛĮ
Ø® ÛĮØ±
Ø³Øª ÛĮÙĨ
ĠÙĨÙħØ§ÛĮØ´ Ú¯Ø§Ùĩ
ĠÙħØ³ Ø¹ÙĪØ¯
ÙĪÙĨ Ø²ÛĮ
ĠØ§Ø± Ø²ÛĮ
ĠÙĨ Ø§Ø®
Ġm e
ĠØ³Ø± ÙĪÛĮØ³
ĠØ³Ùģ Ø§Ø±Øª
ĠÙħØ§Ø±Øª ÛĮÙĨ
Ġin ter
ĠÙħØŃØ¯ ÙĪØ¯Ùĩ
Ø² Ø§Ùħ
ĠØ¬Ø§ Ø°
ĠØµ Ø¨
ĠØ³Ø® ÙĨØ±
ĠÙĩ Ø§ÙĨ
ĠÙģ ÛĮØ±
Ø¨ Ø§Ø±ÛĮ
ĠÙĩÙħ Ø²ÙħØ§ÙĨ
ĠØ§ÙģØ± Ø§Ø¯ÛĮ
ĠÚĨ Ø§ÙĦ
ĠÙħØ¬Ø¯ Ø¯
ĠÙħØŃ ÙĪØ·Ùĩ
Ø± Ø§Ùħ
Ġ Õ
ĠÙģ Ø³
ĠÙ¾Ø±Ø¯ Ø§Ø²Ø§ÙĨ
ĠØ³ÛĮ Ø§Ø±Ùĩ
on d
ĠØ§ÙĩØ¯Ø§ Ùģ
Ġm a
ĠÙģÛĮÙĦØ³ÙĪÙģ Ø§ÙĨ
ĠÚ© Ø§ÙĨØª
Ð ¾
ĠÙħ Ø®ØµÙĪ
ÙĨØ¯ Ø±Ø§ÙĨ
ĠØ§Ø³Øª ÙĪÙĨÛĮ
ĠÙĤØ¯ ÛĮÙħ
ĠØ¹ÙĨØ§ ØµØ±
ĠØ¯Ø§Ùħ ÙĨÙĩ
Ø´ ÙħÛĮ
ĠÙĤÙĦÙħØ± ÙĪ
ĠÙħØ¬ Ø§Ø²
ĠØªØ± ÙĪØ±ÛĮ
ĠØ´ ÛĮÚ©
ĠØ³ ÙĦØ§ØŃ
ĠØ§ÙħÙĨ ÛĮØªÛĮ
ĠØ§ÙĨÚ¯ÙĦÛĮ Ø³
Ø§ ÙĪÛĮØ±
ĠÙĦØ± Ø²Ùĩ
ĠÚ©Ø§Ùħ Ù¾
ĠØµ ÙģØ±
ĠÙĪ ÛĮÙĨØ¯
ĠÙ¾ÙĨ Ø³ÛĮÙĦÙĪØ§ÙĨÛĮØ§
Ø§Ø± ÙĨ
ĠÚĺØ§ÙĨ Ø±
ĠØº ÙĦ
ĠØª ÙĨÚ¯
ĠØµ ÙĨØ¯
ĠØ§ Ø³ÛĮØ¯
ĠÙħØ§Ø² ÙĨØ¯Ø±Ø§ÙĨ
c y
ĠÙĪØ²ÛĮØ± Ø§ÙĨ
ĠØ®Ø§ÙĨ Ùħ
ĠØŃ Ø§Ø¯Ø«
ĠØ²ÛĮ Ø¨Ø§
ĠØ¬Ø¯ÛĮØ¯ ÛĮ
ĠØ¨ÛĮÙħ Ø§Ø±
ĠÙĨØ§ ÙĪ
ĠØ¢Ø³ ÙħØ§ÙĨ
Ø¬ Ø³ØªØ§ÙĨ
Ø° ÛĮØ±ÛĮ
Ġs v
ĠØ¸Ø±Ùģ ÛĮØª
Ø§ Ø®ØªÙĩ
ĠÙħØŃ Ø³ÙĨ
ĠÙ¾ ÙĦØ§
ĠÚ©Ø±ÙĪ Ø§Ø³ÛĮ
ĠØ§ÙĨØªÙĤ Ø§Ø¯
ĠØ®Ø´ ÙĪÙĨØª
ĠØ±ÙĩØ¨Ø± Ø§ÙĨ
Ø§ Úĺ
ØŃÛĮ ØŃ
ĠØ§Ø¹ ØªÙĤ
ĠØ¢ÙħÛĮ Ø²
ÚĨÛĮ Ø¯Ùĩ
Ø¯Ø§ Ø´ØªÙĩ
ÛĮÚ© Ùĩ
ĠÙħÙĨØµ ÙĪØ¨
ĠØªØ¯ Ø±ÛĮØ³
en d
ĠÙģÛĮØ² ÛĮÚ©ÛĮ
ĠØ¹ Ø§Ùħ
ĠØ¯Ø§ÙĨØ´Ø¬ ÙĪÛĮØ§ÙĨ
ĠØ§ÙħØ±ÛĮÚ© ÙĨ
Ú© Ø±ÛĮ
ĠØªØµ Ø§Ø¯
ĠÙĩÙħØ§ÙĨ ÙĨØ¯
ĠØ³ÙĨÚ¯ ÛĮÙĨ
t y
ĠÙĦ Ø§Ú©
ĠØ¯ÛĮÚ¯Ø± Ø§ÙĨ
ĠØ¨ ÙĪØ³
ĠØ¨ÙĪÙĨØ¯ Ø³
l and
t on
ĠÙħÙĨ Ø§Ø³
ĠØŃØ§Ø¯Ø« Ùĩ
ĠØ¨ØŃ Ø±
ĠÙģØ±Ø² ÙĨØ¯Ø§ÙĨ
ĠØ± Ø¬
ĠÙĪØ±Ø²Ø´Ú© Ø§Ø±
ĠØ¯Ø± Ø¯
f f
ĠÙĨØ§ÛĮ Ø¨
ĠÙħÙĨ Ø´
Ú©Øª Ùĩ
ĠØ±ÙĪØ¦ ÛĮÙĨÚ¯
ĠÙĪØ² ÙĨÙĩ
on g
ĠØ¹ Ùģ
o b
Øº Ø§Ùħ
ĠÙĪÚ© ÛĮÙĦ
ĠÙĩÙĪ Ø§ÛĮ
ÛĮ ÙģÙĩ
ÙħÙĨ Øª
ĠØ±Ú©ÙĪØ±Ø¯ Ø²
ĠÚ©ÙĨ ÙģØ±
ĠÙ¾ Ø±Ø§Ú©
ĠØ´ÛĮ Ø´Ùĩ
Ġf o
ĠÚ© Ø¯Ø§Ùħ
ĠØ¯Ø¨ÛĮØ± Ø³ØªØ§ÙĨ
ÛĮÙĦ Ø§
Ġair port
Ø³ ÙħÙĩ
ĠÙ¾ Ø±Ø§
ÙĪ ÙĤÛĮ
ÙĦØ§ ÙĪÛĮ
Ø³Ú© Ø§
ĠØ®ÙĪØ¯ Ú©Ø´ÛĮ
Ø±ÙĪ Ø²
Ġp ng
ĠÙĨØµ Ø¨
ĠØ®ÙĪØ§Ùĩ ÙĨØ¯
ÙĪ Ø§ÛĮÛĮ
ÙĪ Ø§Ùħ
ĠÙħØ§Ø¯Ø± Ø´
Ú© ÛĮØ¯
ĠÙħÙĨ ÙģÛĮ
ĠØ§ÙĦØ¬Ø² Ø§ÛĮØ±
Ø§Ø± ØªÛĮ
ĠÙħØµ Ø§ØŃ
ÙĪ ÙĪ
ĠÙĨ Ø±Ø®
ĠØ§Ùħ Ø§Ø±Ø§Øª
ĠÙħÙĦ Ú©Ùĩ
ĠØª ÙħØ¯
ĠÙħÛĮÚ© Ø±ÙĪ
ĠØ§Ø¨ Ø²Ø§Ø±
ÙĦÛĮ Ùģ
Ø±Ø§ Ø¹
ĠÙĩØ´Øª Ùħ
ĠÙĪØ¸ ÛĮÙģÙĩ
ĠÙħÙĩ ÙħÛĮ
ĠÙħÛĮÙĦ Ø§ÙĨ
ĠØ§Ø±Ø¯ ÛĮ
ĠØ± Ø§Ø¯
ĠØ³ Ø¹ÛĮ
ĠÙħÙĤØ§Ùħ Ø§Øª
ĠØ¬Ø§Ø° Ø¨Ùĩ
ĠÙĪÙĦ Ø²
ĠØ¹Ø¶ ÙĪÛĮØª
ĠØ³Ø§ØŃ ÙĦÛĮ
Ø§Ùħ ÙĪÙĨ
ĠØŃ ÙĤÛĮÙĤ
ĠÙħÛĮ Ø´ÛĮ
ĠØ¯Ø§ÙĨØ´Ú¯Ø§Ùĩ ÛĮ
ĠÚ©Ùħ ÙĪÙĨÛĮØ³Øª
ĠØ¨Ø±Ú¯ Ø²Ø§Ø±ÛĮ
ĠÙĨÙģØ± Ùĩ
ĠÙħØ¬ Ø³ÙħÙĩ
ĠÙĪÛĮØ±Ø¬ ÛĮÙĨÛĮØ§
ĠØ§ÛĮ Ø´Ø§ÙĨ
ĠØ¨ Ø§ÛĮØ±
o u
ĠØ³Ø±Ø¨ Ø§Ø²Ø§ÙĨ
ĠØŃ Ø±Ùģ
ĠÙħØ±Ø¯ Ø§Ø¯
Ø±ÙĪ Ø´
ĠÙĨØ¸Ø§ÙħÛĮ Ø§ÙĨ
ÙĪØ§ÙĨ Ø¯Ùĩ
ĠØ¯ Ø§ÙĦ
ĠÙħÙĪØ§ Ø¬Ùĩ
Ø§Ùħ ÙĨ
ĠÚĨ ÙĪØ¨
ĠØŃØ§ ÙĪÛĮ
ĠÙ¾Ø± ÙĨØ¯Ùĩ
ÙĤÛĮ Ø¨
ĠØªÙĩ Ø¯ÛĮØ¯
id e
Ùģ Ø±ÛĮ
ĠÚ©ÙĨ Ø³Ø±
ĠØ¯Ø§ÙĨ ÙĨØ¯
ĠØ¯Ø¹ ÙĪØª
Øµ Ø§Ø¨
ĠØ¨ Øº
ĠÙħØ¨Øª ÙĨÛĮ
ĠØªØ® Ø±ÛĮØ¨
ĠØªØ± Ø§Ø¨Ø±ÛĮ
ĠØ· ÙĪØ±ÛĮ
ĠØŃ Ø¯ÛĮ
Ø¶ ÙĦ
ĠÙģØ¹Ø§ÙĦ Ø§ÙĨ
ĠÙħÛĮØ´ÛĮ Ú¯Ø§ÙĨ
ĠØªÚ©ÙĨ ÛĮÚ©
ĠÙħØ³ÙĦ ØŃ
ĠÙ¾ÛĮ ÚĨÛĮØ¯Ùĩ
ĠØ® Ø²
ĠÙħØ£Ùħ ÙĪØ±ÛĮØª
ĠÙħØ®ØµÙĪ Øµ
ĠØªØ§ÙĦ Ø§Ø±
ĠØ³ÙĨ Ø§ÛĮ
ĠÙģÙĪÙĦ Ø§Ø¯
ĠÚ©ÙĨÙģØ± Ø§ÙĨØ³
ĠÙħ ÙĨØ¯
Ø¨Ùĩ Ø´Øª
ĠÙħØŃØ§Ø³ Ø¨Ùĩ
ĠØ±ÙģØª ÙĨ
ĠØªØ¯ ÙĪÛĮÙĨ
ĠØ§ÛĮÙĨ Ø¯ÛĮ
Ø¹ÛĮ Ùģ
ĠÚĨ ÙĨØ§ÙĨ
ĠØªÙģ Ø³ÛĮØ±
Ø¬Ø± Ùĩ
Ø§Ú© Ø§
ĠÚ©Ø±Ø¯ Ø³ØªØ§ÙĨ
ĠØ¨Ùĩ Ø¯Ø§Ø´Øª
ĠØ ¦
ar t
Ġin de
ĠØªÙĪÙħ Ø§Ø³
Ø§ÙĤ Ø¯
ĠÙħØº ÙĪÙĦ
ĠØ§Ø±Ø¯ÛĮ Ø¨ÙĩØ´Øª
ĠØ§ØªØµ Ø§ÙĦ
Ġw h
ĠÙĨ Ø¯Ø§Ø±
ĠØ³ÙĪ Ø§Ø±
ÙĨ Ú©
ĠØ±Ø§Ùĩ ÙĨ
ĠØ¬Ø§ÙĨ ÙĪØ±Ø§ÙĨ
Ø± ÙĪØª
ow n
Ø§ ØµØ±Ùĩ
ÛĮÙħ Ø§
ĠØ§Ø±Ø¯ ÙĪ
ĠØª ÙħØ§
ĠÚ¯ Ø§Ùħ
ĠØµ ÙĪØ±ØªÛĮ
ĠÙħØ®Ø§ÙĦ ÙģØª
ĠØªÙħ Ø§Ø³
Ġw or
ĠÙħØµØ§ØŃ Ø¨Ùĩ
ĠØ¸ Ùĩ
ĠÙħÚ© ÙħÙĦ
ĠÙ¾Ø¯ÛĮ Ø¯Ùĩ
ĠØ¢ Ø¯Ùħ
ØŃ Øª
ĠØ§Ø±ØªØ¨Ø§Ø· Ø§Øª
ĠØ¨ ÚĨÙĩ
ĠÙĨØ´ Ø³Øª
ÙĦ Ø§ÛĮÙĨ
ÙĦÛĮ ÙĪ
ĠØº ÙĦØ§Ùħ
ĠØ¨ ÙĨÚ¯
Ø¹ Ø¯Ùĩ
ĠØ§Ø¯Ø¹ Ø§
ĠÙħÙĪ Ø§ÙģÙĤ
ĠÙ¾ Ø§Ø¦
ÙħÙĪ ÙĦÛĮ
ĠÙĤØ· Ø¹Ø§Øª
ĠØ´ÛĮØ± ÛĮÙĨ
ĠØ³Ø±Ø¨ Ø§Ø²
Ø· ÙģÛĮ
ĠØ³Øª ÙĪÙĨ
ĠØ¯ ÙħØ§
ĠÙħÛĮ Øª
ĠÙħØ« Ø¨Øª
ĠÙĩ ÙĪÙĦ
ĠÙħØ³Ø¦ ÙĪÙĦÛĮØª
ĠØ§ØªÙĪÙħ Ø¨ÛĮÙĦ
ĠØ¨ ÙĤ
ĠÙĤ Ùĩ
ĠÚ©Ø§ÙĨ Ø§Ø¯
ĠØ§ÙĦØªØŃ ØµÛĮÙĦ
ĠØ±ÙĪÛĮ Ø¯Ø§Ø¯
ĠÙĪÛĮÚ© ØªÙĪØ±
ĠÙĩÙĪØ§Ù¾ÛĮÙħ Ø§
Ú¯Ø± ÙģØª
ĠØ¨Ø± Ø§ÙĨ
ĠÙĦÙĪØ¦ ÛĮ
Ø§ÙĦÛĮ Ùĩ
ĠÚ© Ø§Ø¨ÙĦ
ĠØ¢ÙĨØª ÙĪÙĨÛĮ
ÛĮØª Ø§
ĠØ¯Ø³Øª Ø±Ø³
ĠØŃÙĤÛĮÙĤ Øª
ĠÙħØŃ Ø§ØµØ±Ùĩ
ĠØ³ ÙĨØ¬
ĠØ§ÛĮ Ø²
ĠÚ© Ø§Ø³
ĠØ¹Øµ Ø¨ÛĮ
Ø§ÙĨ Ø¯Ùĩ
ĠØ§Ø¹ ØªÙħ
ĠÙĨ Ø§Ø²
ĠØ¯ÙĪØ¯ ÙħØ§ÙĨ
ĠÚĺ ÙĨØ±Ø§ÙĦ
ĠØ± ÛĮØ³
ÙĨ ØªÛĮ
ĠÙ¾Ø±Ø¯Ø§Ø² Ø¯
ĠØ²Ø¯ ÙĨ
ĠØ¹ÙĦÛĮØ± Ø¶Ø§
ÙĦÛĮ Ø³
ĠØ³Ø®ÙĨØ± Ø§ÙĨÛĮ
ĠÙĪÛĮÙĨØ¯ ÙĪØ²
ĠØ¯Ø± ÙħØ§ÙĨÛĮ
Ġo ld
ĠÙĩØ² Ø§Ø±Ùĩ
ĠØ¬Ùħ Ø¹ÛĮ
ĠÚ¯ÙĪÙĨØ§Ú¯ ÙĪÙĨ
ĠØ§ÙĪ Ø§Ø³
ÙĤ Ø§Ø¨ÙĦ
ĠØ¢ Ø´Ú©
ĠÙģ Ø§ÙĤØ¯
ĠØ® ÙĪØ²
Ġs y
ĠØ§ÙĨØ¯ Ø±
ÙĪØ±Ø¯ ÛĮÙĨ
ĠØ¨Ú¯ÛĮØ± Ø¯
ĠÙĩØ± Ú¯Ø²
er n
ĠÙĦÛĮ Ø³Øª
ĠÙĤ ÙĪÙħ
ĠØŃÙħ ÙĦØ§Øª
ĠØ§Ø³ØªØ® ÙĪØ§ÙĨ
ĠØ§ÛĮ ÙĪØ§ÙĨ
ĠØ¨ ÛĮØ¯
ĠÙħØ¹ Ø¯
ĠØ§Ø®Øª ÙĦØ§ÙĦ
ĠØ¢ÛĮ ÛĮÙĨ
ĠØ¨Ø® Ø§Ø±
ĠØ§Ú© Ø³ÛĮ
ĠØ§Ø¯ Ø§Ø±ÛĮ
Ø³ ÙĪÙĦ
ÚĨ Ø±Ø²
ĠÙħØ¬ ÙħØ¹
ĠØªØ£ Ú©ÛĮØ¯
ĠØªÙĤ ÙĪÛĮØª
ĠØ¯Ø³Øª Ú¯ÛĮØ±
ĠØ²Ùħ Ø³ØªØ§ÙĨ
Ã ¼
ĠØ² Ø®
ĠØª Ø¶
ĠÚĨØ§Ø± ÙĦØ²
ĠÙħ ÙĦØ§ÙĤ
ĠØ§Ø¹ØªÙĤ Ø§Ø¯
ic e
ĠØŃÙħ ÛĮØ¯
Ù¾ Ø²ÛĮ
Ùģ ÙĪÙĨ
Ġg e
ĠØª ØµØ±Ùģ
Ø±Ø§ Ø³
Ġc ar
ĠØ®ÙĪ Ø§Ø±
ĠØ² Ø§Ø¯
a e
ĠØªÙĪ Ø§ÙģÙĤ
ĠÙĪØ§ Úĺ
ĠÚ©Ø§Ø±Ø¨Ø±Ø¯ ÛĮ
ĠØ´ÙĨØ§ Ø®Øª
ĠØ´Ø§Ùĩ Ø¯
Ú© ÙĪØ±
ĠØ¬ØºØ±Ø§ÙģÛĮ Ø§ÛĮ
ĠØ® ÙħÛĮÙĨÛĮ
iv ers
ĠÙĩÙħ Ø¬ÙĨØ³
ĠÙĨÙĪ Ø§ØŃÛĮ
ÛĮÙħ Ùĩ
us e
ĠÙĨÙĪØ´Øª ÙĨ
ĠØ¢ Úĺ
ĠØ¬Ø± Ø¬
ĠØ¢ÙĩÙĨÚ¯Ø³ Ø§Ø²
ĠØ¨Ø± Ø¯Ø§Ø´Øª
ĠÚ©Ø§ÙĨØ§Ø¯ Ø§ÛĮÛĮ
ĠØ¨ Ø¯Ùĩ
ĠØ® Ø§Øª
ĠØ¯ÛĮ ÙĪØ§Ø±
ĠØ§Ø±Ø²ÛĮ Ø§Ø¨ÛĮ
ĠØ¯Ø±Ø®Øª Ø§ÙĨ
ĠØ²ÛĮØ¨ Ø§ÛĮÛĮ
ĠØ¨ ÙĪØ¦
Ġm an
ĠÚ¯Ø± Ùĩ
ĠÙ¾ ÙĨÙĩ
ĠÙģ Ú©Ø±
ĠØ´Ø§ Ø®Øµ
v er
Ġb ar
e y
p er
ĠØ¹ ÛĮÙĨ
ĠÚ¯Ø± ÛĮÙĨ
ĠØ¨ ÙĪÚ©
ĠØºØ° Ø§
ĠÙħØŃÛĮ Ø·ÛĮ
ĠÚ©ÙĪÙħ ÙĪÙĨÙĩ
ĠØª ÙħØ±Ú©Ø²
ĠÙĩÙħØ³Ø± Ø´
ĠÙĩ ØªÙĦ
ĠÙħØ¹ Ø§Ø¯ÙĦ
ĠØ· Ø§ÙĦ
ĠØ§Ø´ Ø¹Ø§Ø±
Ġc r
ĠØ¨Ø± Ø§
ĠÙĨ Ú©Ø±Ø¯
ĠÙģ Ø§
ĠÙħØ® ÙģÛĮ
ĠØ§Ø± Ø³Ø§ÙĦ
ÙģØ§ Ø¹ÛĮ
ĠØ³ØªØ§Ø± Ú¯Ø§ÙĨ
Ġm o
ĠØ§ÙħØ± ÙĪØ²ÛĮ
ĠØ§ÙĨØ¯ ÙĪÙĨØ²ÛĮ
ĠÙ¾ ÛĮØª
ĠØ¬Ø§ÙĨ Ø´ÛĮÙĨ
Ùģ Ø±Ø¯
ĠØ§Ú© Ø±Ø§ÙĨ
Ù¾ ÙĨ
Ø¬ ÙĪÛĮ
ĠØ§Ø³ ÙĨØ§Ø¯
ĠÙģÙĦ Ø²ÛĮ
ĠÚĨÙĩ ÙĦ
ĠÚ© ÙĦØ§
ĠØ§Ø´ ØºØ§ÙĦ
ĠÙħØ§ Ø¬Ø±
p t
ĠØ§Ø¸Ùĩ Ø§Ø±
ĠØ®ÙĪØ² Ø³ØªØ§ÙĨ
ĠÙģÛĮÙĦÙħ ÙĨØ§ÙħÙĩ
ĠØ§Øª ÙĦ
Ø§Øª ÙĦ
Ù¾ ÙĪÙĦ
ĠØ§ÙĦÙĩ ÛĮ
Ø§ÛĮ Ø§
ĠØ§ÛĮ Ø§ÙĦØªÛĮ
ĠÙĤØ± ÙĪÙĨ
ĠØ§Ø³Øª Ø±Ø§Øª
ic t
ĠÙħØŃ Ø±
ĠÙģØ¹ ÙĦÛĮ
ĠÚ© ÙĪÙĨ
ĠÚ©ÙĦ Ø±
ĠØµ Ø§Ø¯Ø±
ĠØ¨ÙĦØº Ø§Ø±Ø³ØªØ§ÙĨ
ic a
ĠØ§ÙģØª Øª
ĠÙĦÙĪØ¦ ÛĮØ³
ĠÙĨ Ú©
ĠØ§Ø¯ ØºØ§Ùħ
ÙĨØª ÙĪ
ĠÙħØµ ÙĨÙĪØ¹ÛĮ
ĠÙģØ± ÙĪØ±Ø¯ÛĮÙĨ
Ġt it
ĠÚ©Ø§ Ø³Øª
ĠØ§ÛĮ Ø¯
ĠØªØµ Ø§ÙĪÛĮØ±
ĠØµØ§Ø¯ ÙĤ
ĠØ³Ø± Ù¾Ø±
ĠÙħØ¤ Ø«Ø±
Ġph p
ĠØ§Ø·ÙĦØ§Ø¹ Ø§ØªÛĮ
ĠØ¬Ø±Ø§ ØŃÛĮ
ÙĤ Ùģ
ĠÚ¯ ÙĪØ¯
ĠÚ©ÙĪØ¯ Ú©ÛĮ
ĠØ¨Ø± ÙħÛĮ
ĠÙħØªÙĪ Ø¬Ùĩ
ĠÙ¾Ø± Ø³
ĠØ³Ø§ÙĦ Ø§ÙĨÙĩ
ÙĪØ± ÙĨ
ĠØ±Ø¨Ø§Øª ÛĮÚ©
Ø§Ú© ÙĪ
ĠÚ© ÙħØ¯
ĠÚ¯Ø± Ø¬Ø³ØªØ§ÙĨ
p l
ĠØ¨Ø§ÙĦ Ø§ÛĮÛĮ
ĠØ§ÛĮØ±Ø§ÙĨÛĮ Ø§ÙĨ
ĠØ¯ÛĮØ¬ÛĮØª Ø§ÙĦ
ĠÙħØª Ø±ÙĪ
ĠÙħØ¹ ÙħÙĪÙĦÛĮ
ĠØ§ÙĤØ¯Ø§Ùħ Ø§Øª
Ø± ÙĪÙĨ
ĠØªÙĤ Ø¯
ĠØ± Ø³Øª
ĠÚ©ÙħÛĮ Ø³ÛĮÙĪÙĨ
Ġinde x
ĠØŃ Ø¬Ùħ
ĠÙħØ³Øª ÙĤØ±
ÙĦ Øª
ĠÙĨÛĮ Ø´
ĠØ³Ùĩ Ø§Ùħ
a w
ĠÙħÙĤ ÛĮØ§Ø³
ĠØ§ÙĦ ÙĨ
ĠÙ¾ÛĮÚ© ÚĨØ±Ø²
ĠØ¹Ø± Ø¶
ĠØ§ÙĨ ØŃ
ĠÚ¯Ø° Ø´Øª
ĠØ¬ÙĨ Ø³
ĠØ§ÙĦÚ©ØªØ±ÙĪÙĨ ÛĮÚ©
ĠØ§Ùħ Ø¶Ø§
ĠØ¨ ÙĪÙħ
or e
Ø§Ø¯ Øª
Ø§Ø¯Ùĩ Ø§
ĠØ±ÙĪ Øº
ÛĮØ± Ø§ÙĨ
ÙĦØ§ ÙĤÛĮ
ĠØ¢Ø±Ø§Ùħ Ú¯Ø§Ùĩ
ĠÙĨÛĮ Ø³ØªÙĨØ¯
Ġg r
ĠÙĨ ÛĮÙĦ
ĠØ« Ø±ÙĪØª
ĠØ¯Ø´ ÙħÙĨ
ĠÚ© Øª
ĠØ§ÙģØ² Ø§Ø±ÙĩØ§ÛĮ
ĠÙħØ¯ÛĮØ± Ø§ÙĨ
Ø§ÛĮ Ø§ÛĮ
ĠÙĨØ¯Ø§Ø± ÙĨØ¯
ĠÙħÙĦØ§ÙĤ Ø§Øª
ÙĪØ¯ Ø§
ĠÙģÙĦØ³Ø· ÛĮÙĨ
Ù¾ Ø±Ø¯
ĠØ¨ Ø®ØªÛĮ
ĠØ´ÙĪ Ø§ÙĦÛĮÙĩ
ĠÙĤØ§ÛĮÙĤØ±Ø§ÙĨ Ø§ÙĨ
ĠØ³ÙĪ Ø§Ø±ÛĮ
m ent
ĠØ´ÛĮÚ© Ø§Ú¯ÙĪ
ĠØ®Ø±ÙĪ Ø¬ÛĮ
ĠÙģØ± Ø§Ùħ
ĠØ§ÙĨØ¯ Ø§Ø²
ÙĪØ² Ùģ
Ġe m
ĠØ¯ÙĪØ§Ø² Ø¯Ùĩ
ĠÙĩ Ø±ÛĮ
ĠØŃÙĤ ÙĪÙĤÛĮ
ĠØ¬ Ú©
ĠÚ¯ÛĮØ± ÙĨØ¯Ùĩ
ĠØ¨ ÛĮÚ©
ĠØ® Ø±Ùħ
ĠØŃ ÛĮØ¯
ĠÚ¯ÛĮØ± Ø§ÙĨ
ĠÚ©ÙĦ Ø§ÙĨ
ĠÛĮÙĪ Ú¯Ø³
ĠÙħØ« ÙĦØ§
ĠØ³ Ú©Ùĩ
ĠÚ©Ùĩ ÙĨ
ĠÙĨ Ø§Ø²ÛĮ
ĠØ§ Ø¨ÛĮ
ĠØ§Ùħ ÛĮÙĨ
ĠØ§ÙĦ ÙĤ
at h
ĠØŃÛĮ Ø§Øª
ĠØ§Øª ÙĩØ§Ùħ
ĠÙħÛĮØ§ÙĨ Ú¯ÛĮÙĨ
ĠØ§Ø³ Ø·
Øº Ø±
Ø§ÛĮ Ùģ
ĠÙħ ÙĪØ±ÛĮ
ĠÙĨÙĪÛĮØ³ ÙĨØ¯Ú¯ÛĮ
ĠØ¢ Ø±Ú©
ĠÙĤØ§ Ø¶ÛĮ
Ù¾ Øª
ĠÚ¯ ÛĮØ§Ú¯Ø§ÙĨ
ĠÛĮ ÙĪØ±ÙĪ
ĠØ§Ø³Øª ÙĤ
Ø´ÛĮ Ùĩ
ĠÙĨÙĤØ§Ø´ Ø§ÙĨ
ĠÙĩÙħ Ú¯Ø§ÙĨÛĮ
Ùģ ÛĮØ¯
ĠØ¢ ÛĮØ§
d er
Ġm on
ĠØ§ÙĪ Ø¬
ĠÙģ Ø§Ø²
ÙĨØ§ Ø·ÛĮ
ĠÙĩÙĪØ§Ú¯Ø± Ø¯ÙĩØ§ÛĮ
i er
ĠØŃØ¯ Ø§Ú©
ĠØ§ÛĮÚ© Ø§Ø¦ÙĪ
ĠÙĩÙħ Ø§Ùĩ
ĠÚ©Ø§Ø±Ø¨Ø± Ø§ÙĨ
en ce
ĠÙģØ±ÙĩÙĨÚ¯ Ø³ØªØ§ÙĨ
ÙĦÛĮ Ø§
ĠØ§Ø¹ØªÙħ Ø§Ø¯
ĠØ§Ø¨ÙĪ Ø§ÙĦ
y s
ĠÙĦ Ø§Ø±
ĠØ§ÙĨØ¯ ÛĮØ´Ùĩ
ĠØ±ÙĪØ² ÙĩØ§ÛĮ
ĠØ¨ÛĮ Ú¯
ĠÙħÙĤØ¯Ùħ Ø§ØªÛĮ
ĠÙħ Ø¸
ĠØ§ØŃ ÙħØ¯ÛĮ
ĠØ³ÙĨÚ¯ ÛĮ
ÙĨØ§Ø·ÛĮ Ø³ÛĮ
f t
ĠÙħØ· ÙĦ
ĠÙĩÙĨØ¯ ÙĪ
ĠÚĨ ÙħÙĨ
ĠÙģØ±Ø³Øª Ø§Ø¯
ĠØ§ÙĦÙĩ Ø§Ùħ
ĠØ§ ÙĪÙĨ
ĠØ®Ø¯ Ø§ÛĮØ§ÙĨ
Ġ el
Ø±Ø§ Ø³ÛĮ
ĠØ¯ Ø§ÙĨÙĩ
ĠÙĨØ´ Ø±ÛĮÙĩ
ĠÙħÙĤ Ø§ÙĦØ§Øª
ac e
ĠØ¯ÙĪØ± Ø¨ÛĮÙĨ
à ¤
ÛĮØ¯ ÙĨØ¯
ĠÙĤØ² ÙĪÛĮÙĨ
ÙĪØ± Ú¯
ĠØ¯Ùĩ Ùħ
Ð ¸
ĠÚ¯ Ùħ
ĠÙħÙĨ ÚĨØ³ØªØ±
Ø§Ø± Ø´
ĠØªØµ ÙĪ
ĠØ¬Ùħ Ø§ÙĩÛĮØ±
ĠØ¨Ø§Ø± Ø³ÙĦ
ÙĪ ØŃ
ĠÚ©Ø§ÙħÙ¾ÛĮ ÙĪØªØ±
ĠØ¯ ÛĮÚ©
ĠÙħ ÛĮÙĨÙĩ
ĠØ§Ø³ØªÛĮ Ø´ÙĨ
ĠØ®Ø³ Ø±ÙĪ
Ú¯Ø± ÙģØªÙĩ
ĠØµ Ø±
ĠØ§Ø³Øª Ø¯
ĠÚ¯ÛĮ Ø§ÙĩÛĮ
ĠÙĩÙħ Ø¯Ø§ÙĨ
Ġun ivers
Ġn ational
ĠÙģØ±ÙħØ§ÙĨ Ø±ÙĪ
ĠØ³Ø§Ø² Ø¯
ÙĤ Ø§Øª
ĠÛĮÙĪÚ¯Ø³ ÙĦØ§ÙĪÛĮ
ĠÚ© ÙĦÛĮØ¯
ĠØºØ± ÙĤ
ĠØ³ ÛĮÙĨÙĩ
ĠØ¯Ø§Ø± ÙĪÙĩØ§ÛĮ
ĠØŃØ§Ùģ Ø¸
ÙĪÛĮ ÚĺÙĨ
ĠÙĦÛĮ Ø¨Ø±
ĠØ§Ø³Ø· ÙĪØ±Ùĩ
ĠØ§Ú© Ø«
ĠØ§ÛĮ ÙħÙĨÛĮ
Ø¬ Ø§Ø±
ĠÚ©Ø§Ø± Ú¯Ø±Ø§ÙĨ
ĠÙħØ±Ø§ Ú©Ø´
ĠÙĪÛĮØ± ÙĪØ³
ĠÙĤØ· Ø¨
Ġc ent
ĠÙħØ· Ø§Ø¨ÙĤ
ĠØ¯Ø§ÙĨ Ø³ØªÙĩ
ĠØ¬ÙĪ Ø§ÙĨÛĮ
ĠÙģ Ø§Ø·
us t
Ø´Øª Ø±
ĠÚ¯ÙĪØ± Ø³ØªØ§ÙĨ
ĠØŃØ¯Ø§Ú© Ø«Ø±
ĠØ¢ÙĦ ÙĨ
ĠØ§ÙĦÚ©Ø³ Ø§ÙĨØ¯Ø±
ĠØªÚ© Ø±Ø§Ø±
ĠØ§ØªÙĦ ØªÛĮÚ©
Ù¾ Ø§Ø±
Ġtit le
ĠØ¨Ø§Ø² Ø¯ÛĮØ¯
ĠØŃ Ø§Ø¬
ĠØ¨ÙĦ ÙĪ
Ø§Ø¯ ÙĪØ±
Ġsv g
a ch
Ø¨ Ø³
ic s
ĠÙĨÙĩ Ùħ
ĠÙĨÚ¯ Ø§Ø±ÛĮ
Ġ ÛĮÙħ
ĠØµÙĦÛĮ Ø¨
ĠÙĩØ± ÚĨ
ĠØ° ÙĩÙĨ
ĠØ·ÛĮ Ùģ
ÙĪÛĮ Ùħ
g r
ÙĪÚ© Ø§
ĠÙħØ®Øª Øµ
ÛĮ Ø´
ĠØ³ ÙĪØªØ§
ĠÙħØªØ¹Ø¯ Ø¯ÛĮ
ĠØ§ÙĨØªØ¸ Ø§Ø±
ĠØ¨ÙĦ ÙĪÚĨ
ĠÙ¾ÛĮÙĪ Ø³ØªÙĩ
ĠØ¢ÙĨ ØªÛĮ
ĠØ¨Ø§Ø² ÙĨØ´
ĠÙħØ¨Øª ÙĦØ§
ĠØ²ÙĨØ¯ Ø§ÙĨÛĮ
ĠØ§Ø±Ú© Ø³ØªØ±
ĠØ¹ Ø·
ĠÚ¯Ø± Ú¯
ĠØ®Ø§ÙĨÙĪ Ø§Ø¯Ú¯ÛĮ
ĠØµØ¨ ØŃ
Ø§Ø´ Ø¯
ĠØ´ Ø§ÛĮØ¯
ÙĪØ¦ ÛĮ
ĠØ§ÙĪØ± Ø§ÙĤ
ĠÚ¯ÙĪ Ø´Øª
Ú© ÙĦÛĮ
ĠØ¯Ø§Ø± Ø§ÛĮÛĮ
Ø§Ú¯ Ø§
ĠØµ Ø¯Ø±
ĠØªØ® Ùħ
ĠØ± Úĺ
ĠÙħØª ÙĪÙĤ
ĠØ¯Ø± Ú¯ÛĮØ±
ĠØªØµÙĪ ÛĮØ±ÛĮ
ĠØ¯Ø± Ø¨Ø§Ø±
ĠØ³ÛĮØ§Ø³ØªÙħØ¯ Ø§Ø±
ĠØ³Ø§Ø³ Ø§ÙĨÛĮ
Ñ Ģ
Ġ it
s e
ĠÙĩ ÙĪÛĮØª
ĠÙĦ ÛĮÚ©
ĠÚ© ÛĮÙĨ
ĠØ³ÛĮ Ú¯ÙĨ
ĠÙħØªÙĪÙĤ Ùģ
Ø§Ø±ÛĮ ÙĪ
ĠØ³Ø§ÙĦ ÛĮ
ĠÙ¾ ÛĮÙĨ
ĠØ³Ø±ÙĪ Ø¯Ùĩ
ĠÙ¾Ø± Ø³Ù¾
ĠØ§ÙĪ Ø³Øª
ĠÙħØŃØ¯ÙĪØ¯ ÛĮØª
ĠØ±Ø² ÙħÛĮ
ĠÙħØ§ÙĦ Ø²ÛĮ
Ġar t
ĠØ³ÙĦ Ø§ÙħØª
ĠØ´Ø¯ Ú¯Ø§ÙĨ
ĠØ³Ù¾ Ø±
ĠØ¬ Ø§Ø³
ĠØ¸Ùĩ ÙĪØ±
Ø´Ú© ÙĦ
Ù¾ÛĮ Ø´
Ð µ
ĠØ± Ø§ÙĩÛĮ
ĠØ§ÙĨ ÛĮÙħÛĮ
ÙĪÙĦ Øª
ĠØ¯Ùĩ ÛĮ
cy cl
ĠØ¬ Ú©Ø³
ĠÙģØ± Ø§ÙĪ
ĠØ¨Ø± Ùĩ
Ġm in
ĠØ² ÙĪØ¬
ĠÙĦ Ø°
ĠØ¨Ø± ÙĪÚ©
Ùģ ÙĪØ±
Ġco un
ĠÙģØ± Ùĩ
ĠÚ©ÙħØ¯ ÛĮÙĨ
ĠÙħ Ø§ÛĮÙĦ
Ø§Øª ÙĪ
ĠØ²Ø± Øª
ĠØ¢ Ø´ÙĨØ§
c ess
Ġg o
ĠÙĨ ÛĮØª
ĠÙħ ÙĪÙĨÛĮ
ĠØ¨Ø²Ø±Ú¯ ØªØ±
ĠÙĨØ§Ùħ Ø´
Ø§ÙĨÚ© Ø§
ĠÙ¾Ø± ÙĪØ§ÙĨÙĩ
ĠÙ¾ÛĮØ± Ø§ÙħÙĪÙĨ
ra ph
ĠØ¯ÙĪ Ú©
ĠÙħÛĮ ÙĪÙĩ
ØŃ Ø§ÙĦ
Ø± Ø§ÛĮ
ĠÚ© ÛĮØª
Ø±ÛĮ Ø§
ĠÙ¾ÛĮØ´ ÛĮÙĨÙĩ
cycl op
ĠØ¨ Ø§Ø±Ø§ÙĨ
ĠØ§Ø³Øª ÙĨ
Ġn o
ĠØµÙģ ÙĪÛĮ
ĠÚ© ÛĮÙĨÚ¯
ĠØ§ÛĮ Ø³
ĠÙĪØ³ Ø§ÛĮÙĦ
ĠØ¨Ø± ÙĪÙĨ
ĠÙĨÙħØ§ÛĮ ÙĨØ¯Ú¯ÛĮ
Ġen cyclop
ĠÚ©ÙĨÙĨØ¯ Ú¯ÛĮ
ct ion
ĠÙĤÙĩ ÙĪÙĩ
ĠØªÙĪ ÙĦÛĮ
ĠØ¨Ø±Ø® ÙĦØ§Ùģ
ĠÛĮØ§Ø¯ Ú¯ÛĮØ±ÛĮ
Ø¹Ùĩ Ø¯
ĠØ¯ Ø®
ĠØ´Ú© ÙĨ
ÙĪÙĨØ¯ Ø§
ĠØ±Ø³ Ø§ÙĨÛĮ
ØºØ° ÛĮÙĩ
Ø§Øª Ùĩ
Ø´ Ø§Ø¯
ĠÚĨÙĩØ§Ø± ÙħÛĮÙĨ
ĠØ§ÙģØªØ® Ø§Ø±Ø§Øª
ĠÙħØ°Ùĩ Ø¨
ĠØª ÙĩØ§
Ġcom p
s on
ĠØ¢ÛĮ ÙĪÙĪØ§
ĠØ§ÙĤ Ø§ÙħØª
ÙĪ Ø§Ø²
ĠØ¯ ÙĨØ¯Ø§ÙĨ
ĠÙ¾Ø± ÙĪÛĮØ²
ĠØ¹ ÙħÛĮ
Ø± ÙĪØ¯
ĠØŃØ§ Ø´ÛĮÙĩ
ĠØ®ÙĪØ§Ùĩ Ø§ÙĨ
ĠØªØ§Ø¬ ÛĮÚ©
ĠØ¬ Ø¯ÛĮ
ĠØ²ÙĨØ¬ ÛĮØ±Ùĩ
ĠÙħ Ø§ÛĮØ¹
ĠÙĨØ¸ Ø±ÛĮ
ĠÚĨ Ú¯ÙĪÙĨÙĩ
ÙģØ± Ùĩ
ĠØªØ®Øµ ØµÛĮ
ĠÙħØŃØ§Ùģ Ø¸Øª
ĠÙħÚ© ØªØ¨
ÛĮØ³ Ùħ
ĠØ¯Ø®Øª Ø±Ø§ÙĨ
ĠÙĪÛĮØ¯Ø¦ ÙĪ
ĠØ§Ú© Ø³ÛĮØ¯
ĠØ¨Ø± ÙĪØ²
ĠÙĪ Ø§ØªØ±
ĠÚ¯ Ø§ÙĨÙĩ
ĠØ§ÛĮÙĨ Ø¬Ø§
ĠØ§Ø¹ Ø·
ĠÙħ Ø¨ÙĦ
ĠØ¨Ø§Ø²ÛĮ Ú¯Ø±ÛĮ
ĠÙħØŃÙħØ¯ Ø¹ÙĦÛĮ
ĠØ¨ØŃ Ø±Ø§ÙĨ
ĠØ§ÙĦÚ©ØªØ±ÙĪÙĨ ÛĮÚ©ÛĮ
ĠØ¢ ÙģØª
ĠÙħØ¯ ÛĮØªØ±
ĠØ§Ø¨ Ø²
ĠÙĨØ³Ø¨Øª Ø§
ĠÙĩØ±ÚĨ ÙĨØ¯
Ù¾ ÙĪ
ĠÚ©Ø§Ø± Ú©
ĠÙħØ±Ø¯ ÛĮ
ĠÙħØ¯ÛĮØªØ± Ø§ÙĨÙĩ
ĠØ¨Ø± ÙĤØ±Ø§Ø±
ĠØ¯ÙĦ ÙĩØ±Ùĩ
Ø§Ø± Ø¯ÛĮ
ĠÙ¾Ø§ÛĮ Ø§ÙĨÛĮ
ĠØ¶Ø± Ø¨Ùĩ
Øº Ùħ
ĠÚ©ÙĦ Ø§Ùĩ
Ø¬ÛĮ Ø¨
ÙĪÙħ ÙĨ
ĠØ¢ÙĦ Ø§Ø¨
ĠØ¨ÙĪØ¯ Ø¬Ùĩ
ĠÙ¾Ø§ÛĮ Ø¯Ø§Ø±
ĠØ¢Ø´Ú© Ø§Ø±
ĠÙħØª Ø®Øµ
ĠÙħ Ø§Ùħ
ĠØµ Ø¹ÙĪØ¯
in a
ĠÙħØ±Ø§ ØŃÙĦ
ĠØ´ÙĩØ±ÙĪÙĨØ¯ Ø§ÙĨ
ĠØ¬ÙĦØ³ Ùĩ
ĠÚ© ÙĪØ§ÙĨ
ĠØ¯Ø± Ø³
ĠÙħØ³ÛĮØŃÛĮ Ø§ÙĨ
ĠØ¬ Ø³
ÙĪØ± Ø¯Ùĩ
ĠØ±ÙĪØº ÙĨ
ĠØ§Ø¹ Ø¯Ø§Ø¯
ĠØ§Ø± ØªÙĤ
ĠØ± ÙĩØ§
Ø¹Ùĩ Ø¯Ùĩ
ĠÙ¾Ø§Ø± Ø³ÛĮ
ĠØªØµ ÙĪØ±
ĠØ±Ø§ Ø³
ĠØ° Ø±Ø§Øª
ĠÙ¾Ø§Ø± ÙĦÙħØ§ÙĨ
ĠÚ¯Ø± Ø§ÛĮ
ĠØ§Ø¹Øª Ø¨Ø§Ø±
ĠÙĦÙĩ Ø³ØªØ§ÙĨÛĮ
ĠØ®Ø±ÙĪ Ø¬
Ġi r
ĠÚĺ ÙĨØª
ĠØ§Ø¹ØªØ±Ø§Ø¶ Ø§Øª
ĠØª Ø¨Ø¹
ĠØ§Ø®Øª Ø±Ø§Ø¹
ĠØ®ÙĪØ¯ Ø±
ĠØ§Ø¨ØªØ¯ Ø§ÛĮÛĮ
ĠÙĨÛĮÙĪØ² ÛĮÙĦÙĨØ¯
ĠÙĨÙĪÛĮØ³ Ø¯
ĠÚ© Ø§Ø²
ĠØ§Ø³ØªØ¯ ÙĦØ§ÙĦ
ĠØ³ÛĮÚ¯ÙĨ Ø§ÙĦ
ĠÙħØªØ®Øµ Øµ
ic k
ĠØ§ÙĦÙħÙĦ ÙĦ
ĠØ±ÙĪØ³Øª Ø§ÙĩØ§
ĠØª ØºØ°ÛĮÙĩ
ĠÙĨÙĪ Ú©
ĠÚ©ÙĨØ³Ø± Øª
ĠÙĤØ± Ùĩ
Ø¨ Ø§ÛĮ
ĠÙ¾Ø±Ø³Ù¾ ÙĪÙĦÛĮØ³
ĠØ´ Ø±ÛĮ
a i
ĠÙĤØ¨ ÙĦØ§
Ù¾ Ø³
ĠØ¢Ø³ÛĮ Ø§ÛĮ
ĠÙĪ Ø¬Ùĩ
Ġs er
am p
Ġf ree
ĠØ¹ Ø¨Ø§Ø³ÛĮ
ĠØ¬ ÙģØª
ĠØŃ Ø´
Ø§Ùħ Ø¹
ĠØ¨ÙĦ Ú©
ÛĮØ± Ø§
Ø· ÛĮÙĦ
Ø§ÛĮ Ùħ
ĠØ¯ÙĦ Ø§ÛĮÙĦ
ĠÙħØ§ÙĦÛĮ Ø§Øª
ĠØ¯Ø§Ø±ÛĮ ÙĪØ´
ĠØŃÙħ Ø§Ùħ
Ø´ÙĨØ§Ø³ Ø§ÙĨ
Ú¯Ø² Ø§Ø±ÛĮ
Ú©Øª ÙĪØ±
ĠØµÙĦÛĮ Ø¨ÛĮ
ĠØ¨ÛĮ Ø³
ĠØ¢Ø± Ø§ÛĮÙĩ
ĠÚ©Ø§Ù¾ ÛĮØª
Ø§Ùĩ Ø±
ĠÛĮ ÙĪØ³Ùģ
ĠØ¯ÛĮÙ¾ÙĦ ÙħØ§Øª
ĠØ¬Ø¹ ÙģØ±
ĠÙģ Ø¶Ø§
ĠÛĮØ§ÙģØª ÙĨ
ĠÙ¾ Ø§Ø´
Ø§Ø³ÛĮ ÙĪÙĨ
ĠØ§Ø® ÙĦØ§ÙĤÛĮ
ĠØªÛĮØ±Ø§ÙĨØ¯ Ø§Ø²ÛĮ
ĠÙħÙĪØ²ÛĮÚ© Ø§ÙĦ
Ð ½
ĠØ§ÙĨÙĤÙĦ Ø§Ø¨ÛĮ
i um
h an
ÙĪ Ø¢
ĠØ³Ø±Ú© ÙĪØ¨
ĠÙĩÙĪØ§ Ú¯Ø±Ø¯
ĠÚ©Ø§Ø±Ø¢ÙģØ±ÛĮÙĨ Ø§ÙĨ
ĠØ§ÙĦ Ø¯
ĠÙħÙĩØ§ Ø¬Ùħ
Ø±ÛĮ ØŃ
ÙħÛĮ Ø§ÙĨÙĩ
ĠÙĪØ³ Ø·
Ø· Ø¨ÛĮ
Ø§ÙĦ Ø§
ĠÙ¾ÛĮ Ø§ÙĨÙĪ
ĠØ³ÛĮ Ø³ØªØ§ÙĨ
ĠÙĨÙħ Ø§ÛĮÛĮ
Ã ¡
ĠØ¨Øº Ø¯Ø§Ø¯
ĠØªÙħØ¯ ÙĨ
ĠØ§ÙĨÛĮÙħÛĮ Ø´ÙĨ
Ġq u
ĠÙĩ Ø§ÙĦÛĮ
ĠÚ©Ø§Ø± ÙĪØ§ÙĨ
ĠØ§ Ø±Ø§
Ø² ÙĦÛĮ
ĠÙģØ±Ø§ÙĪ Ø§ÙĨÛĮ
h n
ĠØ¬ÙĪØ±Ø¬ ÛĮØ§
ĠØºÛĮØ± Ùĩ
ÙĦ Ø§Ø³
ĠØª ÙĪÛĮ
ĠÙ¾ÚĺÙĪÙĩ Ø´ÛĮ
ĠÙ ĥ
ĠÙħØ® Ø§Ø·
Ù Ģ
ĠØ±Úĺ ÛĮÙħ
ĠØ®Ø§ÙĪØ± ÙħÛĮØ§ÙĨÙĩ
ĠÙĨØŃ ÙĪÙĩ
Ø¨ Ø§ÛĮÛĮ
ĠØ² ÛĮÙĨ
ĠÙĨÙĪ Ø¨ÙĦ
ĠØ¨Ùĩ Ø±Ø§Ùħ
ĠÙĤ Ø³Ùħ
ĠØ§ÙĨ Ùģ
ĠÚ©ØªØ§Ø¨ ÛĮ
os t
ÙĨØ¯Ùĩ Ø§ÛĮ
ĠÚ¯Ø±Ø¯ ÛĮØ¯Ùĩ
ĠÙħÙĩ ÙħØ§ÙĨ
ĠÙħØ³ÛĮØŃ ÛĮØª
Ø¹ÛĮ Ø§ÙĨ
ĠØ³ Ø§ÛĮÙĩ
ĠØ¢ÙĦØ§Ø¨ Ø§ÙħØ§
ĠØ¨Øª ÙĪØ§ÙĨØ¯
ĠØ¹ ÛĮØ³ÛĮ
ĠØ·ÙĦ Ø§ÛĮ
ĠØ¬Ú©Ø³ ÙĪÙĨ
ĠØŃÛĮÙĪØ§ÙĨ Ø§Øª
ĠØ¢ÙĪØ±Ø¯ ÙĨ
ĠØ²Ø§ ÙĪÛĮÙĩ
ĠØ¶ Ø¹ÛĮÙģ
ĠØ¨Ø± Ø¹ÙĩØ¯Ùĩ
ĠÙĨ Ø¹
ÙĪÙĦ Ùģ
ĠØ¹Ùĩ Ø¯
ĠÚ¯Ø± Ø§ÛĮØ´
ol og
Ġw in
Ġold id
ĠØ®ÙĪØ± Ø¯Ùĩ
ĠØ§ÙĨÚ¯ ÛĮØ²
Ø¦ Ùĩ
ĠÙħÙĨ Ø¹
ĠØ¹ÙĨ ØµØ±
ĠÙħØª ÙĩÙħ
ĠØªÚ© ÙħÛĮÙĦ
Ø® ÙĦ
ĠÚ© ØªÛĮ
on e
ĠÙĪØ§ÙĤØ¹ ÛĮØª
ĠØ²ÛĮ Ø³ØªÛĮ
ĠØ±ÙĪ ÛĮÚ©
ĠØ¨ Ø²
at a
ĠÙ¾Ø°ÛĮØ± ÙģØªÙĩ
ĠØ¶ ÙħÙĨ
ĠØ® Ø§ÙĦÛĮ
ÛĮ ÙĪ
ĠÚ©Ø±ÛĮ Ùħ
ĠÙħØŃÙħ Ø¯ÛĮ
ĠÙģ ÙĪÙĨ
Ġof f
ĠÙĩÙħ ÙĪØ§Ø±Ùĩ
ĠÙĤØ¨ ÛĮÙĦÙĩ
ĠÙ¾Ø§Ø± Ø§Ùħ
Ø§ ÙĪØ²
Ø¨ ÙĪØ±Ø¯
ĠØ² Ø±Ùĩ
Ø§ÛĮ Ø²ÛĮ
Ú¯Ø± Ø§Ø¯
ĠÚ© ÙĪÛĮØª
ĠØªØ§ÛĮ ÙĦÙĨØ¯
ĠÙ¾Ø±Ø¯Ø§Ø² Ø´
ĠÙħØ° Ø§Ú©
ĠÙħØ· Ø¨ÙĪ
ĠÚ©Ø§Ø±Ú© ÙĨØ§ÙĨ
ĠÙĨÛĮØ±ÙĪ Ú¯Ø§Ùĩ
ĠØª ÙħØ±
ĠØ³ÙĦÛĮ ÙħØ§ÙĨ
Ø² ÛĮÙħ
ĠÙ¾ Ø°ÛĮØ±ÛĮ
ÙĪÛĮ ÙĤ
Ġp er
a f
ĠØ¢Ø² ÙħÙĪÙĨ
ĠÙ¾Ø±Ø¯ Ø§Ø®ØªÙĩ
ĠØ¬ÙĪ Ø§ÛĮØ²ÛĮ
ut h
ĠÚ©Ø§ ÙĪØ´
ĠØ¬Ø²Ø¦ÛĮ Ø§Øª
ÛĮÙĨÚ¯ ØªÙĪÙĨ
ĠØ§Ø« Ø¨Ø§Øª
ĠÙĪÛĮ Ø³Ú©
ĠØºÛĮØ± Ùħ
ĠØ¯Ø± Ø§Ø²
ĠÙ¾Ø± Ø¯Ùĩ
ĠØ§ÙĨØªÙĤ Ø§Ùħ
ĠÙ¾Ø°ÛĮØ± Ø´
ĠÚ©ÙĦÛĮ Ùĩ
Ġcon tr
ĠÙħØ¹ ÙĨ
ĠØ§ÙģØ³ Ø±Ø§ÙĨ
ĠÙĨ Ø¯Ø§Ø´ØªÙĩ
Ù¾ Ø°ÛĮØ±
ÙĪÚ© ÙĪ
ĠÙĦ ÙĤØ¨
Ø¦ ÙĪØ³
ĠÙĨÙħØ§ÛĮ Ø´ÛĮ
ĠÙĨ Ø§Ú©
Ø¯ Ø±ÛĮ
Ø§ Ø¹
oc k
ĠØ¹ ÙĤÛĮ
ĠØŃ ÛĮÙĨ
ĠØ³ ÙĪØ±Ùĩ
ĠÙĨØ§Ø´ Ø±
ĠØ¨ Ø§Ø±Ø¯
ĠØ¯Ø§ Øº
Ø¦ Ùħ
ÙĦØ§ Ú©
ĠÙ¾ÙĨÙĩ Ø§ÙĨ
ĠÙħØ¯Ø§Ø± Ø³
ĠØ¹Ø§Ø´ÙĤ Ø§ÙĨÙĩ
ĠÙĩ Ø§Ùħ
p r
ĠÚ©ÙĪ Ú©
ĠÙħØ±Ø§ ÙĤ
Ø´ÛĮ Ø¯Ùĩ
ĠÙĨØ® ÙĪ
ØŃÙĦ Ø§ÙĦ
ĠØª ÛĮÙĦ
ĠØ§Ø¨ØªØ¯ Ø§ÛĮ
o ur
ĠØªÙģ ÙĨÚ¯
ĠØ¯Ø§ Ú©
ĠØŃ Ø±Ú©
ĠØµ Ø±Ùģ
ĠÙ¾ÛĮ Ø§ÙħØ¨Ø±
ĠØ¯Ø§ÛĮ Ø±Ùĩ
ĠÙħØ¹Ø± Ø¶
ĠÚ©ÙħÙ¾ Ø§ÙĨÛĮ
Ú© Ø§Ø±Ø§ÙĨ
ĠÙ¾ ØªØ±
ĠÚ¯ ÙĪØª
ĠØ§ÙĨØª ÙĩØ§ÛĮ
ÙĪØ¯ Ø±
ĠØ®Ø§Ø· Ø±Ø§Øª
ĠÚĨ Ø§Ùĩ
i x
ĠÙĦ Ùħ
ĠØ§ÛĮØ± ÙĪØ§ÙĨ
ĠÙħØµ Ø·ÙģÛĮ
Ñ ģ
ĠØµ Ø§ÙħØª
ĠØªÙĪÙĦÛĮ Ø¯ÛĮ
ÙĦÛĮ Ø§ÙĨ
Øµ ÛĮÙĩ
ĠØ¬Ø§ÙĨ Ø¨ÛĮ
ĠØ±Ø¯ÛĮ Ùģ
ĠÙĪ ÙĨØ²
ÙĨ Ø§Ú©
ĠØ§Ø³ØªØ§ÙĨ Ø¨ÙĪÙĦ
ĠØ³ Ø®ØªÛĮ
ĠØªØ± Ø¨ÛĮØª
ĠÙĪ ÙĪ
ĠÙĩ Ø®
ĠÙħØ±Ø¯ ÙħÛĮ
as h
ĠØ¬Ø² ÙĪ
ĠØµØ¯Ø§ Ù¾ÛĮØ´
Ø´ÛĮ Ø§ÙĨ
is s
Ø¨ ÙĦØ§
ĠØ¨Ø§ Ú©Ø³
ĠÙĩÙĪØ§Ù¾ÛĮÙħ Ø§ÛĮ
ĠØ¢Ø´ Ù¾Ø²ÛĮ
ĠÙĨ ØµØ±
ĠØ¨Ø§ Ú©ØªØ±ÛĮ
ĠÙħÙĪÙĨÛĮ Ø®
ĠØ¢ Ø¯Ø§Ùħ
ĠØªÙĪ ØµÛĮÙĩ
ĠÚ©Ø± ÙĪÙħ
ĠÚĨ ÙĦ
ĠØ®ÙĪØ§ Øµ
ĠØ¨ Ú©Ø§Ø±
ĠÙĦÛĮÚ¯ Ø§ÛĮ
ĠÚ¯ÙĦ Ø¯ÙĨ
ĠØ³ ÙĪØ§ÙĨ
ĠÙħØª Ø´Ú©ÙĦ
ib ut
ĠØ´Ø§Ùĩ ÙĨØ´
ĠÙĨÙĪ ÛĮÙĨ
ĠÙĨÛĮØ´ Ø§Ø¨
ĠØ® Ø¨Ø±ÛĮ
ĠÙĩ ÙĪØ§ÙĨ
ĠÙĩ ÛĮØª
ĠÙħØ±Øª Ø¶ÛĮ
ĠØ³Ø§Ø³ Ø§ÙĨÛĮØ§ÙĨ
ĠÚ© ÙĪÛĮ
ĠÙħØª Ø§ÙĦ
ĠØ§Ø³ ÙħÛĮØª
ĠØª ÛĮØª
ĠØ³Øª Ø§Ø¯
ÙħØ± Ø¨ÛĮ
ĠØ±Ø§Ø¯ÛĮ ÙĪÛĮÛĮ
Ùģ Ø´
ĠØ±ÛĮ ÙĪ
ĠÙģØ±Ø§ ÙĪØ§ÙĨ
ĠØ§ÙĨ ØŃÙĦØ§ÙĦ
ĠØªØ¬ Ø¯ÛĮØ¯
ĠÙĤÙĦ Ø¨ÛĮ
Ġencyclop edia
ĠÙ¾ÛĮØ´Ø± ÙģØªÙĩ
ul t
ĠØ¨Ø®ØªÛĮ Ø§Ø±ÛĮ
ĠÙĤ ÙĦÙĩ
ĠØ± ÙĪØª
ĠØ¨ Ø§Ø±ÛĮ
ĠØ³Ø± ÙħØ±Ø¨ÛĮ
Ġwor ld
ÛĮØ§ Ø¡
ĠØ¬ÙĨ Ø¨Ùĩ
ĠÙĨÙĪØ§Ø² ÙĨØ¯Ùĩ
ĠØŃØ³ ÛĮÙĨÛĮ
i el
ĠØ´ ØºÙĦ
ĠÙĪØ³ ÙģÛĮØ¯
ĠØªØ¬Ø± Ø¨ÛĮ
ĠÙħØ¹ ÙĦ
ĠØ®ÙĪØ§ÙĨ Ø¯ÙĨ
ĠØ¨Ø²Ø± Ú¯Ø±
Ø®ÙĪ Ø§Ùĩ
ĠÙħØ§Ø¬ Ø±Ø§Ø¬
ĠÙħØŃ ØªÙĪ
ĠØ§Ø³ØªÛĮ ÙĪÙĨ
ĠÙĩ ÛĮØ±
ĠØ¨Ø§Ø²Ø± Ú¯Ø§ÙĨÛĮ
ĠØ¨Ùĩ Ø´Øª
ĠÙĤØ² Ø§ÙĤ
ĠØ± Ø¤
ĠØ¨ÙĨ Ø§ÛĮ
Ġd o
ĠØ² ÙĩØ±
ĠØ§ÙĤ ÙĪØ§Ùħ
ĠØ¯ ÛĮÙĦ
ĠØ²ÙĨØ¯ Ø§ÙĨÛĮØ§ÙĨ
ĠÙĩØ§ Ø´ÙħÛĮ
Ġa g
u k
ĠØ¨ ÙĪÛĮ
ĠÚ© ÙħØ§ÙĨ
Ø¨ÙĪ Ø¯Ùĩ
ĠØ¢ÙħØ¯ ÙĨ
Ø§Ùħ Ø¯
ĠØ¦ ÛĮ
ĠØªØ± ÙĪØ±
ĠØªØ¯ Ø±ÛĮ
ĠÙĨÚ¯Ø± Ø§ÙĨÛĮ
ĠØª Ø§ÙĨ
ĠÙħØ¹ Ø¨Ø¯
ĠÙĩØ® Ø§ÙħÙĨ
ĠØ§ÙģØªØª Ø§ØŃ
Ø¯ÛĮ Ùĩ
ĠÙĪØ§Ø³ Ø·Ùĩ
Ġh ist
Ø§Ø¯ ÛĮØ±
Ø±Ø¯ ÛĮ
ĠØ§Ø² Ø¨Ú©
ÙĪØ±ÛĮ Ø§ÙĨ
ĠØ¯ÙħÙĪÚ©Ø±Ø§Øª ÛĮÚ©
ĠÙĤÙĨ Ø§Øª
Ġs m
ĠØ¹ Ø§Ø¯ÛĮ
ĠØ¨Øª ÙĪØ§ÙĨ
ĠØŃØ§ Ø¬ÛĮ
ĠØ¯ÛĮÙĨ Ø§Ùħ
ÙĨ Ø§Ø¨
ÙĤÛĮ ÙĤÛĮ
ĠØŃ Ø¨ÛĮ
Ø§ ÙģÛĮ
Ġs ch
ĠÙĦÛĮ ÙĪØ±
ĠØ§ÛĮØ± ÙĦÙĨØ¯ÛĮ
ĠÙ¾ÛĮØ± ÙĪØ²
ĠØ¨Ø±Ú¯ Ø´Øª
Ú¯ ÙĪØ¦Ùĩ
ĠØ« ÙħØ±
ĠÚ©ÙĦÛĮ Ø³Ø§
ĠÙĨÙħØ§ÛĮ ÙĨØ¯
Ġr es
ĠÙħØ§Ùĩ ÙĪØ§Ø±Ùĩ
ĠÙħØ±Ø¯ ÙħØ§ÙĨ
ĠØ³Ù¾ Ø§Ø±ÛĮ
Ġg u
ĠÙħÙĪÙĤ Øª
Øª Ø§ÛĮ
ĠÙħØªØ± Ø¬Ùħ
ĠÚ¯ Ø§Ø±
ÙĪØ¯ ÙĨ
ĠØ§ÙħÚ©Ø§ÙĨ Ø§Øª
ĠØ±Ø¶ ÙĪÛĮ
Ø§ÛĮ Ø§Øª
Ú©ÙĨ ÙĨØ¯Ú¯Ø§ÙĨ
Ø¨Ø±ÛĮ Ø¬
ĠØª Ø§Øª
ĠÙħØ¬ ÙĪØ²
ĠÙģ Ø¬Ø±
ĠØ§Ø³ØªÙĪØ¯ÛĮ ÙĪ
ĠÙħ Ú¯
ĠØªÙĪØ¶ÛĮ ØŃØ§Øª
ĠØªØµØ§Ø¯ ÙģÛĮ
ĠÙĪ Ø§Øª
ĠÛĮÙĪÙĨÛĮ ÙĪØ±
ĠÚ¯ Ø§Ø±Ø¯
ĠØ´ÙħØ´ÛĮØ± Ø¨
ĠØ¹ Ø±Ùģ
ĠØªÙĪ Ø¯Ùĩ
ĠØ§ÛĮÙĨØªØ± ÙĨØªÛĮ
ÙĪÙĨ ÛĮØ§
ĠØŃÙĪ Ø§Ø¯Ø«
an k
ĠÙģÛĮÙĦÛĮÙ¾ ÛĮÙĨ
ĠØ¯ Ú¯Ø±
ĠÙĦ Ø¦ÙĪÙĨ
ĠÙ¾ Ø§Øª
Ġunivers ity
Ø§ÙĨÛĮ Ùħ
ĠÚ©Ø´ Ø¯
ĠØ§Ø±ÙĪ Ú¯ÙĪØ¦Ùĩ
Ú¯Ø± Ø§ÛĮÛĮ
ØªÛĮ ÙĪ
ĠÙĪÛĮØª ÙĨØ§Ùħ
ĠÙĨÙĪ Ø²Ø¯ÙĩÙħ
it ion
ĠØ¨Ùĩ ÛĮÙĨÙĩ
ĠØ¢ ÛĮÙĨØ¯
ĠÙħØ¬ ÛĮØ¯
ĠØ¢Ø¨ Ø§Ø¯ÛĮ
ĠÙħØ¨ ÙĨÛĮ
ĠØ§ÛĮÙĨØ¯ÛĮ Ø§ÙĨØ§
ac t
ĠÚ¯ ÛĮÙħ
ĠØ¨ÛĮ Ø§ÙĨÛĮÙĩ
ĠÙĨÙĪØ¬ÙĪØ§ÙĨ Ø§ÙĨ
ĠØ§Ø® ÙĦØ§ÙĤ
ĠÙĨØª ÙĪØ§ÙĨ
Ø¦ ÙĪÙĦ
ĠÚ©Ø§ ØºØ°
ĠÙĨØ§Ùħ Ú¯Ø°Ø§Ø±ÛĮ
al e
ĠÙħØ§ÙĦÚ© ÛĮØª
ĠÚ©Ø§ÙĨ ÙĪÙĨ
ĠÙģ Ø§ÛĮÙĦ
ĠÚ¯ÙĨ Ø¨Ø¯
ĠÙĤØ¨ ÙĪÙĦ
ĠØ§Ø¬ Ø¨Ø§Ø±ÛĮ
ĠÙģØ±Ø³Øª Ø§Ø¯Ùĩ
ĠØ¨Ø²Ø±Ú¯Ø± Ø§Ùĩ
Ø§ÙĦÛĮ Ø³Ùħ
ĠØªØ± Ø³
ur n
ĠÙ¾ÙĨØ¬ ÙħÛĮÙĨ
Ú© ÙĪØ³
Ø· Ø¹
ĠÚ¯Ø° Ø§Ø±Ø¯
ĠÚ¯ÙĦ ÙĪØ¨
Ø¹ Ø¨
ĠÙĪÙĤ ÙĪØ¹
ĠØ¬ ÙĪØ¯
ie w
ĠÚ©ÙĪ Ø¨Ø§
Ġf il
ĠØªØ® ÙħÛĮÙĨ
ĠÚ¯Ø± Ø§ÛĮØ§ÙĨ
ĠØ®ÙĪØ§Ùĩ Ø±Ø®
m a
Ø³ØªØ§ÙĨ Ùĩ
ÙĪ ÙģÛĮ
ĠØ¬Ùħ Ø¹Ùĩ
Ø§Ø· Ø¹
ĠÙ¾ÙĨØ¬ Ø§Ùĩ
Ú¯ Ø±Ø§
ĠÙĤ Ø§Ø¦
Ö Ģ
ĠØ§ Ø¨Ø¹
Ø§Ø¨ ÙĦÙĩ
ĠÙħØª ÙħØ§ÛĮ
ĠØŃ Ø§ÙħÛĮ
ĠØªÙĪÙĨ Ø³
Ø³ÛĮ Ø³Ú©ÙĪ
ĠÚ©ÙĪØª Ø§ÙĩÛĮ
ĠØ§ ÙħØ§ÙĨ
ĠÚ¯Ø± Ø¨Ùĩ
ĠØ±ÙĪ Ø¨Ø±ÙĪ
ĠÙħÙĨ ÙĪÚĨ
ĠÙĨÙĩ Ø§Ø¯ÙĩØ§ÛĮ
ĠØ¨Ø± Ø³
ĠØ¨ ÙĤÛĮÙĩ
Ø±ÛĮ Ø²
ĠÙħ Ø±ÛĮÙħ
Ø³Øª ÛĮÚ©
Øµ Ø§Ø±
ĠØ´ÙĨ Ø¨Ùĩ
ĠØ¨ Ø·
ĠØ¬ÙĪ Ø§ÙħØ¹
ĠÙĪØŃ Ø´ÛĮ
ĠØ§ÙģØª Ø¯
ĠÙħØ³ Ú©ÙĨ
ĠØ§ÙģØªØ® Ø§Ø±ÛĮ
ÙĪÙĨØ¯ ÛĮ
ĠÙħØ±Ø§ÙĤ Ø¨Øª
ĠÙħØ¹ Ø¯ÙĨ
Ä ±
ĠÚĨ Ø±Ø®Ùĩ
ĠÙħÙĩ Ø§Ø±Øª
Ġar ch
ĠØ² ÙĦØ²
ĠØ¹ Ø²ÛĮ
ĠÙħØª ÙħØ±Ú©Ø²
or k
ĠØ¨Ø±Ø§Ø¯Ø± Ø´
ĠÚĺ Ø±
ub l
ĠÙĪÛĮØ± Ø§ÛĮØ´
ĠÙħÙĨÙĪÚĨ ÙĩØ±
ĠÙģ Øª
Ġh o
ĠØ¯ ÙģØ§Ø¹ÛĮ
ĠÙ¾Ø§Ø¯Ø´Ø§Ùĩ Ø§ÙĨ
ĠÚ© ÙĨÛĮ
ĠÙ¾Ø²Ø´Ú© Ø§ÙĨ
ĠØ¨Ø§ÙĦØ§ØªØ± ÛĮÙĨ
ĠØ§Ø³ØªØ§ÙĨØ¯ Ø§Ø±
ĠØ³Ø· ÙĪØŃ
un g
ĠØ¨Ùĩ Ø§Ø¯Ø§Ø±
ĠÙĩÙĦ ÙĨØ¯ÛĮ
ĠØ®ÙĪØ§ÙĩØ±Ø® ÙĪØ§ÙĨØ¯Ùĩ
ĠØªØ£ ÙĦÛĮÙģ
ÙħÛĮ Ø²
Ø¶ Ø§ÙĨ
ĠÚ©ÙĨ Ø³ÙĪÙĦ
Ġa f
ĠØ¬ÙĦ Ø§ÙĦ
ĠØ¢Ú¯ ÙĪØ³Øª
a u
ĠÚ¯ÙĦ Ø¯
ĠØ¢Úĺ Ø§ÙĨØ³
ĠØ®Ø¯ Ø§ÛĮ
ĠÙħÙĩ ÛĮ
ĠØ¹Ø¯ Ø§ÙĦØª
ĠØªØ¬ Ø§ÙĪØ²
ĠÙ¾Ø³Ø± Ø´
Ġ er
ĠØ§Ø³Øª ÙĪÙĨ
ĠÙ¾Ø°ÛĮØ± ÙģØª
Ø§Ùĩ Ø±Ø§Øª
Ġg re
ĠØ¢ Ú¯Ø§ÙĩÛĮ
ĠÚ©Ø§Ø±Ø¨Ø± Ø¯ÙĩØ§ÛĮ
ĠØ¯Ø§ÙĨØ´ ÙĨØ§ÙħÙĩ
ĠÚ© Ø§ÙĨÛĮ
ĠØ¨ ÛĮØ§
e g
ĠÙħÛĮØ² ÙĪØ±ÛĮ
ĠÙĦ ÙĪØ±
og raph
ĠØ¨ÛĮÙħ Ø§Ø±Ø§ÙĨ
ĠÙħØ´Ø®Øµ Ø§Øª
Ġwik i
ĠØ¨Ø§Ø² Ø®
ĠÙĪØ§Úĺ Ú¯Ø§ÙĨ
ĠÙħØªØ¹Ø¯ Ø¯
ĠÙħÙĤ Ø§Ø¨ÙĦÙĩ
um b
ĠØ§ÙħØ§Ùħ Ø²Ø§Ø¯Ùĩ
ĠØªØ¨Ø¹ ÛĮØ¯
ĠÙģØ± ØµØª
ĠØ§ÙĨØ¯ Ú©ÛĮ
Øµ Ø±ÛĮ
Úĺ ÛĮÚ©ÛĮ
ĠØ¹ÙĦØ§ Ø¦Ùħ
ĠÙħÙĪÙĦÚ© ÙĪÙĦ
ÙĪÛĮ ÙĪ
Ø§ØªØ± ÛĮÙĨ
ĠØªØŃ Ø±ÛĮÚ©
ĠØ±ÛĮØ§Ø¶ÛĮ Ø§Øª
ĠØ®Ø¨Ø± Ú¯Ø²Ø§Ø±ÛĮ
c o
ĠØ¢ Ú©Ø³
ĠØ³ ÛĮÚ©
ĠØ§ØŃ ØªØ±
ĠØªØ¦ ÙĪØ±ÛĮ
ÙĪÙĦ ÙĨ
ĠØ± ÙĨ
ĠÙħØ¬ Ø±ÛĮ
Ø¨Ø± Ùĩ
ĠÚ©Ùħ Ø§ÙĦ
Ġi ran
Ø¶ Ø¹
ĠÙħØ§ÙĨ Ø¹
ĠÙħÙĤ Ø§Ø¯ÛĮØ±
ĠØ²ÙĦØ² ÙĦÙĩ
ÙĪØ± Ø²
Ġ est
ĠÚ¯ ÙĨØ¯
ĠØ¨Ø±Ø¯ ÙĨ
ĠÙħÙħ ÙĨÙĪØ¹
ĠÙĪ ÙĪØ¯
ĠØ® ÙĦØ§Ùģ
ĠØ§ÙĦ Ø³ÙĦ
ĠÙħØ§Ø¬Ø±Ø§Ø¬ ÙĪÛĮÛĮ
ĠØ¨Ø± Ø³Ø¯
ĠØ³ÙĪØ³ÛĮØ§ÙĦÛĮ Ø³ØªÛĮ
ĠØµ ÙĪØªÛĮ
ĠÚ¯ÙĪØ´ Ùĩ
ĠØ¬Ø³Øª Ø¬ÙĪÛĮ
ĠØ³ÙĪ Ø¡
ĠØ³ ÙĨÛĮ
ĠØª ÙĦÙĩ
Ġi i
ĠØ¨Ø§ÛĮØ± ÙĨ
ĠØ±ÙĪ Ø§ÙĨÛĮ
ĠØ³Ø§ ÙĪØª
ĠÚ©Ø§ÙĨ Ø²Ø§Ø³
ĠØ¨Ø§Ø±Ø³ÙĦ ÙĪÙĨØ§
Ġd r
ĠØ®ÙĪØ¯ Ùħ
Ġp ol
ĠØ¬ÙĪ Ø§Ø¯
ĠÙħØº ÙĨØ§Ø·ÛĮØ³ÛĮ
ÙħØ§ÙĨ Ùĩ
ĠØ¯ÛĮØ¯ ÙĨ
ĠØ§ ÙĪØ¯
ĠÙħ Ø¨Ø¯
ĠØ³Ø§ÙĦ ÙĩØ§ÛĮ
ĠÙħØ¹Ø¯ ÙĨÛĮ
ĠÚ©Ø´Øª Ø§Ø±
ĠÙħØ¹ Øª
ĠØ±Ø³ Ø§ÙĦÙĩ
ĠØµ ØŃÛĮØŃ
ØµÛĮ ÙĦÛĮ
ĠÚ©ÙĪÙĩ Ø³ØªØ§ÙĨÛĮ
ĠÛĮ Ø§ÙĨÚ¯
Ú© ÛĮÙĨ
ĠÙħÙĨØŃ ØµØ±
ÙħÛĮÙĨ Ø§ÙĨ
ĠØ¨Ø±Ø§ ÙĪÙĨ
ĠÙ¾ Ø§ØªØ±
ĠØ¬ Ø¨Ø±
ĠØ´ ÛĮÙĨ
ĠÙģÙĦØ³ ÙģÛĮ
ĠÚ©ÙĨ Ùħ
ĠÚ©ÙĨ Ùģ
ĠÚ©Ø§Ø± Ú¯Ø±
ĠÙħØ® ÙĦÙĪ
ĠÙħÛĮ Ø§ÙĨÛĮ
ĠÙ¾Ø³ Ø±Ø§ÙĨ
ĠØ´ Ø§Ùħ
ĠÙģ Ø§ÙĦ
ĠÛĮÙĪÙĨ Ø³Ú©ÙĪ
ĠØ®ÙĪØ¯ Ú©Ø§Ø±
ir e
Ø¯Ø§ Ø«
ĠØ¨ÙĨ Ø²
ĠØ¢ ÛĮØ±
ĠØ³Ø§Ø®Øª ÙĨ
ĠØ§ÙĨØ¯ ÛĮØ³
ĠØ¨Ø§ Ø¨Ú©
ĠØª Ø¸
ĠÙħØ± Ø²ÛĮ
ĠØ§ÙħØª Ø¯Ø§Ø¯
ĠÚ© Ø¨
ĠØ¢Ø± ØªÙĪØ±
ĠÚĨ Ø§ÛĮ
Ø¯ ÙĦ
Ø§ÙĨØ³ ÛĮÙĨ
ĠØ± ÙĪÙĦ
ĠØ´Ùħ Ø³ÛĮ
Ġd es
ØªØ§ Úĺ
ĠÙħØ¬ Ø§Ø²ÛĮ
ĠØ§ÛĮ ÙģØ§
ĠØ¢Ø±ÛĮ Ø²
er t
ĠÙĨÙĪ Ø§Ø±
ĠØ¨Ø±Ø§ÙĨ Ú¯ÛĮ
ĠØ¨ÙĪØ´ ÙĩØ±
Ø§Ø² Ø¯
ĠØ®ÛĮ Ø§ÙĦ
ĠØ§Ø±Ø¯ ÙĨ
ĠØŃØ± Ø§Ø±Øª
Ø§ÛĮ ÙģÙĩ
ol d
Ú©Ø± Ø¯Ùĩ
Ġb i
ĠÙħÙĨØ· ÙĤ
ÙĪÙĨ ÛĮÚ©
ĠØ³ÙĦ Ø§Ùħ
Ú¯ ÙģØª
ĠÚ© Ø±Ø§
ĠÙĩØ± ÙħØ²
ĠØ¢ÙĦ ÙĪÙħ
Ú© ÙĪÙĩ
ĠØ³Ù¾Ø± Ø¯Ùĩ
s k
ĠÚ© Ø§ÙĨØ¯
Ä ģ
ĠÛĮÙĩ ÙĪØ¯
ĠØ¨Ø§ÙĦ Øº
ĠØªÙĨ Ø´
ĠØ¢ ØªÙĦ
ĠÙħØ¹ ØªØ¨Ø±
ĠØ¨Ø§Ø´Ú¯Ø§Ùĩ ÛĮ
ĠÙħÙģ ÛĮØ¯
ĠØ³Ø§Ú© ÙĨØ§ÙĨ
ĠØ´Ùħ Ø§Ø±ÛĮ
ĠÚ© ÛĮÙĩ
Ø§Ø¯ Ø´
ĠØ®ÙĦ Ø¨Ø§ÙĨ
ĠÙĤ Ø§Ø±
ĠØ¯Ø§Ø± ÙĪÛĮÛĮ
ĠØ¢ÙĨ ÙĦØ§ÛĮÙĨ
ĠØªØŃ Ø±ÛĮÙħ
ĠØ§ØŃ Ø¯Ø§Ø«
ĠÛĮ Ø§ÙĨ
ĠØ· Ø§ÛĮÙģÙĩ
ØŃ ØªÛĮ
ĠØ§Ùģ Ø³Ø±
ĠØ§ÙĨ Ø¹
ĠØ§Ø³ØªØ® Ø±Ø§Ø¬
ĠØ§ÙĪ ÙĦÛĮ
Ø§ÙĨØ³ ÙĪÙĨ
ĠØ¯ ÙĪÛĮ
ĠÚ¯ ÙĦÛĮ
ĠØ´Ø§Ø± ÙĦ
ĠØ§Ø±Ø¯ÙĪ Ú¯Ø§Ùĩ
ĠÙħØ¹ ÙĦÙħ
or m
ĠØ¨Ø§Ø² ÙħÛĮ
ĠØ¢Ø³ Ùģ
ĠØµÙģ ØŃØ§Øª
ĠÙħØ§ÛĮÚ© Ø±ÙĪ
ĠÙĤØ¯Ø± ØªÙħ
ĠØªÙħØ± ÛĮÙĨ
ĠÚ©Ø´ ÛĮØ¯
ĠØ§Ø« Ø±Ø§Øª
ĠØ¨ÛĮØ± ÙĪÙĨÛĮ
Ø¯Ø§ Ø´ØªÛĮ
ĠØ§Ø· ÙħÛĮÙĨØ§ÙĨ
ĠØ§Ø´Ú© Ø§ÙĦ
ÙĪ ÙģØ±
ĠØ¬ Ø§Ø¨
ĠÚĨ ÙĨÚ¯
ĠØ¢Ø±ÛĮØ² ÙĪÙĨØ§
ĠÚ¯Ø± ÙħÛĮ
ĠØ§Ú©Ø« Ø±ÛĮØª
e v
ĠØªØ¹ Ø·ÛĮÙĦ
Ø§ÙĨ Ø´
ĠØ§ÙĦ Ú©Øª
ĠÙĨÚ¯Ø§Ø± Ø´
ĠÙĦ ÙĪØª
ĠØ§Ø³Ù¾ Ø±
ĠÚ¯ Ø´
ĠÙħØ¹ ÛĮÙĨ
ĠØ¯Ø§ÙĨØ´ ÙħÙĨØ¯
ĠØ² ÙĪØ¯
ĠÙĦØº ÙĪ
ĠÙħØ¬Ø¯ Ø¯Ø§
ĠØ® Ø´Ùħ
ĠÙħØŃØªÙĪ Ø§ÛĮ
ĠØ§Ø± ÛĮÚ©
ĠØªÙĪØ§ÙĨ Ø³ØªÙĨØ¯
ĠÙĤÙĦ Ùħ
Ġac cess
ĠÙħ Ø¶
ÙĪ Ø§Ø¯ÙĪØ±
ĠØ®Ø±ÛĮØ¯ Ø§Ø±ÛĮ
ÙĪÛĮ Ø¬
ĠØ§Ø³ÙĦ ØŃÙĩ
ĠÙ¾Ø±Ø¯ Ø§Ø²ÛĮ
ĠØ¬ ÙĨØ§
ÙĪØ¦ ÙĦØ§
ĠØ¹Ú© Ø§Ø³ÛĮ
ĠØ¹Ùħ ÙĤ
ĠØ± Ø´Øª
ĠÙħØª ÙĪÙĨ
Ø³ Ø±ÛĮ
ĠØŃ ÙĪÙħÙĩ
ĠØ®ÙĪØ§Ø³Øª Ø§Ø±
ĠØ¨ÙĦÙĪÚĨ Ø³ØªØ§ÙĨ
am e
ĠØµ ÙĦØ§ØŃ
ĠØ¨Ø§ Ø¨ÙĦ
ĠØ³ ÙĪØ³
ĠØª Ø³Øª
ĠØ¢Ø²ÙħØ§ÛĮØ´ Ú¯Ø§Ùĩ
ĠØ§Ø¨Ø¹ Ø§Ø¯
Ø§Ø± ÙĪØ³
ĠØ¢ÙĤ Ø§
ĠÙģÙĦ Ú©ÛĮ
ĠØ§ Ø¦Øª
ĠÛĮÚ© Ø³Ø§ÙĨ
Øµ Ø§Ø±ÛĮ
Ġc an
Ú¯ ÙĪÛĮ
ĠØ§ÛĮ Ø²Ø¯
ĠÚ¯ÙĦ ÙĪÙĦÙĩ
ĠØ±ÙĪ Ø²ÛĮ
ĠØ§ÙĪØ± Ú¯ÙĨ
ĠÚ©ØªÛĮ Ø¨Ùĩ
ĠÙĨÚ¯ Ø§Ø±Ùĩ
ĠÙĤ Ø§Ø³Ùħ
ĠØ¯ ÙĤØª
p e
ĠÙħØ§Ø± ÛĮØ§
l in
ĠÙħØ¯ ÛĮØ±Ùĩ
Ġ es
ĠØ¹Ùħ ÙĪÙħØ§
ĠØ® Ùħ
ĠØ§Ø³Ú© ÛĮØª
ĠÙ¾ÛĮØ± ÙĪØ§ÙĨ
ĠØ¢ÙĦ Ù¾
ĠÚ© Ø¨Ú©
ĠØ° ÙĪØ¨
ĠØ¢Ø³Ùģ Ø§ÙĦØª
ig n
ĠØ³Ùģ ÛĮØ±
ÛĮ Ø¨
ĠÙħØ± ÛĮÙĦÙĨØ¯
ĠØ³ Ø¤
ÙĪØ± ÙĩØ§
ĠØ§Ùĩ ÙĪØ§Ø²
Ú¯ Ø§Ùħ
ĠØ³Ø§Ø² ÙĨØ¯Ùĩ
ĠÙħÙĩÛĮ Ø¬
ÚĨ ÛĮÙĨ
ÙħÛĮ Ø§ÙĨ
ĠÚ©ÙĨØª Ø§Ú©ÛĮ
Ú© Ø¨
Ùħ Ø¬
as e
ĠÚ¯Ø±Ø¯ Ø§ÙĨ
Ã ¶
ĠØ¯ÛĮ Ø²ÙĨÛĮ
ĠØ´Ø¨ Ø§Ùĩ
ĠØ§ÙĨ ÙĤ
ĠÚ©Ùĩ Ú©
ĠØ¹ Ø¯Ùĩ
ĠØ´ ÙģØ§
ĠØ³ÛĮ Ø¨
ĠØ¨ÙĨ Ø§Ùħ
ĠØ®ÙĦÛĮ ÙģÙĩ
ÙĪÙħ ÛĮØª
ĠÚ©Ùħ ÛĮÚ©
ÙĪØª Ø§ÛĮ
ĠØ¯Ø§Ø± Ø§ÙĨ
ÙĪØ¯ Ú¯ÛĮ
ĠÛĮ ÙĪØªÛĮ
ĠØ¹ÙħÛĮ ÙĤ
ĠÙħÙĩÙĨØ¯ Ø³
ĠØ¨Ø²Ø±Ú¯ Ø³Ø§ÙĦ
ĠÙħØ± ÙĪØ±
ĠØ³ÙĪØ¦ Ø¯ÛĮ
Ø§ÙĦÛĮ Ø²
ĠØ§ØµÙĦØ§ØŃ Ø§Øª
ĠØ· ÙĦØ¨
Ø¢ Ø±
ĠØªØŃ ÙĪÛĮÙĦ
ĠØªÙĪØ± ÙĨØªÙĪ
ĠÙĩÙħ Ø§ÛĮ
ĠØ§ÙģØ² Ø§Ø±ÛĮ
ĠÙĪØ³ Ø·ÛĮ
ĠØªÙħØ§ Ø´Ø§
ĠØ§ÙĨØ¯ ÛĮ
Ø§ÙĨ Ø³ÛĮÙĦ
Ø±Ø§Ú© Ùħ
ĠÙħÙĨØµ ÙĪØ±
ĠÚ¯Ø°Ø± Ø§ÙĨØ¯
ĠØº Ø§Ø±
ĠÙĩÙĨØ¯ Ø¨Ø§ÙĦ
ĠÙĤØ³Ùħ ØªÛĮ
ĠÙħ Ø±ÙĪ
ĠØ§Ø³ØªÙĤ Ø¨Ø§ÙĦ
ĠØ·Ø±Ùģ Ø¯Ø§Ø±Ø§ÙĨ
ĠÙħÚ©Ø§ÙĨ ÛĮÚ©
Ġg l
le y
Ú¯Ø± ÙħÛĮ
ĠØ¨Ø±Ø¯ Ø§Ø±
ĠØ± Ø¨
Ġm et
ĠØ¨Ø§ Ú©
Ø²Ø± Ú¯
ĠÙħ ÙĦØ§
o od
ĠØ¹ ÙĪØ§Ø±
ĠØ± ÙĨØ¬
r i
ĠÙĩ Ø§Ø¯ÛĮ
Ġcontr ibut
w ard
Ù ĥ
ĠØ§ Ø¶
ĠÙħØŃÙĤ ÙĤ
ĠÙĩÙħØ± Ø§ÙĩÛĮ
Ġi ii
ĠØ¬ ÙĦØ¨
ĠÙĨÛĮ Ø¬
ÙĪØª ÙĨ
ĠÚ¯ ÙĪÛĮ
ĠØ§ÙĪ Ú©
ĠÙĩØ§Ø± ÙĪØ§Ø±Ø¯
ĠÚ©ÙĪ Ø´
ÙĨ Ø¸
ĠØ§Ø³ØªØ® Ø¯Ø§Ùħ
ĠØ´ÙĦ ÛĮÚ©
ÙĪ Ø´ÛĮ
ĠÙĪÛĮØ³Ú© Ø§ÙĨØ³ÛĮÙĨ
ĠØªØŃÙĤÛĮÙĤ Ø§ØªÛĮ
Ø¬ Ø§ÙĨÛĮ
ĠØ¯ÙĪ Ø³ØªÛĮ
ĠØ¯ Úĺ
ĠØŃØ± Ø§Ø±ØªÛĮ
ĠÙĨÙħ Ú©
ĠØ³ÙĤ Ùģ
ĠØªØ³ ÙĦÛĮÙħ
Ġpr ess
ĠÚ©ÙĨ Ø§Ø±ÛĮ
ĠØªÙĨ Ø³ÛĮ
ĠØ¶ ÙĦ
ĠØ¶Ø± ÙĪØ±ÛĮ
ĠØ´ Ø±ÛĮÙģ
ĠÚ©Ø±Ø¯ ÛĮ
ĠÙħØ³Øª Ø¹
ĠÙĨÙħÙĪØ¯ ÙĨØ¯
ĠØ¨Ø± Ú¯Ø±ÙģØªÙĩ
Ú¯ ÛĮÙĦ
ĠÚ©Ø§Øª Ø§ÙĦ
ĠÙĨØ¨ Ø§ÛĮØ¯
ĠÙģØ± ÙĤÙĩ
ĠØ¬Ùħ Ø´ÛĮØ¯
ĠØ³ÙĪ Ù¾
ĠØ§ÙĨØ¯ Ø§Ùħ
ÙĪ Ø§Ø±ÛĮ
ĠÙĨ Ø§Ùĩ
ĠÚ¯ÙģØª Ú¯ÙĪ
Ùģ Ø§ÙĦ
l es
ĠÚ©ÙĦÛĮ Ø³
ĠÙĨØ§Ø¨ ÙĪØ¯
ĠÙĨÛĮØ¬ Ø±ÛĮÙĩ
ĠÙĤØ¶ Ø§ÛĮÛĮ
om e
ĠÚ©Ø§Ù¾ÛĮØª Ø§ÙĨ
ĠÙĪ Ø§ÙĦØª
ÙĪØ± ÛĮØ§
ĠÙĩÙĪØ´ ÙħÙĨØ¯
e e
ĠÙħ Ø§ÙĨÛĮ
ĠÙħ Ø®Ø§Ø¨
ÙĨ ÙĪØ³
Ø¨Ø± Ø²
Ġv ol
ĠÚ© Ø¨ÛĮØ±
ĠØ§Ø³ Ø¯
ĠØ§Ø® Ø±Ø§Ø¬
ĠÙĤÙĦÙħØ± ÙĪÙĩØ§ÛĮ
ĠÙĩÙħØ³ ÙĪØ¯
ĠÙħØ¬Ø§Ø² Ø§Øª
ĠÚ©ÙĪÚĨ Ú©ØªØ±
ĠØµØ¯Ø§Ù¾ÛĮØ´ Ú¯Ø§ÙĨ
Ø´ ÙĤ
ĠØª Ø±ÙĪ
ĠÙĤ ÙģÙĤ
ĠØ±Ø§ ØŃØªÛĮ
ĠÙģØ± Ø§Ø®
Ø§ÙĦ Ø¹
b o
Ú© Ø³ÛĮ
ØŃ Ø§ÙĨ
ĠÚ¯ Ø§ÙĪ
ĠÙħØ®ØªØµ Ø§Øª
ĠÙĪ Ùģ
ĠØ´Ø§Ùĩ ÙĨØ§ÙħÙĩ
ÚĨ ÙĪØ¨
ĠÙ¾ÙĦ Ø§Ø³
Ġp o
ĠØ§ØŃØªØ± Ø§Ùħ
or n
ĠÙħ ÛĮÙĨÛĮ
ĠÙĩ Ùģ
ĠÙħÙĤ Ø·Ø¹
ĠÚĨØ§ÙĦ Ø´
ĠÙħ ØµØ¯
ÙĨØ´ ÛĮÙĨ
ĠØ¹ÙħÙĦÛĮ Ø§ØªÛĮ
ÙĪØ± Ùģ
Ø³Ú© ÙĪÙ¾
ĠØ¢ Ø¯Ø±
ĠØ±Ø³ ÙħÛĮØª
ĠØ¬Ø¯ Ø§ÛĮÛĮ
ĠØ¬Ø² Ø¡
ĠØ§Ø±ØªØ¨Ø§Ø· ÛĮ
ĠÙħÙĤØ¯ ÙħÙĩ
ĠØ§ Úĺ
ĠÙģØ± Ø¢
ĠØ´ Ø·Ø±
ĠØªÙħØ§ÛĮ ÙĦ
ĠØ¬Ø¯Ø§ Ú¯Ø§ÙĨÙĩ
Ġm at
ĠÚ©ÙĪÚĨ Ú©ÛĮ
ĠÙħØ£Ùħ ÙĪØ±
ĠØ§Ø³Øª ØŃ
ĠÚ¯ÙĪ Ú¯ÙĦ
Ġal l
ĠÙĨØ´ ÛĮÙĨÛĮ
ÚĨ ÙĪ
ĠØ®ÙĪØ§ Ø¬Ùĩ
ĠØªÚ©ÙĨ ÙĪÙĦÙĪÚĺÛĮ
ĠØ±ÙĪØ² Ø§ÙĨÙĩ
ĠÙĨÛĮØ´Ø§Ø¨ ÙĪØ±
Ñ Ĥ
in t
ĠØ² ÙĨÚ¯
Øµ ÙĦÙĩ
ĠÙĦÛĮ Ø³
ĠØ§ÙĨÚ¯ ÛĮ
Ùħ Ø¯Ùĩ
ĠÙĤØ¨Ø± Ø³
ĠØ¬ Ø§Ø¯ÙĪ
ĠÙĨÚ¯Ùĩ Ø¨Ø§ÙĨ
ĠØ§Ø· ÙĦØ³
ĠØ¨Ø± ÙĪØ¯
ĠÙĪÙĤ Ø§ÛĮØ¹
ĠØ§ Ø¨Ø±ÛĮ
ĠØ´ Ø¬Ø§
ĠÙĦ ÙĨÚ¯
ÛĮØ§ Ø·
ĠØªÛĮÙħ ÛĮ
ĠØª Ø§ÙĨÚ©
ĠØ§ÙĦÛĮ Ø²
ĠØ¹ÙĪ Ø¶
ĠØ³Ø§ÙĦ Ùħ
ĠØ´ÙĪ ÙĩØ±
Ġinter n
ĠØ¹ÙĦ Ø§ÙħØª
ĠØ§ÙĪ ÙĤØ§Øª
ĠÙĨÙħ Ø§Ø²
ĠØ¯ Ø²Ø¯
ĠÚ©Ø±ÛĮ Ø³
ĠÙĦÛĮÙĪØ± Ù¾ÙĪÙĦ
Ù¾ Ø§ÛĮÙĩ
Ùģ Ø±ÙĪØ´
ĠÙĪÙĨØ² ÙĪØ¦ÙĦØ§
ĠÙ¾ÛĮ Ø³Øª
ĠØ§Ø¨Ø² Ø§Ø±ÙĩØ§ÛĮ
ÚĨ Ø±
ĠØµÙĨØ¯ ÙĪÙĤ
ĠØ§Ø¹ Ø¸Ùħ
ĠÙĪØ§ØŃ Ø¯ÙĩØ§ÛĮ
ĠÙģØ± ÙĪÙĨØ¯
ĠØ¢ Ø²Ø§Ø±
ĠÙħØ± Ø¯Ùĩ
Ġp e
ĠÙģ Ú©Ø±ÛĮ
ĠÙĨ Ú©Ø±Ø¯Ùĩ
Ġa v
ĠØ§ÙĪØ§Ø³ Ø·
Ġcontribut ors
ĠÚ© Ø§ÙħÛĮ
Ø³ Ø§Ø²
Ø¬ Ø§Øª
ĠÙģØ±ÙħØ§ÙĨØ¯Ùĩ Ø§ÙĨ
ĠØ²Ø± ÛĮÙĨ
ĠØ³ ÙĪØ§
ÙħØ§ÙĨ Ø¯Ùĩ
Ġjo hn
ĠÙħÙĪÙĨØª Ùĩ
Ø³ØªØ± ÙĨ
Ġte am
ĠØ¬ÙĨ Ø§ÛĮØª
ĠØºÛĮØ± ÙĤØ§Ø¨ÙĦ
ĠÙ¾Ø§Ø± Ø³
ĠÙģØ±ÛĮØ¯ ÙĪÙĨ
ĠØ± ÛĮÙħ
ĠÙģØ±ÙħØ§ÙĨ Ø¯Ø§Ø±
ĠÚ© ÛĮØ³
ĠØ§ ÙĪØ±Ø´
ĠØªØŃ ÙĪÙĦ
ĠØªÙĤ Ø§
ĠÙģ Ø§ÙĨØª
ĠÙħÙĨØª Ø®
ĠØ¢ Ø¨Ø±
ĠÙĨÙģØª ÛĮ
ĠØ¨ÙĦ ÙĪØ±
ĠÙģ Ø´
ĠØ¹ Ø¨
ĠÚ©Ùħ ØªØ±ÛĮ
Ø²Ø¨ Ø§ÙĨÛĮ
em ber
ĠÛĮ Ø§Ø±
Øº Ø§ÙĦÛĮ
Ø³Ø§ ÙģØª
ĠØ¹ÙĤÛĮ Ø¯Ùĩ
ĠÚ¯Ø±Ø¯ ÙĨ
ĠØ®Ø¨Ø± ÙĨÚ¯
Ø¢ ÙĪØ±
ĠØ¬ ÙĪÙĨÚ¯
Ú© Ø§ÙĨØ³
ĠØ§Ø³Ú© ÙĨØ¯Ø±
ĠØ¨Ø§ Ø¯ÛĮ
ÛĮØ¯ Ø§ÙĨ
ĠØ¨Ø± Ø´
Ġar m
Ã §
ĠØ§Øª ÙħÛĮ
ĠÛĮÙħ ÙĨ
ĠÙħÙģ Ø§ÙĩÛĮÙħ
Ġaccess ed
ĠÙ¾ ÛĮØ¯
ĠÙĨÙĤ Ø¶
ĠØ¨ÙĪØ³ ÙĨÛĮ
ĠØ¬ ÙĨÛĮÙĨ
ar e
ĠØ§Ø±Ø¯ Ø¨ÛĮÙĦ
ĠÙħØªÙģØ§ÙĪØª ÛĮ
ĠØ¬Ø¹ Ø¨Ùĩ
ĠÙĤØ· Ø§Ø±
ĠØ¹ÙĪØ§Ø± Ø¶
Õ ¸
ÙĪØ³ Ø§
ĠØªØ§Ø¬ÛĮÚ© Ø³ØªØ§ÙĨ
ĠØ§Ú©Ø³ÛĮ ÚĺÙĨ
ĠØªÙĤØ³ÛĮÙħ Ø§Øª
ĠØ®ÙĪØ§ Ø³ØªÙĩ
ĠØ³Ø· ØŃÛĮ
ĠØª Ø¯Ø§
ĠØ¬Ø§Ùħ Ø¯
ĠÙĨ Ú©ØªÙĩ
ĠØ´Ø§Ùĩ ÛĮÙĨ
Ø¯ ÙĪ
ĠÙĪÛĮØ±Ø¬ ÛĮÙĨÛĮ
ĠØ¬Ø³Øª Ø¬ÙĪ
ĠÙĨ ÙĪØ±Ø¯
ĠÙĩ Ø´
ĠÙĪÛĮÚ©ØªÙĪØ± ÛĮØ§
ĠØªØ¹ ÙĤÛĮØ¨
ĠØ¢ÙģØª Ø§Ø¨
ĠÙ¾Ø±ÙĪØª Ú©ÙĦ
an s
ĠÙ¾ Ø§ÛĮÛĮ
ĠÙħØ§ÙĩÛĮ Ø§ÙĨ
Ø¨ Ø®Ø´
ÙĦÛĮ ÙĦÛĮ
ĠØ´ Ú¯ÙģØª
ĠØ³ÛĮÙĨ Ø§
ĠØ¨Ø¯ ÙĨÙĩ
Ġc d
ĠØªØ±Ú©ÛĮ Ø¨Ø§Øª
y l
ĠÚĨ Ú¯
ĠØ° Ùĩ
t a
il d
ĠÙĪØ¸ Ø§ÛĮÙģ
ÙħÛĮ Ùĩ
ĠÙģØ§Ø· ÙħÙĩ
ĠÚ©Ùħ Ø¨ÙĪØ¯
ĠØ¢ÙĨ Ø§
Ġn a
ĠÙħÙĩÙĨØ¯ Ø³Ø§ÙĨ
ĠØ²ÙĩØ± Ø§
ĠÙģ ÙĤÙĩ
ĠØ±Ø§ Ø²
ÙģØ± ÛĮÙĨÛĮ
ation s
ĠØ§Ø®Øª Ø±
ĠØ¯Ùĩ ÙĨØ¯Ú¯Ø§ÙĨ
ĠÙħÙĪØ¶ÙĪ Ø¹Ø§Øª
ĠØªÛĮ Ù¾
Ġs w
b r
ØªØ± Ùĩ
ĠØŃ ÙĤÛĮÙĤÛĮ
ĠØ®ÛĮ Ø§ÙĦÛĮ
Ø§ Ø´Øª
Ø® Ø±Ùĩ
Ø§ÙĨØª Ùĩ
Ø³ ÙĨØ¬ÛĮ
Ù ī
ĠÙħØ¤Ø³ Ø³
ĠØ§Ø³Øª Ø§Ø±
Ġen g
ĠØªÙĨØ¯ ÛĮØ³
ĠÙ¾ ÙĩÙĨ
ĠØ¨ÙĨ Ø§ÙĩØ§ÛĮ
ĠØ± ÛĮØª
Ø§ÙĦ ÛĮÙĨ
ĠÙħÙĪØ³ ÙĪÛĮ
ĠÙĩÙħ Ú¯ÛĮ
ĠØªØ¨ÙĦÛĮØº Ø§Øª
ĠÙĤÛĮ Ø§Ùħ
ĠØ´Ø·Ø± ÙĨØ¬
ĠÙħØ´Ø±ÙĪ Ø·Ùĩ
Ø± Ø§Ø¨
ĠÙģØ±Ø¯ ÙĪØ³ÛĮ
ĠÚ©ÙĦØ± Ø§Ø¯ÙĪ
ĠØ§Ùħ ÛĮ
ĠØ¹ ÙħØ§ÙĨ
Ġp a
ĠÚ©Ùħ Ø¨Ø±ÛĮØ¬
ĠØ¯ÙĪØ³ØªØ§ÙĨ Ùĩ
ĠØ¯ÛĮ Ø³Ú©
ĠØ³Ø± Ú¯Ø±ÙħÛĮ
ĠØ®Ø¯Ø§ ÙĪÙĨØ¯
ĠØ§ÛĮ Ùħ
ĠØ¹Ú© Ø§Ø³
ĠØ§ÙĪØ±Ø´ ÙĦÛĮÙħ
ĠÙĤØ¯Ø±ØªÙħ ÙĨØ¯
Ø² ÛĮØ¯
ĠØªÚ© Ø§ÙħÙĦ
ĠÚ©ÙĩÚ© Ø´Ø§ÙĨ
ĠÚ¯Ø± ÚĨÙĩ
ĠØ± ÛĮÚ©
ĠÙĩ Ø§Øª
Ø§Ø³ Ú©Ø§
ĠØ¯Ø§ ÙĪØ±Ø§ÙĨ
Ġs k
y n
Ġcom m
ĠÚ©ÙĪØ§ÙĨ Øª
ĠØª ÙĨÙĪØ¹
ĠÙħØª Ø£
ĠØ³Ùĩ Ùħ
Ø§ÙĨÛĮ Ø¯
ĠØ² Ø¨Ø§ÙĨÛĮ
ĠØ³ ØŃ
ĠÙģØ± Ú©Ø§ÙĨØ³
ĠÙĪ Ø§Ùħ
ĠØªØ´ ÙĪÛĮÙĤ
ĠÚ¯ Ø§
Ø¯ Øª
ĠØ§ÙĨÚ¯ Ø´Øª
Ø·ÙĨ Ùĩ
ĠÙĤ ÙĪÙĦ
ĠØ¸Ø§Ùĩ Ø±ÛĮ
s c
ĠÚ¯ ÛĮÙĨÙĩ
ĠØ§ÙģØª Ø§Ø¯Ùĩ
ĠØ±ÙĨÚ¯ ÛĮ
ĠØ´Ø§ÙĩÙĨØ´ Ø§ÙĩÛĮ
ĠØ¢ÙĩÙĨÚ¯ Ø³Ø§Ø²ÛĮ
ĠÙĦØŃ Ø¸Ùĩ
ĠØ¨Ø§ÙĨ Ø§ÙĨ
ĠÙ¾Ø± Ùĩ
ĠØ²ÛĮØ± Ø²ÙħÛĮÙĨ
ĠØ³ Ø§Ø±ÛĮ
ĠÙĤØ²Ø§ÙĤ Ø³ØªØ§ÙĨ
ĠØ´Ø¨Ø§Ùĩ Øª
ĠÙħØŃÙĤ ÙĤØ§ÙĨ
ĠØ¯ Ø´Ùħ
ĠÙĨÙħÙĪØ¯ Ø§Ø±
ĠÚ©ÙĪ ÚĨÙĩ
Ø§ÛĮ ØªÛĮ
Ġt ran
ĠÙ¾ÙĨ Ø¬Ø±Ùĩ
ĠØ¢ Ø´ÙĨ
ĠÙħØ§ÛĮÚ©Ø±ÙĪ Ø³Ø§ÙģØª
ĠØ¢ Ø³Øª
Ø¹ÙĦ ÙĪÙħ
ĠÙĩ Ú©Øª
ĠÙĨØ¸ Ùħ
ĠØ¯ Ú©
ĠØ± Ø¹
ĠÙĩÙħ Ù¾
ÙĪØ¨ ÙĪØ³
ĠØ¨ÙĦ ÙĪÚ©
Ø¹ Ùģ
ĠØ± Ùģ
ĠÙĩÙħØ³ Ø§ÛĮÙĩ
ĠÛĮÚ© Ù¾Ø§Ø±
Ø§Ø³ Ùĩ
ĠÚ©Ùħ ØªØ±ÛĮÙĨ
Ġg en
b all
ĠØ¢ÙĦØ¨ Ø§ÙĨÛĮ
ĠØªÙĤØ¯ ÛĮØ±
ĠØ´ Ø§Ù¾ÙĪØ±
ĠÙħØ¹ ØªØ±
Ġin d
ĠØ´ÛĮ Ø·Ø§ÙĨ
ĠÙħÚ©Ø§ÙĨ ÛĮÚ©ÛĮ
ĠÙĪÛĮØ±Ø¬ÛĮÙĨÛĮ Ø§ÛĮ
an ce
ĠØ¹Ø± ØµÙĩ
ĠÙħØ®Ø§Ø¨ Ø±Ø§Øª
ĠØ¢ Ø³Ø§ÙĨ
ĠØ§ÙĦÛĮØ² Ø§Ø¨Øª
ĠØ¬ Ø³Ùħ
ĠØ¯ ÙĨØ¯Ùĩ
ĠØ² Ø§ÛĮ
ĠÙĤ ØµØ±
ĠÙĩÛĮ Ù¾
sh ip
ĠØŃØ¨ÛĮ Ø¨
ĠÚ© Ø§ÛĮ
ĠØ§ÙĨ Ø¨Ø§Ø±
ĠØº ÙĨÛĮ
Ġh ar
ĠØªÙĨ ÙĩØ§ÛĮÛĮ
ĠØ³ÙĨ Ø§ØªÙĪØ±
ĠØ¨ØŃØ± ÛĮÙĨ
ĠØª ÙĪÙĨÛĮ
x t
ĠÚ¯ Ø²ÛĮØ¯Ùĩ
ĠØ§ÙĨ ÛĮÙħÙĩ
Ø§Ø² ÙĨ
ĠØ§ØªÙħ Ø§Ùħ
ĠØ¨ Ø³ØªÚ¯ÛĮ
ĠÚ©Ø± Ø³ÛĮ
ĠÙĪÙĦ ØªØ§Úĺ
ĠÙĦ Ø§Ùħ
ĠÙħØ¨Ø§Ø± Ø²
ĠØ¨Ø§ Ú©ÙĪ
ĠÙ¾Ø± Ø´
ĠØª Ú©Ùĩ
Ø²ÛĮ Ø§ÙĨØ§
ĠÙħØ±Ø² ÙĩØ§ÛĮ
ĠØ®ÙĪØ¯Ø± ÙĪÛĮ
ĠÙģ Ø§Ú©Ø³
ĠØ¹Ùģ ÙĪÙĨØª
ĠØ³ÙĦ ÙĪÙĦÛĮ
Ġin t
ĠØ· ÙĨØ²
Ø¨ Ø§Ø²
ĠØ´Ø± Ø·
ĠØ¢Ú©Ø³ ÙģÙĪØ±Ø¯
Ø² ÙĪÙĨ
ĠÙģØ±Ø§ÙĨ Ø³ÛĮØ³Ú©ÙĪ
Ġst at
ĠØ´Ø´ ÙħÛĮÙĨ
ĠØ§ Ø³ÛĮ
Ġs l
Ø§Ùĩ ÙĪ
ĠÙĪØ§ Ú¯Ø°Ø§Ø±
ĠØ®ÙĪØ´ Ùĩ
ĠØ´ÛĮØ± Ø§Ø²ÛĮ
ĠÙģÛĮØ± ÙĪØ²
ĠØ¨Ø± ÙĪØ¬
ĠÙĨ Ø§ÙĨÙĪ
ĠØ§ÙĨØªØ®Ø§Ø¨ ÛĮÙĩ
ĠØ§Ø® Ø¨Ø§Ø±
Ø§Ø· Ø±
ĠÙĨØ§Ú¯ Ùĩ
ĠØ§Ø²Ø¨Ú© Ø³ØªØ§ÙĨ
ĠÙĩØ§ Ù¾
Ø¢ Ø¨
ĠØ§Ø¦Øª ÙĦØ§Ùģ
ÙĨØ¸ Ø§ÙħÛĮ
ĠÚ©ÙĨ ÙĪÙĨ
ĠÚ©Ùħ ÙĪÙĨ
ĠØ³ÙĦ Ø¬ÙĪ
Ġfil m
ĠÙħÙĪØ§ÙģÙĤ Øª
ĠØ§ÛĮØ± Ø¬
Ð¾ Ð
ĠÙģØ±Ùĩ Ø§Ø¯
an c
ĠØ´ÙĪ Ø§ÙĩØ¯
ĠÙħØªØ± ÙĪÛĮ
ĠÙħÙĨ Ùĩ
Ø² Ø§Ø¨
ĠØŃ Ø±ÛĮÙģ
Ø±Ø¯ Ú¯ÛĮ
ĠÙħÙĨ Ø§ÙĤ
ĠØ§ÙĨØ¯ Ø§Ø®Øª
ĠØ§ÙĨØª Ø§Ø±ÛĮÙĪ
ĠØ¯Ø±Ø¢ ÙĪØ±Ø¯
ĠÙħÙĨØ§Ø³ Ø¨Øª
ĠØºÛĮØ± ÙĨØ¸Ø§ÙħÛĮ
ĠÙĩØ§ Ø³Øª
ĠÙħ ÙħØª
ĠØ¨ÙĪ Ø³ØªÙĪÙĨ
ĠØ´Ú©ÙĨ Ø¬Ùĩ
ĠØ¢ ÛĮØª
ĠØ¯ÙħÙĪÚ© Ø±Ø§Ø³ÛĮ
ĠÙģ Ø§ÛĮ
ĠØ¯ÙĪ Ú¯Ø§ÙĨÙĩ
Ø²Ø¯Ùĩ ÙħÛĮÙĨ
ĠØ¨ÛĮÙĦ Ø¨ÙĪØ±Ø¯
ĠÙĦÛĮ ØªÙĪ
ĠØªØ± Ø¬ÛĮ
at ed
ĠÙģ ÙĪØ±Ø¯
ĠØ¹ ÙĤÙĦ
ĠÙĨØ®ÙĪ Ø§ÙĩØ¯
Ġt own
ĠØ¬ÙĨÚ¯ ÙĨØ¯Ùĩ
Ú¯Ø±ÙģØª Ú¯ÛĮ
Ø§ÙĨ ÙĪØ±Ø¯
ĠØŃ Ø±ÙĪÙģ
ĠØ´Ùħ Ø³
ĠØ¢ØºØ§Ø² Ø´Ø¯Ùĩ
ĠÚ¯ÙĨ Ø§Ùĩ
ĠØ¨ Ø§Ø±ÙĩØ§
Ø®Øª Ø§Ø±
ĠØ§ Ù¾ÙĦ
ĠÙħ Ø²Ø±
ĠØ¨ÛĮ Ø²
ĠØ¬ ÙĪÛĮ
ĠØ¯ Ø¨ÛĮ
ĠÙĩ Ø±Ú©
ĠÙģØ±ÙĪØ´ Ú¯Ø§Ùĩ
ĠÚ©ÙĨ Ø§Ø±Ùĩ
ĠÚ©ÙĪ ÛĮÙĨ
ĠØ¬ Ø±ÛĮ
ĠÙħØŃÙĦ ÙĪÙĦ
ĠØ± Ù¾
Ø¬ Ø§ÛĮÛĮ
ĠØ§ÙĨ Ø¨
ĠÙħØ®Ø§ÙĦÙģ Ø§ÙĨ
ĠÚ©Ø± Ùħ
ĠØªØ¬ ÙħØ¹
ĠÙĤ ÙĪÙħÛĮ
ĠÙĦ Ø§Ø³
ĠØ¬ ÙĪØ´
ĠÙħØ´Øª Ø±ÛĮ
Ùģ Ú©
ĠØ¨ÛĮ Ùĩ
Ø¦ ÙĦ
Ġf a
ĠØ³Ø± ÚĨ
ĠØ® Ø§
ĠÙĨØ§Ùħ Ø²Ø¯ÛĮ
Ø´Ø± Ø¯Ùĩ
ĠÙĨ Ù¾
ĠØ§Øµ ØºØ±
ĠÛĮØ§Ø¯ Ø¨ÙĪØ¯
ĠØªÙĩØ§ Ø¬Ùħ
ĠØ¨ÛĮÙħ Ùĩ
ĠØ³ ÙĪÙĨÚ¯
ÙĪÙħ ØªÛĮ
ĠØªÙĪÙĦÛĮØ¯ Ú©ÙĨÙĨØ¯Ùĩ
ĠÙĤ ÙĦÛĮ
ĠØ§ÙĨ ÙģØ±
ĠÙĪ Ø§ÛĮØª
ĠØ§Ø¶Ø§ ÙģÛĮ
ĠÚ©Ø§Ø± ÙĨØ§ÙħÙĩ
ĠØ§Ø³ØªØ± Ø§ÙĦÛĮØ§ÛĮÛĮ
ĠØ§ÛĮ ÙħØ§ÙĨ
ĠØ¢ÙĨ Ø§Øª
ĠØ±ÙģØª ÙĨØ¯
ĠØ¨ÛĮ ÙĦÛĮ
ĠÙħÙĨØªØ® Ø¨
ĠØªØ¹ Ø§ÙħÙĦ
ĠØ¨Ø±Ø¢ ÙĪØ±Ø¯
Ø§ÙĨØª Ø§
ĠØ³ÛĮØ¯ ÙĨÛĮ
ĠÙĨÛĮØ§Ø² ÙħÙĨØ¯
ĠÙģØ±ÙĪ Ø´ÛĮ
ĠÙħÙĤ Ø¨Ø±Ùĩ
on t
ĠØ´Ø§ Ú¯Ø±Ø¯Ø§ÙĨ
ĠØ¬ÙĪÙĨ Ø²
ĠÙ¾Ø±Ø§Ú© ÙĨØ¯Ùĩ
ĠÙģ Ø´Ø±Ø¯Ùĩ
ĠÙĨÙĪØ± Ø«
ĠÙħ Ø²Ø§Ø±
Ġf e
ĠØ· Ø¹
ĠÛĮØ§ Ø²Ø¯ÙĩÙħ
ĠÙĪ Ùĩ
ĠÙħÛĮ Ø²Ø¨Ø§ÙĨÛĮ
ĠØ¯ Ùģ
ĠÙħÙĪØ± Ø®
ĠØ§ÙĨÙģØ± Ø§Ø¯ÛĮ
ÙĨÛĮ Ùĩ
ĠØ²ÙĨ Ø¬Ø§ÙĨ
ĠÚ¯ÙĦ Ø³ØªØ§ÙĨ
Ø³ Ø§Ø±
Ø· Ø§ÙĨÛĮ
Ġv al
ĠØ¹Ø±Ø§ ÙĤÛĮ
Ġh er
ĠÚ©ÙĨØ¯ ÛĮ
ĠØ¢Ø± Ø³ÙĨ
ĠÙĤÙģÙĤ Ø§Ø²
ĠØ¨Ø§Ø² Ú¯Ø±Ø¯
Ùħ Ø§Ùĩ
ĠØ¯Ø§Ø¦ ÙħÛĮ
ĠÚ© Ø§Ú©
ĠØª ÙĪÙĦ
ĠØ§ÙĪ Ø³
ĠÙĨ Ø§Ø¯
ĠÙĦ ÙĨ
ĠÙħÙĪ Ø§Ø±Ø¯ÛĮ
ĠØ¯Ø§Ú© ÙĪØªØ§ÛĮ
ĠØ¨Ø§ Ø¨Ø§
Ġb u
ĠÙ¾ÚĺÙĪÙĩØ´ Ú¯Ø±Ø§ÙĨ
ĠÙĦÙĪØ¦ÛĮ Ø²ÛĮØ§ÙĨØ§
l o
ĠÚ©ÙĪÙĩ Ø³ØªØ§ÙĨ
ĠÙħØ´ Ø§ÙĩÛĮØ±
ĠØ§Ùģ Ø´Ø§Ø±
ĠÙĪ Øµ
ĠØ§ÙģØ² ÙĪØ¯Ùĩ
Å ¡
ĠÙħØ²Ø± Ø¹Ùĩ
ĠØ§Ø¹ Ø±Ø§Ø¨
Øª Ø±Ø§
it ed
ĠØ±ÙĤ Ùħ
ĠØ¨ÛĮÙĨ Ø¯
Ø· ÙĪ
ĠØ¨ÙĪ ÙĦÛĮ
ĠØ§Ø´Øª Ø±Ø§Ú©
ĠØ¬ ÙĪÙĨÛĮ
ĠØ´ÛĮ Ø¹ÛĮØ§ÙĨ
Ġl in
Ġe t
Ø±Ø¯ Ø§Ø¯
ĠÚ©ÙĪ Ø¦ÛĮÙĨ
ĠÙĦØ± Ø³ØªØ§ÙĨ
Ġc ro
ĠØ¨Ø§Ø²ÛĮÚ¯Ø± Ø§ÙĨÛĮ
ĠÙħÙĤØ¯ ÙĪÙĨÛĮ
ĠÙĨ Ø¨Ø±
ĠØ¬Ø§ÙĨ Ø¨
ĠÙĩÙģØª Ø§Ø¯
im e
Õ «
ĠØ±ÙĪÛĮÚ© Ø±Ø¯
ĠÙĪ ÙĨÛĮ
ĠÙħØ¬ ØªÙħ
Ú¯ÙĪÙĨ Ú¯ÛĮ
ĠÙħØªÙħØ§ÛĮ Ø²
ĠØ¢Ø¨ Ø´Ø§Ø±
ĠÙĪØ§ÙĦ Ø¯ÛĮÙĨ
ĠØªØ¹ Ø§Ø¯ÙĦ
ĠØ§ÙĤ ÙĦÛĮØª
ĠØ³ Ø§Ø±Ø§
Ø¨ ÙĪÙĨ
ĠÙħØŃ Øª
ÙħØ± Øº
Ġal t
ĠØ¢ Ú¯Ø§Ùĩ
ĠÙĤØ¯ ÙħØª
ĠØ¢ÙĦ Ø§Ø³Ú©Ø§
ĠØ®ÙĪØ±Ø´ÛĮØ¯ Ú¯Ø±ÙģØªÚ¯ÛĮ
Ø±ÙĪ Ø³
ĠØ³ÙĪØ§ÙĨ ØŃ
ĠÙĪØ¶ Ø¹
ĠØ§Ø³Ø±Ø§Ø¦ ÛĮÙĦÛĮ
Ġs oc
ĠØ§Ø´Ú© Ø§ÙĨÛĮØ§ÙĨ
ĠØªØ¸ Ø§ÙĩØ±Ø§Øª
ĠÙĪÛĮÙĦÛĮØ§Ùħ Ø²
q ue
ÙģØ§ ØµÙĦÙĩ
an n
Ġo p
ÙĪÙħ ÛĮÙĩ
Ġm us
ĠØ³ Ø§ÙĨØ³
ĠØ§Ø³Øª Ø«
r u
ĠØ¯ ÙģÙĨ
ĠØ¨Ø§ Ùħ
ĠÙħÙĤ Øµ
ĠÙħØ¹Ø§Ø¯ ÙĦÙĩ
Ġoff ic
Ã ¤
ĠÙħØŃ Ø±Ú©
Ġd i
ÙĪØ² ÙĨ
ÙĪ Ø§Øª
ĠÚ©ÙĨ Ø´
ĠÙģ Ùĩ
ĠÙ¾ ÙĪÙĦÛĮ
ĠÙħØ¬ØªÙħ Ø¹
a il
ĠÙĤØ±Ø¨Ø§ÙĨÛĮ Ø§ÙĨ
Ø´ Ø§ÛĮ
ĠÚĨ Ú¯ÙĪÙĨÚ¯ÛĮ
Ùģ ÛĮÙĨ
Ã ³
ĠØ§ØŃ Ø²Ø§Ø¨
ĠØ¢Ø± Øª
ĠØ±Ø§ÛĮ Ú¯Ø§ÙĨ
ĠØ³Ø§Ø² ÙĩØ§ÛĮ
ĠÙ¾Ø§Ø± ÚĨÙĩ
ÙĤ Ø¯Ø±
ĠØ®ÙĪØ±Ø¯ ÙĨ
ĠØ² Ø§Ø±
ĠØ§Ø±Ø¯ Ø´ÛĮØ±
ĠØ¯Ú©ØªØ± Ø§ÛĮ
ÙĨÙĪ Ø´Øª
ĠØ¯Ø³Øª Ú¯ÛĮØ±ÛĮ
ĠØ¯Ø± ØŃ
ĠØ¶ Ø®
ĠØ¨ Ø³ØªØ±
ĠØ¬ ÙĪØ²Ùģ
ĠÙħÙĨ Ø²ÙĦ
ĠÚĺ Ø§Ú©
Ø¦ ÙĨ
Ùģ Ø§Ø±ÛĮ
ĠØ¢Ø±Ú© Ø§ÙĨ
ĠØ¨Ø§Ø² ØªØ§Ø¨
Ùħ ÙĪÙĨØ¯
ĠÙħØ¬ Ùĩ
ĠØ¯Ø±ÙĪ Øº
Ġp p
ĠÙ¾Ø§Ø³ Ø¯Ø§Ø±Ø§ÙĨ
ĠØ± ØºÙħ
Ġe p
Ø° Ø±
ĠØ¯Ø´ ÙĪØ§Ø±
ĠÙ¾ ÛĮÙħ
ĠÙģØ± Ø§Ø²
ĠØ§Ø± Ø³
ĠÙĪØŃ Ø¯Øª
ÛĮØ¯ Ú¯ÛĮ
ĠØ±Ø§ÙĨ ÙĨØ¯Ùĩ
ĠÙģ ÙĪØ±Øª
ĠÙĦØº Øª
Øµ ÙĦÛĮ
ĠÙĤ ØµÙĩ
ĠØŃØ§Ú© ÙħÛĮØª
ĠØ¢ÙĦ ÙĪØ¯Ú¯ÛĮ
ĠØªÚ© ÙĪØ§ÙĨØ¯
ĠØ³Ø± ÙĪØ¯
Ù¾ ÙĦÙĪ
ÙĪÚ© Ø§Ø±Ø§ÙĨ
ĠØ±Ø³ Ø§ÙĨ
ĠØ¬ÙĨØ§ ØŃ
ĠÙħØ§Ø± Ø´
ĠØ§Ø³ØªØ±Ø§Øª ÚĺÛĮ
Ġtran s
ĠØ§ÙĦØ¹ Ø§Ø¯Ùĩ
ĠÙħØŃ Ø§Ú©
ĠØ³Ø§ÙĨØª Ø§
ĠÙĦ Ø²
ĠØ³ÙĪØ³ÛĮØ§ÙĦÛĮ Ø³Øª
ĠØ³Ú¯ ÙĪÙĨØ¯Ø§
ar a
Ú© Ø§Ú©
ĠÙħØ± ØªØ¨Ùĩ
ĠÙħØ± Ø¬Ø¹
Ø¹ Ø´
ĠØ¹ Ø²
Ùħ ÙĨØ¯ÛĮ
Ùģ ÙĪØ±Øª
an a
Ġd ec
ĠØ§ÙĨØªØ®Ø§Ø¨ ÛĮ
ĠÙĪ Ø³ØªØ±ÙĨ
ĠØ³ÛĮÙħ Ø§
Ø´Ùħ Ùĩ
ĠÙħØ¯ Ø¹ÛĮ
ĠØ´Ø¨ Ø§ÙĨÙĩ
ĠÙģ ÙĪ
ĠØ¨ÙĦØ§ ÙģØ§ØµÙĦÙĩ
ĠÙĨØ§Ùħ Ø¹ÙĦÙĪÙħ
ĠØ²Ø® ÙħÛĮ
ĠÙħØ¨ ÙĨØ§ÛĮ
ĠØŃ Ø¨Ø³
ĠÙĩÙħØ§ÛĮ ÙĪÙĨ
ĠØ¨Ø§Ø² Ø§Ø±ÛĮ
ĠÙħÙĪ Ø´
ĠØ¨ Ø¯ÛĮ
ĠØ¯Ø³ØªÛĮ Ø§Ø±
ĠÙĪØ§Ø± ÙĨØ±
ĠÙĩÙģØª ÙħÛĮÙĨ
ĠÛĮÙĪÙĨ Ú¯
ĠÙĪ Ø§Ú¯
ĠÙħØ§ÙĨ Ú©ÙĨ
ÙĨ Ø¨Ø±Ú¯
ĠÙĩÚ©Øª Ø§Ø±
ĠØ²ÛĮØ¨ Ø§ÛĮ
ĠØ¢ ÙħÛĮÙĨ
ĠØ³Ø±Ø¯ Ø§Ø±
ak e
ĠØ§ ÙĪÙħ
ĠÚ©Ø§Ø¨ ÛĮÙĨÙĩ
ĠØ¢Ø±Ú©Ø§ÙĨ Ø²Ø§Ø³
ĠØ´ ØµØª
ÙĪÚ¯ Ø±Ø§ÙģÛĮ
Ø· ÙĪØ±
ÙĪØ± Ø¯ÙĩØ§ÛĮ
Ġh y
ĠØ¬ÙĦ ÙĪÙĩ
Ø³ Ø§Ùħ
ĠÙĩ ÙĪÛĮ
Ġc a
ĠØ§ØŃØªÙħ Ø§ÙĦÛĮ
ĠÙĩÙħ Ø¯
ort h
ÙĪ Ø§ÙĦÛĮ
Ú¯ Ø§Ø±Øª
Ġe c
ĠØ¯ ÛĮÙħ
s s
ĠÚ© ÛĮÚ©
ĠØ®ÙĦØ§ ÙģØª
ĠØ¨Ø¯ Ø§ÙĨ
ĠØ³ Ø§Øª
ĠÙħØº Ø²ÛĮ
ĠØ§Øª ÙĪØ¨ÙĪØ³
ĠØ§ÙĦÚ¯ ÙĪÛĮ
Ã Ń
ĠØ±Ø³ÛĮØ¯ ÙĨØ¯
ĠÙĩØ± Ø²
ĠÙĨÙģ Ø³
ĠØ³ ÛĮØª
ĠÙ¾ Ø®ØªÙĩ
Ġin f
ĠØ¢ÙĨ Ø²ÛĮÙħ
i y
ĠØ³ÙĪØ¦ ÛĮ
ĠÙħÙĨØ´ Ø£
Ù¾ Ø§ÙĨ
ĠØ³Ø¤ Ø§ÙĦ
ĠÚ©Ø´Øª ÙĨ
Ø³ Ø§Ø®Øª
ĠÚ¯Ø° Ø§Ø±Ø§ÙĨ
Ø²Ø¨ ÙĪØ±Ú¯
ĠØ´Ø¹ Ø¨Ùĩ
ĠØ¢ÙĦ Ø¨Ø±
Ø³ ÛĮØ±ÛĮ
Ġm y
ĠÙħÙĨØ· ÙĤÛĮ
ĠÙĨ Ø¨ÙĪØ¯Ùĩ
ĠØ¬ÙĦ ÙĪÛĮ
ĠØ§ÙĨÙģ Ø¬Ø§Ø±
ĠØ§ØªÙĦØªÛĮÚ© ÙĪ
ĠÚ©ÙĦ ÛĮÙĨ
ĠÙĪ Ø§Ø¬
Ġfo ot
Ġm od
ĠØ§Ú© ÙĦ
ĠØ±Ø³ ÙĪÙĦ
ĠØª Ø±Ø¯
ĠÚ©ÙĨÙģ Ø¯Ø±Ø§Ø³ÛĮÙĪÙĨ
ĠØ¨Ø±Ø¯ Ø§Ø±Ø§ÙĨ
ĠØªÚ© ÛĮÙĩ
ĠÙħØ§ÙĩÛĮ ÚĨÙĩ
ĠÚĨ ÙĪØ¨ÛĮ
ĠÙģ ÙĤÛĮÙĩ
Ø¦ ÙĪÙ¾
ĠÛĮ ÙĪØ±Ú©
ĠØ³ ÙħÛĮ
ĠÚ¯ÙģØª ÙĨØ¯
ĠÙħÛĮ Ø³ÛĮ
ÙĤØ§ÙĨ ÙĪÙĨÛĮ
ist r
ĠÙģØ¶ Ø§Ù¾
ĠÙĨØ§Ù¾ ÙĦ
Ø§Ùħ ÙĦÛĮ
ĠØ³ Ø§ÙĨØ¯
Ġd is
Ġcoun ty
ĠØ®Ø± Ø³
ĠØ¢ Ø¦
ĠÙĪØ§ÙĦ ØªØ±
Õ ¥
Ð º
ĠÙħØ¹ ÛĮ
ĠØºÛĮØ± ÙĤØ§ÙĨÙĪÙĨÛĮ
Ø§Ùĩ Ø±Ùĩ
ĠÙĦ Ø¨Ùĩ
ĠÙĤØ¶ ÛĮÙĩ
ĠØ¨ÙĪÚ©Ø³ ÙĪØ±ÙĩØ§ÛĮ
ĠØ³ÙĨÚ¯ Ø§Ù¾ÙĪØ±
ÛĮØ³ ÙĪÙĨ
ĠØªÛĮÙĦ ÙĪØ±
ĠØ¢ÙħØ¯ ÙĨØ¯
ĠÚĨ ÙĨ
ĠØ¢ÙĨØ¬ Ø§ÛĮÛĮ
Ø³ÛĮ Ø§ÙĨ
ĠØ§ Ø°
ĠØ¨Ø± ØªØ±ÛĮ
ĠÙĩ Ø§Ø±Øª
ĠØ³ÙĪ Ø²ÛĮ
ĠØ±ÛĮ Ø®ØªÙĩ
Ø§Ùĩ ÙħØ§
ĠÙħØ¨ÙĦ Øº
ĠØ¨ Ø¨ÛĮÙĨ
ĠÙħØ¯ Ø§
ĠÚ©ÙĪ Ù¾Ø§
Ø±ÙĪ Ùĩ
ĠØªØ¯Ø±ÛĮ Ø¬
ĠØ§ØµØ·ÙĦØ§ØŃ Ø§Øª
ĠÛĮ ÙĪÚ©
ĠØ± Ø³ØªÙħ
Ú¯ ÙĪØ´
ĠÚ©Ø§Ø± Ø§ÙĨ
ĠØ¨Ùĩ Ø¯Ø§Ø´ØªÛĮ
Ù¾ ÛĮÙĨ
at er
ĠØ²Ø±Øª Ø´ØªÛĮ
ĠØ²Ø±Ùĩ ÛĮ
ĠØ¨Ø±Ø¯ ÙĨØ¯
ad e
ĠØ¯Ø³ØªÛĮ Ø§Ø¨ÛĮ
ĠÙħØ®ÙĦÙĪ Ø·
ĠÙĦÛĮØ³ Ø§ÙĨØ³
ĠÙĤ Ø¯Ùħ
ĠÙĨØ§Ùħ ÛĮ
ĠÙĦÛĮ Ø¨ÛĮ
op h
ĠØ§Ø¹Ø· Ø§
Ø±Ø¯ ÙĨ
Ø§Ø± ÙĪ
ĠØ¹ Ø¸ÛĮÙħ
Ġn ot
ĠØ®Ø§Ùħ ÙĨÙĩ
ĠÙĨÙĤ ÙĦÛĮÙĩ
Ú¯ ÙĪØ±
Ú¯Ø± Ø§Ùħ
ĠØ±Ø³ ÙħØ§
ĠÙĪØŃ Ø´Øª
ĠØ¢ÙĦÙĪÙħ ÛĮÙĨÛĮ
ĠØª Ø³ÙĦ
ĠÚĨ Ú©Ø³
ĠØ§Ø± ÙĪÙħÛĮÙĩ
ĠØ¯ Ù¾
ĠØ¯Ùĩ Ø§ÙĨÙĩ
ĠØ§ ÙĪØ±Øª
ĠØ§ÙĨØªØ®Ø§Ø¨ Ø§ØªÛĮ
ĠÙħØ§ Úĺ
ĠØ®Ø§ÙĦ Øµ
ĠØ· ÙĪÙģ
e ar
ĠØ´ Ø±Ú©
ĠÙ¾Ø± Ø³ÙĨ
ĠÙħÙĩØ§Ø¬Ø± Ø§ÙĨ
en g
ÙħØ¬ ÙħÙĪ
Ø§Ú¯ ÙĪØ¦Ùĩ
il le
ĠÙĤØ¨ ÛĮÙĦ
ĠÙħØ® Ø¯Ø±
ĠÙħØ± Ø§Øª
ĠÙĨÙĪØ± ÙĪØ²
ĠÙ¾Ø±Ø¯Ø§Ø² ÙĨØ¯Ùĩ
ĠÚĨØ§Ø± ÚĨÙĪØ¨
Ø§ ÙĤÛĮ
ĠØªØŃ ÙħÙĦ
ĠÙħÙĪÙĦÚ© ÙĪÙĦÛĮ
ĠÛĮØ§ÙģØª ÙĨØ¯
ĠØ¯Ø³ØªÙĪØ± Ø§ÙĦØ¹
ĠÙĩ ÙĪÙĨ
ĠØ³Ø§Ø² ÙħØ§ÙĨÛĮ
ĠØ´ Ø§Ø¯
ĠÙĩØ± Ø§Øª
ĠØ¬Øº Ø±Ø§Ùģ
ĠÙ¾ÛĮÚ© Ø±
ÙĦÙĪ Ø§Ú©ÛĮ
ar k
ĠÙħÙĩØ± Ùĩ
Ø§Ø¨ Ø§ÙĨÛĮ
ĠØ§Ú© ØªØ´
ĠÙĩØ§ÙĦÛĮ ÙĪÙĪØ¯
ĠÚ©ÙĦÛĮ Ø¯ÛĮ
ĠØª ÙĪØª
Ø§Øª ÛĮÙĨ
ĠØŃ Ø±Ùħ
Ø¯Ø±ÛĮ Ø§ÛĮÛĮ
ĠØ³Ø±Ø§ Ø³Ø±ÛĮ
ĠØ¯Ø§Ø± Ø§
ĠØ³Ø± ÙĨÙĪØ´Øª
ĠØ¯Ø§Ø±ÛĮ Ùħ
ĠØ¯Ø¨ ÙĦÛĮÙĪ
Ġ ÛĮØ¯
ĠØ¨Ø²Ø±Ú¯Ø³Ø§ÙĦ Ø§ÙĨ
ĠÙ¾Ø± ØªÙĪ
ĠØ´Ø§Ùĩ Ø§ÙĨ
ĠØ¬ Ø§ÙĨØ³ÙĪÙĨ
ĠÙģØ± ÙĨÚ¯ÛĮ
en n
ĠÚ©Ø§ Ø¸Ùħ
ĠØ³ÙĪØ§ ØŃÙĦ
ĠÚĨÚ©Ø³ ÙĦÙĪØ§Ú©ÛĮ
Ø§ÙĦ Ø¨Ø§
ØŃ ÙħØ¯
Ø§Ø¨ Ø¯
ĠÙħØ¯Ø± Ø³
ĠØªÙģ Ú©
ĠÙĪØ§ØªØ± Ù¾ÙĦÙĪ
ĠÙĨØ¨ Ø§Ø´Ø¯
ÙĦ ÛĮÙĨÚ¯
Ø§Ø±Ø¯ ÙĪ
ĠÙħÛĮ Ø®
ĠØªØŃ Ø³ÛĮÙĨ
ÙħØ§ Ø³ÛĮ
am a
ÙĪÙģ Ø³Ú©ÛĮ
v e
Ø±Ø¯ Ø§Ùħ
ĠÙħÙĨØ¸ Ùħ
ĠØ³Ø§Ø² Ø§ÙĨ
ĠØ´Ú© Ø³ØªÙĩ
ĠÛĮ ÙĪÙĩ
ĠØ¯Ø± ÙĪÙĨÛĮ
ĠØªØ¹ ÙĦÙĤ
ØªÛĮÙĨ ÙħÙĨØª
ĠØ§Ø¹ Ø¶Ø§
ĠØ·Ø¨ Ø§Ø·
Ø§Ø¨ Ø§Ø¯
Ø¯ Ø§ÛĮ
ĠØ¯Ø§ ÙĪØ±
ÙĬ ÙĨ
ĠÚ© Ù¾
ĠØ§Ø±ÙĪÙ¾ Ø§ÛĮ
ĠÙħØ§Ø± ÙĪÙĦ
ĠÙ¾Ø±Ø¯ ÛĮØ³
Ø¬ ÛĮÙĨ
ĠÙģ Ø§ÙĨ
ĠÙħØŃØ§Ùģ Ø¸Ùĩ
ĠØ±ÙĪ Ø²Ùĩ
Ġu k
ĠØ¢ÙĪØ± ÙĨØ¯
ĠÚ©Ø§Ø± Ø¨Ø±ÛĮ
ĠÚĨØ±Ø§ Øº
Ø§Ø± Ø´ÛĮ
Ø®Øª ÙĨ
ĠØªØŃ ÙĤ
ĠØ± Ø´
Ġb ro
ĠØ¨ ÙĪÙĨ
ĠØ§ÙĨ ØªØ±
ĠØ§Ùħ ÙĪØ§Ø¬
ĠÙĦ Ø§ÙĨÚ©Ø§
ĠÙĤ ÙĪÙĩ
ÙĦØ§ ÙĪ
ĠØ¨ÙĦ Ø§Ø±ÙĪØ³
ĠÙģ Ø§Ø¬
ĠÙĦ ÙĨÛĮÙĨ
Ø§Ø±Ùĩ Ø§ÛĮÛĮ
ĠÙħÙĪØ³ ÙĪÙħ
ĠØªØ§Ø¨Ø¹ ÛĮØª
ĠØ¬ÙĪ Ø§Ø¨
ĠÙĨÛĮÚ© ÙĪÙĦ
ĠØ§Ø³ÙĦÙĪ Ø§Ú©ÛĮ
ĠØ¢Ø´ÙĨ Ø§ÛĮÛĮ
ĠØ´Ø§ÙĨ Ø²Ø¯ÙĩÙħ
ĠÙħØ¹Ø§ ÙĪÙĨØª
ĠØ§ÙĦÚ©Øª Ø±ÙĪ
ĠØ´ÛĮ Ø¨
ĠØªØ±ÙĪØ±ÛĮ Ø³ØªÛĮ
Ġ ÛĮØ±
ĠØ³ ÙĪÚ©
ØªÛĮ Ø³
Øª Ø²
Ø® Ø§
ĠÚĺÙĨØª ÛĮÚ©ÛĮ
ĠØ§ÙĦ Ú©ÙĦ
ĠØ¯Ø± Ø¨Ø±
Ø¯ ÙĪØ¯
ĠØ§Ø³ØªØŃ Ú©Ø§Ùħ
ĠØ²ÛĮØ± Ø¯Ø±ÛĮØ§ÛĮÛĮ
Ø³Ø± Ø§ÛĮ
ĠØµØ¯ ÙĪØ±
ĠØ¢Ø¨ Ø´
ĠÙ¾Ø±Øª ØºØ§ÙĦÛĮ
Ġc al
ĠÙĨØ§ÙħØ´ Ø®Øµ
ĠØ§Ø¶ Ø·Ø±
ĠÚ¯Ø±Ø¯ ÙĨØ¯
ĠÙ¾Ø±Ø³ÙĨ ÙĦ
ÙģØª ÛĮ
ĠØ³Ø±Ù¾Ø± Ø³Øª
ĠØ¢ ÛĮÙĩ
ĠØ¨Ùĩ Ø§Ø¦ÛĮ
ĠØ¯Ø§ ÙĪÙĪØ¯
Ġp et
ĠØ±Ø§ÙĨ ÙĨØ¯Ú¯Ø§ÙĨ
Ġw ar
ĠÙħÙĨØªÙĤ Ø¯
ĠØ§ÙĦØ¯ ÙĪÙĦÙĩ
ĠØ§Ø¬ Ø²Ø§ÛĮ
ÙĦØ§ Ø·
b a
ĠÙ¾Ø± ÙģØ±ÙĪØ´
ĠØ¨Ø§Ø²ÙĨØ´ Ø³ØªÙĩ
ĠØ± Ú¯
Ġoffic ial
Ġw om
Ġp ubl
ĠÚ©ÙĦ ÙħØ§Øª
ĠÙħØ±Ø§ Ø¬
ĠÙ¾Ø¯ ÛĮØ§
ĠÙħØª ÙĨØ§
ĠØ¯Ø³ØªÙĪØ±Ø§ÙĦØ¹ ÙħÙĦ
ĠØ§Ø³ØªÛĮ ÙĪ
ĠØ§Ø³Øª Ø§Ø¯ÛĮ
ĠØ±Ø³Øª ÙĪØ±Ø§ÙĨ
ĠÙħØ³Ø§ ÙĪÛĮ
ĠØªØ± Ø§ÙĨ
ÚĨÛĮ Ø§ÙĨ
Ġp ers
Ø¹ Ø§ÙĨ
ĠØª Ø«
ĠÙ¾Ø§Ø±Ø§Ùħ ØªØ±
Ø§Ø±ÛĮ Ùĩ
ĠÙħØŃØ¨ÙĪØ¨ ÛĮØª
Ø§Ùħ ÙĦÙĩ
ĠØ§Ø³ Ø§Ø·
ĠØ® ÙĨÚ©
ĠØ§Ø¯Ø¹ Ø§ÛĮ
ĠØ¢ÙĪØ±Ø¯ ÙĨØ¯
ĠØ§ÙĨ Ø³
ĠÙĩÙħØ§Ùĩ ÙĨÚ¯ÛĮ
ÙħØ¬ÙħÙĪ Ø¹Ùĩ
Ø¨ÙĪØ± ÙĨ
Ġ ÛĮÙĨ
ĠØ§Ø¨Ø± Ø§Ø²
ĠÚ©Ø§ÙĨØ¯ ÛĮØ¯
ĠØ¹ Ø§Ø±Ùģ
ĠÚĨ Ø±Ø¨ÛĮ
d u
ĠÙģØ± Ø§Ø±ÛĮ
Ġch ar
ĠÙħØ¹Ùħ Ø§Ø±
ĠÙ¾ÙĦ Øª
ĠÙ¾ÛĮØ¯ Ø§ÛĮØ´
ĠÙ¾Ø§ÛĮÛĮ Ø²
ĠØªÙĪ ÙĤÙģ
ĠØ¢ÙĦÛĮ Ø§Úĺ
Ø¯ Ø²
ĠØ¨Ø§ Ùĩ
ĠØ³Ø± ÙĪØ±
ĠÙħÙĤ ØµØ¯
ĠØ¨Ø® Ø§Ø·Ø±
ĠØ¨Ø± ÙĨØ¬
ĠØªÙĦ ÙĤÛĮ
ĠØ¨Ø¯Ùĩ Ø¯
ĠØ§Ø¨ Ø¯Ø§
ĠØ¬ Ø§Ø²
Ġun der
ĠØªØŃ ØµÛĮÙĦÛĮ
ĠØ§ÙĨÚ¯ÛĮ Ø²Ùĩ
ĠÙģØ§Ø¬ Ø¹Ùĩ
ĠÛĮ Ø§Ø±ÛĮ
ĠØ¢Ø°Ø±Ø¨Ø§ÛĮØ¬ Ø§ÙĨÛĮ
Ġintern ational
ĠØ®Ø§Ú© Ø³ØªØ±ÛĮ
ĠØ¨Ø²Ø± Ú¯Ø§ÙĨ
ĠÚ© Ø±Ú©
ĠÚ©ÛĮ ÙĪ
ĠØ¢ Ø®
ĠØ´ÙĨ Ø§ÛĮ
ĠØ¯ ÙĦØ§
ĠØªØ§ÛĮ ÙħØ²
Ġweb s
Ùģ Ø´Ø§ÙĨ
ĠÙĩÙħ Ø¨
ĠÙĨØ¬ Ùģ
Ùħ ÙĪØ¯
ĠÛĮ Ø§Ø¨ÛĮ
ĠÛĮ Ø§Ùħ
ĠÙĪØ³ÛĮ Ø¹
is m
h am
Ú¯ ÙĪÛĮÛĮ
ĠØ® ÛĮØ²
ĠØ±ÙĪ Ø§Ø¬
ĠØ§Ø³Øª Ø¹Ø¯
ĠØ§ÛĮÙĦ Ø§Ùħ
Ø§Ùħ ÛĮÚ©
ĠÙħØŃ Ø¶
Ùģ Ø§ÙĨ
ĠØ¨Ø§Ø²Ø± Ú¯Ø§ÙĨ
ĠÙģÛĮÙĦ ØªØ±
ĠØ¹Ùħ Ø§Ø±Øª
ĠØ³ Ø²Ø§Ø±
ĠÙģ ÙĪÚ©
ĠØ· Ø¨Ø±
ĠØ³Ù¾ Ùĩ
Ġg ro
ĠÙĩÙĪØ§Ù¾ÛĮÙħ Ø§ÙĩØ§ÛĮ
ĠØµ Ø®Ø±Ùĩ
ĠØ¹ Ø§ÙĦÙħ
ÚĨ Ø§ÙĤ
ĠØ¨ ØªÙĨ
ÛĮÚ© Øª
Ú© Ùħ
ĠØ· Ø§ÙĤ
ĠÙĨÙĪ Ø²Ø§Ø¯
ÙĨ Ø§Ø³
ĠÚ¯ÙĨØ¯ Ùħ
ĠØ³ÙĪØ± Ø§Ø®
ĠÙģ ÙħÛĮÙĨÛĮ
ĠØº Ø§ÙĦØ¨Ø§
Ġd el
ĠÙħØ·ÙĦ ÙĪØ¨
Ø§Ø± Ùħ
Ġhist ory
ĠØ§Ú©ÙĦ Ø§ÙĩÙħØ§
ĠØ³Ø§Ø²ÙħØ§ÙĨ Ø¯ÙĩÛĮ
Ø§Ùĩ Ø§ÛĮÛĮ
ĠØ§Ø®ØªØµØ§Øµ ÛĮ
ĠÙĦ Ø§ÙĨ
ĠØ± Ø§ÙĨØ¯
ĠÙģ Ø§Ú©
ĠÚĨØ± Ø®Ø´
ĠØ¨Ø± Ú©ÙĨ
ĠÚ¯Ø± ÙħØ§ÛĮ
ÙĪØ§ÙĨ Ú¯
olog y
on s
ĠØ¶ Ø±ÛĮØ¨
er e
Ġi l
ĠØ¢ ÙģØ±ÛĮÙĨ
ĠØ³ÛĮ ÙħØ±Øº
ĠØµ Ø§ÙĦØŃ
ĠÙģØ± Ø§ØªØ±
ĠØ®ÙĪØ¯ Ø´Ø§ÙĨ
Ø´ Ø§ÛĮÛĮ
ĠØªØ³ÙĦ Ø·
ĠÚ©Ø±ÛĮØ³Øª ÛĮÙĨ
ĠØ³Ø±ÚĨ Ø´ÙħÙĩ
ĠØº Ø§ÙĦØ¨
ĠØ²ÛĮØ± ÙħØ¬ÙħÙĪØ¹Ùĩ
un t
ĠÚ©Ø± Ø¬
ĠØ§ÛĮØ¯ Ø¦
ĠÙĩØ®Ø§ÙħÙĨ Ø´ÛĮ
ĠÙĨ Ø§Ø³
ĠÙĨ ÙħØ§
Ø³Ø§ ÙĪÛĮ
Ġk m
ĠÙħØŃØ§Ú© ÙħÙĩ
ĠÚ©ÙĪØ§ÙĨØª ÙĪÙħÛĮ
ĠÙ¾ÙĪ Ø´ÛĮØ¯Ùĩ
ĠØ§ Ø±Ø§Ú©
ĠØ´ÙģØ§ Ùģ
ĠØ§Ø¯ ÙĦ
ĠØªÙĪÙĦÛĮØ¯ Ú©ÙĨÙĨØ¯Ú¯Ø§ÙĨ
ĠØ¹ÙĨ Ú©Ø¨
Ø±ÙĪ ÚĺÙĨ
ĠØªØ± Ø´
Ġs a
ĠØ²Ø§ Ú¯Ø±
ĠØ± ÛĮØ¯
ĠØ±ÙĪØ² Ú¯Ø§Ø±
ĠØ®Ø·Ø± ÙĨØ§Ú©
ĠØ§ÙĤØªØµØ§Ø¯ Ø¯Ø§ÙĨ
ĠØ¹ Ø§ÙħÙĩ
ĠØ®ÙĪØ± Ø§Ú©ÛĮ
ĠØ§ÙĤ ÙĦÛĮÙħ
Ġr et
ĠÙĤØ§Ø¬ Ø§Ø±ÛĮØ§ÙĨ
Ġj e
ĠØ¸Ø§Ùĩ Ø±Ø§
ĠØ¨Ø±ÙĨØ¯Ùĩ Ø§ÛĮ
ĠÛĮ Ú¯Ø§ÙĨ
ĠÚ©Ø§Ùħ ÛĮÚ©Ø³
ĠØªØ® ÙĦÛĮÙĩ
ĠØ¢ÙĨ Ú¯
ĠÙħÙĩÙħ ØªØ±ÛĮÙĨ
ĠØ¢ÙĨØªÙĪÙĨÛĮ ÙĪ
ol l
ĠÙħÛĮØ´ ÙĦ
ĠÙĨÛĮ ÙĪÙħ
Ġc ity
ĠÙ¾ÛĮØ± ÙĪÛĮ
ar i
Ġe v
ĠØ± Ø§ÙĨÛĮ
Ġc y
ĠÚ¯ Ø§ÙĨ
ĠÚ©Ø±ÛĮØ³Øª Ø§ÙĦ
ÛĮ Ø§ÛĮ
Ġn et
ĠØªØ§Ø± ÛĮÚ©
ĠØ¯ÙĪÙĨ Ø§ÙĦØ¯
ĠÙĨØ³ Ø¨ÛĮ
ĠØ¢ ÛĮÙĨÙĩ
ÙĪØ³ Ùĩ
ĠØªØ±ÙĪØ±ÛĮ Ø³Ùħ
Ġfoot ball
ĠÚ©ÙĨ Ø³ØªØ§ÙĨ
ĠØ¬ØºØ±Ø§Ùģ ÛĮØ§
ĠØ¯Ø§ ÙĪØ·
ĠÚĺÛĮÙħÙĨØ§Ø³Øª ÛĮÚ©
ĠØ¯Ø®Øª Ø±ÛĮ
ĠØªØ§ÛĮ ÙĪØ§ÙĨ
ĠØ¯Ùĩ Ø§ÙĨ
ĠØ¢ÙĦ Ø¨Ø±Øª
ĠØ±Ø§ Ø¬Ø±
ĠØ§ÙĦ Ú©
ĠØ§ÙĨØ¬Ø§Ùħ ÛĮØ¯
ĠØµÙĨØ¯ ÙĦÛĮ
Ġg a
ĠØª Ø³Ùĩ
ĠØ¢ØªØ´ ÙģØ´Ø§ÙĨ
ĠÚ¯Ø±Ø¯ Ø¢ÙĪØ±ÛĮ
Ġh t
ĠÙĩÛĮØª ÙĦØ±
ĠÙĨØ¸Ø± Ø³ÙĨØ¬ÛĮ
ĠØ¨Ø± Ùģ
Ġi d
ĠØªÙĤ ÙĦÛĮØ¯
ĠÙħÙĤØ± Ø±Ø§Øª
ĠÙĨ Ø§Ø¦
ĠØ¨Ø§ Øª
ĠÙħØ§Ùĩ ÛĮØª
Ġu p
Ø³ÛĮ Ù¾ÛĮ
ĠÙħØ¹ Ú©ÙĪØ³
k a
ĠØªØ± ÙĪÛĮØ¬
ĠØªÙĦ ÙģØ§Øª
ĠÚ¯ÙĪÙĨØ§Ú¯ ÙĪÙĨÛĮ
ÙĦ Ø¯
ĠØ³Ù¾ Ø§ÙĩÛĮ
ÙĪØ² ÙĪÙħ
ĠØ¯Ø§Ø± Ùħ
ĠØ³ Ø§ÙĤ
Ø§ÛĮÙĦ Ø±
ĠØ§Ø³Ù¾ ÙĪØ±Øª
ĠÙĩÛĮØ¯Ø±ÙĪ ÚĺÙĨ
f er
Ġam er
Ø§Ø¨ ÛĮÙĨ
ĠØªØ² Ø±ÛĮÙĤ
ĠØ´Ú© ÙĦÛĮ
ĠØ§Ø® Ø°
ĠÙĤØ± ÙĤÛĮ
ĠØ³Ø§Ø®Øª Ø§Ø±ÛĮ
ĠÙħØ¯Ø§ ÙĪÙħ
h a
ĠÙģØ± Ø§Ú¯
ĠØ§ÙĪ Ø¨
ĠØŃ Ø§ÙħÙĦ
ĠØµØ§Ø¯ Ø±Ø§Øª
ĠØ±Ø³ÛĮØ¯ Ú¯ÛĮ
Ã ¢
ĠØ§Ø³ÙĦÙĪ ÙĪÙĨÛĮ
ĠÙĪ ÙĦØ³
ĠØ¯Ùĩ ÙĦÛĮ
ĠÙģØ§ÙĨØª Ø²ÛĮ
ĠÛĮ ØŃÛĮ
ĠØ¯ÙĪ Ù¾
ĠØ¨ÙĨÚ¯ ÙĦ
o ut
ĠØ¯ÙĪØ§Ø² Ø¯ÙĩÙħ
ĠØ¨Ø§ÙĦ ÛĮÙĨÛĮ
ĠÛĮØ¹ ÙĤ
ĠØ¨Ø± ÚĨ
ĠØ³Ø§Ø®Øª ÙħØ§ÙĨÛĮ
Ø® Ø§Øµ
Ø§Ø¨ ØªÛĮ
ĠÛĮ ÙĪØ±
ĠÙħØ¹ ÙĨØ§
ĠØ¨Ø§ÙĦ Ùĩ
ÙĤ ÙĦÛĮ
ĠØ¨Ú¯ÛĮØ± ÙĨØ¯
ĠØ³Ø± ÙĩÙĨÚ¯
ĠØ £
ĠÙĦ ÙĪØ¯
ĠÙĪÛĮØ± Ø§ÙĨ
ÙĪØ³ ÙĨ
ĠØ§ØµÙģÙĩ Ø§ÙĨÛĮ
ĠÙħØª Ø¯Ø§
ĠÙħØµ Ø±ÛĮ
ĠØ±Ø§ÙĩÙĨ ÙħØ§ÛĮ
w ay
ÙĪØª Ø³
Ġwebs ite
Ġp ort
ÚĺÛĮ ÙĪÙĨ
ĠØ¨ Ø§Ø±Ùĩ
ĠØª Ø±Ø§Ú©Ùħ
ĠØ¬Ø§ÙĨ ÙĪØ±
ĠÙĦÙĪ ØŃ
ĠÙħÛĮØ³ÛĮ Ø³ÛĮÙ¾ÛĮ
ĠØ¯Ø§ÙĨ Ø³ØªÙĨØ¯
ĠÙħØ§Ø±Ú© Ø³ÛĮ
ĠØ¯Ø§Ø¯ Ú¯
ĠØ· Ø¨Ø±ÛĮ
ĠÙĨ ÙĪØ¯
ĠØ¹ÙĦÛĮ Ø§
us s
ĠÙģØ¶ Ø§ÙĨÙĪØ±Ø¯
ĠØŃØ§Ú© ÙħØ§ÙĨ
ĠÙģØ± Ø´
ĠÙħÙĪ Ø§Ø²ÛĮ
ĠÙĪØ§ÙĤ Ø¹Ùĩ
ĠÛĮÚ©Ù¾Ø§Ø± ÚĨÙĩ
Ø§ÙĦÛĮ Ø³Øª
ĠØ§ Ù¾Ø±
Ø¬ ÙĨØ¯
ĠÚ¯ Ø³Øª
ĠÙĩÙħ Ú©Ø§Ø±Ø§ÙĨ
ĠÙ Ģ
ĠØ¨Ø± ÙĤÛĮ
ĠØ³Ø± Ø§ÛĮ
Ġd ir
ĠØª ÙģØª
ĠÙħØŃØ§Ø³ Ø¨Ø§Øª
Ġm ed
ĠÙĦ Ø§ÙĨÚ¯
ĠÚ©Ùħ ÙĪÙĨÛĮ
ĠØ³Ø± ÙĤØª
Ø· Ø¦Ùĩ
Ø±Ø¯ ÙĪ
ĠØ´ ØªØ§Ø¨
Ġre v
Ġm c
ĠÚ©Ø´ ÛĮØ¯ÙĨ
ĠØªØ³ Ø®ÛĮØ±
Ġch r
ĠØ±Ø§Ø¨ Ø·
Ø¬ ÙĨ
Ø§ Ø´ØªÙĩ
ĠØ·Ø§ÙĦ Ø¨Ø§ÙĨ
ĠÙĩØ´ Ø¯Ø§Ø±
Ø¯ ÙĪÙĨ
ÙĩØ§ÛĮ Ùħ
ĠÙħØ³ØªÙĤÛĮÙħ Ø§
ĠØ§Ø³Øª Ø±Ø§
ĠØº ÙĪÙĦ
od e
ĠÙĤØ±Ø§Ø±Ø¯ Ø§Ø¯ÛĮ
ĠÙĨØ§Ùħ Ø²
ĠØ§Ø² Ø§ÛĮ
ĠÙ¾ÙĪ Ø³ØªÙĩ
ĠÙĦ Ø·
ĠØ¢ Ø³ØªØ§ÙĨÙĩ
ĠØ¬Ø° Ø§Ø¨
ĠØ´Ú© Ø§Ùģ
ĠØ± ÙģØ¹
ĠØ³ÙĪ Ø§Ø±Ú©
ĠÙħØ·Ø¨ÙĪ Ø¹Ø§Øª
ĠÙĩÙĪ Ø§Ø¯
ĠØ¬ ÛĮÙħÛĮ
iel d
ĠØ³Ø§ Ø¦ÙĪ
ic an
ĠØª Ø§ÛĮÛĮ
ĠØ§ÙĦ Ø´
Ġw ill
ĠØ¢ÙħÙĪØ² Ø§ÙĨ
ĠØ°Ùĩ ÙĨÛĮ
ĠØ¹ Ø¨Ø±ÛĮ
ĠØ§ÙĦ Ø¨Ø±Ø²
ĠÙĦ ÚĺÛĮÙĪÙĨ
ĠÙĩ Ø§ÙĨØ³
ĠÚ©Ø§Ø± Ø§ÛĮÛĮ
ĠÛĮÙĪ Ø§Ø³
ĠØµØ± ÙģØ§
ĠØ¹ Ø¬ÛĮØ¨
ĠØ§Ø±Ø§ Ø¶ÛĮ
ĠØªÙĪ Ø·Ø¦Ùĩ
ĠÛĮ ÙĪØªØ§
ĠØ§ÙĤÛĮØ§ÙĨ ÙĪØ³ÛĮ
ĠØ¢ ØªÙĨ
ĠØ®Ø± Ø¯Ùĩ
Ø¯ÛĮ Ø³
ĠÚ©ÙĦ Ø§Ø±Ú©
ĠØ¹Ùħ ÙĪÙħ
ĠØ·ÙĪÙģ Ø§ÙĨ
i en
ÙĨØ¬ Ø§ÙĨ
Ø§Ø¨ Ú©
ĠÙģØ±Ø§ÛĮ ÙĨØ¯ÙĩØ§ÛĮ
ĠØ²ÛĮØ±Ø²ÙħÛĮÙĨ ÛĮ
ĠÚ©Ø§ÙĨ ØªÛĮ
ĠØŃÚ© ÙĪÙħØªÛĮ
ber t
ĠØ¨ Ø¨Ø±
ĠØ¯Ø§Ø¯Ú¯ Ø³ØªØ±ÛĮ
ĠÙĪØ³ÛĮ Ø¹ÛĮ
ĠÚ¯Ø² ÛĮÙĨÙĩ
ĠÙĨØ§Ùħ ÙĨØ¯
ĠÙħØ¹ØªÙĤØ¯ ÙĨØ¯
ĠØ¢ ÙĨØ¯Ø±
ĠÚ©ÙĦ Ø§Ùħ
ĠÙģØ±Ø§ÙĨ Ø³ÛĮØ³
ĠÙ¾Ø±Ø§ Ú¯
ĠÙĩØ´Øª ÙħÛĮÙĨ
ĠØ³ Ø§Ø¯
ĠÙ¾ÛĮØ´ Ú¯ÛĮØ±ÛĮ
ĠØªÙĦ ÙģØ¸
ĠÚ¯ ÚĨ
ĠØ§ÙģØ² ÙĪØ¯
ĠØ¢Ø¯Ø± Ø³
ĠØ¬ Ø§ÙĨÛĮ
Ø¸ ÙħÛĮ
ĠØ²ÛĮ Ø§Ø±Øª
i et
ĠÙħØ¬Ùĩ Ø²
it t
ĠØŃØ³ Ø§Ø³
ĠÙħØ¹Ùħ Ø§Ø±Ø§ÙĨ
ĠÚ©Ø§Ùħ Ø±ÙĪÙĨ
ĠØªØ±Ø¬ÛĮ ØŃ
ĠØ³ Ø¦ÙĪÙĦ
ĠØ±ÙĪ Ø´ÛĮ
ĠÚ¯Ø± ÙħØ§
ĠÙħ ÙĪØ¯
ĠÙ¾Ø±Ø¯Ø§Ø®Øª ÙĨØ¯
ĠÙĤØ§Ø¦ Ùħ
ĠÙħØªØŃ Ø±Ú©
ĠÙģÛĮ Ø²ÛĮ
ĠØ¬Ø¹ ÙģØ±ÛĮ
ĠØ§Ø± ÙĨ
ĠÙĩØ± Ú¯ÙĪÙĨÙĩ
ĠØ±ÙĪ Ø¯Ùĩ
ÙĪ ÙĩØ§
Ùħ ÙĪÙĦ
ĠØ¯Ø± Ø¨
ĠÙħØ¹ Ø§ÙħÙĦÙĩ
ĠØªØ¹ ÙħÛĮØ±
ĠØ¨ÙĦ ÙĪØ§Ø±
ĠØ¹Ø²ÛĮ Ø²
ĠÙħÙĨ Ø§ÙģØ¹
ĠÚ©ÙĪØ± ÙĪØ´
ĠØ¢ÙĦ ÙģØ±Ø¯
ĠØ´ÙĩØ±Ø¯ Ø§Ø±
ĠØª Ø§Ø¨ÙĦ
Ġl oc
Ø§ÛĮ ÙĨÛĮ
ĠØ§Ø¹ Ø²Ø§Ùħ
os e
ĠØ¯ Ø²
ĠØ¯Ø® Ø§ÙĦØª
ÙģÛĮ ÙĤ
ĠÚ¯Ø±Ø§Ùģ ÛĮÚ©
ĠÚ© ØªØ¨
ĠØ¨ Ù¾Ø±Ø¯
Ġ ÙĪØ¯
ĠØ¬ÙĨÚ¯ ÙĦÛĮ
ĠÙ¾ Ø±Ú©
ĠØ± ÛĮÙĨ
Ø§Ø³ Ø§Ø²ÛĮ
ĠØ¯Ø±ØŃ Ø§ÙĦÛĮ
Ġc ap
ÙĪ Úĺ
ĠÙ¾Ø±Ø³ Ø´
ĠØªÙĪÙħ Ø§ÙĨ
Ġc m
ĠÙħÛĮØ´ ÙĪØ¯
ĠØ¨ Ú¯Ø°
ĠØ§Ø³Ú©Ø§Øª ÙĦÙĨØ¯ÛĮ
ĠÙĦ Øª
Ø¬ ÛĮÙĩ
Ġa ward
ĠÙ¾ÙĪØ± ÙĨÙĪ
ĠÙĩÙĨØ¯ÙĪ Ø³ØªØ§ÙĨ
Ø³ Ùģ
Ġw e
ĠØª ÙĤÛĮ
ĠØªØ§Ø¨ Ø´
ĠØ±Ø§Ø¨ ÛĮÙĨ
ĠÛĮØŃÛĮ ÛĮ
ĠØ® ÙĨ
ĠÙ¾Ø§ÛĮ Ø¯Ø§Ø±ÛĮ
ĠÙħÙĪØªÙĪØ± ÙĩØ§ÛĮ
ÙĪÚ© Ø§Ø±
ĠØ§ÛĮ Ø²ÙĪ
ĠØ¨Ø±Ø§ÛĮ Ø§ÙĨ
ĠÚ¯ÙĪ Ø§ÙĩÛĮ
ĠØ®Ø§Ø· Ø±Ùĩ
ĠÙħÙĨØ§ÙĤ Ø´Ùĩ
Ø¨ ÙĦÛĮ
ĠØ¬ Ø§Ø±ÛĮ
ÛĮÚ© ÙĨ
ĠÙĩØ§ÛĮ Ø´Ø§ÙĨ
ĠØ¯ÛĮ ÙĪØ§Ø±Ùĩ
ĠÙĦ ÙĪØ¨
ĠÙħØ¹ Øµ
ÙĪÙħ Ø§ÙĨ
ĠØº Ø²ÙĦ
ĠØŃØ¯ÛĮ Ø«
ĠØ§Ùħ ÙĦØ§Ú©
ĠØ®ÙĪ Ø²Ùĩ
Ġc or
b s
ĠÙĤØ¨ Ø§ÛĮÙĦ
ÛĮÙĦ ÙĪ
Ø§Øª ÙĪØ±ÛĮ
ĠÙĨÙĩØ§ÛĮ ØªØ§
ĠÙħØªØ¯Ø§ ÙĪÙĦ
ĠØ¯Ø§ÙĨØ´ Ø¬ÙĪ
ÙĪØ§ÙĨ Ø§
ĠØ§Ø³ ÙĤÙģ
Ú¯Ø± ÙĩØ§ÛĮ
ÙĪÙĦÙĪ ÚĺÛĮÚ©ÛĮ
ĠØ¯Ø± Ø®Ø´
m e
Ġd av
ÛĮØª ÙĪ
ĠØ±ÙĪ Ø¯ÙĩØ§ÛĮ
ĠØ³ÙĦ Ø·Ùĩ
Ġb er
ig h
Ú© Ø²ÛĮÚ©
ĠÙĦÛĮ ÙĪÙĨ
ĠØ³ ÙĪÙĨÛĮ
Ø§Ø² ÙĨØ¯
Ġt w
ÙĦØ³ ÙĪÙĨ
ĠÙĩØ² Ø§Ø±Ø§ÙĨ
Ġs up
ĠØ³Ø±Ù¾Ø± Ø³ØªÛĮ
ĠÚ© ÙĪØ±Øª
ĠØ¢Ùħ Ø§Ø±ÛĮ
ĠØ²ÛĮØ³Øª Ú¯Ø§Ùĩ
ĠÙħÙĪØ±ÛĮ Ø³
Ùħ ÛĮÚ©
ĠØ§ÙĦ Ø§
ĠÙħØ° Ú©ÙĪØ±
ĠÙħÙĩ Ø§Ø±
ĠÙ¾Øª Ø§ÙĨØ³ÛĮÙĦ
j ect
ĠÙģÙĦØ² Ø§Øª
ĠÙģØ³ Ø§Ø¯
ĠØ¢ ÙģØ±ÛĮÙĨÛĮ
ĠØ³ ÙĨØ§
ĠÚ©Ø§Ø± Ú¯Ø§Ùĩ
Ġr ec
ĠØŃÙĪ Ø§ÙĦÛĮ
ĠØ´ÙħØ´ÛĮØ±Ø¨ Ø§Ø²Ø§ÙĨ
ÙĨ Ùħ
Ġi v
ÙĪÙĨØª ÙĪØ³
ĠÙĪÙĨÛĮ Ø²
ĠÙĩÙħØ§Ùĩ ÙĨÚ¯
ĠØ§Ø³Øª ÙĤØ±Ø§Ø±
ĠØ® Ø²Ø±
ĠØ§Ø®Øª ÙĦ
Ø§ÙĦ ÙĪ
Ú©Ø²ÛĮÚ© ÙĪ
ĠØ² Ø§Ú©
ĠÙĦ ÙĪØ³ÛĮ
ĠØ³Ùģ Ø§Ø±Ø´
Ø§ÙĦØ¯ ÙĪÙĦÙĩ
ĠÚ©Ø§ÙĦ Ø§
ĠØª Ø·Ø¨ÛĮ
ĠØ·Ø¨Ø§Ø· Ø¨Ø§ÛĮÛĮ
ĠÙĨØ§Ø¨ ÙĪØ¯ÛĮ
ĠÚĨÚ¯ Ø§ÙĦÛĮ
ĠÙħÚ© Ø³
ĠØ´Ø§ÛĮ Ø³ØªÙĩ
ĠÚ©ÙĨ ØªÛĮÚ©
ĠÙģ ÙĩÙħ
a j
d r
ĠÙģØ±ÙħØ§ÙĨ Ø¯Ø§Ø±ÛĮ
ĠÙħØ§Øª Ø±ÛĮØ³
ĠÚ©ÙĨØªÛĮÚ© Øª
Ġc he
Ø§ÛĮ Ø¨
ĠÙĤ Ø§ÙĩØ±Ùĩ
ĠØ± ÙĤÛĮØ¨
Ø³Øª ÙĨ
m l
p s
ĠÙħØ¹ÙĨ ÙĪÛĮ
Ø±ÛĮ Ø´ÛĮ
ĠÙħØ·Ø§ÙĦ Ø¨
ĠÙģÛĮ ÙģØ§
ĠØªØ± Ø§ÙħÙ¾
ĠÛĮÙĪØ±ÙĪ ÙĪÛĮÚĺÙĨ
ĠØ²ÛĮØ± Ø³Ø§Ø®Øª
ĠÙĨÙĪ Ùĩ
ĠØ§Ø¹Øª Ø±Ø§Ùģ
Ø§Ø¯ ÙĦÙģ
ĠÚĨ ÙĨØ¯Ø§ÙĨ
ĠØ¢Ø²ÙħØ§ÛĮ Ø´ÛĮ
ĠØª ÙĪØ±ÛĮ
ĠÙĨØ´ ÙĪØ¯
Ø³ ÙĪÙħ
ÙĪØ¯ ÙĪØ±
Ġj ul
am es
ĠØ´ÙĩØ± Ø§Ùħ
ĠÙĨØµ Ùģ
ĠØ§Ø« Ø±ÛĮ
ĠÚ©Ø±ÙĪ Ø²
Ġre g
ĠÙħØ§Ø±Ø´ Ø§ÙĦ
ĠØ¨ ÙĦÛĮ
ĠØ¬ ÙĨÛĮ
ĠØ§Ø±ÙħÙĨÛĮ Ø§ÙĨ
Ø® Ø§ÙĨÛĮ
Ġg ra
ĠØªÙģ Ø±ÛĮ
ÚĨ Ø§ÙĦ
ĠØªÛĮÙħ ÙĪØ±
ĠØ¹ÙĦÙħÛĮ Ùĩ
ĠØ¯ Ú©ØªØ±ÛĮ
ĠØ¢ÙĦ ÙģØ§
ĠØ¨ÛĮØ² Ø§ÙĨØ³
ĠÙħÙĩ Ø±Ø¯Ø§Ø¯
ĠØ¢Ø± Ø§ÛĮ
Ùħ Ø±Ø¯
ĠÙģÛĮÙĦ Ø§Ø¯ÙĦÙģ
ĠÙĨØ§Ùħ ÛĮØ¯
ĠØ³ÛĮ Ø²Ø¯ÙĩÙħ
ĠÙħÛĮ Ùĩ
ĠÙĨÛĮÙĪÙħ Ú©Ø²ÛĮÚ©ÙĪ
ĠØ¢Ø±Ø³ÙĨ Ø§ÙĦ
Ø¶ Øª
ĠÙĩ Ø³ØªÛĮ
ĠØ§ÛĮÙĨ ÚĨ
ÙĦ ÙĪØ¯
ĠØªØ¹ ÙĦÛĮ
ĠÚ¯Ø± Ú¯Ø§ÙĨ
ĠØ¨Ø§ ØªØ±ÛĮ
ĠØ¶ Ø¹Ùģ
ĠÙħÚ© Ø±
ĠÙĩÙĨØ¯ Ø³Ùĩ
ĠØ¨ Ø¯Ø±
d a
k s
ĠØ® ÙĦØ§ÙĤ
ĠÙĤØ§Ø± ÚĨ
Ġs u
ĠÙĩÙĪØ§Ú¯Ø± Ø¯ÙĩØ§
ĠØ¢ÙĦÙĪÙħÛĮÙĨÛĮ ÙĪÙħ
ĠÙĨÙĩ ÙħÛĮÙĨ
ĠØ±Ø¹ Ø§ÛĮØª
Ġp al
Ġd u
ĠÙģÛĮÙĦØ§Ø¯ÙĦÙģ ÛĮØ§
ĠØ±ÙĪÛĮ Ùĩ
or g
Ġa ct
ĠÙģØ¹ ÙĦ
ÙĦ ÙĪØ¨
Ġc am
ĠØ±ÙĪ Ø¨Ø±
ĠÚ©Ø±ÛĮ ÙħÛĮ
ĠÙĪØ³ Ø¹Øª
Ø³ ÙħÛĮ
ĠÙĨÚ¯ Ø±ÙĪ
ĠÚ© Ø§ØªØ±ÛĮÙĨ
ÙĪØ¨ Ø§
ĠÙģØ± Ø¹ÛĮ
ĠØ¨ØªÙĪØ§ÙĨ ÙĨØ¯
ÙĨÚ¯ Ø§Ø±ÛĮ
ĠØ®ÙĪØ¯Ùħ Ø®ØªØ§Ø±
ĠÙĪØŃ Ø´
ĠØ®ÙĪØ¯ Ø¯Ø§Ø±ÛĮ
ĠØ¬ Øª
É Ļ
ĠÙ¾ ÙĨØ¯
ĠÙħØ´Øª ÙĤ
ĠØ¶ÙĦ Ø¹
ĠÙħØ§Ø¯ Ø±ÛĮ
Ú¯ Ø±Ø§ÙģÛĮ
ĠÙģÙĦØ³Ø· ÛĮÙĨÛĮ
ing s
ĠÚĨ ÙĪ
Ø´Øª Ø§ÛĮÙĨ
ĠÙ¾ Ø§Ø±Ùĩ
Ú¯ÙĪ ÛĮÙĨ
Ø§Ø¨ ÙĨ
ĠÙ¾ÛĮØ´ Ú¯Ø§Ùħ
Ġv er
ĠÙħ ÙĩØ±Ø§ÙĨ
ĠØ§Ø³ØªØ¹ ÙģØ§
ĠÙĨØªÙĪØ§ÙĨ Ø³Øª
ĠØ¬ Ø§Ø¯
is e
ĠØ§Ø¯ Ø¨
ĠÙħØ±Ø§Ø¬ Ø¹Ùĩ
ĠØºØ° Ø§ÙĩØ§ÛĮ
Ġth umb
Ġd er
ĠØ§ÛĮØ³ ÙĦÙĨØ¯
ĠØªÙģ Ú©Ø±
Ø±ÙĪ Ù¾
ĠÙĪØ² ÛĮØ±ÛĮ
ĠØ§Ø´ ÛĮØ§Ø¡
Ġd a
Ġk h
ĠØ·Ø±Ø§ØŃ Ø§ÙĨ
Ġg er
ĠÙģØ± Ø´ØªÙĩ
ĠÙĨØ§Ù¾ Ø°ÛĮØ±
ĠÙĤØ±ÙĤÛĮ Ø²
ĠØ¯ÙĪ Ø¨
ĠÙ¾ ÙħÙ¾
ĠØ¨Ø±ÛĮØª ÛĮØ´
ĠÙĪÛĮØ¯ ÛĮ
Ġt er
ĠØ§Ø¯ÛĮ Ø§ÙĨ
ow er
ĠØ§Ø¨Ø¯Ø§ Ø¹
ĠÚ©Ø§Ø± Ø§Ú©
ĠØ¯ÛĮÙĨØ§Ùħ ÙĪ
ĠØ´Ú© Ø±
Ø§ÙĨØª Ø³
Ø³ ÙĪØ±
ĠØ³ ØªÛĮ
Ú¯ÙĦ Ø§Ø³
Ġs ol
ĠÙĦÛĮØªÙĪ Ø§ÙĨÛĮ
ĠÙ¾Ø± Ø³ÛĮ
ĠØ®Ø¯ ÙħÙĩ
Ġh ol
ĠØ§Ø®ØªÙĦ Ø§ÙĦØ§Øª
Øª Ø§ÙĨ
ĠÙĤØ§ ÚĨØ§ÙĤ
Ø± ÛĮØ±
ĠØ³ÙĨØ¯ Ø±Ùħ
ĠØ¯ÛĮ ÙĪÛĮØ³
ĠØªØ´Ú©ÛĮÙĦ Ø§Øª
ĠØ§Ø± Ú¯
ĠØ¬Ø§ÛĮÚ¯Ø² ÛĮÙĨÛĮ
ĠÙ¾Ø§Ø¦ ÙĪÙĦÙĪ
ĠØª Ø±Ø§Ùģ
ĠÙĨØ¯Ø§Ø´Øª ÙĨØ¯
ĠØ§ÙĦØ³ÙĦ Ø·ÙĨÙĩ
ĠØ¨Ø¯ ÙĦ
ÙĨÛĮ Ùģ
ĠØ¨Ø±Ø³ Ø§ÙĨØ¯
id ge
ĠÙħØ® Ø²ÙĨ
ĠØ¨Ø§Ø²ÛĮ Ø§Ø¨ÛĮ
ĠØ³Ø§Ùħ Ø§ÙĨ
ÙĪØ¦ ÛĮØ¯
ĠÙĩØ´Øª Ø§Ø¯
Ġd istr
ĠØª Ø´ÛĮ
ĠØ§Ø± Ø¨Ø§Ø¨
Ġl ib
ĠØ¨Ùĩ Ø´ØªÛĮ
ĠÙĤ Ø§ÙĦÛĮ
ĠØ§Ø¨ÙĪ Ø§ÙĦØŃ
ĠØªØ¶ ÙħÛĮÙĨ
ĠØª Ø¹ÙĩØ¯
a x
ĠÙĨÛĮØ§Ø² ÙĩØ§ÛĮ
ĠÙ¾Ø§Ø± ØªÛĮ
ĠÙĪÙĦ Ø§Ø¯ÛĮ
ĠÙĩÙĪØ§Ø¯ Ø§Ø±Ø§ÙĨ
ĠÚ©ÙĨ ÙĪØ§ÙĨ
ĠØ¨ÛĮ Ø§Ø¨Ø§ÙĨ
ÙĪØª ÛĮÚ©
ĠØ§Ø³ ÙħØ§Ø¹ÛĮ
ĠØ¢Ø¨Ø§Ø¯ Ø§ÙĨ
ĠÙĪÙĦØ³ ÙĪØ§ÙĦÛĮ
Ġas s
ĠØ¹Øµ Ø¨
ĠÚ© ÙĪØ±Ùĩ
ĠÙĪØ± Ø´ÙĪ
ĠØ¨ÛĮ ÚĺÙĨ
ÙĨ Ø¸Ø±
ĠØ¯Ø§ ÙĪØ±ÛĮ
ĠØ±Ø§ÙĩÙĨ ÙħØ§ÛĮÛĮ
ÙĪ Ø§Ú©
ĠÙĩØ± Ùħ
ĠÙĨØ§ØµØ± Ø§ÙĦØ¯ÛĮÙĨ
ĠÙħØ¹ÙĦ ÙĪÙħ
ĠØ¨Ø§Ø²Ø§Ø±ÛĮ Ø§Ø¨ÛĮ
Ø³ÛĮ ÙĪ
an e
uc n
ĠÙĨ Ø±Ø³ÛĮ
ĠÚ¯Ø§ÙĦ Ø±ÛĮ
ĠØ¨Ø§Ø± ÛĮÚ©
ul l
ug h
Ġi ucn
ĠØ¢ÙħÙĪ Ø®ØªÙĩ
ĠÙħÙĨØŃ ÙĨÛĮ
ĠÛĮÙĪ ÙĪÙĨØªÙĪØ³
Ø§Ùĩ Ø§Ùħ
ab le
ĠÙĤØ§ Ø¹Ø¯Ùĩ
c he
ĠØ§Ø³ØªØ§ÙĨØ¯Ø§Ø± Ø¯ÙĩØ§ÛĮ
ĠØ´Ú© Ø§ÛĮØª
Ñ ĥ
ĠØ¨ Ú¯
ĠÙħØ¯ Ø§Ø®
ĠØ¯ÙĪ ÙĤÙĦ
ĠØ§Ø³ ÙĨ
ĠÚ©Ø§Ø± Ú©Ø±Ø¯
op e
ĠÙħÙĪØ¬ÙĪØ¯ Ø§Øª
ÙĤØ± Ø§Ø±ÛĮ
Ġso uth
ĠÚ©ÙĨÙĪØ§ÙĨ Ø³ÛĮÙĪÙĨ
ĠØ¬Ø§ÙĨ Ø´
ÙĪØª Ø±ÛĮ
ĠØ§ØŃØ³Ø§Ø³ Ø§Øª
ĠÙĨ ÛĮÙħÛĮ
ĠÚ©Ø± Ø¨
ĠØª Ø³Ø§ÙĪÛĮ
ĠØ§ÙĪÚ©Ø± Ø§ÛĮÙĨÛĮ
ĠØŃÛĮØ¯ Ø±
ĠØ¬ Ø§ÙĨØ¯
Øº ÙĦÛĮ
Ġst r
ĠÙĨØ¨ Ø±Ø§
ĠØ§Ø³Øª ÙĪ
ĠØªÙĪØ§ÙĨ Ø³ØªÙĩ
ĠÙħÙĨ Ùģ
Ġn orth
Ġy ork
ĠÙģØ± Ø®
ĠØŃÚ© ÙħØ±
ĠÙħØ§Ø¬Ø± Ø§ÛĮ
os s
ĠÙĦØ° Øª
ĠÙĤ Ø§ØªÙĦ
ĠØ´ ÙĨÛĮ
ĠÚĨ ÙĩØ±
ur g
ĠØ¬ÙĪÙĨÛĮ ÙĪØ±
ĠÙħØ§ÙĨ Ú¯Ø§
ĠÙ¾Ø§ ÙĪÙĦ
ÙĤ Ø¯
ĠÙħØ¨Ø¯ ÙĦ
i am
Ú¯ Ø§Ø³
ĠÙħÙĨÙĩ ØªÙĨ
ÙĦ ÙĨ
ĠØ§Ø± Ø´Ø§Ø¯
ĠØªØµ ØŃÛĮØŃ
ĠØª ÙĨØ§
ĠØ§ÙĨÙĤ Ø±Ø§Ø¶
Ġs ec
ĠØ¬Ùĩ Ø´
Ø§ Ø¹Øª
ĠÙħØ´ Ø§
ĠÙĨØ§Ø² Ú©
ĠÙħØŃØ§Ùģ Ø¸
ĠÚ¯Ùħ Ø´Ø¯Ùĩ
ĠØºØ° Ø§ÛĮ
ĠÙĨØ¨Ø±Ø§ Ø³Ú©Ø§
ĠÙĪØ§Ø¨ Ø³ØªÚ¯ÛĮ
ĠØ¨ÙĪØ¯ Ø§ÛĮÛĮ
Ø¬Ùħ ÙĦÙĩ
ĠÙĦØ° Ø§
ĠØ¯ ÛĮØª
Ġm ay
ÛĮÙĨÚ¯ ÙĨ
ĠØ¨Ø§ÛĮ Ø³Øª
ĠØªÙģÚ© ÛĮÚ©
ĠØ¬ÙĨØ³ÛĮ Øª
at t
Ð »
ĠØ¨Ø± ÙĪÙħ
Ġm ag
Ø§ Ø¬ÛĮ
ĠÚ©Ø§ Ø´ÛĮ
ĠÙħÙĪ ÙĦÛĮ
ĠØªØ« Ø¨ÛĮØª
ĠÚ©ÙĪØ´ Ø´
ĠØ± ÛĮÙĩ
ĠÚ©Ø± Øª
ĠØŃ ÙģØ±Ùĩ
ĠØ±Ø§ÙĨ ÙĨØ¯Ú¯ÛĮ
ĠØŃØ±Ú© Ø§Øª
ÙħÙĪ Ø³
ĠÙĦÛĮÙĨ ÙĪÚ©Ø³
ĠØ§Ú© ÙĪØ§Ø¯ÙĪØ±
Ø§Ø±Øª ÙħØ§ÙĨ
in s
ĠØ§Ø³ Ú©ÙĨ
Ġk o
ĠÙħØ°Ø§Ú© Ø±Ø§Øª
ĠØ§ÙĦ Øª
ĠØŃØ³ Ø§Ø³ÛĮ
ĠÙ¾ÚĺÙĪÙĩØ´ Ú¯Ø±
Ġst e
ĠØ§Ø³Øª ÛĮÙĦ
ĠÙĩÙĪØ§ÙĨ ÙĪØ±Ø¯ÛĮ
Ġt ra
ĠÙ¾ÛĮÙĪØ³Øª ÙĨ
ĠØ¢ÙĨØ¯ Ø±Ùĩ
ĠØ²Ø® Ùħ
ĠØ¢Ø± Ø´
ĠØ¯ÙĪ Ø²
Ġ ent
ĠÙ¾ ÙĦÙĩ
ĠÚ¯ Ø§Ø²ÛĮ
ÙĨÚ¯ Ø§Ùħ
ĠÙĦÛĮØ¨Ø± Ø§ÙĦ
ĠØ± ÙģØ³
Ġl o
ĠØ¢Ø« Ø§Ø±ÛĮ
ĠØ³Ùģ ÙĦÛĮ
ĠØ¬Ø§Ø³ ÙĪØ³ÛĮ
ĠØ§Ø³ØªÙĪØ¯ÛĮ ÙĪÛĮÛĮ
ĠØ¯ÙĤÛĮÙĤ Ø§
Ø§Øª Ø§ÙĨ
Ø¹ Ø§ØªÛĮ
ĠÙĪ Ø¬
ĠÙ¾ÙĦÛĮ ÙħØ±
ĠÚ© Ù¾ÛĮ
ĠØ§Ù¾ Ø±Ø§
ĠØ´ ÛĮÙħ
Å Ł
en e
ÙĪ ÙĪÙĨ
ĠÙħØ¬ Ø§ÙĪØ±
ĠÙĦÛĮ Ø²Ø±
ĠÚ©ÙĦ Ùħ
ĠØ² Ø§Ùħ
ĠØ®Ø§Ùħ ÙĪØ´
ĠÚ©Ø± Ø§ÙĨÙĩ
ĠØ´ Ø§ÛĮØ¹
ĠØªØ§Ø± ÛĮÚ©ÛĮ
ĠØ§ÙĨØªØ¸ Ø§ÙħÛĮ
ĠÛĮ ÛĮ
ĠÙħØ«ÙĦ Ø«
ĠÚ©ÛĮÙĩ Ø§ÙĨ
Ø¶ Ø§ÛĮÛĮ
ĠÙ¾ ÙĪÙĨØ¯
ÙĪÙĨØ¯ Ú¯Ø§ÙĨ
ĠØ® Ø§Ú©ÛĮ
Ġm ap
Ø±Ú© Ø´ÛĮ
i ent
Ġe le
ĠØ¢ÛĮØ± Ø³
ĠØªÙĤ ÙĪÛĮÙħ
Ø§ÙĦ Ùģ
ĠÚ©ÙĪÙĩ ÙĨ
ĠÙĦ ÙĪÙ¾
ĠÙħÙħ ÙĨÙĪ
ĠØªÙĪ Ø§ÙĦÛĮ
ĠØ§Ùħ Ø§ÙħÛĮ
ĠÙĤ ÙĪØ§
ĠØ§Ø®Øª ÛĮ
ĠØ¨Ø§Ø±Ø¯ Ø§Ø±ÛĮ
ĠØ¯ ÙģØ¹
ĠÚ©Ø§Ø±ÙĦ ÙĪØ³
ĠÙħ ÙĦØ§ØŃ
ĠØ¨Ø± ÙĤØ±Ø§Ø±ÛĮ
ĠÙģØ±Ø§ÙĨÚ© ÙģÙĪØ±Øª
ĠØ¨ Ø§ÙĦØª
Ġl ond
ĠÙĦÙĩ Ø¬Ùĩ
ĠØ§Ùģ Ú©Ø§Ø±
ĠØ±Ø³ Ùħ
Ù¾Ø§ Ø´ÛĮ
Ġt y
ĠÙħØ¤ ÙĦÙģ
ĠØ³Ø§Ø®Øª Ø§Ø±ÙĩØ§ÛĮ
ĠÙ¾ÛĮØ´Ø± ÙĪÛĮ
ĠÙĪÛĮÙĦ Ø³ÙĪÙĨ
ĠØ³Ùħ ÙĨØ§ÙĨ
ĠØ§Ø¹ Ùħ
Ġp re
ĠØ¹Ø±ÙĪ Ø³ÛĮ
ĠÙĨØ¸ Ø±Ø§Øª
ĠØ«Ø±ÙĪØª ÙħÙĨØ¯
ĠØªÛĮØ±Ø§ÙĨØ¯ Ø§Ø²Ø§ÙĨ
ĠÚ© ÛĮØ§
ÙĤ ÙĩØ±
ĠØ§Ø³Øª Ø§ÙĨÛĮ
ĠÙĨØ§Ø´ ÙĨØ§
ĠÙħÛĮ Ø¨
ĠÙ¾Ø± ÛĮÙĨ
ĠØ¢ÙĦ Øª
ĠÙĨÙħ Ø§Ø¯ÙĩØ§ÛĮ
ÛĮÙĨÚ¯ Ø²
ĠÙħØ®Øª Ø±
ĠØ³ÙĨ ØªØ±
ĠÙ¾Ø§ÛĮ Ø§ÙĨÙĩ
ĠØ´ÙĨØ§Ø³ Ùĩ
Ø§Ø³ ÙĦ
ĠÙĦ ÙĪÛĮÛĮ
ĠØ´Ùĩ Ø§Ø¨
ĠØ¹ÙħØ± Ø§ÙĨ
ĠØ§Ø³Ø§Ø· ÛĮØ±
ĠØ±Ø¶ Ø§ÛĮØª
Ġf in
ĠØªÙĨÚ¯ Ùĩ
Ġs an
Ġh el
ĠØ¨Ø§Ø² Ùĩ
ĠÙģØ±Ø¶ ÛĮÙĩ
ĠØ® ÙĪÙĨÛĮ
ĠØ¢Ø° Ø±ÛĮ
ĠÙĩØ±ÙħØ² Ú¯Ø§ÙĨ
ĠØ¬Ø§Ø¨ Ø¬Ø§ÛĮÛĮ
ĠØ§Ø´ Ø±Ø§Ùģ
Ø³ ÙĨØª
ĠØ³Ø± Øª
Ġ à¤
ĠØ¯Ùĩ ÛĮÙħ
ĠØ¬Ùħ Ø§ÙĦ
ĠÙħØªÙĪ Ø§ÙĦÛĮ
ĠÙĤ ÙĨØ¯
ĠÙĤ Ø¶Ø§
ĠØ®Ø· Ø§Ø¨
ot h
Ġan t
ĠÙħØ±Ú© Ø¨
Ø±Ø§ Ø·
ĠØµ ÙĪÙħ
ĠÙĨÙĤ Øµ
Ø¯ Ø§ÙĦ
ĠØ§Ùħ Ø§Ú©ÙĨ
ĠÙħØªØ± Ø¬ÙħØ§ÙĨ
ĠØ³Ø±Ø¯ Ø¨ÛĮØ±
Ġe ur
ĠÙĦÙĪ Ø§Ø²Ùħ
ĠØ¨ÙĨÛĮØ§ÙĨ Ú¯Ø°Ø§Ø±
ĠØ¨Ø±ÚĨ Ø³Ø¨
ĠØ± Ø§ÛĮØª
k o
ĠÚĨØ§Ø± ÙĦÛĮ
n er
Ø³ Ø±ÙĪ
ĠØ§Ùħ Ø¶Ø§ÛĮ
ĠØ¯Ø´Ùħ ÙĨØ§ÙĨ
Ã ¨
ĠØ¯Ø±Ø¢ ÙħØ¯Ùĩ
ĠØ³Ø® ÙĨÚ¯
ĠØ¨ÙĨ Øª
ĠØ³ÙĪØ¯ Ø§ÙĨ
Ġ ÙĪØ±Ø¯
ĠØ¯Ø§ÙĨ ÛĮÙĦ
ĠØ´Ø¹ Ø§Ø±
ÙĤ Ø§Ø³Ùħ
en a
Ø§ÙĤ Ø¹
ĠÙĨØ³ Ø¨
ĠØ±Ø§Ø³Øª Ø§ÛĮ
Ġs n
Ú© Ø¯Ùĩ
ĠØ§ÙĦÙģ Ø¨Ø§ÛĮ
Ùħ ÙĪØ±
ĠØ¯Ø± Ø³ØªÛĮ
ĠÚ©Ø§Ø´ Ø§ÙĨ
ĠØ¨ÙĪÙĦÛĮ ÙĪÛĮ
ov e
ĠØŃØ´ Ø±Ø§Øª
ĠÙĦÛĮ ÙĪ
ĠØ´ Ø§ÙĩÛĮ
ÙģØ± Ø§ÙĨ
ĠØ·Ø¨Ø± Ø³ØªØ§ÙĨ
Ġst ud
ĠØ§ÙĨØ¯ Ø±ÙĪ
Ø§ÙĨÛĮ Ø§ÛĮ
ĠÙģØ± Ø³
ĠØ§Ø±ÙĨ Ø³Øª
l er
ĠÙĩÙħ Ø§ÛĮØ´
ĠÛĮ ÛĮÙĦ
ĠÙĤØ· Ø¨ÛĮ
ĠÙħØ£Ùħ ÙĪØ±Ø§ÙĨ
Ú¯ ÙĪÙĨÛĮ
ĠØ·ÙĦØ§ ÙĤ
ĠØ¨ÙĦÙĪØ± ÛĮÙĨ
ĠØ¹ Ø³ÙĦ
Ġlond on
ĠØ¨Ø± ÙĪØ³
ĠØ¨Ø± Ø§Ø¨Ø±ÛĮ
ĠØ±ÛĮØ³ Ú©
ĠØ§ÙĦ Ø¨
ĠÚ©ÙħÙ¾ ÛĮÙĨ
ĠÚ©Ø±ÛĮ Ø³ØªÛĮ
ĠÚ¯Ø± Ø¬ÛĮ
ĠØŃÙĪ Ø¶Ùĩ
Ġj un
ĠØ§ÙĦÙħÙĦ Ú©
ĠØ®ÙĪØ´ ÙĨ
Ġdir ect
ĠØ§Ùħ ÙĪØ§ÙĦ
m er
ĠØ¯ÛĮ ÙĪØ§ÙĨÙĩ
c a
ĠØ³ÛĮÙħ ÙĪÙĨ
ĠÙ¾Ø§ØªØ± ÛĮÚ©
f ord
Ø¬ ÙĪÛĮÛĮ
ĠØ´Ú© Ùħ
ĠØ´ÙĪØ± Ø§
ĠØ´ ÙĪÚ©
ĠÚ©Ø±ÛĮØ³Øª ÙĪÙģØ±
ĠØ§ÙĦ Ø³
ĠÙħØ¯ Ø§Ø±Ú©
ĠØ®Ø± Ø§Ø¨
ĠØ³Ø§Ø² ÙĨØ¯
w e
Ø² ÛĮÚ©ÛĮ
ĠØ¹ Ø¬
ĠÙĨÙģ Ø¹
ĠÙħØ¹ ÛĮØ§Ø±
ĠÙģÛĮ Ø¨Ø±
ĠØ·Ø±Ùģ Ø¯Ø§Ø±
ĠÙħÙĨ Ø§Ø¸
ĠØ§Ø¯ÙĦ Ø§ÙĨØªÙĩ
l ine
ĠØ³ ÙĩØ±
ĠÙħØ°Ø§Ú© Ø±Ùĩ
ĠØµ ÛĮ
ot t
ĠØ³Øª Ø§ÛĮØ´
ĠØ³ Ø§Ø¨
Ø¨Ø§ÙĦ Ùĩ
ĠÙĤØ¯ Ø³
ĠØ² ØºØ§ÙĦ
ĠØ¹Ø±ÙĪ Ø³
ĠÚ©Ø±Ø¯ Ùħ
ĠÙħÙĨ ÙĤØ±
ĠØ¯Ø±Ø® Ø´Ø§ÙĨ
ĠÚ©Ø§Ø± Ø´ÙĨØ§Ø³Ø§ÙĨ
ĠØªØ³Ùĩ ÛĮÙĦ
ĠÙħØ¹Ø§Ø¯ ÙĨ
ĠØ¨ÙĨÚ¯ÙĦ Ø§Ø¯Ø´
ĠØ¯Ø§Ø± ÙĪÛĮ
Ġ å
ĠØ¬ Ø³Ø¯
ÛĮÙĨÚ¯ ÙĩØ§Ùħ
Ø§Ø³ ÙĪ
ĠÙĨÙĩ Ø¶Øª
ÙĪÙĨØ¯Ùĩ Ø§ÛĮ
ĠÙħÙĨÙĤØ± Ø¶
ĠØ§Ø¨ÙĪØ§ÙĦØŃ Ø³ÙĨ
ĠØ§Ø´ Ø®Ø§Øµ
ĠÙĩØ±Ø² Ú¯ÙĪÛĮÙĨ
ĠÙĨØ§Ùħ ÙĨ
Ġwom en
Ø§Ø² ÙĪÙĨ
ed er
ĠÚ©ÛĮØ³ Ùĩ
ĠÙħØª ÙĤØ§Ø¨ÙĦ
ĠØ« Ø¨Ø§Øª
ĠÙģØ±ÙĪ Ø®ØªÙĩ
ĠØ¹Ùħ ÙĪØ¯ÛĮ
ĠÙħ Ø§Ø¯ÛĮ
ĠÚĨ ÙĨØ¯ÛĮ
ĠØ§ÙĦ Ø®
Ø¨ÛĮ Ø§ÙĨ
ĠÚ¯Ø° Ø±Ø¯
Ġs al
ĠÚ©ÙĨÚ¯ ÙĪ
ĠÙ¾Ø±ÙĪ ÙģØ³
ĠÚ¯Ø±Ùħ Ø³ÛĮØ±ÛĮ
ĠØ§Ø¹Øª ØµØ§Ø¨
ĠØ¨Ø¯ ÙĨÛĮ
ĠØªØ£Ø«ÛĮØ± Ø§Øª
Ġr ed
ĠØ´Ø§ Ú¯Ø±Ø¯
Ùģ ÙĪ
Ù¾ Ø§ÛĮ
i j
Ø± ÙĩØ§ÛĮ
ĠÙħØ´Øª Ø±ÛĮØ§ÙĨ
ĠØ³Ø± ÙĨÚ¯
ĠÙħÙĨØª ÙĩÛĮ
ĠØ¢ÙĨ ÛĮ
ĠÙģØ¶Ø§Ù¾ ÛĮÙħ
ĠØªØ¹ ÙĪÛĮ
ĠØ¢ØºØ§Ø² ÛĮÙĨ
ĠÙĨØ§ÙĪ Ú¯Ø§ÙĨ
ĠØ³Ù¾ Ø±ÛĮ
ÙħÙĪ Ø«
ĠÚĨÙĦ Ø³ÛĮ
ĠÙĤØ±ÙĤÛĮØ² Ø³ØªØ§ÙĨ
ĠØµÙĪÙħ Ø¹Ùĩ
ĠØªÙĪÙĨ ÙĦ
ÙĨ ÙĪØ§
ĠÙĦÛĮÙĨ Ú©
ĠØ¹ÙĤ Ø§ÛĮØ¯
ĠØ² Ø§Ùĩ
ĠØ² Ø±Ø§
ĠØ¨Ø§ÙĨ ÙĪØ§ÙĨ
Ùģ ÛĮÙĩ
ĠØµÙģ ÙĪÛĮÙĩ
ĠÚ¯ ÙħØ§ÙĨ
ÙĨØ¯ ÙĪ
ĠØ±Ø³ ÙĪØ¨
Ġf ir
Ø§ÙĦÛĮ Ø§ÛĮ
ĠÙĦÛĮ ÙĦØ§
ĠØ¯Ø§Ø¯ Ø³ØªØ§ÙĨ
ĠØ¨ Ùħ
ĠÙĩÙħ Øª
ĠÙĦ Ø±ÛĮ
ÙĪØ² Ø§ÙĨ
ĠÙ¾Ø°ÛĮØ± Ø¯
st em
ĠØ³Ø§ Ø¹Ø§Øª
ĠØ³Ù¾Ø§Ùĩ Ø§ÙĨ
Ø§ ÙĪÛĮ
Ø¶Ø§ Ø¹
ĠØ± ÙĨØ³
ÙģØ§ Ø¹Ø§Øª
Ø§ÛĮØ´ Ú¯Ø§Ùĩ
ÙĪÛĮ Ú¯
Ġte xt
ĠØ§Ùħ ÛĮÙĨÛĮ
ĠÙĨØ¨Ø± Ø¯ÙĩØ§ÛĮ
ĠØªØ£Ø«ÛĮØ± Ú¯Ø°Ø§Ø±
ĠØ¯Ø§ Ú¯ÙĦØ§Ø³
ÙĨÙĩ Ø§Ùħ
ĠØ§ÙĨØªØ± ØªÛĮÙĨÙħÙĨØª
Ø¬ÙĪ Ø§ÙĨÛĮ
Ġ ur
ĠÙĪ Ø¹Ø¯Ùĩ
ĠØ²Ø¯ ÙĨØ¯
ĠØº Ùħ
ĠÛĮØ§Ø¨ ÙĨØ¯
ĠÙħÙĪØ³ Ø³
ĠØ§Ø±Øª ÙģØ§Ø¹Ø§Øª
Ġ Î
ĠÙ¾ØªØ± Ø²Ø¨ÙĪØ±Ú¯
ĠÙ¾ Ø§Ø±Ø§ÙĨ
Ġis land
ĠÙħÙĪÙĨØª Ø§ÙĨØ§
ĠØª Ø§Ø²
ĠØ³Ø§Ø² Ú¯Ø§Ø±
ÙĨ ÙĪØ§ÙĨ
ĠÙĩØ§ ÙĪØ§ÛĮÛĮ
ĠØ· Ø±Ø²
ĠÙħÛĮ Ø§ÙħÛĮ
Ġa re
ĠÙģØ± ÙĨØ§ÙĨ
ØŃ ÙĤ
ĠØ¯ÛĮ ÙĪÛĮÚĺÙĨ
ĠØ²Ø§Ø¯ Ú¯Ø§Ùĩ
ĠÙħØŃÙħØ¯ ØŃØ³ÛĮÙĨ
ĠÚ©ÛĮ Ø´
ĠØ¨ ÙħØ§ÙĨØ¯
ĠÙħØ± Ø§Ø¯
ĠØ§Ø´Øª ØºØ§ÙĦ
ĠØ¯Ø§ÙĨØ´Ø¬ ÙĪÛĮÛĮ
u z
ÙĪÙĦ Ø§ÙĨ
ĠÙħÙģÙĩ ÙĪÙħÛĮ
ĠÙĤ Ø´
ĠÙģØ±Ø¯ Ø±ÛĮÚ©
le x
ĠÙĨÙħØ§ÛĮ Ø§ÙĨ
ĠØ±Ø² Ùħ
s p
ĠÙģØ±ÙħØ§ÙĨØ±ÙĪ Ø§ÛĮÛĮ
h o
ĠØ³ÛĮØ§ ÙĪØ´
em ent
ĠÙģ ÛĮØ³
ÙĤ ÙĪÙĩ
ĠØ¯ ÙĪØª
ĠÙĦ ÙĪØ³
ĠØ¯ÙĨ ÛĮÙĦ
ĠÙħÙĪØ³ Ø³Ùĩ
ĠØ´Ø± ÛĮÚ©
Ġl ist
ĠÙģÙĪØª Ø³Ø§ÙĦ
ĠØµÙĦØ§ØŃ ÛĮØª
ĠØ´ Ø§ÙĨØ³
ĠÙĨÙĪ Ø§Ø®Øª
ĠÙ¾ÛĮØ± ÙĪ
ĠØ² ÙĪØ±
ÙħÛĮ ÙĦÛĮ
Ġn ov
Ø¨Ø§ Ø®
Ø© Ø§ÙĦ
ĠÙħ Ø§ÛĮÙĩ
Ø¨ Ø²Ø±Ú¯
Ø· Ø±Ùģ
ĠØ§ ÙĪÛĮ
ĠÙħÚ© Ø¹Ø¨
ĠÙĨØ§Ø´ÙĨØ§ Ø®ØªÙĩ
ĠÙħÙĤ Ø¯Ø§Ø±ÛĮ
ĠØ¹Ø¨Ø¯Ø§ÙĦ Ø±ØŃ
ĠØªØ£ Ø®ÛĮØ±
ĠØªØ¨ÙĦÛĮØº Ø§ØªÛĮ
ĠÙĨØ§Ø® Ø§ÙĦ
Ø² Ø§ÛĮÛĮ
ĠÚĨ Ùħ
ĠØ§Ø¹ ØµØ§Ø¨
Ġ ÙĪØ±ÛĮ
ĠÙĪÛĮØ± Ø§Ø³Øª
Ġm use
ĠÙĨÙĩ Ø§Ø¯Ùĩ
ĠØ®Ø´Ú© ÛĮ
ĠØµ Ø¯ÙĩØ§
ĠÙĨÙĪ Ø¢ÙĪØ±ÛĮ
ĠÙħÙĨØ¸ ÙĪÙħÙĩ
ĠÙħ Ø§Ú¯
ĠØ¨Ø± Øª
ĠØ¨ÛĮØ± Ø¬ÙĨØ¯
ĠÙ¾Ø± ØªØ±Ùĩ
ĠØ§Øª Ø±ÛĮØ´ÛĮ
ĠØ¹ÙĤ Ø§Ø¨
ĠØ§ØŃ Øª
ĠØ§ÙĪ Ø¶Ø§Ø¹
ĠØ±ÛĮ Ø®Øª
Ġcent er
ĠÛĮÙĪÙĨÛĮÙĪØ± Ø³ÛĮ
ĠØ§ÙĨØ¨ ÙĪÙĩ
ĠØ§Ø³ ÛĮØ±
ĠØ±Ø¶ Ø§ÛĮÛĮ
ĠØŃØ³Ø§Ø³ÛĮ Øª
ĠØŃ Ø§ÙħØ¯
ĠÙħØª ÙĤØ§
ĠÙĨ Ø¬ÛĮØ¨
ĠØ³ ÙĨØ¯ÛĮ
ĠÚ©ÙĦ ÙĨ
ÙĨ ÙĨØ¯Ùĩ
ĠÚĨÙĩØ§Ø± Ø¯Ùĩ
u al
ĠÙ¾ÛĮ Ú¯ÛĮØ±ÛĮ
ĠØªÙģØ±ÛĮ ØŃÛĮ
ĠÙĦ Ø±Ø¯
ĠØ¢Ø± Ùħ
Ġo ut
ÙĦ Ø§ÛĮ
Ġc at
Ġph ot
ĠÙ¾ ÙĪØª
ĠØ¬ ÙĨØ¬
ĠÙĪÛĮØª Ø§ÙħÛĮÙĨ
ĠÙ¾Ø±ÙĪÙģØ³ ÙĪØ±
ĠØºÙĦ Ø¸Øª
ĠÙĩ Ø§Ø¨
ĠÙħØ¨ Ø§ØŃ
Ġb a
ĠÚ©Ø§ÙĨ ÙĪ
Ġarch ive
ĠØ¯Ùĩ Ú©Ø¯Ùĩ
ĠÙ¾Ø±ÙĪ Ø§Ø²ÛĮ
ĠÚ©ÙĪÙĩ ÛĮ
Ú©ÙĦ ÙĨ
ĠÛĮØ¹ÙĤ ÙĪØ¨
ĠØ³ Ø§Ø¯Ú¯ÛĮ
ĠØ§Ø± Ø¬Ø§
ÙĦØ§ Ú¯
Ù¾ Ø²Ø´Ú©
ÙģØ± Ùħ
us tr
Ġm un
ĠÙĤØ§Ø¬ Ø§Ø±ÛĮÙĩ
ÙĦ Ø§ÙĨÛĮ
ĠÙ¾ ÙĪÛĮØ§
ĠÙĦ ÙĪÛĮ
ĠØ¨Ø± Ø²ÛĮ
ĠØ¬Ùĩ Ø§Ø¯
ĠØ§Ø³ØªØ¹ ÙħØ§Ø±
Õ¡ ÖĢ
ĠØ¨ ØµØ±ÛĮ
Ġpar k
Ġbo ok
ĠØ¢Ùħ ÙĦ
Ġun ited
ĠÙĦ Ø§Ùĩ
ĠÚĨ Ø³
ĠØ§Ú©ØªØ´ Ø§Ùģ
Øª Ø¨ÛĮ
ĠØ· Ø§ÙĦØ¨
ĠÙħÙĤØ§ ÙĪÙħ
ĠÙĩ Ø¯ÛĮÙĩ
ĠØ¹ Ø¸
ĠÙģØ§Ú© ØªÙĪØ±
ĠÙĨÙĪ Ø§Ø¯Ø§
ĠÙĨ Ø§ÙĤ
ĠØ§Ø± Ùħ
v el
ĠØ¨Ø§Ø± Ø¨Ø§Ø±
ĠØªÙĪØ± Ùħ
ĠØ¹ÙĪ Ø§Ùħ
ĠÙĨØ´ Ø§ÙĨÛĮ
ion s
ĠÚ©Ø´ÛĮ Ø´
ĠÚ©ÙĨ ÛĮØ§
ĠÚ©ÙĪ Ø¦
ĠØ¯ ÙĪØ±ÛĮ
Ġs ur
ĠÙĪ Ø§Ù¾
ĠÙħØ®ØªÙĦ Ø·
ĠÙĩØ§Ùħ Ø¨ÙĪØ±Ú¯
ĠØ¨Ø§Ø² Ø§Ø±ÙĩØ§ÛĮ
Ġw est
ĠØŃÚ© ÙħØª
ĠÙĨÙĪ Ø¬ÙĪØ§ÙĨÛĮ
ĠØ¢Ø³ÛĮ Ø§Ø¨
ĠÙħØ´Ø§ÙĪØ± Ùĩ
ĠÙ¾ Ø§Ø²
ÙĦØ§ ØŃÛĮ
ĠØ³Ø± Ø´ÙĨØ§Ø³
ĠØ³ÙĪ Ú¯
ĠØ±ÙĪÙĨ ÙĤ
ĠØ¨ÙĤ Ø§ÛĮØ§ÛĮ
ĠÙģÙĤ Ø±
ĠÚ¯ÙĪ Ø´ÛĮ
ĠØ³ÛĮÙĦ ÛĮÚ©
ĠØ² ÙĪØ¯ÛĮ
ĠÙħØ´ÙĩÙĪØ± ØªØ±ÛĮÙĨ
ĠØ¯ÛĮÙ¾ÙĦÙħØ§Øª ÛĮÚ©
Ø´ Ø§ÛĮØ±
ĠØ´ Ø§ÙĦ
ĠÛĮØ§ÙģØª Ú¯Ø§ÙĨ
ĠÙĨØ¬ ÙģÛĮ
if e
ĠØ³ ÙĨØ¬ÛĮ
ĠØ³ Ú©ØªÙĩ
ĠÙģØ§ Ø¶ÙĦ
ĠØ¨ÙħØ¨ Ø¦ÛĮ
ĠÙĨØ§Ø¯Ø± Ø³Øª
ĠØ§Ù¾ ÛĮØ²
ĠÙħÙĩ Ø¯
Ø§Ùħ ÛĮØ¯
ĠØ¹ Ø§Ø¯ÙĦ
ĠÙĤØ· Ø¹ÛĮ
ĠØ§Ø¨Ø± ÙĤÙĩØ±
ĠØ¢ ÛĮÙĦÙĨØ¯
ĠØ´ Ø§ÙĨÚ¯
ain t
ĠÙĨ Ú©ÙĨ
ĠØ§ÙĦÙħ Ø§Ø³
ĠÙ¾ÛĮÚĨ ÛĮØ¯Ú¯ÛĮ
ĠØ¨ÙĪØ¦ ÙĨÙĪØ³
ĠØ§ÙĦ Ø²
ĠØ±ÙĪÛĮ Ø§ÙĦ
Ø§Ø³ Ø±
ĠØ¬ÙħØ¹ÛĮØª ÛĮ
ĠÙĨØ§ Ø³ÛĮÙĪÙĨ
ĠÙħÛĮ ÙĩÙĨ
ĠÙħØµ Ø§ÙĦØŃ
v in
ĠÚ©Ø± ÙĪÙĨØ§
ĠØªØ§ Ø«ÛĮØ±
Ø· ÙĪØ¨
ĠÚ©Ø§Ø± ÙħÙĨØ¯
ĠØ³Ú© ÙĪØª
ĠÙħØ¬ ÙĦ
ĠÙħ Ø²Ø¯
Ø¢ ÙħØ¯
Ø§Øª Ø³
ĠÙ¾ Ø®Øª
ĠÙģØ±ÙĪ Ù¾Ø§Ø´ÛĮ
ĠØ¨Ø±Ú¯ Ø²ÛĮØ¯
ĠØ¢Ø´ ÙĪØ±
ĠÚ¯Ø± Ø¯Ùĩ
ĠØªÙĪÙĦÛĮØ¯ Ø´Ø¯Ùĩ
ĠØ¬Ø§ÙĨØ´ ÛĮÙĨÛĮ
ĠØ² Ùĩ
ĠØªÙĪØ± ÙĨ
Ø¹ Ø¨Ø§Ø³
ĠÚ¯ÙģØª Ø§Ø±
ĠÛĮÙĪ ÙģØ§
Ø¨ ØªÛĮ
ĠÙĨØ® ÙĦ
ÛĮÙĦ ØªÙĪÙĨ
ĠØ¢ÙĨ Ú¯Ø§Ùĩ
Ø¬ ÙħÛĮ
ĠØ¬ÙĨ Ø¨
Ġk n
ĠÙĦ Ú©
Ö Ĥ
ĠØ¨ÛĮØ± ÙĪØª
ĠØ±ØŃ Ùħ
ĠÙĩ Ø§Ø¯
ĠØ¨Ø® ÙĪ
ÙħØ¯ Ø§Ø¯
ĠÚ©Ùģ Ø´
Ø± ÛĮÙĨ
ĠÙĪÚ©ÛĮÙĦ Ø§ÙĨ
ĠÙĨØ´ Ø±ÛĮ
ĠÙħØ² Ø§ÛĮØ§ÛĮ
Ùħ ÙĦÛĮ
ÙĪ Ø®
ÙĪØ³Øª ÙĪÙĨ
ĠÙħ Ø§Ø¦
ĠØ³ØŃ Ø±
ĠØªØ¨ Ø¹ÛĮ
á ĥ
ĠÙħØ±Ú¯ Ø´
ĠØ§Ø¹ÙĦØ§Ùħ ÛĮÙĩ
ĠØ±ÙħØ² ÙĨÚ¯Ø§Ø±ÛĮ
ĠØªØµ Ø¯ÛĮ
ĠØ®ÛĮØ± ÛĮÙĩ
Õ¥ Õ
ĠÙħÙĨØ§Ø³ Ø¨ÛĮ
c r
Ø· Ø§Ùģ
ĠØ¹Ø« ÙħØ§ÙĨ
ĠÙĪ ØµÙĦ
ĠØ¯Ø§Ø± ÙĨØ¯Ú¯Ø§ÙĨ
ĠÙĨÙĪ Ø´ÛĮØ¯
Ġj an
ĠÙĦØª ÙĪÙĨÛĮ
ÙģÛĮ Ø³
ĠÙ¾Ø§ÙĨ Ø²Ø¯ÙĩÙħ
ĠØ± ØµØ¯
ÙĪØª ÙĪÙĨ
ĠÙ¾ ÛĮÙĦ
ĠÙĦØ§ÛĮ ØŃÙĩ
ĠÙħØ³Ø¦ÙĪÙĦ Ø§ÙĨ
Ø§ ÙĪØ§
Ġm ac
ĠØ¨Ø±Ø²ÛĮ ÙĦÛĮ
Ú¯Ø° Ø§Ø±Ø§ÙĨ
ĠØ³Ø§ÙĦ Ú¯Ø±Ø¯
Ġl ang
ĠÙħÚ©Ø§ÙĨÛĮ Ø³Ùħ
Ġ ÛĮÙĦ
ĠØ¨ÛĮ Ø§Øª
ĠØ³ÙĦÛĮ ÙħØ§ÙĨÛĮ
Ø¨Ø§ Ø¹
Ġv o
ĠØ¨ ÙģØª
ĠØº ÛĮ
iv er
ĠÚ©ÙĦÛĮØ³ Ø§ÙĩØ§ÛĮ
ĠØªØ³ ÙĦÛĮ
Å į
ĠØ¬ ÙĪØ²
ĠÙħØª ÙĨÙĪØ¹
ĠØ§Ø±Øª Ø¯
ĠÙ¾ÛĮØ´ Ùĩ
ĠØ³ÙĨØª Ø²
ÚĨ ÙĨ
Ġph il
ĠÙħÙĤØ¯ÙĪÙĨÛĮ Ùĩ
ĠØ±ÙģØª Ø§Ø±ÛĮ
ĠØ¯Ø§ÙĨØ´Ø¬ ÙĪÛĮ
ĠØ¯Ùħ Ø´ÙĤ
ĠØ¢ÙĦ ÙĪØ¯Ùĩ
ĠÙĤ Øµ
ØªÛĮÙĪ Ù¾ÛĮ
ĠÙħÙĪÙĨ ØªØ±
ĠØ¯Ø§ÙĪØ· ÙĦØ¨
ĠØ´ ÙĪÙĨØ¯Ùĩ
Ø´Ú© ÙĨ
ĠØ³Ø§Ùħ ÙĪØ¦ÙĦ
ĠØªØ¨Ø±ÛĮ Ø²ÛĮ
ĠØ³ Ø¹Ø¯
Ø§Ø´ Ø§Ùĩ
k e
ĠØ¨ÙĨÛĮ Ø§Ø¯ÛĮ
ĠØ±Ø§ÛĮ Ø§ÙĨ
ĠÙ¾ÙĪØ´ Ø§Ú©
ĠÙĩÙħØ¨ Ø³ØªÚ¯ÛĮ
Ø¨ ÛĮØ§
ĠÙĦÛĮÙĨ Ú©ÙĦÙĨ
Ġt ur
ĠØ®ÛĮ Ø§ÙĨØª
ĠÚ©Ø±ÛĮ Ø³Ùħ
ĠØ±Ø§Ùĩ Ø¨Ø±Ø¯
ĠÙĩÙĪØ´ ÙĨÚ¯
ĠÙħØ§ÙĨØ¯ ÙĨ
ĠÙħÙģ ØµÙĦ
ĠØ¨ÛĮ Ú¯Ø§ÙĨÙĩ
ØªÛĮ Ø³Øª
ĠØ§Ø¨Ø±ÛĮ Ø´Ùħ
Ø¯ Ø§Ø¯ÛĮ
ĠØ§Ø±ØªÙĤ Ø§
ĠØ³Ø± ØªÛĮ
ĠØ²Ø±Øª Ø´Øª
b c
ĠÙ¾Ø§Ø± Ø§Ú¯ÙĪØ¦Ùĩ
ĠØ¨ÙĦÙĨØ¯ ØªØ±ÛĮÙĨ
ĠØ§ÙģØ³ Ø±Ø¯Ú¯ÛĮ
ĠÙĩ ÙĪÙħ
ĠØ® ÙĪÛĮ
Ú© Ø§ÙĦ
ĠÙĨ ÙĪÛĮ
ĠØŃØ±Ú© ØªÛĮ
ĠØ¯Ø§ Ø¹Ø´
Ġt v
Ø³ ÙĨÚ¯ÛĮ
ĠØ§Ùħ ÛĮÙĦÛĮ
ĠØ®Ø§Øµ ÛĮØª
ĠÙħØª ÙģÙĤ
ĠØ¯ Ø²Ø¯ÛĮ
Ġm er
ĠÛĮÙĪÙĨÛĮÙĪØ± Ø³Ø§ÙĦ
Ø³ÛĮ Ùĩ
Ø®ÛĮ Ø²
ĠÙħØ³Øª Ø¹Ø§Ø±
ĠØ¹Ø±Ùģ Ø§ÙĨ
ĠØ¯ÙĪ Ø´ÙĨØ¨Ùĩ
ĠÙĩÙħ Ú©Ø§Ø±
Ø±ÛĮ Ø²ÛĮ
Õ¡Õ ¶
ĠÚĨ Ø§ÙĤ
ĠÛĮØ§ Ø²Ø¯Ùĩ
Ø§Ùĩ ÛĮÙħÛĮ
Ġb as
ĠØªØ®Øµ Øµ
ĠØªØ¹ ÙĦÛĮÙħ
ĠØ³Ø¨Ø² ÙĪØ§Ø±
ĠÙħØ± Ø³Ø¯
ĠØ¨Ø± ØªØ±ÛĮÙĨ
ĠÙĪ Ø¶ÙĪ
ĠÚ©Ø§Ø± Ø§Ø¦ÛĮ
ĠØŃØ§ÙĦ Ø§
ĠØªØµÙĪÛĮØ± Ø¨Ø±Ø¯Ø§Ø±ÛĮ
Ġm ic
ĠØ§ØŃ Ú©Ø§Ùħ
Ġsy stem
ĠÙģØ¶ ÙĦ
ĠÙħÙĪÙĨ Ø§Ú©ÙĪ
le t
ĠØªÙĪ Ùĩ
ĠØ¢ Ø³ØªÛĮÙĨ
ĠØº Ø§Ø±Øª
ĠÙħØ¯Ø§Ø® ÙĦÙĩ
ĠØ¹ Ø§ÙĦ
Ù¾ ÙĪØ´
ĠØŃ ÙģØ§Ø±ÛĮ
ĠØ´Ø±Ø§ÛĮ Ø·ÛĮ
ĠÙħØ¬ Ø§Ùĩ
ĠØ¨Ø¹ ÙĨÙĪØ§ÙĨ
ĠÙ¾ ÙĪØ¯Ø±
Ø§ÙĨÛĮ ÙĪÙħ
ĠØ§ÙĦ ØªÙĩ
Ø§ÛĮ Ø±ÛĮ
ĠÙģ ØªÙĪ
et t
ĠØ§Ø¨ÙĪØ§ÙĦ ÙĤØ§Ø³Ùħ
ĠØ¢Ø± ÙħØ§ÙĨ
ĠÙĨ ÙĩÙĨÚ¯
ĠØ§ ØªÛĮÙĪÙ¾ÛĮ
Ġd f
ĠØ° Ø±Ùĩ
ĠÙĩÙħÙ¾ ØªÙĪÙĨ
Ġm i
ĠØ²ÙĨØ§ÙĨ Ùĩ
ĠÙħØ¹ØªØ± Ø¶Ø§ÙĨ
ĠØµØ¯Ø§ Ù¾ÛĮØ´Ùĩ
Ø±ÙĪ Ø¨
ĠÚ©Ø±ÛĮØ³Ùħ Ø³
ĠØ¬ Ø§ÙĦØ¨
ĠØ¯Ø± Ø¬
ĠØ´ Ø§Ø¯ÛĮ
ĠØ´ Ø§ÙĨÙĩ
ĠÙĤ ÙĪØ§ÛĮ
ĠØ§ÙĨØ¹ Ø·Ø§Ùģ
Ø§ÛĮ Ø³
ĠØ¨Ø± ÙĩÙħ
ĠØ§ÙĨØªÙĤ Ø§Ø¯ÛĮ
ĠÙħØµØ¯ ÙĤ
ĠØ§ÙĨØ¬ ÛĮÙĦ
ĠØ¨Ø±ÙĪØ¬ Ø±Ø¯
ĠØ§ÛĮ ÙĦÛĮ
ĠÙĨÙĤ Ø´ÛĮ
ÛĮÚ© Ø§ÙĦ
ĠØŃÚ© ÛĮÙħ
ÙĨ Ø§Øª
le d
ĠØ§Ø³Ù¾ Ø§Ø±Øª
ĠÙĪØŃ ÛĮØ¯
Ġw r
ĠØ³Ø¹ Ø¯ÛĮ
p a
ĠØ¯ Ø§ÛĮÙĨ
ĠÙĪ ÙĦÙģ
Ġw al
ĠØªÙħØ§ÛĮ Ø²
w ood
in o
ĠØ¯ÛĮÙ¾ÙĦ Ùħ
ĠÙ¾Ø§Ø´ Ø§
ĠØ±Ø§ Ú¯
ĠÚ¯ÙĪ Ø§Ùĩ
ĠØ§Ø´ Ø±Ùģ
ÙħÙĪ Ø²
ÚĨ ÙĦ
ĠØ¯Ø®ØªØ± Ø´
ĠÙħØ± Ø·ÙĪØ¨
Ġp u
ĠÙĨÙģ ÙĪØ³
ĠØ¨ÙĦÙĪ Øº
ĠÙĩ Ø³ØªÙħ
Ġb est
ĠØ§ÙĨØ¯Ø± ÙĪÛĮØ¯
ĠÛĮØ§ Ø³
ÙĪØ± Ø§Ø³
ĠØ¨Ø± ÙĪ
ĠÙĦ Ø§ÙĦÙĩ
Ġin st
ĠØ³ ÙĪØ±ÛĮ
ĠØµ ÙĪÙģÛĮ
ĠÙĪ ÙĨØ¯
Ġk ar
ĠÙĨ Ø¯Ø±
ĠÙĤ ÙĪØ±
ĠÚĨÙĩØ± ÙĩØ§ÛĮ
r on
ĠØ´ ÙĦÙĪ
ĠØ§Ø³Ú© ÙĨØ¯
ĠØ§Ø¬Øª ÙħØ§Ø¹
ĠØ±ÙĪÛĮØ¯ Ø§Ø¯ÙĩØ§
ĠØ§Ø³ØªÙĪ Ø§Ø±Øª
ĠØª Ø¨Ø±
Ġs ub
ĠØªØ¹ÙĦÛĮ ÙĤ
Ġr el
ĠØªØ±Ø§Ùģ ÛĮÚ©
Ú¯ Ø§Ø±Ø§ÙĨ
ĠØ¨Ø± Ù¾Ø§
Ġtown ship
ĠÙħ Ø§Ú©Ø³
ĠÙģØ± ÙħØª
ĠÙĨØ§Ú¯Ùĩ Ø§ÙĨÛĮ
Ø§ÙĦ Ø³
Ø§ ÙģØª
b e
ĠØ§Ø³Ù¾ ÛĮÙĨ
ĠØ³Ø¯ ÛĮÙħ
ĠØ·Ø± ÙģÛĮ
ĠÚ©ÙĪØ¯ ØªØ§ÛĮ
ĠÙħØ³ÛĮØ± ÙĩØ§ÛĮ
Ú¯ Ùħ
ĠÙ¾ Ú©ÙĨ
ĠØ³Ø§Ø² Ú¯Ø§Ø±ÛĮ
ĠÙĪÙĨ Ú©ÙĪ
ĠØ¯Ø± Ú¯Ø§Ùĩ
ĠÙħ Ø¨Ø§Ø¯
ĠÙħ Ø§ÙĪØ±
ĠØ¨Ø± Ú¯Ø±Ø¯
ĠØ¬ÙĪ ÙĦÛĮ
ĠØ®ÙĪØ±Ø¯ Ú¯ÛĮ
ĠØ±Ø§ Ø³ÙĦ
ĠÙĨÛĮØ§ Ø²ÛĮ
he l
ĠØªØ£Ø³ÛĮØ³ Ø§Øª
ĠØ± Ø§ÛĮÙĨ
ĠÚ©Ùĩ ÙĨÙĩ
Ù¾ Ø²
ĠÙħØ¯ ÛĮÙĨÙĩ
ĠØ³ÙĪØ³ÛĮ Ø§ÙĦ
ĠØªØŃ Ø±ÛĮØ±
ÛĮ Ø§ÙĨ
ĠÙħØ¹Ùħ Ø§ÛĮÛĮ
ĠÙĩØ¬ Ø¯ÙĩÙħ
ÙĪÚ© Ø±
ĠØ¨ Ø²ÙĨ
ĠØ§ÙĦ Ø±
ĠÙĨ Ø§Ø¯ÛĮ
ĠÙĦØ´Ú© Ø±Ú©Ø´ÛĮ
ĠØ¢ Ø´ØªÛĮ
ĠÛĮ Ø§ÙĦ
ĠØ® Ø´ÙĨ
Ú¯ Ø±Ø§Ùģ
ĠØ±ÙĪ Ø¨Ùĩ
ĠÙĨÙĪ Ø´
ĠØ´ÙĨØ§ Ú¯Ø±
ĠØ§Ø¨Øª ÙĦØ§
ĠØŃØ§ÙħÛĮ Ø§ÙĨ
Ġc i
ĠØ®ÙĪ Ø§ÙĩÛĮ
ĠØªØ±Ú© ÙħÙĨØ³ØªØ§ÙĨ
ĠÙĪØ§Ú© Ø³ÙĨ
ĠØ± Ø§Øª
ĠÙĨÙĪ Ø³Ø§ÙĨ
s o
ÙĪÚ© Ø§Ø³Øª
ĠÙĦ Ø§ÛĮÙĨ
ĠØµÙģ ÙĪÛĮØ§ÙĨ
ĠØµ Ø§Ùģ
Ġm f
ĠØªØ¨Ø¹ÛĮ Ø¶
ĠØ¯Ø± Ø³ÛĮ
ĠÙħ Ú©Ùĩ
ĠÚ© ÙĪØ±ÛĮ
ĠØ³ Ú©Ø³
ĠØªØ± Ø³ÛĮÙħ
ĠØ´Ø®Øµ ÛĮØªÛĮ
ĠÙħØ±ÛĮ Ø®
ĠØ®ÛĮ Ø§Ø¨Ø§ÙĨÛĮ
ĠÚ©ÙĨØ³ØªØ§ÙĨ ØªÛĮÙĨ
ĠÙĪÙĨÚ©ÙĪ ÙĪØ±
ĠØ¨Ø§ÙĦ ÙĤÙĪÙĩ
ĠØ¬ ÛĮØ±
ĠÙħÙĪÙĤ Ø¹
ĠØ¨ÙĪÙħÛĮ Ø§ÙĨ
ĠØªÙĨ Ø§Ø³
ĠØ³ÙĦØ§Ùħ ØªÛĮ
ĠØªØ² Ø¦ÛĮÙĨ
ĠØ¬ÙĦØ³ Ø§Øª
ĠÙħØ³ØªØ¹ ÙħØ±Ùĩ
y a
Ú© Ø§ÙĨÛĮ
ĠØ¨ Ø¨
ĠØ§Ø³ØªØ±Ø§ ØŃØª
ĠØ³Ø¨ Ø²ÛĮ
ĠØ§ÙĦÙĩ Ùĩ
Ø§Ø¦ ÛĮÙĦ
ĠÚ©Ø§Ø± Ú¯Ø±ÛĮ
ĠÙĩÙģ Ø¯ÙĩÙħ
ĠÚĺÙĨØª ÛĮÚ©
ĠÙħ Ú¯Ø±
ĠÚ© ÛĮØ±
ĠØªØ¨ Ø§Ø¯ÙĦ
ĠØ³ÙĨ ÙĨØ¯
ĠØ§Ø®ØªØµ Ø§Ø±
ĠÚ©Ø§Ø±Ø§Ø¦ÛĮ Ø¨
ĠØ§ØŃ Ø³Ø§ÙĨ
ĠÚĨ Ø³Ø¨
ter n
ĠØ±Ùģ Ø§Ùĩ
ĠÚ©Ø§Ø± ÙħÙĨØ¯Ø§ÙĨ
ĠÚ©Ø§ÙĦ Ø§ÙĩØ§ÛĮ
ĠÙħØ±Ø³Ø¯ Ø³
ĠØª Ø§ÙħÛĮ
ĠÙĪÙĦØ§Ø¯ÛĮ ÙħÛĮØ±
ĠØ§ÙĨØ¯ Ú©
ĠÚ¯Ø± ÙĨØ¯
ÙĤ Ø§ÙĨÛĮ
ĠØ§Ø³ Ø§ÙħÛĮ
in d
ĠØ¬Ø§Ùħ Ø§Ø¦
ĠÙĩØ§ Ø´Ùħ
p p
ĠØ§Ø³Øª ÙĨØ§Ø¯
ĠØ¨ÛĮ ÚĨ
ĠÙ¾Ø± ÙĨØ³
ĠØ§Ø±Ø² Ø´Ùħ
ĠØ« Ø§ÙĨ
ĠÚ¯Ø²Ø§Ø± Ø´ÛĮ
Ġi f
Ø§Øª ØŃ
ĠÛĮÚ© Ø´ÙĨØ¨Ùĩ
ĠÙħØª ÙĤ
ĠÛĮ Ùģ
Ġr u
ĠÙĨÚĺ Ø§Ø¯ÛĮ
Ø³ Ø§ÙĦÙĩ
ĠØ¯Ø§ÙĨÙħØ§Ø±Ú© ÛĮ
Ġm al
ut e
ĠØªØ±Ø§ Ú©ØªÙĪØ±
i us
ĠØ¹Ø¯ Ø¯ÛĮ
ĠÙħÛĮÙĦ Ùĩ
ĠØ±Ùħ Ø¶Ø§ÙĨ
ĠØ¢Ø¯Ø§Ùħ Ø²
Ø¨ Ø§ÙĤ
ÙģØª Ú¯ÛĮ
ĠØ§Øµ Ø§ÙĦØª
ĠÙĨ Ø§Øµ
ĠÙ¾Ø¯Ø± Ø¨Ø²Ø±Ú¯
ĠÙħØªØ¹ Ø§ÙĤ
ĠØ±ÙĪ Ø§ÛĮØ§Øª
ÙĪØ´ ÛĮÙħØ§
ĠÙħØ³Ø§ÙģØ± Ø§ÙĨ
ĠØ¹ Ø§Ø¬
ĠØ¢ Ø±Ø¯
ĠÙħÙĪ Ø¶Ø¹
ĠÙģ Ø¯
ĠØ¨ÙĦ ÙĨØ¯ÛĮ
ĠÚ©Ø§Ø± Ø§ØªÙĩ
b n
ĠÚ©ÙĪ ÙĪÛĮØ¯
ĠØŃØ¬ Ø§Ø¨
Ùģ ÙĪÙĨÛĮ
ĠÙĨÙĪØ´ÛĮØ¯ ÙĨÛĮ
ĠØ¢Ùħ Ø§Ø²ÙĪÙĨ
ad a
ĠØ¢Ø´ ÙĪØ±ÛĮ
Ġs am
Ġn at
ĠÙ¾Ø±ÙĪ Ø³
Ġpro f
ĠØªØ´ Ø¯ÛĮØ¯
ĠÙĩØ³Øª ÛĮÙħ
ĠÙĨØ¹ ÙħØª
ĠÚĨÙĩØ§Ø± Ø¯ÙĩÙħ
ĠØ®ÙĪØ§Ùĩ ÛĮÙħ
ĠÙĨØ±ÙĪ ÚĺÛĮ
ĠÙĨ ÛĮÙĨ
ĠÙħØŃ Ø§Ø³Ø¨
og le
ĠØ±ÙĪÙĨ Ø§ÙĦØ¯
ĠÙħØºÙĪÙĦ Ø³ØªØ§ÙĨ
ĠÛĮÙĩÙĪØ¯ ÛĮØª
ĠÛĮÙĪØªÛĮ ÙĪØ¨
y r
ĠØ¢Ø±Ø§Ùħ Ø´
ĠØ¨Ø§Ø² ÙĨ
ĠØ¢Ø± Ø§ÙħÛĮ
ĠØ¢ Ø¬Ø±
ĠØ§Ø¬ Ø§Ø±Ùĩ
ĠØ§ÙĦÛĮ Ø§Ùģ
ĠØ¯ÙĪ Ø¨ÙĦ
Ø§ÙĨØª ÛĮÚ©
ĠØ³ÙĪ Ø§Ø¨ÙĤ
ĠÙĦ Ø§ÙħÙ¾
Ġe g
ĠØ³Ùģ Ø§ÙĦ
ĠÙĪØ§ÙĦ ÙĨ
Ùħ Ø§Ø³
ĠÚ¯ Ø³
ĠØ¨Ø§ Ø³
ĠØ¨Ø§Ø² ÙħØ§ÙĨØ¯
Ø§ÙĤ Øª
ĠÙħØ´Ø§Ø¨Ùĩ ÛĮ
ĠØ§ Ø±ÛĮ
Ġs im
ĠØ´Ø± Ø§Ø¨
ĠØªØŃ ÙĦÛĮÙĦÛĮ
ur y
ĠØ¶Ø® Ø§ÙħØª
ĠØ¢Ø± Ø§ÛĮØ´
ĠØªØ¹Ø·ÛĮÙĦ Ø§Øª
Øµ Ø¯ÛĮ
ĠØ±ØŃ ÛĮÙħ
ĠÚ©ÙĦ ÙĪØ¯
Ġp d
ĠØ³ÛĮ Ø²Ø¯Ùĩ
ĠØ±ÛĮØ§ Ø¶
ĠÙģØ¶ Ø§ÙĩØ§ÛĮ
l a
ĠØ¯Ø± ÙĩÙħ
ĠÚ¯Ø°Ø± Ú¯Ø§Ùĩ
ÙĨØ§ Ø³ÛĮ
ĠØ§Ø®ÛĮØ± Ø§
ĠØ§Ø±Ø² Ø§ÙĨ
ĠØªØ± Ø§ÙĨØ³
ĠØ®Ø² Ø§ÙĨÙĩ
ĠØ§Ø³Øª Ø§ÙĦÛĮÙĨ
Ġm ich
ĠØ§ÙĦ Ú¯ÙĪ
ĠÙħØ¬ Ø±ÙĪ
ĠÙĩ Ø§Ø±Ø¯
ĠØ§ÛĮØ³Øª Ø§Ø¯Ùĩ
ĠÙĨÙ¾ Ø§ÙĦ
ĠÙĪÛĮÙĦ Ùĩ
ĠÙħØ¯ÛĮØ± Ø¹
ĠÙħ ÙĪÙħ
ĠØ§ÙĪ Ø²
ĠØ´ÙĨØ§ ÙĪØ±
ĠÙħØ±Ø§ Ø¬Ø¹
ĠÚĺØ± ÙħÙĨ
ĠØ¢ÙĨØ§Øª ÙĪÙĦÛĮ
ĠØ³ÙĨÙĨØ¯ Ø¬
ĠØªÙĪ Ø¬ÛĮÙĩ
ĠÙħØ³ Ø¯ÙĪØ¯
ĠÙħÙĨØ´ ÙĪØ±
Ø´Ú© Ø§Ø±ÛĮ
Ġgo ogle
ĠØ¨Ø§ ÙĤØ±
Ġp an
Ġm s
ĠÙ¾Ø±Ø§Ú© ÙĨØ¯Ú¯ÛĮ
ĠÙĩÙĪÙĦ ÙĪÚ©Ø§Ø³Øª
ÙĪØ±ÛĮ ÙĪ
ĠØ§ÙĪÙĦ ÙĪÛĮØª
ĠØª Ø®ØªÙĩ
ĠÚ¯ ÙĪÛĮÛĮ
ĠÙħÙĨØ§Ø· ÙĤÛĮ
ĠØ±Ø³Ø§ÙĨØ¯ ÙĨ
Ø® ÙĪØ§ÙĨ
Ġd at
ĠØ³Ø± ÙĨØ´ÛĮÙĨ
ĠØ¯Ø¨ÛĮØ± Ú©ÙĦ
ĠØ¯ Ø´ØªÛĮ
ĠÙħÙĦ Ø®
ĠÙħØ³ Ùħ
ĠØ± ÙĨÙĪ
ĠØª Ø§Ø³
ĠØº ÙĨØ§
Ġo s
ĠÙħØŃØ± ÙĪÙħ
Ø·ÙĪ Ø¨Øª
ĠØ¨Ø± Ù¾Ø§ÛĮÙĩ
ĠÙĩ ÙĦØ³
ÙĩØ± Ø§ÙĨÛĮ
ĠÙħØ§Ø± Ù¾ÛĮ
ĠÙħØµ Ø§Ø¯
ĠÙħØ¬ Ø²Ø§
ĠØ´Ø¬Ø§ Ø¹
ÙĪ ÛĮÙĨÛĮ
ĠØ± Ø·ÙĪØ¨Øª
Ùħ ÛĮØ¯
ĠÙ¾ Ø§ÙĪØ±
Ø§ØªÛĮ ÙĪ
ÙĪØ± Ø«
ĠØ´ÛĮ ÙĪØ¹
Ġbl ack
ĠÙĩÛĮ ÙĪØ³ØªÙĪÙĨ
ĠÚ©Ø§ÙħÙ¾ÛĮ ÙĪØªØ±ÛĮ
ĠØ® Ø§Ø³Øª
ĠØ¹Ùħ ÙĦØ§
ĠØªØ¹ÙĪÛĮ Ø¶
Ġa k
ĠØ¨ Ø§ÙĨÛĮ
ĠÙħÙĪØª ÙĪØ±ÛĮ
ĠØ¢Ø¨ÛĮ Ø§Ø±ÛĮ
ĠØªÙĪØ± Ø¨ÛĮÙĨ
ĠØ±Ø£ Ø³
ĠÚ©ÙĪ Ù¾Ø±
Ġpar t
ĠØ§Ø³Øª ÙĪØ§Ø±
ĠØ¨Ø±ÛĮØª Ø§ÙĨÛĮØ§ÛĮ
Ġy ou
ĠÙħØ§Ø² ÙĨØ¯Ø±
ÙĪÙħ ÙĪØªÛĮ
ĠÙĩØ¬ ÙĪÙħ
ĠØ¢ÙĨ Ø§ÙĦÛĮØ²
ĠØ±ÛĮ ÙĪØ±
Ø±ÙĪØ´ ÛĮÙħÛĮ
ĠÙħØ±Ø§Øª Ø¨
ĠÚ¯ Ø¦
ĠØ§Ø®ØªÙĦØ§Ùģ Ø§Øª
ĠØ¯Ø± ÙħÛĮ
Ġmuse um
ĠÙĨ Ø¯Ø§Ø¯
ĠØ±Ú© ÙĪØ±Ø¯ÙĩØ§ÛĮ
ĠØ¹ ÛĮØ¯
ĠÙħØ¬ Ø§
es e
ĠÙĪÛĮ ÙĪÙĦÙĨ
ÛĮ Ø³Øª
Ġt a
ĠÙħØ§Ø¬ Ø±Ø§
ĠØ®Ø§Øª ÙħÛĮ
ĠÙħØ§Ø²ÙĨØ¯Ø± Ø§ÙĨÛĮ
ĠÙ¾Ùĩ ÙĦÙĪ
ĠÙĨØ§Ù¾ Ø¯ÛĮØ¯
ĠØ¨Ø± ÛĮÙĨØ²
ĠØ¯Ø± ÙĨ
Ú© ÛĮÙĨØ²
it al
ĠÙħØŃØ§Ø³Ø¨ Ø§ØªÛĮ
ĠØ¬ Ùģ
Ġp s
ĠØ³ÙĪØ² Ø§ÙĨ
ĠÙĩÙħ ÛĮÙĦØªÙĪÙĨ
ĠÙħØ® Ø±ÙĪ
ĠØ´Ø§ÛĮ Ø³ØªÚ¯ÛĮ
ĠÙħÛĮØ¨ Ø§Ø´Ø¯
ĠÚ©Ø§ÙĨØª ÙĪÙĨ
ĠÙħÙĦ ÙĤØ¨
ĠØ´ ÙĪØ´
Ġa z
ĠÙĨØ¨ÙĪØ¯ ÙĨØ¯
ar s
Ø§Ú¯ Ø§Ø³
ĠÙ¾ÙĦØ§ Ø³ØªÛĮÚ©
ĠÙħØ§Ø¬Ø± Ø§ÙĩØ§ÛĮ
ĠÙħØ¨Ø§ØŃ Ø«
ÙĪÙĦÙĪ ÚĺÛĮÚ©
Ùģ Ø³ÛĮ
ĠÚ©Ø± ÙĨ
ÙĪÙĦ Ø§Ø±
Ġp at
ĠÙħ ÛĮÙĨØ§
ĠØ¬Ø¨Ø± Ø§ÙĨ
ĠØ±ÙĪ Ø¨
ĠØ³ÛĮ Ø§ÙĦ
Ġh a
Ø¨Ø± ÙĨ
ÙĨØ¯Ùĩ Ø§
ĠØ§Ø´Ú© Ø§ÙĨÛĮ
ĠÙĨ ÛĮÙĨØª
ĠÚ¯Ø± Ø§Ø¯
ĠØ±ÛĮ Ø´
ĠÙģØ§Ø± Ø³Øª
ĠØ¯Ø± ØŃØ§ÙĦ
ĠØ³ Ø¨Ø§
ĠØ§ÙĤÛĮØ§ÙĨÙĪØ³ÛĮ Ùĩ
Ġmar k
ĠØ±ÙĪØ´ÙĨ Ø§ÛĮÛĮ
ĠØ¯ÙĪÛĮ Ø³Øª
Ø® Ø¯Ø§
ĠÙħÛĮÙĦ Ø±
ĠÛĮÙĪÙĨÛĮÙĪØ±Ø³ÛĮ Ø§Ø¯
Õ¸ ÖĤ
ÙĪØ¦ ÙĨ
ĠØŃØ¶ Ø±Øª
ĠØ¹Ø¶ ÙĪÛĮ
ĠÙħØ¬Ø§Ùĩ Ø¯ÛĮÙĨ
ĠØªØµ ÙĨÛĮÙģ
ĠØºÙĦØ§Ùħ Ø±Ø¶Ø§
Ø® Ø´ÛĮ
Ø±Ø³ ÙħÛĮ
ĠÙĤØ¨Ø± Ø³ØªØ§ÙĨ
ĠØ§Ø± Ú¯Ø§ÙĨ
ĠÚĨ Ø´
ĠØ¨ÙħØ¨ Ø§Ø±Ø§ÙĨ
Ø³Øª ÙĪÙĦ
ĠÙħÚ© Ø²ÛĮÚ©ÛĮ
ĠØ¢ÙĦÛĮ Ø³
ĠÚ¯ ÙĪØ±Ø¯
ĠÚ¯Ø±Ø§Ùģ ÛĮÚ©ÛĮ
ĠÙħØ¬Ø§ ÙĪØ±Øª
ØŃ Ø¯
ĠØªØ¯ Ø§Ø±Ú©
ĠÚ©Ø§ÙĨØª Ø±ÛĮ
Ø± Ø§ÛĮÛĮ
ĠÙĪØ¶ÙĪ ØŃ
ĠÙĪØ§ÙĤØ¹ Ø§
ĠÙħØªÙģÙĤ ÛĮÙĨ
ĠØªØ§ Ø¬Ø±
ĠØ§ÙĦÚ©ØªØ± ÙĪÙħ
ĠØ®ÙĨ Ø«ÛĮ
ĠØ¯ ÙĪÙĨÚ¯
Ġd ay
Ġdistr ict
ĠÙĨØŃ ÙĪÛĮ
ĠØªÙĤØ§ Ø¶Ø§ÛĮ
ĠØ§ÙĨ ØµØ§Ø±ÛĮ
ĠÙģÙħÛĮÙĨÛĮ Ø³Øª
ĠØ®ÙĪØ§ÙĨ ÙĨØ¯Ú¯ÛĮ
ĠØ¨ ÛĮØªÛĮ
ĠÙħØ¬ ØªØ¨ÛĮ
Ùħ Ø²Ø¯
ĠÙĦØ§Ø± ÙĨØ³
Ø§Ø¯ Ø±ÛĮ
ĠØ§Ùģ Ø´
ĠØ§ÛĮÙĨ ÙĩØ§
ĠØ¹ÙĦ Ø§ÙħÙĩ
ĠÛĮ ÙĪØ±Ø´
ĠØ±Ø³ Ø§ÙĨØ¯Ùĩ
ĠØ®Ø· Ø§
Ġk r
ĠÚ©Ø±ÙĪÙħ ÙĪØ²ÙĪÙħ
ĠØ±ÙĪÙħÛĮ Ø§ÙĨ
ĠØ¯ÛĮÙĪ Ø§Ø±ÙĩØ§ÛĮ
ĠØµ Ø¨Ø§
Ø¸ ÛĮ
ĠØª ÛĮØ²
us h
Ġ æ
ĠØ±Ø³ ÙĨØ¯
Ø§ÙĨØ¯ Ø±Ø§
ĠØ´ÙĩØ±ÛĮ Ø§Ø±
z a
Ø§Ùĩ ÙĨ
ĠØ¨Ø§Ø± Ø´
ĠÙĦ Ø§Ø³Øª
ĠÛĮÙĪ Ø´ÛĮ
ĠÙħÚ©Ø± Ø±
ĠØ· ÙĨØ§Ø¨
Ùħ Ú©ÙĨ
ĠØ¯ÙĦ Ø§Ø±ÛĮ
ĠÙĦØ· Ùģ
ĠØ¨ ØªØ§
ĠÚ© Ø³Ø±
ĠØºÛĮØ± Ø±Ø³ÙħÛĮ
ĠÚ©ÙĪØ¯ ØªØ§
ĠØŃÙĦ Ø§ÙĦ
ĠØ§ÙĨÚ¯ ÙĪØ±
ĠØ§ÙģØ² ÙĪÙĨ
an o
ÙĦ Ø¦
ĠØ§Ùģ ÙĤÛĮ
ĠØªÙĦ Ùģ
ĠÙĨØ´Ø±ÛĮ Ø§Øª
ĠØ¯Ø³Øª Ø§ÙĪØ±
ĠØ®ÙĪ Ø§ÙĨÛĮ
Øª ÙĪØ³
m s
ĠÚ©Ø§Ø± Ø´
ĠØ±Ø§ Ø²ÛĮ
ĠÙĨÛĮÙĨØª ÙĨØ¯ÙĪ
er y
ĠÚĨÙĩØ§Ø± Ø´ÙĨØ¨Ùĩ
ĠØ§Ø³ØªØ±Ø§Øª ÚĺÛĮÚ©
ĠØ¹ÙĦ Ùģ
ĠØŃØ³ Ø¨
ĠØ¨Ùĩ Ø±ÙĪØ²
ĠÙĤØ¶Ø§ ÙĪØª
ĠØªØ± ÙĨØ³
ĠØ³ÙĪ Ø§Ø¯
ĠØ¯ÙĪ Ø´
ĠÚ¯Ø°Ø§Ø± ÙĨØ¯
ĠÙħ Ø§ÙĦØª
Ġ ut
ĠØ§ Ú¯
ĠÚĺ ÙĪ
et h
ĠØªÙĦ Ø³Ú©ÙĪÙ¾
ĠÙĩ ÙĪØ³
Úĺ ÙĪ
ĠÚ© Ø¬Ø§
Ø¦ ÛĮÙĨÛĮ
ÙĪ Ø·ÛĮ
ĠÙĤ ÙħØ±
ĠÙħØ±Ø¯ Ú¯Ø§ÙĨ
ĠØ¯ÛĮØ¯ ÙĨÛĮ
Ù¾ ÙĪØ±Øª
Ø²ÛĮ ÙĪ
Ø¸ Ø±ÛĮ
ĠØ² Ø§ÛĮÛĮ
ĠØ§Ø³Øª Ú©Ùĩ
Ġ ic
ĠØ¨ Ø¨Ø±Ø¯
Ø¯Ùĩ Ø§ÛĮÛĮ
ĠØ´ ÛĮÙĦ
ĠÚĨ Ø§Ø±Øª
ĠØ´ ÙĪÙħ
ĠØ¨Ø§ ÙĤ
ĠØªÙĤØ±ÛĮ Ø¨ÛĮ
ÙĪ ÛĮÚ©
ĠÚ¯ ÙĦÙĩ
Ġcon t
ĠÙģ Ø®Ø±
ĠØ¨Ø± Ú¯Ø±Ø¯Ø§ÙĨ
ĠÙħÙĨ Ø´ÛĮ
if ic
ĠØ±Ø§ Ø³ØªÙĩ
ĠÚ©ÙĪ Ù¾
al s
ĠØŃ ØµØ§Ø±
ĠÙħØ§Ø¯ Ø§Ú¯Ø§Ø³
ĠØ®Ø¨Ø±ÙĨÚ¯ Ø§Ø±
ĠØ±Ø§Ú¯ Ø¨ÛĮ
ĠÙĪ Ø§Ø±ÛĮ
ur es
Ġamer ican
Ø¨ ÙĨØ¯ÛĮ
Ú¯ Ø´Ø§ÛĮÛĮ
ip al
i or
ĠÚ©ÙĦ Ø³ÛĮÙħ
ĠØªØ± ÛĮÙĦ
ĠØ§ÙĨ Ø³Øª
ĠØ§Ø³ØªØ± Ø§ÙĦÛĮØ§ÛĮ
ĠØŃØ´ Ø±Ùĩ
ØŃ Ø§Ùģ
ĠØŃØ³Ø§Ø¨ Ø¯Ø§Ø±ÛĮ
ĠØ¨Ø§Ø²ÙĨØ´ Ø³ØªÚ¯ÛĮ
ĠØ±Ø¶ Ø§Ø´Ø§Ùĩ
z e
ĠÙħØª Ø§Ø¨
ĠØ§ÙĨ Ø·
ĠØ³ÙĦØ¬ÙĪ ÙĤÛĮØ§ÙĨ
ĠÙĦ ÙĪÙħ
ĠØªÙĪÙĦÛĮØ¯ Ø§Øª
Ġv ir
ÙħØ± Ø¯Ùĩ
ĠØ¬Ø§ ÙĪØ§
ÙĪØ±ÛĮ Ø³
ĠÛĮÙĪÙĩ Ø§ÙĨ
ĠØ§Ø± Ø«
ĠØ§ÛĮÙĨ Ú¯ÙĪÙĨÙĩ
ÙĦ Ú©
ĠØ±Ø§ ÙĪÛĮ
ĠÙħØ² ÛĮØª
ĠÚ©Ùħ Ú©ÛĮ
ÛĮÚ© Ø§ÙĨ
ĠÙħØ´Ø®Øµ ÛĮ
at or
Ġcol le
ĠØ¯ ÛĮØ§
ĠØ§ÛĮÙĨ Ø¯
ĠØ¨Ø§ÙĦ Ú¯Ø±Ø¯
ĠÙħØ´Ø®Øµ Ùĩ
ie v
ĠØ³ÙĤ Ø·
ĠÙħÙħÙĨÙĪ Ø¹ÛĮØª
ĠØ¢Ùħ Ø³Øª
ĠÙ¾Ø§ÙĨ Ø²Ø¯Ùĩ
ĠØŃÙĪ Ø¶
ĠÙ¾ÛĮØ´ÙĨÙĩ Ø§Ø¯ÛĮ
ĠØ¯ Ø§Ø¨
ĠÚ©Ø§Ø± Ú¯ÛĮØ±ÛĮ
Ġst re
ĠØ®Ø±Ø§ Ø´
Ú©Ø§Ø± Ø§
ĠØ¨Ø¨ÛĮÙĨ ÛĮØ¯
ĠØ§Ø³ØªØ¹Ø¯ Ø§Ø¯
ĠÙĨ Ø²
ĠØ¢ÙĩÙĨÚ¯ ÛĮ
ĠØ¨Ø±ÙĪÚ© ÙĦÛĮÙĨ
ĠØ¹ Ø§Ø·
ÛĮØ§ ÙģØª
ĠØ´ ØºÙĦÛĮ
ĠØ¢Ø¯ Ø§Ø¨
ĠØ§Ùģ Ø±Ø§
ĠØ¨ÙĪØ¦ ÛĮÙĨÚ¯
ĠØ¯ÛĮÚ© Øª
ĠØ³ÙĨØ¬ Ø´
ĠÙħØ¸ ÙģØ±
ĠØ¢ ÛĮØ²
ĠÙģÙĤ ÛĮØ±
ĠÙħØ§Ø³ Ùĩ
ÙĪ Ú¯ÙĪ
ĠÙĦ Ø§Ø±ÛĮ
av e
ĠØ³Ùħ ÙģÙĪÙĨÛĮ
ĠØ± Ø¨ÛĮ
ĠÙĩÛĮ ÙĪÙĨ
Ø± Ø§Ø±ÛĮ
ĠÙģØªØŃ Ø¹ÙĦÛĮ
ĠÙħØ®ØµÙĪØµ Ø§
ĠÙģ Ø±ÛĮØ¨
ĠÚ¯ ÙĪØ³Ùģ
Ø¨ Ø§Ø²ÛĮ
ĠØŃ ÛĮØ§Ø·
ĠÙħÙĨ Ø³ÙĪØ¨
ĠÙĨÛĮ ÙĪÙĩ
Ø³ Ø§ÙĦÛĮ
ĠØ· Ø§Ùĩ
ĠØ¢Ø± ÙĨ
ĠÙĦ ÛĮÙĨØ¯
ĠØ¢Ø² Ø§Ø¯Ú¯Ø§ÙĨ
ĠØ´Ø¹ ÙĦÙĩ
ĠÙħÙĪØ± Ø®Ø§ÙĨ
Ġfir st
ĠØ®Ø§Ø³Øª Ú¯Ø§Ùĩ
ĠØ§Ø³ Ø§Ø±Øª
ĠÙĩÙĨØ¯ Ø³ÛĮ
ĠÙģØ± ÙĨ
ĠÙģØ¶Ø§ÙĨÙĪØ±Ø¯ Ø§ÙĨ
ĠÙĪØ± ÙħØ§
ĠÚ©ÙĪØ¦ÛĮÙĨ Ø²
ĠÙħØ´Ø§ ØºÙĦ
ĠØ¨ÙĪ Ø³ÛĮ
ĠØµØ§Ø¯ ÙĤÛĮ
Ġon e
ĠØµØ± ÙģÙĩ
ĠÙĦÛĮ ØªØ±
Ùħ Ø§Ùħ
Ġp ap
ĠØ¨Ø± Ø¯Ø§Ø´ØªÙĩ
ĠÙħÙĪØª ÙĪØ±Ùĩ
ÛĮØ± Ø²
ĠÙħÙĪØ³ÛĮ ÙĤ
ĠØªØ§ÙĦ Ø§Ø¨
ĠÙĩ Ø±ÛĮØ³
ĠØ¨ÙĦ ÙĪØ²
Ð ²
ĠØªØ± Ø§Ø²
Ø¢ ÙĦ
ĠÙħØ¨ Ø§Ø±Ú©
ĠÙħØ®Ø§Ø· Ø¨Ø§ÙĨ
Ġt om
Ġm os
ĠØ§Ø±ÙĪ Ø§ØŃ
ĠÙ¾ ÙĪØ¯
ĠØ³Ø± Ø³
ĠÙħØ§Ø¯Ø§Ú¯Ø§Ø³ Ú©Ø§Ø±
Ġv ar
ÙĪÛĮØ³ Ø§ÙĨ
ĠØªÙĪÙ¾ Ø®Ø§ÙĨÙĩ
ĠØªÚ©ÙĪØ§ÙĨØ¯ ÙĪ
ĠØº Ø²Ùĩ
Ġa ug
Ġpro ject
ĠØ¨ØŃØ± Ø§ÙĨÛĮ
ĠØ´ÛĮØ± ÛĮÙĨÛĮ
Ġb el
ĠØ±Ø¨ Ø§Ø·
ĠÙĩÙĪØ± ÙħÙĪÙĨ
ĠØ§Ù¾ÛĮØ² ÙĪØ¯
Ø§Ø¯ ÙĨ
ĠØµ ÙģÛĮ
ĠÙģÙĦ Ø§Øª
ĠØ¨Ø§ÙĨ ÙĪÛĮ
ĠØ§Ø³Ø¨ Ø§Ø¨
Ġan g
ĠØŃÛĮ Ø§ØªÛĮ
Ú¯Ø§ ÙĪØ§
ð Ĳ
ĠÙħØªÙĨ Ø§Ø³Ø¨
ĠØ¬ Ø§Ø¨Ùĩ
ĠØ³ÛĮ Ùģ
Ġg h
ÙĨ Ø§ÛĮÛĮ
Ùħ Ø§Ø±ÛĮ
ĠÙĨØ´ Ø³ØªÙĩ
ĠØ§Ø³ØªÚ©Ùĩ ÙĦÙħ
ĠÙĤ Ø±ÛĮØ¨
ĠØ§ÙĦ Ø§Ø³
an i
ĠØ¬ÙĨØ³ÛĮ ØªÛĮ
c es
ĠØ¢Ø± ØªØ³
ĠÙĤ ÙħÛĮ
ĠÙĦÙĪÚ© ÙĪÙħÙĪØªÛĮ
ÙĪØ³ Ø§Ø²ÛĮ
ĠØ¢Ø± Ø²
ĠØ§ Ø¨Ø¯
c c
ØŃ Ø§ÙĤ
ĠÙħÙĨ Ø²
ĠØ®Ø² ÙĨØ¯Ú¯Ø§ÙĨ
ĠÚ¯ Ø§Ø¨Ø±
ĠÚ¯ÙĪ Ø³Øª
Ġg old
ĠØ±ÙģØª Ø§Ø±ÙĩØ§ÛĮ
ĠØ¬Ø³ ÙħÛĮ
ĠØ¨Ø§ Ø¨ÛĮ
Ø§Ø±ÛĮ Ø¯
ĠÙ¾ÙĨ ÛĮØ±
ĠÙĪØ± ÙĤ
Ġv an
ĠØ¨ ÙĪÙĩ
ĠØ¨Ø§Ø² ÙħØ§ÙĨØ¯Ùĩ
Ġr a
Ø² Ø´
ĠØ® ÙĦÛĮÙĦ
ĠÙ¾ÙĪ Ø³ØªÛĮ
ĠØ³Ø§ÙĨ Ø§ÙĨ
ĠØ¢ÙĨ Ø±Ø§
ĠÙ¾ Ø§Ø±Øª
ĠØ¨Ø± Ú©ÙĦÛĮ
ĠÙģØ±Ø¯ Ø§
ĠØ¨Ø§Ø´ ÛĮØ¯
Ġstat es
Ġ ×
ĠØ¢ Ø¬
Ġs i
ĠÙĦÙĪÚ© Ø²Ø§Ùħ
ĠÚ©Ø´ÙĪØ± ÙĩØ§ÛĮÛĮ
ĠÙĪÛĮÙĦ Ø§
ĠØ·Ø¨ÙĤ Ø§Øª
ĠØ¢ÙĦ Ø§Øª
ĠØ® ÙĦØ§ÙĦ
ĠØ§ÙĤ Ø¨Ø§ÙĦ
ĠØ§Ø¬Øª ÙĨØ§Ø¨
ĠÚ©Ø§Ø± ÙĪÙĦ
Ġm m
ĠÚ© ÙĪØ±Ø¯
ĠØª ÙħÛĮØ²
ĠØŃ ÙĪØ§
ĠØªØ± Ø¨Øª
ĠØ¬Ø¯ Ø§Ø³Ø§Ø²ÛĮ
ÙģØ¹ Ø§ÙĦ
ĠØŃ Ø²
ĠÙģØ±Ø§ÙĨÚ© ÙĦÛĮÙĨ
v d
ĠØ³Ø§ÙĤ Ùĩ
ĠÙĨØ¯Ø± Øª
ĠØ± Ø§ÛĮØ´
ÙĩØ± Ùħ
ĠØªÚ© Ø«ÛĮØ±
ĠØ³Ø±ØªÛĮ Ù¾
ĠØ®ÙĪØ± Ø§Ú©
ĠØª Ù¾
ĠÙĨÛĮ ÙĪÚ©
ĠØ±ÛĮ ÙĦÛĮ
Ġbi ograph
ĠÚĺ Ø±Ùģ
ĠØºÙĦØ§Ùħ ØŃØ³ÛĮÙĨ
ĠÚ¯ Ùĩ
in i
ĠØŃØ¯ ÙĪØ¯ÛĮ
ĠÙ¾Ø±Ø³Øª Ø§Ø±ÛĮ
ĠÚ¯Ø³Øª Ø±Ùĩ
p le
o us
ĠÛĮ Ø§Ø±Ø§ÙĨ
ĠØ´Ú© ÙĪÙĩ
ĠØªØ±Ú© ÙħÙĨ
ĠØ¨Ø´ Ø±ÛĮ
ĠÚ©ÙĪ ÙĦÛĮ
ĠÙħØ¯ÛĮØ±Ø¹ Ø§ÙħÙĦ
m at
ĠÙ¾ÛĮØ± Ø§ÙĩÙĨ
ĠØ³ ÛĮÙĨÚ¯
Ġm as
ĠÚ¯Ø°Ø§Ø´Øª ÙĨ
ĠÙĪÛĮÙĦÙĩ ÙĦÙħ
ĠØ¢Ø±ÚĺØ§ÙĨØª ÛĮÙĨÛĮ
ĠØ±ÙĨØ³ Ø§ÙĨØ³
ØŃ Ø³ÙĨ
ĠÙĨØ§ Ø¸Ø±
ĠØ³ÛĮÙħ Ø§ÛĮ
ĠØ±ÙĪÙĨ ÙħØ§ÛĮÛĮ
ĠÙ¾ÛĮ Ø´ØªØ±
ĠØ³Ø±Øª Ø§Ø³Ø±
ĠÚ© ÙħÛĮÙĨ
Ú© Ø¨ÛĮØ±
ĠØµ Ø¯ÛĮ
ĠØ§ÙĨØŃ ØµØ§Ø±ÛĮ
ĠÙħØªÙĪØ³ Ø·Ùĩ
ĠØªØµØ§Ø¯ Ùģ
i ed
ĠØ¨Ú¯Ø° Ø§Ø±Ø¯
ĠØ´ Ùģ
ĠÙħØ´Ø±ÙĪ Ø·
ÙħØ§ÙĨ Øª
ĠØªÙĨ ÙģØ³ÛĮ
ĠÙĩ ÙĪÚ©
Ú©ÙĨ Ùĩ
ĠØŃ Ø³ÛĮ
ĠÚ¯Ø± Ø§Ùħ
ĠØ² ÛĮÙħ
ĠØ·Ø¹ Ùħ
ĠØ§Ø³ Ø±Ø§Ø±
ĠØ§ÙĪ Ùĩ
ĠÙ¾ÛĮÚ© Ø§ÙĨ
ĠØªÙĤØ¯ ÛĮÙħ
ĠÙħØ³Ø§ ÙģØª
Ø³ÛĮ ÙĦÛĮ
ĠØ¯Ø§ÙĨ ÙĦÙĪØ¯
Ġm il
ĠØ¨ ÙĦÙĩ
ĠØ¢ÙĨ ØªÙĨ
Ø§Ø³ ÙħÛĮ
Ø¢ ÙħÛĮØ²
Ġm or
ĠØ¨ÙĨÛĮØ§ÙĨ Ú¯Ø°Ø§Ø±Ø§ÙĨ
Ù¾Ø± Ø³
Ø¹ Ú©Ø³
ĠÙĦÛĮ Ø²
Ġen d
ĠØ³ Ø¬
ĠÙħÙĪØ± Ú¯Ø§ÙĨ
ĠØ° ÛĮÙĦ
ĠÙĩ Øª
Ġo b
ĠØ±ÛĮØª Ùħ
ĠÙħÛĮØª ÙĪØ§ÙĨ
Ø§ÛĮ ÙĨØ¯
ĠÙĩØ§ ÙĪØ³
ĠØ§Ù¾Ø± Ø§ÛĮ
ĠØŃ Ø§Øª
ĠØ§ÙĦÚ¯ ÙĪÙĩØ§ÛĮ
ĠØ¢ØªÙĦ Ø§ÙĨØªØ§
ĠÙħÙĦ ÙĪØ§ÙĨ
Ġc ast
Ġv iew
ĠÚ¯Ø±ÛĮ Ø²
u x
ĠØº Ø±ÛĮ
ĠØ´ÛĮØ± Ø¬Ùĩ
Ġloc al
ĠÙĩÛĮ ÙĪÙĦ
ĠØ¢ÙħØ³Øª Ø±Ø¯Ø§Ùħ
ĠØ¨Ø§ Ø®
ĠØ±ÙĪØŃØ§ÙĨÛĮ ÙĪÙĨ
gr ess
ĠÙħØ¹Ø§Ø¯ ÙĦØ§Øª
b y
ĠÚ¯Ø±ÙĪ Ú¯Ø§ÙĨ
ĠØ¯ÛĮ Ú¯ÙĪ
ĠÚ© Ø¨Ø¯
ĠØªØ±Ú© Ø§ÙĨ
ĠÙ¾ÙĦØ§ Ú©
ĠÚ© Ø§Ùģ
ĠÚĺ ÙĨÙĪ
ĠØ¬ ÛĮØ³ÙĪÙĨ
ĠØ·Ø±Ùģ ÛĮÙĨ
Ø³Øª ÙħÛĮ
ĠÙĨØ§Ø¯ÛĮ Ø¯Ùĩ
ro p
ĠØ´ ÙģÛĮÙĦØ¯
Ø± Ø§Ùĩ
ĠØªÙĤ Ø§Ø·Ø¹
ĠÙģØ±Ø§Ùħ ÙĪØ´
f l
ĠÙĩ ÛĮÙħ
Ø§ØŃ ÙħØ¯
ĠØ¨Ø§ Ø¯Ø§Ùħ
ĠØ¹Ø´ Ø§ÛĮØ±
ĠØ§Ø³Ùģ ÙĨØ¯ÛĮ
ĠØ¹ Ø§ÛĮÙĤ
ĠÚ©ÙĪ ÛĮØ±
ĠØ¯Ø§ÙĦ Ø§Ø³
Ø³ Ø§ÛĮØª
ĠÙģ ØµÙĦÛĮ
ĠÛĮØ§ Ú©
ĠÙĩØ± ÚĨÙĩ
Ùħ ÛĮÙħÛĮ
ĠØ¬ Ø§Ú©
Ø³Ù¾ ÛĮØ±
ĠØ´Ø¹ Ø±ÛĮ
ĠØ§ÙĤØª Ø¯Ø§Ø±
ĠÚ©Ø§ÙħÛĮ ÙĪÙĨ
ĠÙĤ ÙģÙĦ
ch n
ÙģØ§ ÙĤÛĮ
ĠØ§ØŃ ÛĮØ§ÛĮ
ĠÙ¾Ø±Ø¯Ø§Ø² ÙĨØ¯
y m
Ø§Ø¨ Ø§
ĠØ§ÙĦ Ø§ÙĨ
Ġi p
ĠØ¹Ø¨Ø¯Ø§ÙĦ Ø¹
ĠØ· Ø§ÙĩØ±
ĠØ³Ø® ÙĨØ§ÙĨ
ĠÙħÙĪ Ø²
ÙģÛĮ Ø¹
ĠÙ¾Ø¯ÛĮØ¯ Ø§Ø±
ĠØªØ§ Ø³ÛĮØ³
ĠÙ¾ÙĩÙĦ ÙĪØ§ÙĨ
Ġdav id
ĠÚ© Ø§Ø¯
ĠÙħØ¬ Ø±ÛĮØ§ÙĨ
ĠØ¹ÙĦ ÙĦ
Ġy o
ĠØ¯ÙĪÙĨ ÙĪØ±
ĠØ§Ø³Ù¾ ÙĪØ±
Ġh igh
ĠØ¯ÛĮØ± ÛĮÙĨ
ĠØ¹Ø±ÙĪ Ø³Ú©
Ùģ Ø±ÙĪ
ĠØ¢ÙĨ ØªÙĪÙĨ
ĠÙħØ¬ ÙĦØ§Øª
ĠÙĪØ¨ ÙĦØ§Ú¯
Ø¹ Ø§Ø¨
ĠÙħØ§Ø±ÛĮ ÙĪ
ĠÚ©Ø± ÙĪÙĨ
Ġc e
Ġc s
ĠÙĨØ³ Ø§Ø¬ÛĮ
ĠÙħØ§Ø±Ú© Ø³
ĠÚ© Ø±Ø§Ø³
ĠÙĦ ÙĨØ²
ĠØ³Ø§ ÙģØª
ĠØºÙĦ Ø¨Ùĩ
ĠØ³Ø§Ø¯ Ø§Øª
ĠÙħØª ÛĮÙĦ
ÙĪØ± Ø§ÛĮÛĮ
ĠØ¨Ø§ÙĦ Ø§Ø®
ĠØ³ÛĮØ± ÙĪØ³
ÙĨÚ¯ Ø±ÛĮ
ĠÙħØŃÚ© Ùħ
ĠÙĨ Ú¯Ø§ÙĩÛĮ
ĠØŃ ÙħØ§Ø³ÛĮ
ĠÙ¾Ø±ÙĪØª Ø³ØªØ§ÙĨ
ĠØ±Ø§ Ø¬
Ġc f
ĠÚ¯Ø§Ø² ÙĩØ§ÛĮ
ĠØ¢ÙħÛĮ Ø²ÛĮ
ĠÚ¯Ø± Ø§ÙĨØ¯
ĠØµØŃ Ø±Ø§ÙĨ
Ùģ ÙĪÙĦ
Ġchr ist
ent s
ĠØ³Ø®ÙĨÚ¯ ÙĪÛĮ
ĠØ¬ ÙĪÛĮÛĮ
ĠØ¢ÙģØ±ÛĮÙĨ Ø´
ĠÙģØ± Ø§Ùĩ
Ù¾ Ø³ÙĪÙĨ
ÙħÙĦ Ú©
ĠØ§ÙħÛĮØ± Ú©Ø¨ÛĮØ±
ĠØ¯Ø± Ø§ÛĮ
ĠØªÙĪ ÙĤÛĮ
ĠØ§Ø±ØªÙĤ Ø§Ø¡
al d
ĠØ¢ÛĮ Ø§Øª
ĠÙĨØ§Ø± Ø³
ĠÙ¾ Ø§Ùħ
ĠØ§ÛĮ ÙĪ
ØªØ³ Ø§Ø¨
Ø³ Ø¨ÙĪØ±Ú¯
ĠØ´Ø¹ Ø§Ø¹
ĠÙĪØ±ÙħØ§ Ø®Øª
ul a
ĠØªÙĩØ§ Ø¬ÙħÛĮ
ĠØ¨Ùĩ Ø§Ø¡
Ø§ÙĦ ÙĪÚ¯
ĠØŃÙħ Ø§Ø³Ùĩ
ĠØ³Ø§ÙĨØ³ ÙĪØ±
ĠØ³Ø± Ùħ
Ġr om
ĠØ§ÙĤØªØµØ§Ø¯Ø¯Ø§ÙĨ Ø§ÙĨ
ĠØ³Ø±ÙĪ Ø´
ĠØ«Ø§ÙĨ ÙĪÛĮÙĩ
ĠØ¨ÛĮØ± Ùħ
ĠØ³ÙĦ ÙħØ§ÙĨ
ĠØ®Ø§Øª ÙħÙĩ
Ġs en
ad es
ĠØ´Ú©Ø³Øª ÙĨ
ĠØ¨ ÙĪØ±Ø¯
Ú©Ø± Ø¯ÙĩØ§ÛĮ
ĠÙħØ±Ø¯ Ø§ÙĨÙĩ
ĠÙħØ· Ùħ
ÛĮ Ø¹
Ø² Ø§Ø¯ÛĮ
Ø¨Ø±Ø¯ Ø§Ø±
ĠÙ¾ÙĨ Ø§ÙĦØªÛĮ
Ġm em
ĠØ¨Ø³ÛĮ Ø¬
v ille
if t
g a
ĠØ§ÙĨ Ú©Ø§Ø±
ĠØ¹ÙĨÚ©Ø¨ ÙĪØªÛĮ
ÙĪÙĨ Ø²
ĠØ§ÙĦ ÙĨÙĩ
Ú¯ÛĮÙĨ Ø§ÙħÙĩ
ĠÙħÛĮ ÙħÙĪÙĨ
ĠØ®ÙĪØ¯Ø±ÙĪ Ø³Ø§Ø²ÛĮ
Ġwill iam
Ġmun ic
ĠØŃÛĮØ¯ Ø±ÛĮ
ĠØ¨ Ø¯ÙĩÛĮ
ĠÚ©Ø§Ø± Ø§
Õ ¶
ĠØ² Ø§Ø¦
ĠØªØŃÙĪÙĦ Ø§Øª
ÙĪÙħ ÙĪ
ĠØ¨Ø±Ø§ÛĮ Ø´
ĠÙħØ¬Ø±ÙĪ ØŃ
ĠØ±Ø§ Ú©Øª
ÛĮØª Ø³
ĠÚ©Ø´ Ùħ
ĠÙĨØ´Ø§ÙĨ Ú¯Ø±
Ġt em
ter s
ĠÙĤ ÙĪÚĨ
it s
Ġpr es
ĠÙĪØ§Ú¯ ÙĨ
ĠØ° ÛĮ
ĠØªØ¬ Ø³Ùħ
ĠØªÙģ ÙĦÛĮØ³
ĠØ§Ø³ØªÙĨ ÙĦÛĮ
ĠØ¯Ùĩ ÙĤØ§ÙĨ
ĠÙĨÛĮÚ© ÙĦØ§Ø³
ĠØ¯ÙĨÛĮ Ø³
ĠÙĨØ§ÙħØ² Ø¯ÙĩØ§ÛĮ
ĠØ§Ø³Øª Ø®Ø±
ĠØ´Ú©Ø§Ø± ÚĨÛĮ
ĠÙħ ÙĬ
ĠØ¨Ú© Ø´Ø¯
Ø³ ÙĦÛĮ
ĠÙĨ ÛĮÚ©ÛĮ
ĠØ® ÙħÛĮØ±
Ġnew s
Ġa ut
ĠØ¨Ùĩ Ø¨Ùĩ
ĠØ§ÙģØ² ÙĪØ¯ÙĨ
ĠÙħÙĪ Ø¨
g o
ĠÙģ ÙĦØ§
in c
Ġo l
ĠÚ¯Ø² ÛĮÙĨ
ĠÙħØ§ÙĨØ¯ Ú¯Ø§Ø±
ĠÛĮÚ© ÙħÛĮÙĨ
ĠØ§ÙĦ Øµ
ĠØ§ÙĨØŃ Ø±Ø§Ùģ
ÙĪÙĨ ÙĪ
ĠÙĤ ÙĪØ³
Ġs s
ĠÚ¯Ø±ÛĮ Ø®Øª
ĠØªÙĪ Ø§ÙĨÛĮØ¯
ĠØ±Ú©ÙĪØ±Ø¯ Ø¯Ø§Ø±
ĠÙħ Ø§Ø¨ÛĮÙĨ
ĠÙħØ³ ÛĮØ±ÛĮ
ĠØ¨Ø±Ø§ÙĨÚ¯ÛĮ Ø²
ĠØ¬Ø§ÙĨØ¯ Ø§Ø±Ø§ÙĨ
Ð ´
Ùħ ÙĪÙĨÛĮ
ĠØ¨Ø§ Ø¨Øª
ĠÙħØŃ Ø±Ùħ
Ø¨ÛĮÙĨ ÙĨØ¯Ùĩ
ĠØª Ø§Ø¯
ĠÙģ ÙĪØ±ÛĮ
ĠØªÙĪ Ø§ÙĨÛĮÙħ
Ġo x
is ion
ĠØ¨Ø³ Ø·
Ġcol or
ĠÙĩÙĦ ÙĨ
Ġmunic ipal
ĠÚ¯ Ø§ÛĮ
ĠÙħØ§Ø± Ø³ÛĮ
ĠÙħÛĮÚ© Ø±
ĠÙħ Ø§ÛĮØ±
ĠÙ¾ÙĨØ§Ùĩ ÙĨØ¯Ú¯Ø§ÙĨ
Ø± ÙĤ
Ø¬ ÙĪÛĮØ§ÙĨ
Ú¯Ø° Ø´Øª
ĠÚ¯ÙĪ Ú¯
ĠØº Ø²
ĠÙħÙĦÛĮ Øª
ag es
ĠÙĦÛĮ ÙĦÛĮ
ĠØ¨Ø±Ú©ÙĨ Ø§Ø±
ĠØ³Ùģ ÛĮØ±Ø§ÙĨ
Ġ ì
ĠÙĩØ§ÛĮ Ø¯
ĠØ§ÙĦ Ø¬
ĠÚ¯Ø± ÙħØ§ÛĮÛĮ
ĠÚ©Ø§Ø´ Ø§ÙĨÛĮ
ĠØ¯ ÙĪÙĨØ¯Ú¯Ø§ÙĨ
ĠØ±Ø§ ØŃØª
Ø¬Ùħ Ø¹ÛĮØª
ĠÙħØ¹ Ø¯Ùĩ
ÙĨÙĪØ§ Ø®Øª
ĠØ¨ Ø§ÙĨÙĪ
ĠØ¯Ùĩ ÛĮØ¯
ĠØ¬Ø± ÙħÛĮ
ĠÙħÙħØª Ø§Ø²
Ġr ad
ÙĨ Ø¹
Ġe ar
Ø³ ÙĨÛĮ
ĠÙ¾Ø± Ø¨ÛĮÙĨÙĨØ¯Ùĩ
ĠÚ¯ Ø¯
ĠØ² Ø¨Ø§ÙĦÙĩ
ĠØŃ Ø±ÛĮÙħ
ĠÙħØ·ÙĦ Ø¹
ĠØ¯Ø§Ø±ÙĪ ÙĩØ§
Ø§ ÙĪØ±Ø¯
ĠØ®ÙĪØ§ Ø³ØªÙĨØ¯
Ġht ml
ĠØ§Ø³Ø§Ø³ Ø§
Øª ÙĤÛĮ
ĠØ§Ø³Ú© Ø§ÛĮ
ĠØŃÚ© Ø§ÛĮØª
ĠØ±Ø§Ø¯ ÛĮÚ©Ø§ÙĦ
ĠÙħÙĤ ÛĮÙħ
Ġo ct
ĠØ´ ØªØ±
ĠØ¢ Ø±ÙĪ
ĠÙ¾ÛĮ ÙĪÙĨØ¯ÙĩØ§ÛĮ
ĠØªØµ ÙģÛĮÙĩ
ĠØ´ÛĮ Ø¡
ĠÙĨÙĪ Ø§
ic o
ĠÚĨ Ø§Ú©
ĠØ²ÙĨØ¯ Ú¯ÛĮÙĨØ§ÙħÙĩ
ĠØ²Ø§ÛĮ ÙħØ§ÙĨ
ĠØª ÙĩØ±Ø§ÙĨÛĮ
ĠØ¨Ø§Ø±Ø¨Ø§Ø± Ø§
Ø¯Ø§Ø± ÙĨØ¯Ùĩ
ĠØ¬ÙĨÛĮ ÙģØ±
ĠØ´Ø§ÙĨÚ¯ ÙĩØ§ÛĮ
ĠÙĦÙĪÚ©Ø²Ø§Ùħ Ø¨ÙĪØ±Ú¯
Øª ÛĮÙħ
ĠÙĨ Ú¯Ø±Ø§ÙĨ
ĠØªØŃÙĤ ÙĤ
ĠÙĤ Ø±Ø§
ĠØ¨ÙĪØ± ÙĨ
ĠÙĨ ÙĪØ±Øª
ĠÛĮ Ø²Ø¯ÛĮ
Ġt im
ĠØ¨ÛĮÙĨ Ø§ÛĮÛĮ
ĠØ³Ø§Ùħ Ø³ÙĪÙĨ
ĠØ¨Ø²Ø±Ú¯ Ø¯Ø§Ø´Øª
Ø§Ù¾ Ø³Øª
ĠØªØ± ÙĪÙħ
ĠÙĩÙĪ Ø´ÛĮ
ÙĦ ÙħØ§ÙĨÛĮ
ĠÙĪØ§ Ø¶
ÛĮÙĨ Ø³
ĠØ³Ø§Ø² ÙĨØ¯Ú¯Ø§ÙĨ
ĠÙħØ§Ø³ Ú©
ĠÙĦ Ø§Ø¦
ĠÙĦ Ø§Ù¾
ĠØ¨ÙĪ Ø³ØªØ§ÙĨ
Ú©ÙĨ Ø´
ĠÙģØ±Ø²ÙĨØ¯ Ø´
ĠÙĩÛĮ Ø¬Ø§ÙĨ
ĠÙ¾ÙĦ Ø§ØªÛĮÙĨ
ĠÙĩÛĮØ¯ Ø±
ÙĪÙĩ Ø§ÛĮÛĮ
Ú¯ÛĮÙĦ ÙĪÛĮÙĩ
ĠÙĨ Ø¦
ĠÚ¯ÙĦ ÙĨ
ĠÛĮØ® ÚĨØ§ÙĦ
ĠØŃ ÙĦÙĤ
ĠÚ©Ø§Ø± ÙĦÙĪ
ĠØ³ÙģØ± ÙĩØ§ÛĮ
ĠØ³Ù¾Ø§ÙĩÛĮ Ø§ÙĨ
ĠØ¨ÙĨ Ú¯Ø§Ùĩ
ĠÙĪ Ø§ÙĨÚ¯
ĠÚ¯ ÙĪÙħ
ĠØ¨ÙĪØ¯ Ø§Ù¾Ø³Øª
ĠØ¯Ø§Ø± Ø§ÙĦ
Ġf re
à ¸
du ction
Ø´ Ø§ÙĩÛĮ
ĠØ¯ÙĪ Ø²ÛĮ
ĠÙĦ Ú©Ùĩ
ur a
Ġt ime
ĠØªÛĮ ØºÙĩ
ĠÙĩØ®Ø§ÙħÙĨ Ø´ÛĮØ§ÙĨ
ĠØ¯ÙĪØ¨ ÙĦÙĩ
ĠÙħÙĪØ³Ø³ Ø§Øª
ĠÚ©Ø± Ø¨ÙĦØ§
ĠÚ¯Ø±Ø§ÛĮ Ø§ÙĨÙĩ
ĠØ¹Ú©Ø§Ø³ Ø§ÙĨ
m p
Øµ ÙĪÙĦ
Ø´Ú© Ø±
ĠÚ©Ø§ÙĦ Ø¨Ø¯
ÛĮÙĨ Ú©ÛĮ
ĠØ±ÙĪ ØŃÛĮ
ĠÚ©Ùĩ Ú¯ÛĮÙĦÙĪÛĮÙĩ
Ø±Ø§ Ø¶ÛĮ
ĠØª ÙģØ§
Ġan n
ĠØ® Ø§ÙĨÛĮ
Øµ ÙĪØ±Øª
Ø±ÙĪ Ú©
ĠØ§Øª ÙģØ§ÙĤÛĮ
Ġgen er
ĠØ¯ ÛĮØªØ±
ĠØ§ÙĨ Øµ
ĠØ®ÙĪÛĮØ´ Ø§
r al
ĠØ² ÛĮØª
ĠØ¹ÙĦ ÙħØ§ÛĮ
Ġsp ort
ĠØ§ÙĦ Ø£
ĠØ¸ ÙĩØ±
Ø±ÙĪ ÙģÛĮ
ÙĪØ´ ÙĪ
ĠÚĨÙĨØ¯ Ø§ÙĨÛĮ
ĠØ§ÙĦÙĩÛĮ Ø§Øª
Ú¯ Ø±ÙĪÙĩ
Ø§Ø± Ø¨
ĠØ¬ ÛĮÚ©
ĠÙĨØ§Ù¾ÙĦ Ø¦ÙĪÙĨ
o f
Ø¨ÙĪ ÙĦÛĮ
ĠØ¨Ø±ÙĨ Ø§Ø±Ø¯
ĠØº Ø¯
ĠØº Ø±ÛĮØ¨
Ġjo urn
Ø§Ø· Ùĩ
ĠØª Ø°
ĠÙģ Ø²Ø§ÛĮ
ĠØ´ÙĪØ± Ø´ÛĮØ§ÙĨ
ĠÙĨØ§Ø´ ÙĨØ§Ø³
ĠÙħ Ø¨Ø§ÙĨÛĮ
Ġf w
ĠØ° ÙĪØ§ÙĦ
ÙĪØ¦ Ø±
ĠØ³ÙĪ Ø§Ø±Ùĩ
ĠØ¨Ø±ÛĮ Ø³ØªÙĪÙĦ
ĠØµØŃØ±Ø§ÙĨ ÙĪØ±Ø¯ÛĮ
Ġm r
ĠØ±Ùĩ Ø§ÛĮÛĮ
ĠØ¨Øª ÙħÙĨ
Ù¾Ø²Ø´Ú© ÛĮ
Ġsp ec
ĠÚ©Ø´ Ø´
ÙĦ ÙĪÚ©
ĠÙĨØ§Ø®Ø§ÙĦ Øµ
ĠÚ¯ÙĦ ÙĪ
ĠØ¨ Ø§Ø±Ú©
ĠØ¨ Ú©Ø±
ĠØ¨ÙĦ ÙĪÙħ
ĠÙĨÙģ Ø±ÛĮ
l i
ĠØªÙĨ Ùĩ
ÙĨØ¬ Ø§ÙĨÛĮ
ĠÚ¯ÙĦ ÙĪÚ©
Ø³ Ø§Ø±ÛĮ
ĠÙħØ¨Ø§Ø±Ø² Ø§Øª
g er
n es
ĠÚ¯ Ø´ØªÙĩ
ĠØ¢ÙĦ Ú©
ĠÙħØ¹Øª Ø¯ÙĦ
ĠØ§Ø¬ Ø³Ø§Ùħ
ĠØ±ÙĪØŃ Ø§ÙĨÛĮØ§ÙĨ
ĠÙħØŃØª ÙĪØ§
ion al
ĠØª ÙģØ±
ĠØ¹ ÛĮ
Ġm en
ĠØ§Øª ÙĪ
ĠØ³Ù¾ ÛĮØ¯
ĠØ§Ø¨Ø± Ø§ÙĩÛĮÙħÛĮ
ÙĦÛĮ ÙĪØ³
ĠØ¨Ø§Ø² Ø±Ø³ÛĮ
ĠÙħÙĤ Øª
ÙħÛĮÙĨ Ø§
Ġle ft
Ø« Ø±ÛĮ
ĠÙģÙĦ ÛĮÚ©Ø³
ĠØ·ÙĦ Ø¨Ø§ÙĨ
ĠÙħÛĮÚ© ÙĨØ¯
ud ad
ĠÙģØ±ÛĮ Ø§Ø¯
Ø§ØŃ ØªÛĮ
ĠØ³ÙĪÛĮ Ø§
ĠØ³ÙģØ± ÙĨØ§ÙħÙĩ
ĠÚ©Ø§Ø±Ø§Ú© ØªØ±
ĠÙģØ²Ø§ÛĮ ÙĨØ¯Ùĩ
ĠÙģØ±Ø¢ ÛĮÙĨ
ĠØªÙħØ§Ø´Ø§ Ú¯Ø±Ø§ÙĨ
Ġci udad
Ø§Ø± ÛĮØ§
Ġst ar
ĠÚ©Ø´Ø§ÙĪØ± Ø²
ĠØ² ÛĮØ§Ú¯Ø§ÙĨ
ÙĪØ³ Ø§ÙĨ
ĠÙĪØ¨ Ø³Ø§ÛĮØª
ĠØ³ÛĮÙĨ Ùħ
ĠØ®ÙĪØ§Ùĩ Ùħ
Ġk ing
ĠÙĨÛĮØª Ø±ÙĪÚĺÙĨ
ĠÚ© Ø¬
ĠØ§ÛĮ Ø§Ùħ
Ø± ÙĨÚ¯
ĠØ§Ø±Ø§ Ø¯Ùĩ
ĠØ´Ú© Ø³Ù¾ÛĮØ±
ĠØ´Ø§Ùĩ Ø±Ø®
Ġun d
ĠÚ¯ ÙĪÛĮØ§
ĠÙ¾Ø¯ Ø±ÛĮ
Ø§ÙĩØ¯ Ø§Øª
Ġap r
Ġl and
ĠØ¬ÙĦ Ú¯Ùĩ
ĠØ³ÙĦØ¬ÙĪ ÙĤÛĮ
ĠØ¬ÙĩØ§ÙĨ Ú¯ÛĮØ±
ĠÙ¾ Ø§ÙĨÚ©
ĠÙħÙĨ ÛĮ
ĠØ±Ø§ ÙĪØ±Ø²
Ø® ÙĪÙĨ
ĠÙħÙĦ ØŃÙĤ
ĠØ³Ù¾ Ø±Ø¯
ĠÙ¾ÙĦ ÙĨÚ¯
th er
Ġcl ass
ĠØ§ÛĮØ¬Ø§Ø¯ Ú¯Ø±
ĠØ§ÛĮØ¯Ø¦ ÙĪÙĦÙĪÚĺÛĮ
ĠØ§Øµ Ø±Ø§Ø±
ĠÙĨÚ¯ Ø§Ø´ØªÙĩ
ĠÙħØ§Ø±Ú© ÙĪ
ur ch
ĠÙĨÚ¯Ø± Ø´
ĠØ§ÙĪ Ù¾
ĠØ§ ÙĪØ±ÛĮ
ĠÙ¾ÙĩÙĨ Ø§ÛĮ
ĠØ¨Ø§Ø®Øª Ø±ÛĮ
ĠÚĨ Ø§ÙĨ
ĠÙĤ Ø¯ÛĮ
Ġd on
ĠØ¯Ø§Ø¦ Ùħ
ĠØªØ§Ø² Ú¯ÛĮ
ĠÙħÙĨ ÙĤ
ĠÙĦ Ø³ØªØ±
ĠØ§ÙĦÚ©ØªØ±ÙĪÙħ Øº
Ġb en
ĠÙ¾Ø§Ø± ÙĦÙħØ§ÙĨÛĮ
ĠÙ¾ÙĪ Ø³ØªØ§ÙĨ
ĠØªØ±Ø§ Ø´Ùĩ
Ġl ife
ĠÙ¾Ø±Ø³Øª Ø´
Ġpa ul
ĠÙģ ÛĮØª
ÙĨØª Ø³
it a
Ġst ate
ĠÙ¾ÙĨØ§Ùĩ Ú¯Ø§Ùĩ
ĠØªÙĪÙĤÛĮ Ùģ
ĠÚ© Ø§Ø¯Ø±
ĠØ¸ Ø±ÛĮÙģ
ĠØ§ØªÙģØ§ÙĤ Ø§Øª
ĠØ¨ÙģØª Ø§
Ø³ ÙĪØ³
ĠÚ©Ø§ Ø´Øª
ĠÙħØ³Ø§ÙģØ± Ø¨Ø±ÛĮ
ÛĮØ§ Ú¯ÙĪ
ĠØªÙĨ ÙģØ³
ĠØ³ Ø§ÙĨÚ¯
ĠØ¹ÙĦØ§ Ø¡
ĠØ²ÙĨ ÙĨØ¯
ĠÙħØ± Ø³ÙĪÙħ
ĠØ¹Ø§Ùħ ÙĦÛĮ
ĠØªØ§ÛĮÛĮ Ø¯
ã ģ
ĠØ§Ø³Øª ÙĪÚ©
ĠÙĤ ÛĮØ¯
ĠÙħØ² ÙħÙĨ
Ã§ a
ĠØ§ÙĨØ¯Ø± Ø³ÙĪÙĨ
ĠÙģØ±Ø§Ú¯ ÛĮØ±
Ú© ÙĪÙĨ
ĠÚ©Ø§ ÙĪ
ĠØ¢Ø¯ ÙĪÙĦÙģ
ĠØ¬ÙĪ Ø´Ú©Ø§Ø±ÛĮ
ĠØ±Ø§ ÙģØ§
Ú¯Ø§ÙĨ Ø¯Ø§
ĠÙħØ¹Ø± ÙģØª
ĠØ¯Ú¯Ø± Ú¯ÙĪÙĨÛĮ
ĠØ³Ø± Ø§Ø¨
ÙģÙĦ ÛĮÚ©Ø³
ĠØ¨ÙĤ Ø¹Ùĩ
ĠÙĨ Ø§Ø¨Ø±
ĠØ§ÙĦ Ø·
ĠÙħÙĪØ¨ Ø§ÛĮÙĦ
ĠÙħØ§Ø±Ú© ÙĪØ³
ã ĥ
ĠÙĪ Ø§Ø¯Ø§Ø±
Ġlang u
ĠÙħÙĪ Ø§ÙĤØ¹
ĠØ¨Ø§Ø± Ø²
ĠØ¯ÙĪÙħ ÛĮ
ĠØ¨Ø§ÙĨ Ú©ÛĮ
Ġed ition
ĠÙĩÙĦØ³ ÛĮÙĨÚ©ÛĮ
ĠØ¢Ø± Ø§ÙĨ
ĠÙħØ§ Ø³Øª
ĠØ¹ Ø§ÙħÛĮ
ĠÙħØŃ Ùģ
Ù¾ Ø§Øª
ĠÚ¯Ø°Ø§Ø´Øª ÙĨØ¯
Ø² Ø§Ø¯Ú¯Ø§ÙĨ
ĠØ± ÛĮÙĦ
ĠÙ¾ ÙĪÛĮÙĨ
ĠØªØ±Ø¯ ÛĮØ¯
ĠÙĤÙĪØ§ Ø¹Ø¯
ĠÙħØ¯ ÛĮ
ĠØªØ§ÛĮ Ùħ
uc k
ĠÙĨÛĮØ§ ÙģØª
ĠØ³ÛĮ Ø³ÛĮÙĦ
ĠØ¯Ø§Ø± ÙĨØ¯Ùĩ
ĠØ· ÙĪØ§ÛĮ
ĠÚ©Ø§Ø± ØªØ±
ĠÙĨØª ÙģÙĦÛĮÚ©Ø³
ĠÙĨÚ© ÙĨØ¯
os h
ĠØ¯ Ø§ÙĨÛĮ
ĠØ¨ Ø´Ú©
ĠØ± ÙħØ§ÙĨÛĮ
ĠØ¹ Ø¨Ø§Ø¯
ĠÙĩÙħ Ø³Ø§ÛĮ
ĠØ§Ø± Ø¬
ĠØ¯Ø¨ ÙĦÛĮ
ĠÙħØ¬ Ø±
Ġst ation
ĠØ¢Ùĩ ÙĨÛĮ
ÙģØ´ Ø§ÙĨÛĮ
ĠØ¨Ù¾Ø±Ø¯ Ø§Ø²Ø¯
ĠÙģ Ø§Ø´ÛĮ
ĠÙħÙĦ Ø¨ÙĪØ±ÙĨ
ĠØºÛĮØ± ÙģØ¹Ø§ÙĦ
ĠØ¨Ùĩ ØªØ±ÛĮ
ĠØ§Ø¨ Ø²Ø§Ø±ÛĮ
ĠØ§ÙĪØ³ Ø§Ú©Ø§
ĠØ¨ÛĮØ³ Ø¨Ø§ÙĦ
ĠØ§Úĺ Ø¯ÙĩØ§
ĠØ§ØŃ Ø§Ø·Ùĩ
ÛĮÙĦ ÙĨ
ĠÙħØŃÙħØ¯ ØªÙĤÛĮ
ĠÙħØµ ÙĪØ¨
ĠØ²Ø§Ú¯Ø± Ø³
ĠÙģ Ø§Ø´
Ø« Ùĩ
Ġl og
ĠØ´Ø¯ ÛĮØ¯ÛĮ
ĠØ´Ùĩ Ø§Ø¯Øª
Ġpl ay
ĠØ¹Ø² Øª
ĠØ³ ÙĨÛĮÙĨ
ĠØ±ÙĨÚ¯ ÛĮÙĨ
Ø· ØŃ
ĠÙĦ Ø±Ø²
ĠØµØŃ Ø±Ø§ÛĮ
ĠÙģØ±ÛĮØ¯ Ø±ÛĮØ´
ĠØªÙĤØ§ Ø¶Ø§
ĠØ§Ø¯ Ø±Ø§Ø±
ing ton
ĠØ²ÙĨ Ø¨ÙĪØ±
ĠØ¢Ø²ÙħØ§ÛĮØ´ Ú¯Ø§ÙĩÛĮ
ÙħÛĮ Ø¯Ùĩ
ĠÙ¾Ø± Ø¬ÙħØ¹ÛĮØª
ĠØ§ÙĦÚ©ØªØ± ÛĮÚ©
ĠØ¢ÙĨØ¯ Ø±ÛĮ
Ø®Ø§ Ø°
ĠÙĨÛĮ Ø§Ùħ
at es
ĠÙħÙĨØª Ø¸Ø±
ĠØ§Ø¨ÙĪØ§ÙĦ Ùģ
ĠØ§Øª Ø®Ø§Ø°
ĠØªØºÛĮÛĮØ± Ø§ØªÛĮ
ÙģÛĮ Ùģ
ĠØªØ§Øª ÙĨÙĩØ§Ùħ
a el
ĠØ§ÛĮ ÙħÙĨ
ÙĪÙĦ ÙĨØ¯
Ø§ÙĨØ¯ Ø±ÙĪ
ĠÙĪÙģ Ø§Ø¯Ø§Ø±
ĠÙĩÙģ Ø¯Ùĩ
i ence
ĠØ±Ø§Ùĩ Ù¾ÛĮÙħ
Ġdat ab
ĠÙ¾ Ø§Ø¨
Ġs il
ĠØ¯Ø± Ø®ØªÛĮ
ĠÙģ ÙĦÛĮ
Ġt s
Ø´Ùħ Ø§Ø±
ĠØ®Ø¯Ø§ ØŃØ§Ùģ
ĠØ¨Ø±Ùĩ ÙĨÙĩ
ĠÙħØ· ÙĦØ¨
ĠØ¬Ø§Ø¯ ÙĪÛĮÛĮ
ĠØ¨Ø§Ø´ ÛĮÙħ
Ġl ove
ĠØ¯Ùħ Ú©
Ġjourn al
ĠØ¯ ÙĨØ¯
ĠÙĨ ÙħØ±Ùĩ
ĠØ®Ø±Ø§ Ø³Ø§ÙĨÛĮ
ord er
ĠØªØ¶ Ø§Ø¯
Ġc b
Ġser v
ĠØ³Ø§Ø®Øª ÙĨØ¯
ĠÚ©Ø§Ø±Ø¢ Ú¯Ø§Ùĩ
Ġho use
ĠÙĦ ÙĤ
Ġm ad
Ġm ol
Ġd na
ur al
ĠØ³Ø§ÙĨØª ÛĮÙħ
Ġr h
ĠØ§ÛĮØ² ÙĪØª
ĠÙģØ±Ø¢ ÛĮÙĨØ¯
ĠØ§Øµ ÛĮÙĦ
ĠØ§ØŃ ÛĮØ§
ĠØ¯Ø§Ùħ Ø¯Ø§Ø±ÛĮ
Ø³ÙĦ Ø§ÙĨ
ĠÙ¾ÛĮØ´ Ø±ÙĪ
ĠÙĪØ§Ú© Ø±
ĠØ§ÙĦ Øº
ĠØ§ÙĦ ÙĤØ§
ĠØªØ¬ ÙĪÛĮØ²
ĠØ§Ø¹Ø· Ø§ÛĮ
al a
ĠØ¨Ø®Ø´ Ø¯
ĠÙ¾ÙĨ Ø¨Ùĩ
ĠÙĩØ§ Ø¦
ĠÙħØ¹ Ø¬
ĠÚ©Ø§ÙĨ Ú¯
ĠÙħÙĨ ÙģØ±Ø¯
ĠÙħØ¶ ÙħÙĪÙĨ
ĠÙħÙĤØµ Ø¯ÙĩØ§ÛĮ
ĠØ±ÙĪØ² ÙħØ±Ùĩ
ĠØµØŃ Øª
ĠØ¨Ø±Ø¢ ÙĪØ±Ø¯Ùĩ
ĠØ® ØªÙħ
Ø§ÙĦÛĮ Ú¯Ø§
ĠØ§Ø³ ØŃØ§ÙĤ
ĠÙħØ´Ú© ÙĪÚ©
ĠÙħØ®Ø§Ø· Ø¨
ĠØ§Ø±Ø²Ø´Ùħ ÙĨØ¯
ÙĨ Ø³ÛĮ
ĠÙħØª ÛĮÙĪ
ĠÙĪÛĮ ÚĨ
ĠØ¢ ÙĦØ§
Ø§ÙĨØª ÙĪ
Ġy ear
Ø§ÛĮ ÙĦÛĮ
Ġc p
ĠÙ¾Øª Ø±ÙĪØ´ÛĮÙħÛĮ
ĠØ³ ÙĪØª
ul ar
ĠÙħØº ÙĦÙĪØ¨
ĠØ±ÙĪØ¯ Ø±ÛĮ
ĠÙħÙĪØ¶ÙĪ Ø¹ÛĮ
ĠÙĨÛĮ Ø²Ùĩ
ĠÙ¾Ø³ Ø±ÛĮ
ĠØ¯ÙĪØª Ø§ÛĮÛĮ
ĠØ§Ø±Ø¬Ø§ Ø¹
Ø¯Ø§ Ùģ
ĠØ¬Ø§ÙĨ Ø§ØªØ§ÙĨ
ÙĨ ÙĪÛĮ
ĠÙħØ± ÙħØª
ĠØµ ÙĪÙģ
um e
ĠØ§Ø¨Øª Ú©Ø§Ø±
Ùģ Ø§Ø¯Ùĩ
Ù¾ ÙĨØ¯
ĠÙĪÙĤ ÙģÙĩ
ĠÙħØ±Ú©Ø² ÛĮØª
Ø§Ùħ Ø§ÙĨ
ĠØµØŃ Ø±Ø§ÛĮÛĮ
Ġin c
Ġf ar
ĠØ®ÙĪØ¯ ÛĮ
ĠÙħØ¨Ø¯ Ø£
ÙĪÙĦ ØªÛĮ
ĠÙĨÙĤ Ø¯ÙĩØ§ÛĮ
ĠÙ¾Ø§ÙĨ Ø§ÙħØ§
ĠØ´ÙĩØ±ÙĪÙĨØ¯ ÛĮ
Ġmus ic
ĠÚ¯ ÙĪØ§ÙĨÚ¯
ĠØ¨ÛĮØ§ÙĨ Ú¯Ø±
ĠØ§Ø¨ ÙĪÙħ
ĠØ¯Ø§ÛĮÙĨ Ø§Ø³
Ġc ur
Ġb ra
Ġ ÛĮØª
ĠØ§Ø³Øª Ø±ÛĮ
ĠÙ¾ÙĪØ±Øª ÙĪØ±
ĠØ² Ø¹
ĠØªØ¹ ÙħÛĮÙħ
ĠÙ¾ÙĦØª ÙģØ±Ùħ
ĠÙħØ§Ùħ ÙĪØ±ÛĮØª
Ġ Ñ
ÙĪØ¯ Ø§ÙĨ
ĠØŃØ§ÙĦ ÛĮÚ©Ùĩ
ĠØ³ÛĮÙĦ ÙĨØ¯Ø±
ĠØ¢Øª Ø´Ú©Ø¯Ùĩ
ĠØŃØ§ÙĦ ØªÛĮ
ĠÙĨ ÙĩØ§
ĠØ¹ÙĦ ÙĪÛĮ
ĠØ³ÙĪØ¦ÛĮ ÙģØª
ĠØ¬Ø§ÙħØ§Ø¦ ÛĮÚ©Ø§
ĠØ³ÛĮ ØµØ¯
ĠÙħØªÙĤØ§ Ø¹Ø¯
ĠÙĪ ÙĪØ±Øª
ĠØ§ÙĨ ÙĪØ´
ĠØ¨ÙĦ Ú¯Ø±Ø§Ø¯
Ø¨ Ø±Ø§
ĠØŃ Ø§Ø¦
ĠÙĩÛĮ Ø¬Ø§ÙĨÛĮ
ĠÙħØ±Ø¨ÙĪ Ø·Ùĩ
f a
ĠÙħÙĨ ÛĮØ²
ĠØ²ÛĮØ± ÛĮÙĨ
ĠØ¬ ÛĮÙĦ
Ġd em
ĠØ®Ø¯ Ø§ÛĮÛĮ
ĠÚ© ÙĦÙĩ
ĠØ¯Ø³Øª ÙħØ²Ø¯
ĠÚ©ÛĮ Ù¾
Ġn d
Ġm id
ÙĪØ² ÛĮØª
ĠÙĨÙĪ Ø§Ø¯Ú¯Ø§ÙĨ
Ø¬Ø± Ø²
ĠÙħÚ© Ø§Øª
ol a
ĠÙĨÙħÙĪ Ø¯ÙĩØ§ÛĮ
ĠØŃÚ©ÙħØ± Ø§ÙĨÛĮ
ÙĦÛĮ ÙħÛĮ
ĠØªØ¹ Ø¨ÛĮØ±
ĠØ¯ÙĪÙ¾ ÛĮÙĨÚ¯
Ġbr it
ĠØ± ÛĮÙĨÚ¯
Ø§Ø± ÛĮÚ©Ø§
ĠÚ©Ø§ Ø¸ÙħÛĮ
Ø§Ø¯ÛĮ Ø§ÙĨ
ĠØ±Ø³ ÙĪÙħ
ĠØºÛĮØ± Ø¯Ø§
ĠØ¢ØªØ´ ÙģØ´Ø§ÙĨÛĮ
ĠØ´ÙħØ§Ø± Ø´
b le
ĠÛĮØ§ Ø³ÙĪ
on y
Ġb re
ĠØ®Ø· Ø§ÛĮ
ĠØ²Ø§Ø¯ Ø±ÙĪØ²
ĠØ¯ÛĮ Ø§Ø¨Øª
w n
ĠØ§ÙĤØª Ø¨Ø§Ø³ÛĮ
ĠÙ¾ ÙĨØª
Ø§Ø¯ Ø§Ø±ÛĮ
Ġcon f
ĠØªØ§ Ù¾
ĠÙģÙĩØ±Ø³Øª ÛĮ
ĠØªÙĨ Ú©
ĠØ¢ ÙĪÛĮ
ĠØ¨ÙĨ ÙģØ´
ĠÚ¯ÙĪ ÙĩØ±
ĠÙħØ®Ø§Ø¨Ø±Ø§Øª ÛĮ
Ø¨ Ø§Ø·
ĠÛĮ ÙĪØ´
ÙĪÙħ ÛĮÙĨÚ¯
ĠÙĨÙĤ Ø¯ÛĮ
ĠØŃØ¯ Ø³
ĠÙģÛĮØ²ÛĮ ÙĪÙĦÙĪÚĺÛĮ
ĠØ¨ Ø³ØªØ±ÛĮ
ĠØ§Ø³ØªÙģ Ø§ÙĨ
Ġh am
ĠÚĨØ´Ùħ Ú¯ÛĮØ±ÛĮ
Ø³Øª ÛĮÚ©ÛĮ
ĠØ¯Ø²Ø¯ Ø§ÙĨ
ĠØ§Ø¹Øª Ø±Ø§Ø¶ÛĮ
ĠÙĦÛĮ ÙĦ
ĠØºÛĮØ±Ùħ ÙħÚ©ÙĨ
ĠØ·ÙĪØ§ÛĮ Ùģ
ĠÙ¾Ø³ ÙĨØ¯
ĠØ§ÙĦØªÙĩ Ø§Ø¨
ĠÚ© ÛĮØ¯
ĠÚ©ÙĦ Ø§Ø±
ĠØ§Ø¯ ÛĮÙĨ
ÙĨØ² Ø§
ĠØ¯ÙĪ Ø´ÛĮ
ĠØ¹ÙĨØ§ ÙĪÛĮÙĨ
ĠÚ¯ Ø§Ø³
ĠÙĩØ§ ÙĪØ§Ø±Ø¯
ĠØ¯Ø§Ùħ Ø§Ø¯
ĠÙĨØ§Øª ÙĪ
ĠØ¨ÛĮØ´ ÛĮÙĨÙĩ
ĠÙħØŃÙģ Ø¸Ùĩ
ÛĮÙĨ Ø§ÙħÙĩ
ĠØ§ÙĨØª Ø²Ø§
ĠØ¯ Ú©Øª
ĠÙħÛĮ Ú¯
Ø° ÛĮ
ĠÙĨÙħÙĪØ¯ ÙĨ
ĠØ®ÛĮØ² Ø´
Ø¨ÙĪ Ø¬
ĠØ¯ Ø§ÛĮØ±
ĠØ¨Ø±Ùĩ Ø§ÙĨ
ell a
Ġk g
Ø§ÙĪØ± Ø¯Ùĩ
ĠØ¨ÛĮØ±Ùħ ÙĨÚ¯Ø§Ùħ
ĠØ¨Ø± ÙĨØª
ĠØ¢ÙħÙĪ Ø²Ùĩ
ĠØ¬Ø§Ø¯ÙĪ Ú¯Ø±
ĠØ¢Ø«Ø§Ø± Ø´
Ġo ver
ĠØ³ÙĪ Ø®ØªÙĩ
Ġth is
ĠØªØ·Ø¨ÛĮ ÙĤ
ĠÙħÙĪØ§ Ø¶Ø¹
ĠÙ¾ÛĮÙĪ Ø³ØªÙĨØ¯
Ø¢Ø¨ Ø§Ø¯ÛĮ
ĠØªÙĦ Ø®
à¤ °
ÙĨØ§ Ø¹
ĠØ§ØªÙĩØ§Ùħ Ø§Øª
ĠÙ¾Ø§Ú© Ø³Ø§Ø²ÛĮ
ens is
Ġs he
ĠØ³Ø§Ùħ ÙĪØ±Ø§ÛĮÛĮ
ĠØŃ ÙĪÙĦ
ĠØ¨Ø® Ø§Ø±Ø§
ĠÙħÚ© Øª
ĠØ³ Ø§ÙħÛĮ
Ġr ich
ĠÙĨØ§Ø± ÙĨØ¬ÛĮ
Ø´ ÙĦ
ĠÚ¯ÙĪØ§Ùĩ ÛĮÙĨØ§ÙħÙĩ
Ø¦ Ø§
ĠØ±Ø§ÙĩÙ¾ÛĮÙħ Ø§ÛĮÛĮ
ĠÙģØ± ØŃ
ĠÙĨØ§ ÚĨØ§Ø±
ĠÙ¾ÙĪØ±Øª ÙĪ
ĠÙħØ® Ùģ
ĠØ¹Ø¨Ø¯Ø§ÙĦ ØŃØ³ÛĮÙĨ
ĠØ¨Ø§ ØºÛĮ
ĠÙħØ±Øª ÙģØ¹
ÙĦØ§ÙĨ Ø¯ÛĮ
ĠØ¨Ø§ÙĦØ§Ø® Ø±Ùĩ
ĠÙ¾ Ø§Ø¯Ú¯Ø§ÙĨ
ĠØ¨Ùĩ Ø²Ø§Ø¯
ĠÚ¯ Ø§ÙĦÛĮ
ĠÙħØ¹ Ø§Ø±Ùģ
ĠÙħÙĪÙĦ ÙĪÛĮ
ĠØ®ÙĦ Ø¹
ĠÛĮÚ© Ø¨Ø§Ø±
ĠÚĨÛĮ Ø³Øª
ĠØ± Ø§Ø¯Ø§Ø±
ĠÚ© Ø¯ÙĩØ§ÛĮ
ĠÙħØ²Ø§Ø± Ø¹
ØªØ± ÙĨ
ĠÚ¯ÙĨØ¬ ÛĮÙĨÙĩ
et s
ĠØ¯Ùĩ Ø®Ø¯Ø§
ĠÙħØ± Ø¬
Ġt op
ĠØ§Ø´ Ø¹Ùĩ
Ø³ÙĦ Ø¯
ĠØ¨Ø§ Ø·
ĠÙĤØ± Øµ
Ø§ÙĦÙħ Ù¾ÛĮÚ©
ĠØªØ¶ Ø¹ÛĮÙģ
ĠØ¨Ùĩ Ø§ÙĨÙĩ
or a
ĠÙĨÛĮÙĪÚ© Ø§Ø³ÙĦ
Ùĩ Ø±ÛĮ
ĠÚ¯Ø´Øª Ø§ÙĪØ±
ĠØ§Ø±ØªØ¯ Ú©Ø³
ĠÙ Ĭ
ĠØ³Ø§ÙĦ Ø§Ø±
ĠØ¢ÙħÙĪØ² Ú¯Ø§Ø±Ø§ÙĨ
ĠØ¶Ø±Ø¨ Ø§Øª
ĠÙħØªÙĨØ§ ÙĪØ¨
ĠØ¯ ÙĪÙĨØ¯Ùĩ
ĠØ¨ÙĪØ¯ Ùħ
ĠØ´ÙĪØ± Ø´ÛĮ
ÙģÙĦ Ø¯
ĠØ¬ ÙģØ±
ĠØ´Ø§Ø±ÙĦ ÙĪØª
ĠÚ©Ø§Ø± ÙĩØ§
ĠØ¹Ùģ ÙĪ
Ġop en
ĠÙ¾ ÙĨÛĮ
ĠÙĪ ÛĮÙħ
ĠØ¹ Ø°
ĠØ¢Ùĩ ÙĨÛĮÙĨ
ĠÙĨÙħØ§Ø¯ ÛĮÙĨ
ĠÙĪ ÙĪÙĦ
ĠØ¢ Ø¦ÛĮÙĨ
ĠÙ¾Ø§ÛĮ ÛĮÙĨÛĮ
ian a
ĠØ² ÛĮØ¯
ĠÙĩÙħ Ø§
ĠØ¹Ùħ ÙĪÛĮ
ĠÙ¾ÛĮØ§ Ù¾ÛĮ
ber g
ĠØ®Ø¨Ø±ÙĨÚ¯ Ø§Ø±Ø§ÙĨ
ĠÙħØ¨Ø§Ø¯ ÙĦÙĩ
ĠØ§Ø¶Ø·Ø± Ø§Ø¨
ĠØª Ø§ÛĮØª
ĠØµ ÙģØª
Ġe ast
ĠØ§Ø±Ø¯ ÙĦØ§ÙĨ
Ùħ ØŃÙħØ¯
ĠÚ© Ø¨ÙĪØ¯
Ø§ÙĨ Ø§ÙĨ
ĠÙģ Ø³ØªÛĮ
Ú¯Ø±Ø¯ ÛĮ
ĠØ²ÛĮ Ø§ÙĨ
ĠÙ¾Ø§ÙĨ ØµØ¯
ĠØ±ÙĪØ§ÙĨ Ùĩ
ĠØ³ Ø³
Ø§Ú© Ø±
ĠØ³Ø± Ú¯
ĠØ¹Ø¶ ÙĦØ§ÙĨÛĮ
b urg
ĠÚ©Ø´Ø§ÙĪØ± Ø²Ø§ÙĨ
Ùģ Ø§Ø±
ĠØ´ÙĪ Ø´ØªØ±
ĠÙĤ Ø§Ø¦ÙĦ
ĠÙĪØ§ÙĦÙĨ Ø³ÛĮØ§
ĠÙĩ Ùĩ
ĠØ¹ Ø§Ø²Ùħ
ĠØ³ÙĨÚ¯ Ø§ÙĦ
h l
ĠÙĨ Ø¦ÙĪ
ĠÙģÛĮÙĦ Ø¯
ĠÙħØªØ®ØµØµ Ø§ÙĨ
Ø¨ ÙĨØ¯Ø§ÙĨ
ĠØ³Ø§ÙĦ Ø§Ø±ÛĮ
Ø²ÛĮ Ø³Øª
ĠØ¨Ø§Ø²ÙħØ§ÙĨØ¯ Ú¯Ø§ÙĨ
Ġl ine
ĠØªÙĪÙĩ ÛĮÙĨ
ĠÙģØ± Ø§ÙĪØ±Ø¯Ùĩ
Ġd et
ĠÙħØ§ÙĦÛĮ Ø§ØªÛĮ
ĠØ¨Ø§Ø¯ Ø¨Ø§ÙĨÛĮ
ĠÙĩ Ú©
Ġv ill
Ġch amp
Ø¨Ø§ ØºÙĩ
ĠØªØ¨ Ø§Ø±ÙĩØ§ÛĮ
ĠØ°Ø® Ø§ÛĮØ±
ĠÙ¾ÛĮØ§Ùħ Ø¯ÙĩØ§ÛĮ
ĠÙ¾ Ø´ØªÙĩ
ÛĮÙĦ Øª
ĠÙĨØ±Ùħ Ø§ÙĦ
ĠØ¨ÙĪØ³ÛĮ ÙĦÙĩ
Ø²ÛĮ Ø²
ĠÙģØ±Ø¯ ÛĮÙĨ
ĠØ§ÙħØªÛĮØ§Ø² Ø§Øª
ĠÙĪØ§Ø¶ ØŃ
ĠØ´ Ø§Ø¨Ú©
Ø´Øª ÛĮÙĨ
ĠÚĺ ÙĪØ±ÙĨ
ĠØ®ÙĪØ§ÙĩØ± Ø´
Ø¶ Ø¹ÛĮ
is on
ĠØ± Ø´ÛĮØ¯
ĠØ§Ùģ ÙĤ
ĠÙħ ÙĪÛĮ
ÙĨØ§ Ø·
ÙĨ ÛĮÚ©
ĠØª Ø²ÛĮ
ĠÙ¾Ø±ÙĪ ÛĮÙĨ
ĠÙ¾Ø§Ø± Ø§ÙĦÙħÙ¾ÛĮÚ©
ĠÙĨ ÙĪØª
ĠØ³Ø±Ø¨ Ø§Ø²ÛĮ
in al
ĠØ±Ø§ Ø¬Ø¹
ĠØ´ÙĨÛĮ Ø¯Ùĩ
Ù¾ Ø§ÛĮÛĮ
ĠÚ©Ø§ÙĦ ÛĮÙĨ
ĠÚ¯ Ø³ÙĦ
ĠÙĦ ÛĮÙĨÙĩ
ĠÙĦ ÙĪÚ©Ø³
ĠØ§Ùħ ÛĮØ±ÛĮ
ĠØ¶ ÙħÛĮÙħ
Ø±Ø§ Ø³Øª
f r
ĠÙĪ ÙĪÙĨ
Ġr uss
ĠÙĩØ¬ Ø¯Ùĩ
ĠÙĤÙĪØ± Ø¨Ø§ØºÙĩ
Ġs aint
ĠÙģÙĨ ÙĦØ§ÙĨØ¯ÛĮ
Ġro bert
ĠØ¨ÛĮ Ø¶Ø§ÛĮÛĮ
ĠÙħ ÙģØª
Ġart ic
ĠØ¨ Ø¬
Ø´ Ø§Ø®
Ø® ÙĪØ§Ø±
ÙĪØ² Ø§
ĠÙĨÛĮÙĪÙĩ ÙħÙ¾
Ø® Ø§Ø±
Ġt ill
ĠØ®ÙĪÙĨ Ø±ÛĮØ²ÛĮ
ĠØ§Ø³ØªÙĪØ¯ÛĮ ÙĪÛĮ
ĠØºÛĮØ±Ø¯Ø§ Ø³ØªØ§ÙĨÛĮ
Ø² ÛĮÙĨ
ĠÙĩ ÛĮØ³
ĠÙħØªØºÛĮØ± ÙĩØ§ÛĮ
c k
ÙĪØ§ Ùģ
ĠÙħ ØµÙĦ
Ġd an
ĠØ¢Ø± Ø²ÙĪ
ĠØ¨Ø±ÙĪÚ© Ø³ÙĦ
Ø³ÛĮ Øª
Ø³Ø§ÙĦ Ø§Ø±
ĠØ±ÙĪØ§ÙĨ Ø´ÙĨØ§Ø³ÛĮ
ĠÚ©ÙĪÙĨ Ú©Ø§Ú©
ĠÙħØ·Ø§Ø¨ÙĤ Øª
ÙĪ ÙģÙĩ
ĠØ´Ø¹Ø± ÙĩØ§ÛĮ
ĠÚ©ÙĪÙĨÚ©Ø§Ú© Ø§Ùģ
ĠØªÚ© ÙħÛĮÙĦÛĮ
ĠØ¯Ú©Øª Ø±Ø§
on om
Ø§Ùģ ÙĦ
ĠØªÙĪØ± ÛĮÙĨ
Ø³Øª ÙĪ
el s
ĠÙģØ±Ø¯ ÙĪØ³
ĠØ¯ Ø§ÛĮÛĮ
ĠÙĦ Ø§Ø²
ĠØ¨Ø² ÙĨØ¯
Ġp age
Ġl es
ĠØ¶ÙħÛĮÙħ Ùĩ
w ork
ĠØ±ÙģØ³ ÙĨØ¬Ø§ÙĨÛĮ
ĠØ´ Ø§Ù¾
Ġf ac
ÙħØ¹ Ø§Ø±Ùģ
Ø² ÙĨØ§ÙĨ
ĠÙħÙĨØ¹ Ú©Ø³
Ø¨ ÙĪØ¯ÛĮ
ĠØ§Ùģ Ú©ÙĨ
ĠØ¢ÙĨÚ¯ ÙĪÙĦØ§
ĠÙħ Ú¯Ø³
ĠØ±ÙĤ Ø§Ø¨ØªÛĮ
Ġa st
ĠÚ©ÛĮ Ø§ÙĨ
ĠÙģØ±ÙħØ§ÙĨØ±ÙĪ Ø§ÛĮ
ĠÙĨÚ¯ Ø§Ø´Øª
Ġpubl ic
ĠØŃØ² Ø¨ÛĮ
ĠØ¯Ùĩ ÙħÛĮÙĨ
ĠÚ©Ø§Ø³Øª Ø§Ø±ÛĮÚ©Ø§
ĠÙħÛĮ Ø«
Ġal b
ĠÙĤ ÙĪØ§Ùħ
Ġis bn
ÛĮ Øµ
ĠØ®ÙĪØ¯Ø± ÙĪÛĮÛĮ
ĠÙ¾Ø§Ø±Ø§Ùħ ÙĪÙĨØª
or ge
ĠØ¯ÙĨÛĮØ§ Ú¯ÛĮØ±ÛĮ
ĠÚ©Ø§Ø±ÙĪØ§ÙĨ Ø³Ø±Ø§ÛĮ
p o
ĠÙĨ ÙĪÛĮØ¯
ĠØ¨ÙĪ ÛĮØ±
ĠØ¨Ø§ÛĮ Ø³ØªÛĮ
ĠÙĩÛĮØ¯Ø±ÙĪ Ú©
ÙħØ± Ø§Øª
ĠÙ¾ÛĮØ´Ú¯Ø§Ùħ Ø§ÙĨ
ĠØ¨Ø§Ø± ÙĪÙĨ
ĠÙĪØ§ÛĮ ÙĪÙħÛĮÙĨÚ¯
ĠÙĨ ÙĪØªØ±
ĠØ¯Ø±ÛĮ ÚĨÙĩ
ĠØ¶Ø± ÙĪØ±Øª
Ġp op
Ġm ov
Ġd ie
ĠÙħØ§Ùĩ ÙĨØ§ÙħÙĩ
ĠÙĨØŃ ÙĪ
ĠØ· ÙĦÙĪ
ĠÚ©Ø§Ø± Ø´ÙĨØ§Ø³
ĠÚ©Ø§Ø±Ø¢ ÙħØ¯
ĠØ® Ø§ÙĦØ¯
ĠØ² ÙĪØ±ÛĮ
ĠÙģÙĦ Ø´
Ġmar t
ÙĪØ± Ø³
ĠØ§Ø¨ÙĪØ§ÙĦÙģ Ø¶ÙĦ
ĠØ³ÛĮ Ú¯Ø§Ø±
Ġa a
ĠÚ©Ø§ ÙĪÙĩ
ĠÙĨÛĮØ±ÙĪ ÙĩØ§
ĠÙĪ Ú¯Ø§Ø³
ĠÚĨ Ø§
an y
Ġte chn
ĠØ§Ø¬ Ø²Ø§
ĠÙħ Ø³ØªØ±
Ø³ÛĮ ÙĪØ³
ĠØ®Ø¨Ø± Ú¯Ø§ÙĨ
ĠØ¢ÙĦÙ¾ Ø§ÛĮÙĨ
ĠÙģØ³ØªÛĮ ÙĪØ§ÙĦ
ĠÙħÙĨ Ø³ÙĪ
ĠØ¨Ø¯ ÙĪ
ĠÚ©Ø§Ø±Ø¨Ø± Ø¯ÙĩØ§
ĠØ²Ø§Ùĩ Ø¯Ø§ÙĨ
ĠÚ©ÙĪØ¦ÛĮÙĨØ² ÙĦÙĨØ¯
ĠÙĩØ§ÛĮ ÙĨ
ĠØŃ ÙĦØ¨
ĠØ¨ÙĨØ¯ Ø±ÛĮ
ÙĪ Ø§Ø³
ĠÙĨØ§Ùħ ÙĪÙģ
Ġh um
ĠÙħØ§Ø± Ú¯Ø§Ø±Øª
Ġk e
ĠÙħØ§Ø¯ Ø±Ø¨
ĠÛĮØ§ Ø®ØªÙĩ
ĠÙģØ±Ø§ÙĨØ³ ÙĪØ§
ĠØ´Ø±ÛĮ Ø¹Øª
Ġi b
Ġmar ch
iz e
Ġr ight
ik e
ĠØ¨ Ú©Ø´
ĠÙĩ ÙĦÛĮ
ĠÚ©Ø§ÙħÙ¾ Ø§ÛĮÙĦØ±
ĠÙħØ®Ùģ Ùģ
ĠÙ¾Ø§Ø¯ Ø§Ø´
im a
ĠØ±ØµØ¯ Ø®Ø§ÙĨÙĩ
ĠØ´Ùħ ÛĮØ±Ø§ÙĨ
ĠØ§ÙĨØª ØµØ§Ø¨
ĠØ®ÙĪØ§Ø± Ø²Ùħ
ĠØµ Ø¯Ø§Ùħ
ĠÙĨ Ø§ÙĩÙħ
i ation
ĠÙĨÙĪ Ø¨Øª
Ø§ Ø¹ÛĮ
ĠØ¨ÛĮØ¯ Ø§Ø±
ĠÙĥ Ùĩ
ĠÙĨÛĮÙĦ ÙĪÙģØ±
ĠØ³Ø§ÙĨØªÛĮÙħ ØªØ±
h r
Ø¦ ÙĪØ¯
ĠÙĨÙĪ Ø¨Ùĩ
Ġm ir
ĠØ¬ÙĨØ¬ Ø§ÙĦ
ĠØ¨Ø§Ø±Ø¯ Ø§Ø±
Ġre p
ĠØ§ÛĮ Ø§ÙĨ
ĠÛĮ ÙĪØ³
ĠØ´Ø§Ùĩ Ø±ÙĪØ¯
ĠØºÛĮØ± Ø¹
ĠØ§Ø³ÙħØ§Ø¹ÛĮ ÙĦÛĮ
Ø® ÛĮÙħ
ĠØ§Ø¯ÛĮ Ø¨
ĠØ®ÙĪØ§ÙĨ ÙĨØ¯
ĠØ®Ø´Ùħ Ú¯ÛĮÙĨ
ĠÙħÙĨØ¸ Ø±
ĠÙħÙĪÙĦ Ø§ÙĨØ§
ÙĨ Ø§Ø²
ĠØŃ Ø§Ø¯
ĠØ¬ÙĪØ¯ ÙĪÚ©Ø§Ø±Ø§ÙĨ
ĠØªØ§ÙĨ Ø²
Ø©Ø§ÙĦ ÙħØ¹Ø§Ø±Ùģ
ĠÙ¾ ÛĮØ§Ø²
ĠÙħÙĨ Ø¬
ĠØ° Ø§ØªÛĮ
ĠØ§Ø³ØªÙĨ ÙģÙĪØ±Ø¯
ĠÙģ Ú©
ĠÙ¾Ø± Ø³ØªÛĮ
ĠØ³ÙĦ Ø·Ø§ÙĨÛĮ
ĠÙħÙĨÛĮØ² ÛĮÙħ
Ø§Ø±Øª Ø²
ĠØ¨Ø±Ø¢ ÙħØ¯
ĠØ®Ø§ ÙĪØ±ÛĮ
ĠØ² Ø§ÙĨ
ĠØ³Ø§ÛĮ Ù¾Ø§
ĠØ¢ÙĨ Ø§Ø±Ø´ÛĮ
er o
ÙģÚ© Ø±Ø§ÙĨ
ĠÙ¾ ÙĪØ²
ĠÙĨØ§Ùħ ÛĮØ¯ÙĨØ¯
Ġm ot
ĠØ§Ø¹ ØªØ¨
ĠØª ÛĮÚ©
ĠØ¢ÙĦ Ú©Ø³
ÙĪÙĦ ÙĪÙĨ
ĠØ³ÛĮ ÙĦÛĮ
Ġg al
ĠÙħØº Ø§Ø²Ùĩ
ĠØ±Ø¯ÛĮ Ø§Ø¨ÛĮ
ĠØ¹Ø±Ùģ Ø§ÙĨÛĮ
ĠÚ¯ÙĪØ±Ø¯ ÙĪÙĨ
ĠØ¨ Ú¯Ø°Ø§Ø±
Øµ Ø¨
ÙĪÙħ ÙĨØ¯
Ø§Ø³ ÙĪÙĨ
ĠØ¢Ùħ Ø§Ø¯Ú¯ÛĮ
ÙĪØ§Ø± Ø§
ĠØ¬Ùħ Ø¬ÙħÙĩ
ĠÙħØ®Øª ØµØ±
k i
ĠØ¬ÙĪ ÙĦÛĮØ§
ĠØ¯ÙĦ Ø®ÙĪØ§Ùĩ
ĠØ¯ÛĮØ¬ÛĮØª Ø§ÙĦÛĮ
ĠØ¨Ùĩ Ø±
ĠØ¹ ÙħÙĪ
ĠØŃ Øª
ĠÙħØ¹ ÙĦÙħØ§ÙĨ
ĠÙģÛĮ Ø´Ø±
Ġpro vin
ĠÙħØ±ÙĪ Ø§Ø±ÛĮØ¯
ĠØ¨Ø± ÙĪÙĨØ¯
ĠÙĩÙĪØ§ Ùģ
ĠÚ© ÙĪØ³Ùĩ
Ġa u
ĠØªÙĪ Ú©
ĠØ´Ø±Ú© ØªÛĮ
ĠØ¬Ø§ÙĨ ÙĪØ±ÛĮ
Ġch urch
ĠÙħÙĦØ§ØŃ Ø¸Ùĩ
ĠÛĮ ÙĪØ±ÛĮ
ĠÙĤØ· Ø±Ùĩ
ĠÙħÛĮØ¯ ÙĦ
ĠØ³ÙĩØ± Ø§Ø¨
ĠÙģÛĮÙĦÙħ Ø´ÙĨØ§Ø³ÛĮ
ĠÚ¯ÙĪ Ø§Øª
ĠØªØ®Øµ ÛĮØµ
ĠØ®Ø³ Ø§Ø±Øª
Ø³ Ø±Ø§
ĠØ¯ÙĪ Ø§Ùħ
ĠØ§Ø³ÛĮ Ø¯ÙĩØ§ÛĮ
ĠÚ¯Ø§Ø¨Ø± ÛĮÙĦ
Ø±Ø¨ ÙĨØ¯ÛĮ
ĠØ¨ÙĨØ² ÛĮÙĨ
ĠØ³ ÙĦÛĮÙħ
ĠØ¨Ø§ÛĮ Ú¯Ø§ÙĨÛĮ
ĠÚĨØ´ ÙħØ§ÙĨ
ÙĪÙħ Ø±ÛĮ
Ú¯ ÛĮØª
ÙħÛĮÙĨ Ú¯
Ġr d
ĠÙĩÙĪØ§ Ø´ÙĨØ§Ø³ÛĮ
ĠØ¹Ø¸ ÛĮÙħÛĮ
ĠÙĨØ§Ú¯Ùĩ Ø§ÙĨ
Ø¨ ÙĤ
it er
ĠÙĦÙĪÚ© Ø§Ø³
ĠØµÙĦÛĮØ¨ÛĮ ÙĪÙĨ
Ġcon gress
ĠÚĨÙĨØ§ÙĨ ÚĨÙĩ
Ġs ite
ĠÙħØ®ÙģÛĮ Ø§ÙĨÙĩ
ĠØ´ Ø³Øª
ĠØ§ÙĨ Ø²ÙĦÛĮ
ĠÚ¯Ø° Ø±Ø§ÙĨ
Ġmo unt
ĠØ§Ø¶Ø·Ø± Ø§Ø±ÛĮ
Ùħ Ø±ÛĮ
ĠÚ¯ÙģØª Ú¯ÙĪÛĮ
ut ion
Ù¾ Ø°ÛĮØ±ÛĮ
ĠÚĨ Ø§ÙĨÚ¯
ĠØ¬ÙĪ ÙĩØ±
ĠÙ¾ÙĨ Ø¬Ùĩ
ÙĪ Ø¨Ùĩ
Ù¾ ÙĪØ³Øª
ĠØ´ÙĨ ÛĮØ¯ÙĨ
ĠØ¬ ÛĮØ±ÙĪ
ÛĮÙĦ ÛĮÙĨ
ĠÚĺ ÙĪÙĦÛĮ
ĠØ¢ØªÙĦ Ø§ÙĨØªÛĮÚ©
f orm
ĠÙħØ¯ ÛĮØ§
ĠØ¨ÛĮØ§ ÙĪØ±Ø¯
Ø§Ú© Ø§ÙĨ
ĠØ§Ø³Øª ÙĪØ§ÙĨÙĩ
ĠØ®Ø± Ú¯ÙĪØ´
w s
Ġjul y
ĠÚĨ ÙĨØ¯Ú¯Ø§ÙĨ
Ġp ass
ĠÙģÙĪÙĤ Ø§ÙĨÛĮ
ĠÚ©ÙħÙĪÙĨÛĮ Ø³ØªÛĮ
Ú© Ø±Ùĩ
Ù¾ Ø±ÙĪ
ĠØ¹ ØªÛĮ
ĠÚ©Ø§Ø± ÙĨ
Ġs q
ĠÙĪÛĮØ¯ÛĮ ÙĪÛĮÛĮ
Ø§ÙĦ Ú©
Ø¹ ÙĪÙĨ
ĠÚ¯ Ø§Øª
ĠØ±ÙĪ Ø§ÛĮØªÛĮ
ĠÙĨÙĪØ§Ø®Øª ÙĨ
Ø§ÙĦ ØŃÛĮ
ĠÚ©Ø§ÙĨØ¯ÛĮØ¯ Ø§ÛĮ
ĠÙĨÙģØ± ÛĮÙĨ
ĠØ§Ø° ÛĮØª
Ġs r
ĠÙĨØ§Ø±Ø³ Ø§ÛĮÛĮ
ĠÚ©ÙĪ Ø²ÙĪ
Ġsp r
ÛĮÙĨ Ø§Ùħ
Ú¯ Ø§ÛĮ
ĠÙħÙĪ Ø¶Ø¹ÛĮ
ĠÚĺØ§ÙĨ ÛĮØ±ÙĪ
Ġger man
l am
Ø§ÙĪ Ø§Øª
ĠÚ¯Ø±ÛĮ Ú¯
Ġwh ite
ĠÙħØ§ÙĨ ÙĪØ¦ÙĦ
Ġl ake
ir d
ot a
ÙĪØ± ÙĨØ¯
ĠÙĨÚ© Ø§Øª
ĠØ§ÙĪØ¨ Ø§ÙħØ§
Ġf eb
Ġb order
Ġh d
ĠØ® Ø±ÛĮ
ÙĪØ³ÛĮ Ø§
ĠÙĩ ÙĨØ¬
Ø±Ø§ ÙĤ
ĠØ§ÙĤ Ø¯
Ø§Ø³ÛĮ Ùħ
ĠÙħØ¹ÛĮ Ø§Ø±ÙĩØ§ÛĮ
ĠØ§ÛĮ Ùĩ
ĠÙĨØµ ÛĮØ±
ĠØ¨ÙĨØ¯Ø± Ø¹Ø¨Ø§Ø³
ĠØ¨ÛĮ Ø§ÛĮØ¯
ĠÙ¾Ùĩ ÙĨÙĩ
ĠØ³ Ú©ÙĨÙĩ
ĠÙģ ÙĪØ§
ĠÛĮÚ© Ø§ÛĮ
Ġt c
ĠÙħØ±Ø§ ØºÙĩ
ĠÙħ ÙĪØ±Øª
ĠØŃ Ø§Ú©ÛĮ
ĠØ¨ÙĦ ÚĺÛĮÚ©ÛĮ
Ø´Ùĩ Ø±ÛĮ
ĠØ¨Øª Ùĩ
ĠÙ¾ Ø´Ùħ
ĠØ¨Ø§Ø± Øª
iv al
ĠØªØ´ Ø±ÛĮØŃ
ĠØ¨Ø³Øª ÙĨ
if f
Ø±Ø§ ÙģØª
Ø¨Ø±ÛĮ Ø§
ĠØªØ¹ Ø§
ĠÙĪØ§Ù¾ Ø³ÛĮÙĨ
ĠÚ¯ ÙĪÙĦ
ĠÙħÙĨ Ø§Ø²
ĠÙħØ§Ùĩ Ø±
ĠØ²ÙĪØ±ÛĮ Ø®
ĠØ¯ÛĮ Ø²
ĠÚ©Ø§ ÙģÙĩ
ĠÙħ ÙĪØ§ÙĨ
Ø¯Ø§ ÙĪÛĮ
ĠÙĨ Ø³Øª
ĠØ® ÙĨØ¯
Ġs et
ĠØ³ÙĪØ¦ÛĮ ÚĨ
ĠÙĤ Ø´Ø±
Ġg ov
ĠØªØ§Ø¨Ø¹ ÛĮ
ĠØ®ØµÙĪØµ Ø§
os a
ĠØ¨Ø± Ø§ÙĨØ¯
ĠØ¹ Ø³
Ùħ Ø³
ĠØ® Ø³ØªÚ¯ÛĮ
ĠØ§ÛĮÙĨ Ø³ØªØ§
Ø·ÛĮ ÙĦÛĮ
ĠØªÙģØ§ Ø¶ÙĦ
ĠØ± Øª
Ø¶ Ø±Ø¨
ĠØ³Ø± Ø¢
ÙģÛĮ Ø¹ÛĮ
Ġb et
ĠØ¨Ø§Ø²Ø® ÙĪØ±Ø¯
Ø§Ùħ ÙĪ
ĠØ®Ø§Øª ÙĪÙĨ
ĠÙĩ Ø§ÙĨØ§
Ùħ Ùħ
ĠÙģ Ø§Ùħ
ĠØ³ÙĪ Ùģ
s a
ĠØ³ ÙħØ±
ØºÛĮ Ø¨
ip t
ĠØ§Ø¹ØªØ¨ Ø§Ø±ÛĮ
ĠØ¯Ø± ÙĪÛĮØ´
ĠØ³Ø§ÙħØ³ÙĪÙĨ Ú¯
ĠÙħØ¹ Ø§ÙĨÛĮ
Ø§Ø³Øª ÙģØ§Ø¯Ùĩ
ĠØ§ÛĮÙĨ Ú©
ĠØ§Ùģ ÙĦØ§Ø·
ĠÙĨÙĪØ± ÙĪÙĨ
ĠØ¬ ÙĨØ±Ø§ÙĦ
ĠÙ¾Ø± ÙĪØ¯
Ġm u
ĠÚ¯ÙĪØ³Ùģ ÙĨØ¯
ĠÙĦ Ø§ÙĨÙĩ
ĠØ±ÛĮ Ø²Ø¯
ĠØ§Ø³Ø¯ Ø§ÙĦÙĦÙĩ
ĠØªÙĨØ§Ø³ ÙĦÛĮ
ĠØ® ÙĦÙģ
ĠÙģØ± Ú¯Ø´Øª
ĠØ³ÛĮ Ø¨Ø±ÛĮ
all y
ĠÚ©Ø§ØªØ§ÙĦ ÙĪÚ¯
ØŃ ÛĮØ¯
ĠØ² Ø§Ø¨ÙĦ
ÚĨ Ú©
ĠØ¨Ø®Ø´ ÛĮØ¯
ĠØ¨ÙĦ Ø®
ĠØ¨Ø± Ø¹Ú©Ø³
ĠÙħÙĦ Ú©ÛĮ
ĠÙħØµØ± ÙģÛĮ
s ch
Ø§ÙĦ Ø²
ĠÙĪ Ú©Ø§Ø±
ĠØ´ ÙĪÙĨ
Ġm iss
ĠÚ©Ø¨ ÙĪØªØ±
Ġaug ust
ĠÙħØ®Øª Ø§Ø±
ĠØ§Ù¾ Ø±Ø§Øª
ĠØ¨Ø´ Ø±Ø¯ÙĪ
ĠÙĨÛĮÙħ Ø§
ne y
ĠØ´Ø±ÛĮ Ø¹ØªÛĮ
r ic
Ø¹ ÛĮØ¯
ĠÙ¾ÙĪØ±ÙĨÙĪ Ú¯Ø±Ø§ÙģÛĮ
ĠÙĨÛĮÙĪÙĩÙħÙ¾ Ø´Ø§ÛĮØ±
ĠØ® ÙĪÚ©
ĠØ§Ø³ Ø¯ÛĮ
ĠÙħÙĪ ÙĩØ§ÛĮ
er v
ĠØ§Ø¸Ùĩ Ø§Ø±Ø§Øª
ĠØ¨Ø³Øª Ú©
ĠØ´Ø± Ùģ
ĠØ³Ø§ÙĨØª ÛĮØ§Ú¯ÙĪ
ĠØ³ÙĪØ³ÛĮØ§ÙĦÛĮ Ø³Ùħ
ĠØ¨Ø± Ùħ
ĠØ±ÙĪØ¯ Ø¨Ø§Ø±
ĠÙĤÙĦÙħØ± ÙĪÛĮ
ĠØ§Ø³ØªÙĪØ¯ÛĮ ÙĪØ²
ĠÚ¯Ø² Ø§Ø±Ùĩ
ĠÙĨ Ø§ÛĮØª
ĠØ³Ø± ÙĦ
ĠØ¨Ø§ÙĨÚ© Ø¯Ø§Ø±ÛĮ
ĠØ¨ ÙħØ§ÙĨ
ĠØ¬ ÙĦÛĮÙĦ
ĠÚ¯ ÙħÛĮÙĨØ§
ĠÙĩÙģØª Ú¯ÛĮ
ĠØ¨Ø§ ÙģÛĮ
Ġb ack
ĠØ¨ÙĨ Ùģ
Ġgr and
ĠØ¢Ø´ ÙĪØ¨
ĠØªÙĩ ÙĪÛĮÙĩ
ĠØ³ÙĨÚ¯ ÙĪØ§Ø±Ùĩ
ĠØ¯Ø§Ø¦ Ø±
ĠØ±ÙĪ Ø¨Ø§Ùĩ
ĠÙĨÙĪØ± ÙħÙĨ
ĠÚĨ ÙĪÙ¾
Ġse pt
ĠØ¨Ø§Ø± ÙĨØ¯Ú¯ÛĮ
ĠÙħØ§ÙĨØ¯ ÙĨØ¯
ĠØ¨ÙĪØª Ùĩ
Ø§ÙĨÙĩ Ø§
ĠÙĪÛĮ Ø³
ĠØ¢ÙĦØ¨Ø± ØªØ§
ĠØ®Ø· Ø±Ø§Øª
ĠØ³Ø± Ú¯Ø°Ø´Øª
ĠØ¹Ø§ÙħÛĮ Ø§ÙĨÙĩ
ĠØ¨ ÙĨØ¬
ĠØ³ÛĮ ÙħØ§ÙĨ
ĠÚ¯Ø±Ø¯Ø´ Ú¯Ø±Ø§ÙĨ
ĠØ³Ø±Ø¯ Ø±
ĠØ¢ Ú©ÙĪ
Ġh ill
ĠÚ©Ø³ Ø±ÛĮ
ĠÙĪØ§Ø± Ø«
ĠØ± Ø§ÙħÛĮÙĨ
br idge
ĠÙ¾ÙĪÛĮÙĨ Øª
ĠØ¬ Ø§Ø´
Úĺ ÙĩØ§ÛĮ
ĠØ§ Ú¯Ø²
ĠÙģ Ø±ÛĮÙħ
ĠØ® Øª
ĠØµ ÙĩÛĮ
es h
Ø¶ ÙĪÛĮ
ĠÙĨØµØ± Øª
ÙĪÙĨØ¯ Ø§ÛĮ
ĠÚĨÙĩØ§Ø±Ùħ ØŃØ§ÙĦ
ĠÙģØ±ÙĪ Ø®Øª
ĠÙĦÙĪØ¦ ÛĮØ²
ĠØ²ÙĨØ¬ ÛĮØ±
ĠÙħØ¹ØªØ± Ø¶
ĠØ§ÙĪ Ù¾ÙĨ
ĠØ¯ÙĪ Ø¬ÙĨØ³
ĠØ¹ÙĤ Ø¯
ĠØ·Ø± ØŃÛĮ
ã Ĥ
ĠÚĺØ± Úĺ
Ġn g
ÙĪÛĮØ± ÙĪØ³
ĠÙĪÙģ Ø§Ø¯Ø§Ø±ÛĮ
ĠØªÙĪ Ú©ÙĪ
Ġs un
Ø²Ø¨ ÙĪØ±
Ġarm en
ĠØ¯Ø± Ø¨ÛĮ
ĠØ§ÛĮ ÛĮ
Ú¯Ø± Ø§ÛĮ
v iew
Ġc n
ĠÙĪÙĦ Øª
Ġle g
ĠÙħØ·Ùħ Ø¦ÙĨ
ĠÙĨ Ø«Ø±
ĠÚĨ Ø§Ø¯Ø±
ĠØ· ÙĩÙħ
ĠØµ Ø±ÛĮØŃ
ĠÚ©Ø± Ø§ÛĮ
Ġc as
Ġm ill
ĠØ´ÙħØ´ÛĮØ±Ø¨ Ø§Ø²ÛĮ
ĠØ³ÙĪØ§Ø±Ú© Ø§Ø±Ø§ÙĨ
Ñ ı
ĠØ¢ ÙĪÛĮØ²
ĠÚ¯Ø±ÙģØª Ø§Ø±
Ġl ab
ĠØ¢Ø±ÛĮ Ø§ÛĮÛĮ
ov er
Ġwin d
Ø´ ÙĪÛĮÛĮ
ĠØ³Ø± Ø§ÙħÛĮÚ©
ĠØ¬Ùħ Ø§Ø¹Øª
ĠØ¨Ø§Ø± ÙĪØ±ÛĮ
ĠØ¬ÙĪ Ø¬Ùĩ
ĠÙģØ³ ÙģØ§Øª
ĠÙ¾ÛĮ Ø´Ú©
ĠØªØ¬Ø±Ø¨ÛĮ Ø§Øª
Ġa ra
Ġth at
ĠØªØ§ÙĨØ² Ø§ÙĨÛĮØ§
ĠÙĤ ÙĨØ¯Ùĩ
ĠØ§Ø¹ ØªÛĮ
Ø³ÙĦ Ùħ
ĠÙģÙĪÙĦ Ø§Ø¯ÛĮ
ĠÙĩØ§Ø¦ ÛĮØªÛĮ
ĠØ¹Ø¶ ÙĦØ§Øª
ĠÙĨØ§Øª ÙĪØ§ÙĨÛĮ
Ġs um
ĠÚ©ÙĪ Ø¨
ĠØ² ÙĪ
ĠØ§ÛĮØ± ÙĦØ§ÛĮÙĨ
Ġst ad
Ġstre et
ĠÙģ Ø§ØªØŃ
ĠÙħØ³ÙĦ Ùħ
Ø§Ú©ÛĮ Ø§ÙĨ
ĠÙģÙĦÙĪØ± Ø§ÙĨØ³
Ø§ÙĨ ÙĪØ³
ĠØ² Ø¨
Ø§Ù¾ Ø±
ĠØ§Ùģ Ø´ÛĮÙĨ
ĠØ¨Ø§Ø´ ÛĮ
ĠØªØ¦ ÙĪØ¯ÙĪØ±
ĠØ±ÙĤØµ ÙĨØ¯Ú¯Ø§ÙĨ
Ġpar is
ĠÙħØ§Úĺ ÙĪØ±
ĠØ¢Ø±ØªØ³ Ø§Ø®
ĠÙħØ¹ ÛĮÙĨÛĮ
ĠÙĪÙĦÛĮ Ø¹ÙĩØ¯
ĠÚ¯ÙĪØ§Øª ÙħØ§ÙĦ
ĠÚ¯ ÙĪØ±Ú©
ĠÙħÙħØª ÙĨØ¹
e p
ĠØ§Øµ Ø§Ø¨Øª
ĠÙħÙĨØµ Ø¨
ĠØ¯Ø³ØªØ§ÙĪØ± Ø¯ÙĩØ§ÛĮ
Ø§ÙħÛĮ Ø§ÙĨ
at s
ÙĪØ§ Ø³ØªÙĩ
Ġr em
ĠØ¯ÛĮØªØ± ÙĪÛĮØª
ĠØ§ÙģØªØª Ø§ØŃÛĮÙĩ
ĠÙ¾Ø±Ùĩ ÛĮØ²
Ø¬ Ø¯
ĠÙĨØ§Ùħ Ø¯Ø§Ø±
ĠØº Ø²ÙĨ
ĠÙģØ±ÙħØ§ÙĨ Ø¯Ø§Ø±Ø§ÙĨ
ĠÚ© ÙĨØ¯Ùĩ
ĠÙĨÚ¯Ø± ÙģØª
ĠØ¯Ø² ÙģÙĪÙĦ
ĠØ¨Ø§ Ø¯ÙĨ
ĠÙħÙĦ Ø§ÛĮØ±
Ġu d
ĠÙĤ Ø§Ø³ÙħÛĮ
ÙĪÙĦ Ø§ÛĮ
ĠÙĨÙĪ Ú©ÙĦ
ĠØ§ÙĦÙħ Ù¾
ĠØ¢Ú©Ø§Ø¯ ÙħÛĮÚ©
ĠØ³Ø§ÙĦÛĮ Ø§ÙĨÙĩ
ĠÚ©ÙħÙĪÙĨÛĮ Ø³Ùħ
ĠÙĦ Ø§ÛĮØª
ĠØ§ ØªØ±
ĠØª Ø§ÙĦÛĮ
Ø¨ÛĮ ÙĪÙĨ
ĠØ¬ÙĨ Ø§Ø²Ùĩ
Ġde p
ĠÚ©Ø§Ø± Ø¯ÛĮ
ĠØŃØ¯ÙĪØ¯ Ø§
ĠÙĪØ§Ø±Ø¯ Ø§Øª
ĠØ§ÛĮØ²ÙĪØª ÙĪÙ¾
Ø° ÛĮØ¨
ĠÙ¾Ø³ ÛĮÙĨ
ĠØ·ÙĦ Ø¨ÛĮ
Ġgre at
ĠÙĨØ§ÙħÙĪÙģ ÙĤ
ĠÙħØ¯ ÙģÙĪÙĨ
Ø§ØŃ Ø¨
Ø³ Ø§Ø¯
ĠÙ¾Ø¯ÛĮØ¯ Ø¢
Ġh all
ĠØ¹Ùģ ÙĪÙĨÛĮ
ĠÙĪ ÙģØ§Øª
ĠØ§ÙĪ Ø¨Ø±
ar ch
ĠØ®ÙĪØ§Ùĩ Ø±Ø§ÙĨ
Ø§Ú¯ ÙĪÙĨ
ĠÙģ ÙĨÙĪÙĨ
ĠØªØ§ÙĦ Ø´
ĠÙĪØ§Ø¬ Ø¯
ĠÙħ ÛĮÚ©Ø³
ĠØªØ± ÙħÛĮÙħ
Ġmich ael
ĠØ§Ø¨ ÙĪØ¨
ÙĩØ§ÛĮ Øª
er a
Ġa h
ÙĪØ³ Ú©
ĠØ³Ø§ÙĨØªÛĮ Ú¯Ø±Ø§Ø¯
Ø¯ Ø´Øª
ĠÙĪ ÙĨØª
Ø¶ Ø§Ø±
ĠØ¯Ø§Ø± ÙĪØ³Ø§Ø²ÛĮ
ĠØ§Ùħ Ø±ÛĮ
ĠØ¬ÙĨÙĪØ¨ Ú¯Ø§ÙĨ
Ġfl ag
ĠÙħØªØ¹Ø§ÙĤ Ø¨Ø§
ĠÚĨÙĨØ¯Ú¯Ø§ÙĨ Ùĩ
Ġc amp
at ive
ĠÚ¯Ø°Ø± Ø§ÙĨØ¯ÙĨ
ĠÙĨ ÙģÛĮ
ĠØ®ÙĪØ´ Ø¨
ĠØ§ÙĦÙĨÙĩ Ø§Ø±
g en
ĠØ¨Ø± Ú©
ĠÙħØ¬ Ø§Ø±
Ġgro up
ĠØµÙĪÙģ ÛĮÙĩ
ĠÙħÙĨ Ú¯
ĠÙĦ Ø§ÙĩÛĮ
Ġv iz
ĠÚ¯Ø±Ø¯ ÙĪ
ĠÚ©ÙĪØª ÙĪÙĦÙĩ
ĠØ¯Ø± Ùħ
Ù¾Ø± Ø³ØªÛĮ
Ø§Ø· Ø¨ÛĮ
ĠØ¹Ùħ Ø§Ø¯
ÙĪØ¨ Ø±ÛĮ
ĠÙĩÛĮ ÙĪ
ĠÙ¾ÙĪ Ø³ØªØ±
ĠØ¨Ø±Ø¯Ø§Ø´Øª ÙĨ
ÛĮØ± ÙĪØ§ÙĨ
ĠÛĮ Ú¯Ø§ÙĨÙĩ
ÙĪØ´ ÙĨ
Ġr iver
ĠØ§ÙħØª ØŃØ§ÙĨ
Ø± Ø²ÛĮ
Ø±Ø§ Úĺ
ĠÙĦ Ø·ÛĮ
ĠØ¢Ø± Ø´ÛĮ
ĠØŃÙħ Ø²Ùĩ
ĠØ§ÙĪØ±Øª ÙĪÙĨ
ĠØ§Ø± Øº
ĠØ±ÙĪÙħ Ø§ÙĨÛĮØ§ÛĮÛĮ
ĠÙħØ¯ Ø§Ø±ÙĩØ§ÛĮ
ĠÙģ Ø§ÛĮÙĨ
ĠÙĪÙĤ Ùģ
ĠØ´Ø§Ø± Úĺ
ĠØ³ Ø¯Ø§ÙĨ
ĠÙħØª Ùĩ
ĠÙħØ§Ø± ÛĮÙĨ
ĠÙĩÙĨØ± Ø³ØªØ§ÙĨ
Î ±
ĠØ¨ Ø§ÙĦÛĮ
ĠØ¸ Ø±ÙĪÙģ
Ġs d
ĠÙ¾ ÙĪÙħ
ÚĨ Ø§
Ġeur ope
Ø§Ùĩ ÙĦÛĮ
ĠØ¶ Ø§ÛĮ
Ù¾ÙĨ ÙĩØ§
ĠØ³ÛĮ Ø§Ùħ
ĠÙĨÙĪØ´Øª Ø§Ø±
ĠÙħØ´ Ø±ÙĤ
ĠØ¨ÙĦ ÙĪØ·
ĠØ´ÙĪ Ú¯ÙĪÙĨ
ĠØªÙĦÙģ ÙĨÛĮ
ĠÙħØ¹ Ø§ÙħÙĦ
ÛĮÙĨÚ¯ ÙĪ
an ge
ĠÙħØ´Ú©ÙĦ Ø§ØªÛĮ
Ùħ Ø¨Ø±Ú¯
ĠÙģÛĮÙĦÙħ Ø²
ĠÙĨØ§ÙĪ Ø´Ú©ÙĨ
ĠØ¯Ø¨ÙĦÛĮ ÙĪØ¯
ĠÙħØ§Ùĩ Ùĩ
ĠÙĦÙĪØ¯ ÙĪÛĮÚ¯
ÙĨ ÙģØ±Ùĩ
ĠÚ¯ ÙĪÛĮØ§ÙĨ
Ġde f
ĠØªØ±Ø´ ØŃ
ĠØµ ÙĪØª
Ġgre en
ĠØªØ¯Ø§ Ø®ÙĦ
ĠÙħØªØ£ Ø³Ùģ
ÙĪÚ© Ø³ÛĮ
ĠÙħØ´ Ø§ÙĩØ¯Ø§Øª
ĠÚ©Ø§Ùħ Ø¨ÙĪØ¬
ĠØ±Ø§ÙģØ§ Ø¦ÙĦ
Ġs ar
Ġb al
Ù¾Ø± Øª
Ø° Ø¨
Ġb ur
Ġw as
v a
ĠØ§Ø³Ú© Ø§ÙĨ
ĠØ±ÙħØ² Ú¯Ø°Ø§Ø±ÛĮ
ĠØ³ÛĮÙħ ÛĮÙĨ
Ð ¼
ĠØ§ÙĦ Ø²Ø§Ùħ
ĠÚ¯Ø± Ø§ÙĩØ§Ùħ
ĠØ¬ ÙģØ±ÛĮ
Ġm el
ĠÚ¯ÙĦ Ø§Ø³
ĠÙħØ³Ø§ÙģØ± Øª
ĠØ±Ø§ÙĩØ¨Ø±Ø¯ ÛĮ
ĠØ´ Ø¬
ĠØ¯ÛĮ ÙģØ±
ĠÙĪØ± ÙĪÙĨØ§
ĠÙħÙĩ ÙħØ§ÙĨÛĮ
ĠÙ¾Ø§Ù¾ ÙĪØ¢
ĠØ·ÙĦÙĪ Ø¹
d en
ĠÙĤ Ùģ
ĠØ´Ú©Ø³Øª Ú¯ÛĮ
ĠØ¢Ù¾ Ø§Ø±ØªÙħØ§ÙĨ
ĠØ¯Ø¨ Ø³ØªØ§ÙĨ
j a
ĠØ¯Ø± ÙĪØ³
Ø§Ùħ ÙĪØªÙĪ
ĠØ¨ÙĪØ¯ Ø§
it z
ĠÚ©ÙĦÛĮÙĨ ØªÙĪÙĨ
ĠÙħ Ø§Ùģ
ĠÙĩÛĮ Ø¯Ùĩ
ĠÚ©ÛĮ ÙĪØªÙĪ
ÙĦØ¦ Ø§ÙĨ
ĠØ¨ Ø°Ø±
Ġs ant
ĠÙħØ« Ø¨ØªÛĮ
ĠØ³ÙĪÚ¯ ÙĨØ¯
Ġmic ro
ÙĤ Ø¶
ĠÙĪØ§ØŃ Ø¯ÙĩØ§
ĠØ§ÙĨØª Ú¯Ø±
ĠØ¯Ø¨ÙĦÛĮÙĪØ¯ Ø¨ÙĦÛĮ
ĠØ³ÙĪÙħ Ø§ÙĦÛĮ
Ġr f
ĠØ§Ø´Øª ÙĪØª
y an
ĠÙģÙĪÙĦ Ú©ÙĦ
ĠÚĺÙĨ ÙĪÙħ
ÙĨ ÛĮØª
Ġpl at
ĠØ§ÙĪ Ø³ØªØ§
ĠÙ¾Ø³ ÙĪÙĨØ¯
ĠØ¯Ø³Øª Ø§ÙĪØ±Ø¯
ĠÙĤÙĪÙħ ÛĮØª
ĠØ§Ø±Ø³ Ø·ÙĪ
c i
or o
ĠØ§Ø®ØªÛĮ Ø§Ø±Ø§Øª
ĠØ¯Ø± Ø´Øª
Ø° Ùĩ
ĠÙĩÙĪ Ú¯ÙĪ
ĠØ³Ùħ Ù¾
k er
l ish
ĠØ¨ÛĮÚ© Ø±
ĠÙģØ¶Ø§Ù¾ÛĮÙħ Ø§ÙĩØ§ÛĮ
ĠØ² ÙĩØ±Ùĩ
Ġa ustr
Ø² ÛĮØ§
ĠÙģØ± Ø§Ø·Ø¨ÛĮ
Ġd ata
ĠÙħØ³Ø¬ Ø¯ÙĩØ§ÛĮ
ĠÙ¾Ø´ØªÛĮ Ø¨Ø§ÙĨ
ĠØ¨Ø§Ø² Ú¯Ø´ØªÛĮ
ĠØ§ÛĮÙĨ Øª
o ol
ĠØ¯ÙħÚ© Ø±Ø§Øª
ĠÙĨ ÙĤÛĮ
ĠØµØŃ Ø±Ø§
ĠØ¨Ø¯Ùĩ ÙĨØ¯
ĠØ¹Ø§Ø· ÙģÛĮ
ĠÙģ Ø§Ø³
ĠØ¢ÙĦ Ùħ
ĠØ§Ø¹ØªÛĮ Ø§Ø¯
ĠØ§ÙħÛĮØ¯ ÙĪØ§Ø±
ĠØ¶ÙĦ Ø¹ÛĮ
ÙĪØ¦ ÙĪÚ©Ø§
ĠØ§Ø¯ ÙĪ
ĠØ¬ÙħÙĩÙĪØ± ÙĩØ§ÛĮ
fer ence
ĠÛĮØ§Ø¯ Ú¯Ø§Ø±
ĠÙĦØ² ÙĪÙħ
Ġr ock
Ġth om
ĠÙħ Ø¨Ùĩ
ĠÙĪÛĮØ¯Ø¦ ÙĪÛĮ
Ùģ Ú©Ø±
ĠÙĦ Ú¯
ÙĪØ¯ ÙĪ
ĠØ´ÙĩØ± Ø³Ø§Ø²ÛĮ
Ø¨Ø± Ø§ÙĨ
at ure
ĠÙħÙĦ ÙĪØ¯ÛĮ
ĠÛĮÚ© ÙĨÙĪØ§Ø®Øª
ĠÙħØŃ ÙĪØ±ÛĮ
ĠØºÙĦ Ø·
on a
ĠØ§Ø±Ùħ ØºØ§ÙĨ
ĠÚ© Ù¾ÙĨÙĩØ§
Õ¡Õ ¿
ĠÚ©Ø§Ùħ Ø±Ø§ÙĨ
Ø§Ùħ ÙĨÙĩ
ĠØ¢ ØªÛĮ
Ú¯Ø± Ø§ÛĮØ§ÙĨ
Ġs ing
Ġt re
Ø²Ø± Ø³Ø§ÙĨÛĮ
id a
ĠØ¨Ø§ÙĦØ§Øª Ø±ÛĮ
ĠÙħÙĪØ´Ú© ÛĮ
Ġ Ã©
ĠØ¨ÛĮ ÙĪÙĦÙĪÚĺÛĮÚ©ÛĮ
Ø± Ø§ÛĮÙĨ
Ø¨ Ø¯ÛĮ
Ø§ÙĦ Ø«
ĠÙ¾ Ø³ØªÛĮ
ĠØ±Ø³ ÙĪØ§ÛĮÛĮ
ĠÙ¾Ø§ÙĦ Ø§ÛĮØ´Ú¯Ø§Ùĩ
ĠØ¯ÙĪØ³ØªØ§ÙĨ Ø´
ĠØªØŃ Ø±Ú©
ĠØªÙħØ¯ ÛĮØ¯
ĠÙģØ±ÙħØ§ÙĨØ±ÙĪ Ø§ÛĮØ§ÙĨ
Ø¯Ùĩ Ø¯
ĠØªÙĦ Ú¯Ø±Ø§Ùģ
Ġjun e
Ġv is
ĠØ¬ÙĪØ¯ ÙĪ
ĠØ§Ø¨Ø±ÙĤÙĩØ± ÙħØ§ÙĨ
ĠØ§Ø³ ÙħÛĮ
ÙģØ± Ø§Ø²
ĠÙħØ±Ø¨ÛĮ Ú¯Ø±ÛĮ
Ġhist or
ĠÙĨ ÙĩØ±
f ield
ĠØ¨ Ø®Øª
ĠÙĨØ§Ùħ ØŃ
ĠØªØ§Ø¨Ø¹ Ùĩ
ĠØª ÛĮØ³
ĠØ§ÙĪ ÛĮÙĨ
ĠÚĺ ÙĨØ±
ĠØ¨Ø¯ ØªØ±ÛĮÙĨ
ĠÙħÛĮÚ©Ø±ÙĪ Ø³Ú©ÙĪÙ¾
ĠÚĨ Øº
ÛĮØ¯ ÙĪ
ĠØ¯ÛĮÙģØ± Ø§ÙĨØ³ÛĮÙĦ
Ø® ÙĪØ§ÙĨØ¯Ùĩ
Ġl ong
Ġv i
ĠÙģØ± Ø§ÙĨØªØ³
ĠØ´Ø§Ùĩ Ø²Ø§Ø¯Ú¯Ø§ÙĨ
ĠÙĤØ³ Ø·ÙĨ
ĠÙģØ±Ø§Ùħ Ø±Ø²
ĠØ¨Ø±Ø§ÙĨÚ¯ÛĮ Ø®Øª
ĠØ²Ø±ØªØ´ØªÛĮ Ø§ÙĨ
u ary
ĠØªØŃÙĤ ÛĮØ±
ÙĤ ÛĮÙĨ
ĠÙĩ ÙĦØ§ÙĦ
ĠØ¹ ÛĮÙĨÛĮ
ĠØ±Ø§ÙĨ Ø¯Ùĩ
ĠÙĩ ÙĪØ¯
ĠØ³Ø¹ Ø§Ø¯Øª
ĠØ§Ø´ØªÙĪØª Ú¯Ø§Ø±Øª
ĠØ§ÙĨ Ø¨Ø§
ĠØ´ÙĪÙĩØ± Ø´
ĠÙģØ±Ø§Ø·Ø¨ÛĮ Ø¹ÛĮ
ĠØ¯ÙĪØ± ØªÙħ
ĠØ¯ÙĪØ´ÛĮ Ø²Ùĩ
ĠÙĤØ³Ø·ÙĨ Ø·
ĠØªØ§ÙĦ ÛĮÙĨ
Ø¬ Øª
ĠÙĪØ§Ø± ÙĨ
ÙĦ ÛĮÙĨÚ¯ØªÙĪÙĨ
ĠØ® ÙģØ§
Ø« ÙĦ
ĠÙĩØ± ÙħØ§ÙĨ
ĠØ²ÛĮØª ÙĪÙĨ
ÙĦ ÙģÙĩ
Ø® ÙĪØ§ÙĨÛĮ
ĠØ§Ø³ ÙģØ±
Ġj ames
ĠÙ¾Ø§Ø±Ø§ÙħØªØ± ÙĩØ§ÛĮ
Ø§Ø± ÛĮÙĨ
ĠØ³Ùĩ ÙħÛĮÙĩ
Ã¼ r
ÙħØ¯ Ø§ÙĨ
Ġm it
Ġk a
Ġc in
ĠØ´Ú© Ø§Ø±ÛĮ
ĠØ¬Ø§ Ø³ØªÛĮÙĨ
ĠØ§ÙĨÙģ Ø¬
ĠØ§ÛĮÙĨØ³ØªØ§ Ú¯Ø±Ø§Ùħ
Ø§Ùĩ Ø¨
ĠØªØ± ÙĤÛĮ
Ø§Ú© Øª
ĠÚĺ ÙĪØ²Ùģ
ĠÙĩÛĮÙĦ Ø²
Ø²Ø¨ Ø§ÙĨÙĩ
ĠÙģÛĮ Ø¶
ÙĤ Ø§Ùħ
Ø§Ø¯ ÛĮÙĨ
ĠÙħØŃ ÙĦØ§Øª
ĠÚ©ÙĪØ²ÙĪ ÙĪ
ĠÚ©Ø§Ø± Ø¯
ĠÚ©Ø± ÙĪÛĮ
ĠØ¢Ø´ Ø§Ùħ
ĠÙħÙĪÙĦ Ø¯Ø§ÙĪÛĮ
ĠÚ¯ÙĨØ¬ Ø§ÙĨØ¯Ùĩ
ĠÙĨØ§Ø³ÛĮÙĪÙĨ Ø§ÙĦ
ĠØªØ³ÙĦÛĮ ØŃØ§Øª
ĠØ¨Ø§Ø² Ø¯Ùĩ
ĠØ¨Ø§ÙĦ Ø§Ø¯ÙĩØ§ÛĮ
ĠØ¯ÙħØ§ ÙĪÙĨØ¯
ĠØ²Ø§Ú© Ø³ÙĨ
ĠÚ¯ Ø±ÛĮÙĩ
ĠÙħØ´Øª ÙħÙĦ
ĠÚ©ÙĪØ± ÙĨ
ĠÙħØ¬ ØªÙĩ
ĠØ¯ÛĮÙĪ Ø§Ø±ÛĮ
Ġret r
Ġo h
gr am
ĠØ§ÛĮØ±ÙĦØ§ÛĮÙĨ Ø²
ÙĪÚ© Ùĩ
ĠØ§ÙĦØ§Ø³ ÙĦØ§Ùħ
ĠØ² ÙĨØ§
ĠØ¯ÛĮ Ùĩ
ĠØ±ÛĮ Ø§ÙĦ
ĠÙĨ Ù¾Ø°ÛĮØ±
ĠØ¨Ø§ Ø¬
Øº Ø¯
ĠÙħØ³ Ø·ØŃ
Ġm ain
ĠØŃÙħÛĮØ¯ Ø±Ø¶Ø§
ĠØªØ´ÛĮ Ø¹
ĠØ§ÙĦÚ©ØªØ± ÙĪÙĨÛĮ
ÙĪØ³ÛĮ Øª
ĠØŃØ§Øª ÙħÛĮ
ĠØ¨ ØµØ±Ùĩ
ĠØ° Ø§Øª
id ades
ĠÙĤØ³Ø·ÙĨØ· ÙĨÛĮÙĩ
ĠØ¹ Ø§Ø±
Ø« ÛĮØ±ÛĮ
ĠØ¬Ùĩ ÙĨÙħ
ĠÙħØ³ÙĦ Ø·
ÙĦØ³ ÙĦ
Ġl ou
Ġinst it
ĠØª ÛĮÙĨ
ĠØ§Ø² Ø¬ÙħÙĦÙĩ
ĠÚĨØ±Ø§ Ú©Ùĩ
Ġd oc
Ġh is
Ġv e
ĠØ¹Ø¨Ø§Ø± ØªÛĮ
ĠÙ¾ÚĺÙĪÙĩØ´ Ú¯Ø§Ùĩ
ĠØ±Ùĩ ÙĨ
Ø§ÙĨÛĮ Øª
Ġd ar
Ø±Ø§ÙĨ Ú¯
ĠØ³Ø§ ÙĪÙĩ
ĠØºÛĮØ± Ø¯
ĠØ³ÙĪØ¦ ÛĮØ³ÛĮ
Ġapr il
ÙĨØ§Ø· ÛĮØ³
ĠØ¯ÙĪÙħÛĮÙĨ ÛĮÚ©ÙĨ
ĠÚ¯ÙĪØ³Øª Ø§ÙĪ
ĠØ¯ÙĪØ±ØªÙħ ÙĪÙĨØ¯
ĠÚ©Ø± Ø§ÙĨ
ĠØ¯Ø³Øª Ú©Ø§Ø±ÛĮ
ĠØªØµ Ø§ØŃØ¨
ĠØ¹Ø±ÙĪ ÙĤ
ĠÙ¾ÙĦØ§ Ø³ØªÛĮÚ©ÛĮ
ĠÚ©Ø§Ø³ Ùĩ
Ú© ÛĮÙħ
ĠØ± Ú©ÙĨ
ĠÙĦ ÙģØ¸
Ø§Ø±Ú© ÙĨÙĨØ¯Ùĩ
ĠÚĨÙĨÚ¯ ÛĮØ²
ĠØ³Ø¨Ø§ Ø³ØªÛĮÙĨ
Ġd b
ĠØ¬Ø§ÙĨ Ú¯
u a
ĠØ§ÙĦ Ú©ÙĦÛĮ
ĠØ¹Ø¨Ø¯Ø§ÙĦØ¹ Ø²ÛĮØ²
in han
ĠØ±Ø¦ÛĮØ³ Ø§ÙĨ
ĠÙħØ¹ÙĨ Ø§ÛĮÛĮ
h er
Ø§ Ø³ØªÙĩ
ÙĤ ÙĨØ¯
ĠÙħÛĮ Ø³
ĠÙħØ³Øª ØŃ
ĠØ³ÛĮÚ© ÙĦ
ĠØ¨Ø± ÛĮØ¯Ùĩ
ĠÚ©Ø§Ø± ÛĮÚ©
ĠÙĩØ± Ø¨Ø±Øª
ĠÙ¾Øª Ø§Ø³ÛĮÙħ
ÛĮØ¯ Ø§Ø¯
Ġc ir
ĠØ¢Ø± Ø§Ø±Ø§Øª
ĠØ§Ø³ØªÙĤ Ø§ÙħØª
ĠØ§Ø¨ÙĪØ¨ Ú©Ø±
ĠØ±Ø§ÙĨ Ø§ÙĨ
ĠÙ¾ ÙĪÙĨ
ĠÙĤ Ø§Øª
ĠØ§Ø³ Ø§Øª
ĠØªØ¹ Ø¨ÛĮÙĩ
Ġsh ow
ĠØªÙĪÛĮ ÛĮØªØ±
ĠØŃ ÙĨ
Ġlocal idades
ĠÙ¾ ÙĪÙ¾
ĠØ§Øµ ÙĦØ§
ĠÙĨÙģØ± Øª
ÙĪØ±ØªÛĮ ÙĪÙĪ
Ġviz inhan
ĠÙģÙĪÙĦÚ©ÙĦ ÙĪØ±
Ġvizinhan Ã§a
Ø¬ÛĮ ÙĪ
ĠÙħØº Ø±Ø¨
Ġis o
ĠØŃØ¬ Øª
ĠÙħØ§Ø¯Ø±Ø¨ Ø²Ø±Ú¯
Ġs el
Ġ Ñģ
ĠØ§Ø³Øª Ø±ÛĮØª
Ø§Ø¦ ÛĮÙĩ
ĠÙ¾ ÙĪÛĮ
ĠØ¹ Ø·Ø±
ĠÙĦ Ø¦ÙĪ
ĠØ³ÛĮ Ø§ØªÙĦ
ĠÚ¯ÛĮ Ú¯
Ġon line
ĠÙĦØ§ÛĮ Ù¾Ø²ÛĮ
ĠÙ¾ÛĮÙĨ Ú©
ĠÙĩØ±Ú© ÙĪÙĦ
ĠØªÙĪØ±ÙĨ ÙħÙĨØª
v ent
Ø§Øª Ø±Ø§
ĠÙħØª ÙĨÛĮ
ĠÙ¾Ø±ÛĮÙĨ Ø³ØªÙĪÙĨ
Ġhol ly
ĠØ¨Ø§ ÙĪØ±ÙĩØ§ÛĮ
ĠØº Ø±ÙĪØ¨
ÙĨÛĮÙĨ Ú¯
ĠÚ©ÛĮÙģ Ø±ÛĮ
ĠØ§ÙĦØŃ Ø§ÙĤ
ÛĮÙĨÛĮ Ø§ÙĨ
Ġl ive
Ġd en
ĠÚ©Ø§Ø² Ø±ÙĪÙĨ
ĠÙħÛĮ ÙĪØ²
ĠÙĤ Ø±Ø§Ø¦
ĠÙ¾Ø§Ø±Ú© Ø±
ĠÙĨÛĮ Ø³
ĠØ§Ø¹ ÙĦØ§ÙĨ
ĠØ§Ú©Ø« Ø±Ø§
ĠØ§ÙĪ Ú¯Ø§ÙĨØ¯Ø§
ĠÚĺ ÛĮ
ĠØº Ø¨Ø§Ø±
ĠÙħØ®ØªØ± Ø¹Ø§ÙĨ
ĠÙħ Ø§ÛĮÙĨ
ĠÙħÙĨØªØ´Ø± Ø´Ø¯Ùĩ
ĠÙģØ±ÙĪØ´ ÙĨØ¯Ùĩ
ĠÙĪØ³Øª ÙģØ§ÙĦ
ĠØ¹Ø¨Ø§Ø³ÛĮ Ø§ÙĨ
ĠØ± Ø¨ÙĪØ¯Ùĩ
ĠØ´ Ø§ØªÙĦ
ĠØ´ ÙħØ±Ø¯Ùĩ
ĠÚĨ Ø±Ø¨
ĠØ§ØŃ Ø¶Ø§Ø±
Ù¾ÙĪ Ø³ØªØ§ÙĨ
ĠØ§ÙħÛĮØ± ØŃØ³ÛĮÙĨ
ĠØ³ Ø§ÛĮØ²
ĠØ¢ ÙĪÛĮÙĪ
ĠØ±ØŃ ÛĮÙħÛĮ
ĠØ¨Ø§Ø±Ø³ÙĦ ÙĪÙĨ
ĠØ´Ø¬ Ø±ÛĮØ§ÙĨ
Ø¸ Ø§Øª
ĠÙħÚ©Ø§ÙĨÛĮ Ø²Ùħ
ĠÙģØ±ÙĨØ§ÙĨ Ø¯ÙĪ
Ø§Øª ÙĪØ±ÙĩØ§ÛĮ
Ø§Ø¬ Ø¯
ÛĮÙĨ Ø³ÙĪÙĨ
ĠØ§ÙĨ Ø§Ø±
Ġn or
ĠØ´Ø§ÙĨ Ø²Ø¯Ùĩ
ĠÙĨØ§ÙĤ Øµ
ĠØ®ÙĪÙĨ ÛĮÙĨ
ĠÙĨØ§Øµ Ø±ÛĮ
ĠÙħ Ø²Ø¨ÙĪØ±
ĠÙĨÛĮ ÙĪØªÙĨ
Ø¨Ø§ÙĤ Ø±
d b
Ú© Ø±ÛĮÙħ
ĠÙĨ ÙĦØ³ÙĪÙĨ
ĠØ§Ø± Ø§ÙħÙĨÙĩ
u ch
ĠÙĪ Ø¨Ø±
ĠØ³Øª ÙĪØ§ÙĨ
ĠØ± Ø¨Ø§
ĠØ§Ø³ ÙĨÙĪ
Ġs f
ĠØªØ§Ú© Ø³ÛĮ
ĠØ±ÙĨ Ø¬Ø±Ø²
ĠÙħØ¯ Ø§Ø±ÛĮ
Ġd om
Ġlin k
ĠØ¨ÛĮ ÙĪØªÛĮÚ©
ĠÚ¯ÙģØª ÙĨ
ĠØ± Ú¯ÛĮ
ĠØ§ØªØµ Ø§ÙĦØ§Øª
Ø§Ø³ Ù¾
Ġb ut
Ġmon t
ĠØ±ÛĮÙħ ÙĪÙĨØ¯
ĠØ´Ùĩ ÙĪØ§ÙĨÛĮ
ĠØ¨Ø§Ø² ÛĮØ§ÙģØª
ÛĮØ§ Ú©
in k
ĠÙĨÙĪØ§Ø² ÙĨØ¯Ú¯ÛĮ
ĠÙĨØ§Øª ÙħØ§Ùħ
ĠÙħØŃØ± ÙħØ§ÙĨÙĩ
ĠØ¢ÙĦ Ø§ÛĮ
ĠØ§Ú© ØªØ³Ø§Ø¨
ĠÙ¾ÛĮÚ© Ø±Ø¨ÙĨØ¯ÛĮ
ĠÙĦØ§Øª Ø²ÛĮÙĪ
Ø§Ùĩ Ùĩ
ĠØ±Ø§ Ø¶ÛĮ
ĠÚĨ Ø³ØªØ±
ÙħÙĩ Ø¯ÛĮ
Ø§ÛĮØ¯ ÙĪ
ĠØ¬ÙģØ± Ø³ÙĪÙĨ
ĠÙĪØ§ Ú¯Ø°Ø§Ø±ÛĮ
ĠØ¢Ú¯ ÙĩÛĮ
ĠØªÙĪÚ©ÙĪ Ú¯Ø§ÙĪØ§
ĠÙ¾ÙĪØ±ØªÙĪØ± ÛĮÚ©ÙĪ
ĠÙģØ± Ø¶ÛĮ
ĠÚ¯ÙĦ Ø®Ø§ÙĨÙĩ
ĠÙħØªØ£Ø³Ùģ Ø§ÙĨÙĩ
ĠØ¯Ø§ Ú¯
ĠÙĤØ±Ø§Ø± Ú¯Ø§Ùĩ
ĠÚ©Ø§Øª Ø§ÙĦÛĮØ²
ĠØ§Ø³ÙģÙĨØ¯ÛĮ Ø§Ø±
ĠØ§ØŃ ÙĪØ§ÙĦ
ÙĪÙĨØª Ùĩ
Ġro ad
ĠØªÛĮØ±Ø§ÙĨØ¯ Ø§Ø²
ĠÙĦ Ø§ÙĪ
ĠÙĦÛĮ Ø¯
ĠØŃØ³ Ú¯Ø±
ĠØ±ÛĮØ² Ø´
ĠØ±ØŃ ÙħØª
ĠÙħØŃÚ©ÙĪÙħ ÛĮØª
Ø§Ùĩ ÙĨÚ¯
ĠÙħØ·Ø¨ÙĪ Ø¹Ø§ØªÛĮ
ĠØ§ Ø´ÛĮ
ĠÚ©Ùħ ÛĮØª
ĠÚ©ÙĦ ÙĪÙ¾
ĠØªØ´ Ø±ÛĮÙģ
ĠØ±Ú© Ø§Ø¨
Ġsc ience
ĠØ¯Ùģ Ø§ØªØ±
ĠÙĨÛĮØ§Ùħ Ø¯Ùĩ
ĠÚĺÙĪØ±ÙĨ Ø§ÙĦ
ĠÚ¯ÙĪØ§ØªÙħØ§ÙĦ Ø§
ĠØ§Ø´ Ø¹
ĠØ§Ùģ Ø´Ø§
ĠØ¨ÙĪ Ú¯
ĠÙ¾Ø§Ø± Ø§Ø¯
ĠÙħÙĨØ¸ Ø±Ùĩ
ĠÙħØ³ÙĦØŃ Ø§ÙĨÙĩ
Ġaward s
ĠØ§ÙģØ±Ø§ Ø·ÛĮ
ĠÙĦØ§ÛĮÙ¾Ø²ÛĮ Ú¯
Ġh al
ĠÙĪØ²Ø§Ø±Øª Ø®Ø§ÙĨÙĩ
ĠØŃ Øµ
ĠÙĨÙĪØ´Øª Ø§Ø±ÛĮ
ĠÙ¾Ø§ÙĦ Ø³
ĠÙ¾ Ø²
ĠÙ¾ Ø§Ø³Øª
ÙĪÛĮØª Ø³
Ġd c
ĠÙĪØ§Ø³ Ø·
ĠØ§Ø³Øª ÙĪØ§ÛĮÛĮ
ĠÙ¾ÙĨØ¬ Ø§Ø¨
ĠÙĨÛĮÚ© ÙĦ
ĠØ¢ÛĮØ¯ Ø§ÙĩÙĪ
Ġlib r
ĠÙ¾ Ø±ÛĮØ´
ĠÚ©Ø± Ø§Ùħ
ĠÙħÛĮØ§ÙĨ ÙħØ§Ø±
ÙĪÙĨÛĮ Ø§ÙĨ
Ġh en
ĠØ§ÙĤ ÙĦÛĮÙħÛĮ
Ġcon st
ĠÙħÚ©Øª ÙĪØ¨
ĠÙĪ Ø§ÙĨØ¯Ø±
ÛĮÙĨ Ø§ÙħÛĮÚ©
ĠÙĪ Ø§ÛĮÙĦ
ĠÙħ ÙĪÙĦØ¯
Ġb ay
ĠØ§ÙĦÙĨ ÙĩØ±
ĠÙĤÙĨØ¯Ùĩ Ø§Ø±
ĠØ¢ Ø±ÛĮØ§ÙĨ
ĠÚ¯ Ø§ÙħØ§
ĠØ² ÙĪØ§ÙĦ
ĠØ´ÙĨØ§Ø³ ÙĨØ¯
Ġeng lish
ĠØ¯ Ø³ØªØ§ÙĨ
ĠÙĤ Ø§ÛĮ
ĠØ¬ÙĩØ§ÙĨ Ø¨Ø®Ø´
ĠÙħÙĪØ¬ÙĪØ¯ ÛĮ
Ġser ies
ĠÚ© Ø§Ø¬
ĠØ· ÙĪØ³ÛĮ
ĠØ±ÙĪÙħ ÙĨ
ĠÙħØ° Ø§Ø¨
ĠÙ¾Úĺ ÙĪ
ĠÙĤØ¯ÛĮ Ø³Ø§ÙĨ
ĠÙħ ÙĨØ¯ÛĮ
Ø§ÙĦ Ø§ÙĨ
Ø§Ùĩ ÙĨØ¯
ĠØ¢ÙĦ Ø¨ÛĮÙĪÙĨ
ĠØ±Ø¤ ÛĮØ§
Ø± ÙĩØ§
Ġf ort
ĠØ¯Ø®ØªØ± Ø§ÙĨÙĩ
ĠÚĨØ§Ø± ÙĦ
Ø¨ÛĮ ÙĦÛĮ
ĠØ§Ø®ØªØ± Ø´ÙĨØ§Ø³ÛĮ
ĠØª Ø§ØªÛĮ
ĠÙĦÛĮ Ø¯Ø²
ĠÙĨØ¸Ø±ÛĮ Ø§Øª
Ġp ict
ĠÛĮØ§Ø¯ Ø¢ÙĪØ±ÛĮ
ĠØŃ Ø¨
Øº Ø§ÙĨÛĮ
ĠØ®ÛĮ Ø§Ùħ
ĠØ®Ø¯Ùħ Ø§ØªÛĮ
ĠÚ©Ø± ÛĮÚ©Øª
Ġl ar
Ġinf orm
ĠØ¨Ø§Ø²Ø±Ú¯Ø§ÙĨ Ø§ÙĨ
ĠÙħØ³Ùħ ÙĪÙħÛĮØª
ĠØ´ ÙĪØª
ÙĪÙĨÛĮ Ø³Ùħ
ĠÚ¯ÙĦ Ùģ
ĠÙĩØ§Ø± ÙĪÙĦØ¯
ĠØ± ÙĨØ¯
ĠØ¢Ùĩ Ø³ØªÙĩ
Ġd n
ÙħÙĨ Ø´
ĠØ¢Ø´ Ù¾Ø²
ĠÙĨÙĪØ²Ø§Ø¯ Ø§ÙĨ
Ġretr iev
Ġm g
ĠØ§Ø¯ Ø±Ø§Ú©
ĠØ§Ø³ØªÙĪØ¯ÛĮ ÙĪÙĩØ§ÛĮ
ĠØ¨Ø± Ø·Ø±Ùģ
ÙħÛĮÙĨ ÛĮØ³Ùħ
ĠÙħØµ ÙĪØ±
ĠÙĪÛĮØ¯ ÛĮÙĪ
ĠØµØŃ ÙĨ
ĠØ¢ÙĦÛĮØ§Úĺ ÙĩØ§ÛĮ
Ùĩ Ø§ÙĨ
ĠÙĪØµ ÛĮØª
Ġsup er
ĠØ§ÙĤ ÙĦÛĮØ¯
Ø³ÛĮ ØªÙĩ
Ġc c
ĠÙģÙĤ Ø¯Ø§ÙĨ
ĠÙħÙĪÙĨ Ø±ÙĪ
ĠÙĨØ§ÙĨ Ø³ÛĮ
ĠØ¯ÛĮØ± ÛĮÙĨÙĩ
Ñ Į
ĠØ¢Ø± ÙĨØ§
ĠØ¬Ø§ÙĨ Ø¨Ùĩ
ĠØ§ÙĦÙģ Ø¨Ø§
ĠÙ¾ÙĨØ§Ùĩ ÙĨØ¯Ùĩ
ĠÚ¯Ø´ ÙĪØ¯
ĠØ§ÙĨÙĤ Ø¨Ø§
Ġa lex
Ġo per
ĠÙĪØ§ÙĦ Ø¯
ĠÙģÛĮÙĨ ÛĮÚ©Ø³
ĠÙĪØ³ØªÙģØ§ÙĦ ÙĨ
Ø¨ ÛĮÚ©
Ø§Øµ Ø¯
ĠØ¯Ø§ ÙĪØ¯
um ent
ĠÚ©Ø§Ø¨ ÛĮÙĨ
ĠÙĪÙĪØ±Øª ÙħØ¨Ø±Ú¯
ĠÙħØ³ Ø§Ø¬Ø¯
Ġs b
ĠØ¨Ø§Ø± Ú¯Ø°Ø§Ø±ÛĮ
ĠØªÙĪÙħ ÙĪØ±
ĠÙģØ±Ø§ÙĨÚ© ÙĪ
ĠÙħØ¹Ø¬ Ø²Ùĩ
Ø¯ÛĮ ÙĪ
ĠÙģØ§Ø¶ÙĦ Ø§Ø¨
he d
ĠØ³Ù¾ ÛĮØ¯Ùĩ
ag o
ĠÙģØ§Ø· ÙħÛĮ
ĠØ§ÙĤØ§ÙħØª Ú¯Ø§Ùĩ
u el
Ú¯ Ø§ÙĦ
Ø¯ Ø³Øª
ĠØ§ÛĮ ÙħÛĮÙĦ
ĠØ§Ø± Ø³ÙĦØ§ÙĨ
Ġf er
ĠÙĦ ÙĪÛĮØ¯
ÙĪØ³ Ú©ÛĮ
ÛĮÙĨÛĮ ÙĪ
ĠØ³Ø§ÙĨØª ÙĪØ³
ÙģØª Ø¯
ÙģÛĮ ÙĤÛĮ
Ø¹ Ø¯ÛĮ
ĠÙ¾Ø± Ø²
ĠÙĦÛĮ Ø¯ÛĮ
as es
ĠÙĨØ§ÙħÙĨ Ø§Ø³Ø¨
Ø³Øª Ø¯
ĠØ¢Ø± ÙĪÙĨ
ĠÙĨÙĪ Ø¨
Ġc re
ĠØ³Ø¯Ùĩ Ø§ÛĮ
ĠØ±ÙĪØ² ÙĩØ§
ĠØ²Ø§Ú¯Ø± Ø¨
ÙĪØ± Ùħ
ĠÙģÙĪØªØ¨Ø§ÙĦ ÛĮØ³Øª
ĠØ³Ø± ÙħØ§
Ø¢ ÙĩÙĨÚ¯
Ġn i
ĠØ¨ÙĨØ¬ Ø§ÙħÛĮÙĨ
Ùħ Ø§Ø¯
Ø¢ ÛĮ
ĠØ¯Ø´Ùħ ÙĨÛĮ
ĠØ§ÙĨÙĪØ´ ÛĮØ±ÙĪØ§ÙĨ
ĠÚ©Ø± ÙħØ§ÙĨÛĮ
ĠØ±Ø§Ø³Øª Ø§
ĠÙħØŃØ¯ ÙĪØ¯ÛĮ
Ø§Ùĩ Ø¯ÛĮ
Ø¦ ÛĮØ¯
ĠØ§ÙĨØ¯ Ø§Ø®ØªÙĩ
ĠØ³Ø§Ø¹Øª Ùĩ
Ġfr anc
Ġge orge
ĠØ³ÛĮÙĦÛĮÚ© ÙĪÙĨ
ÚĨ ÙĨÚ¯
ĠØ§ÙĦ ÙĪ
Ø± ÙĪÛĮ
ĠØ¯ Ø§Ø³
ÙĪØ¯ Ø´Øª
Ø²Ùĩ Ø§ÛĮÛĮ
ĠØ¬ÙĨ Øª
ĠØ§Ø³Ù¾ÙĪØ±Øª ÛĮÙĨÚ¯
Ø³Øª ÙĤÛĮÙħ
ĠØŃ Ø§ÙĦØ§Øª
ĠØ¨Ø± Ø§Ø²
Ø±Ø§ Ù¾ÛĮ
Ġg ar
ĠÚĨÙĩØ§Ø± ØµØ¯
ĠØ¨Ø´ Ø±ÛĮØª
ĠÙħØ§Ø¬Ø± Ø§ÛĮÛĮ
ĠØ¹ÙĦÛĮ Ø²Ø§Ø¯Ùĩ
ĠØ®Ø§Ú© Ø³ØªØ±
ĠÙĪÛĮÙĨ Ø³ÙĨØª
Ġholly wood
ĠÙħØª Ø¹ÙĩØ¯
Ġf un
Ġw el
ĠÙħØŃÙħØ¯ Ø¨Ø§ÙĤØ±
ĠÚ¯Ø±ÛĮ Ø³
ĠØ²ÙĪØ¯ ØªØ±
ĠØ¢Ø±ÙĨ ÙĪÙĦØ¯
ĠØ³ Ø§Ø±Ø¯
ĠØ® Ø§Ø²ÙĨ
Ø±Ø§ Ù¾
Ġt u
ĠØŃØ³ÛĮÙĨ ÛĮÙĩ
ĠÙħØ§Ú© Ø³ÛĮ
ÙĪÚ© ÙĦ
ĠØ±Ú© ÙĪØ¯
Ġcd p
Ġprof ile
ĠØ¯Ø§ ÙĪÙĨ
ĠØ§ÙĨØªÚ¯Ø± Ø§ÙĦ
ĠÚĨ ÙĪÛĮ
Ġf ield
Ġn um
Ġx x
ĠØª ÙĤÙĦ
ĠØ§ÛĮ ÙħÛĮ
ĠØ³Ø±Ø²ÙħÛĮÙĨ ÛĮ
ĠØ§ÛĮØ¯ Ø²
Ø§Ø±ÛĮ Ùģ
ĠØ¨Ø¯ ÙħÛĮÙĨ
ĠÙħØ§Ø¯ Ø§Ùħ
ĠÙħØ§ÙĩÛĮ Ú¯ÛĮØ±ÛĮ
ĠØ¢Ùĩ Ú©
Ġele ct
ĠÙĤ Ø´ÙĤ
ist an
Ø¬Ø§ÙĨ Ø¨Ùĩ
ĠØ§Ø³Ú©ÙĨ Ø§Ø³
ĠØ§Ùħ ÛĮÙĦ
ĠØ§ÙĨØ¯Ø§Ø®Øª ÙĨ
ĠÚ¯ Ø§ÙĨÚ¯
ĠØ¹ Ø§Ø¯Øª
ĠØ§Ø´ ÛĮØ§
r en
Ö Ħ
ĠÙĩ ÙĢ
ĠØ¨Ø± ÙĪØ³ÛĮØ§
ĠØ§ØŃØª ÛĮØ§
Ġretriev ed
ĠÚĨ ØªØ±
ĠØº ÙĦØ§Øª
Ġcon s
ĠÙģØ±Ø³Øª ÙĨØ¯Ùĩ
Ġpet er
y d
Ø¹ Ø¨ÛĮ
ĠØ³Ø§Ú© ÙĨÛĮÙĨ
ĠØª Ø·
ĠÚ©ÙĦÛĮ ÙĪÙĦÙĨØ¯
ĠØ¹ÙĨÚ©Ø¨ ÙĪØª
ĠÙħØ§Ø±Ú©Ø³ÛĮ Ø³Øª
ĠØ§Ø³Ú©ÙĨØ¯ Ø±ÛĮÙĩ
ĠÙ¾Ø± Ø§Ø¯Ø´
Ġma x
ĠØ§ÙħØ§ÙĨ ÙĪØ¦ÙĦ
ĠØµ Ø§ÙĦØŃÛĮ
ĠØ§Ø³ØªØ± Ø³
ĠØ±Ø¬ Ø¨
ĠÛĮØ§ ÙĤ
Ġsoc iet
ĠÙĨØ§Ø¨Ø± Ø§Ø¨Ø±ÛĮ
ĠÚ¯ÙĪ Ú¯ÙĨ
ĠØ¨Ø± ÙħÙĨ
ĠØ® Ø³Ø±
ĠÙħÙĩÙħ Ø§Øª
ĠØºØ±ÛĮ Ø¨Ùĩ
g in
ĠÙĨ Ø¨ÛĮ
o x
ÙĦ ÛĮÚ©
ĠØ§Ùħ Ø§ÙħØª
ĠØªØŃ ÙħÛĮÙĦ
ĠÙĨØ§Ùĩ ÙĨØ¬
ĠÙħØ³ ÙĦØ³ÙĦ
ĠØ±ÙĪØŃ ÛĮÙĩ
ĠÙĩØ±Ú© Ø¯Ø§Ùħ
Ø´ Ø¨
ĠÚĨ Ø§ÙĪ
Ġg ir
ĠÚ¯ÙĨ Ø§Ø¨Ø§Ø¯
ĠØ¹Ø¨Ø¯Ø§ÙĦØ±ØŃ ÙħÙĨ
ĠÙħØ¬ÙĦ Ø³ÛĮ
Ø± ÙħÙĪ
ĠØ¨Ø±Ø® Ø§Ø³Øª
ĠÙĨÙĪØ± ÙĪØ²ÛĮ
ĠØ§ÙĨØªØ²Ø§ Ø¹ÛĮ
ĠÙĤØ² ÙĦ
ĠÚ¯ ÙħØ§
ĠÙħÙĪØ§ÙĨ Ø¹
ĠØ¨Ø¯ÙħÛĮÙĨ ØªÙĪÙĨ
b i
ĠØ¢Ø¨ Ø±ÛĮØ²
ĠÙ¾Ø±Ø³Øª Ø§Ø±
ĠØ¯ÙĪØ¨ÙĦ ÛĮÙĨ
ĠØ§ÙĦ ÙĦ
ĠÛĮ Ø³
Ùħ ÙĤ
ĠÙĩ Ø§ÙĨÙĪ
ĠØ¯Ø§Ø± Ú©
ĠØ¯ÛĮØ¯ ÙĨØ¯
o le
ĠØ¨Ø§Ø² Ù¾Ø³
ĠÙħØ¯ ÙĪÙĦ
ĠØ¹ÙĦÛĮØ± ØºÙħ
l ing
w a
Ø¨ Ø¹ÛĮ
ĠØ² Ø§ÙĨÙĪ
Ġj ap
ĠÙĩ Ø§ÙĨØª
ĠÙģ Ø±ÛĮØª
Ġa tt
ĠØ´ÙĪ Ø§ÙĩØ¯ÛĮ
ĠÚ©ÙĪ ÙģÙĩ
at ors
ĠØ®ÙĪØ¯Ø±ÙĪ ÙĩØ§
ĠÙħØ±ØŃ ÙĪÙħ
ĠØ¯ÙĤÛĮ ÙĤÛĮ
ĠÙ¾Ø§Ø¦ ÛĮÙĨ
ĠÚ©Ø± ÛĮÚ©
ĠÙģØµÙĦ ÙĨØ§ÙħÙĩ
ĠÙĦÙĪÙ¾ Ø²
ĠØ§Ùħ Ø§Ø±Øª
ĠÚ©ÙĦ Ø§ØªÙĩ
Ġge org
ĠÙĨØ§Ø¯ Ø±ÛĮ
ĠØ¯ Ø§Øª
ĠÙĦ ÙĪØ±ÙĨ
ĠÚ©ÙĦ Ø§ÛĮÙĨ
Ø± Ø§Ø¯
ĠØ§ Ø¦
Ġn ight
ĠÙħØ¤Ø³Ø³ Ø§Øª
Ġty pe
ĠØ³ÙĤ Ø²
Úĺ ÙĨÛĮ
ĠÙħØ± Ø§Ø¯ÛĮ
ĠÚ©Ø§Ù¾ ÙĪØ±
ĠØªØ±Ø§ÙĨ Ø²ÛĮØ³Øª
ĠØ±ÙĪ Ø¨Ø±Øª
Ø§ÙĨ ÙĪØ±Ø¯ÛĮ
ĠÙ¾Ùĩ Ù¾
ĠØ´Ø¬Ø§ Ø¹Øª
Ġprovin ce
ĠØªØ± ÙħÛĮÙĨ
ĠØ§ØµØ· ÙĦØ§ØŃÛĮ
ĠÙģÙĪØ± ÙĪØ§Ø±Ø¯
ĠØ¬ ÙĩØ±Ùħ
ĠØªÙĩ ÛĮ
Ġp os
ĠØ¨ Ú¯ÙĪ
Ø§ÛĮ Ú©
Ä į
ĠØ§Ø³Ú© Ø§ÙĨØ¯
ĠÙħØ³Øª ÙĪÙģÛĮ
id ae
ÙħÙĦÛĮ ØªÛĮ
Ø± Ø§ÙĨÛĮ
ĠÙĩØ§Ø± Ø¯ÛĮ
ĠØµØ§ØŃ Ø¨Ø§ÙĨ
ĠØ´ ÙĪÛĮ
ĠÙģ ÙħÛĮÙĨÛĮØ³Ùħ
ĠØº ÙĪØ§
ĠÙĩØ§Ø± ÙĪÙĨ
ĠÚĨÙĨØ¯ ÙħÙĦÛĮØªÛĮ
Ġchamp ion
ĠÙħÙĪ Ø§Ø¯ÛĮ
ĠØ³ÛĮÙĨ Øª
ĠØ´ÙĨ ÛĮØ¯
m o
ØºÛĮ Ø§ÙĨ
ĠØ§Ø±Ø¯ Ú©Ø§ÙĨ
Ø§Ú¯Ø§ ÙĪØ§
ĠØ¶Ø® ÛĮÙħ
ĠÚ¯ ÙĨÙĪ
ĠØ± ÙĪØ¯ÛĮ
ĠÚ©Ø±Ø¯ ÛĮÙħ
ch en
ĠÚ©Ø±ÛĮ ÙħÙĩ
ĠÙħØ±Ú¯ Ø¨Ø§Ø±
ĠÚ©Ø§ÙħÙ¾ ÙĪØ²ÛĮØª
Ø§ÙĨØ³ Ú©
ĠØªØ§ÛĮ Ù¾
ĠØªØµÙħÛĮÙħ Ø§Øª
ĠÙħØŃØª ÙĪÛĮ
ĠØ¨Ø§Ø² Ø¬ÙĪÛĮÛĮ
ĠÚ©ÙħÛĮ Ø§Ø¨
ĠØŃ Ø¨Ø§Ø¨
ĠÙħÙĨ ÙĪ
ĠØ®Ø§ÙĦ ÙĤ
ĠÙģÙĪØ§ ØµÙĦ
r es
ĠØ¨ØªÙĩ ÙĪÙĪÙĨ
ĠØªØ¯Ø§ ÙĪÙħ
Ġsept ember
ĠÙ¾ ÙĨÚ¯
ĠØ§ÙĨ Ø´
ĠØ±ÙĪØ² Ø¨Ùĩ
ĠÙħÙĪÙĨØª Ø§Úĺ
ĠØ¢ÙħÛĮØ² Ø´
ĠØªØ¯Ø±ÛĮ Ø¬ÛĮ
ĠÙģØ± Ø´Øª
ĠÙĨØ§Ùħ Ø·
ÙĪØ´ ÛĮÙħÛĮ
ĠØ§Ú© Ø¨Ø±ÛĮ
ĠØ¨Ú¯ÛĮØ± ÛĮØ¯
Ġs em
ĠÙħØ§ÛĮ Ø¹Ø§Øª
ĠÙĤØ² ÙĪÛĮÙĨÛĮ
ĠÚ¯ÙĨØ¬ Ø§ÛĮØ´
ĠÙħØ¹Ø¯ ÙĪØ¯
ĠÙħÛĮÙĨ ÙĪØ±
ĠØ¬ ÙĪÛĮØ§ÙĨ
ĠØ³ÙĪ ÙĤ
ĠÙĨÙĪØ±Ø¯ Ø±Ø§ÛĮÙĨ
ĠØ´ ÛĮØ±ÛĮ
Ø§Ø³ÛĮ Ø§
ĠØ¯ÛĮÙĨØ§Ùħ ÛĮÚ©
Ñ ĭ
Ġt or
Ø¢ ÙĨÛĮ
ĠÚ¯ÙĪ ÛĮÙĨØ¯Ùĩ
ĠÚ¯Ø§Ø± Ø³ÛĮØ§
ĠØ² ÙĦ
ĠÙĨØ® Ø¨
ĠÙħØ®ØªØ± Ø¹
ĠØ®Ø± Ø¬
ĠÙ¾Ø±ÙĪØ§Ø² ÙĩØ§ÛĮ
ĠØ§Ø³ØªØ§Ø¯ÛĮ ÙĪÙħ
ĠÚ¯Ø±ÙħØ§ÛĮ Ø´
Ø³ ÛĮÚ©
ĠÙĩ Ø±Ø¯ÙĪ
ĠØ±Ø¦ ÛĮØ³ÛĮ
ĠØ´Ùģ Ø§ÙĩÛĮ
Ùģ Ø³Ú©ÛĮ
ĠÙ¾ ÛĮØ±ÛĮ
Ġs in
ĠÚ©Ø±Ø¯Ùĩ Ø§
ĠÛĮÙĪÙĨ Ø§ÙĨÛĮØ§ÙĨ
ĠÙĦØ§Ø³Øª ÛĮÚ©
n o
ĠÙģÙĦ Ø§ÙĨØ¯
ĠÙħØ° Ø§ÙĩØ¨
ĠÙĩÙħØ³ Ø±Ø§ÙĨ
ĠØ§Ø¯ ÙĪØ§Ø±
ĠØ¨ÙĪÙĦ ÙĪÙĨÛĮØ§
ĠÚ¯Ø± Ø§ÙĨØª
ĠØº Ø¶
Ġl i
Î ¿
ĠØ¯ ÙĦÛĮ
ÙĪÙħ ÛĮÙĨ
ĠØºÛĮØ±Ùħ Ø³ØªÙĤÛĮÙħ
ĠØ§ÙĦÚ©ØªØ±ÙĪÙħØº ÙĨØ§Ø·ÛĮØ³ÛĮ
ĠØ¬ÙĪØ§ÙĨ Ùĩ
ĠØ¨ÙĩØ§Ø¦ÛĮ Ø§ÙĨ
ĠØ§Ø±ØªÙĤ Ø§ÛĮ
ĠØª Ø§ÙĨÚ¯
ĠÙĦ Ù¾
ĠÙĦ Ø¨ÙĨ
ĠÙĨÙĪ ØŃ
ow s
ĠØª Ø¨ÛĮ
ĠÙħÛĮØ§ÙĨ Ø¬ÛĮ
ÙĨ Ø´Ø§ÙĨ
ĠÚ¯ÙĦØ¯ ÙĪÛĮÙĨ
ĠØ¬Ø±ÛĮ ÙħÙĩ
ĠØ¨Ø§ÙĤ Ø±ÛĮ
ĠÙħØ¬ Ø§Ø±ÛĮ
ĠÙĪØ± Ø§
ĠØ±Ø³Ø§ÙĨØ¯ ÙĨØ¯
ĠØµÙĨ ÙģÛĮ
Ġor ig
Ú¯Ø§ÙĨÛĮ Ø³Ùħ
ĠØ¯Ø¹ Ø§
ĠØ¨Ø®Ø§Ø± Ø³Øª
ĠØ´Ø§ÙĩØ¯ Ø®Øª
Ġd ig
ĠØ´Ø± Ùħ
Ġap p
Ø³ÙĦ Ø±
ĠØ§ÙħÙ¾ Ø±ÛĮ
ĠÙħØ¹Ø§ÙħÙĦ Ø§Øª
ĠÛĮ ÙĪØ²Ùģ
ĠÙĩØ± ÙĪØ¯
ØµÙĪ Øµ
ĠÙĨØ§Øª ÛĮÙĨÚ¯ÙĩØ§Ùħ
ĠØ¹ÙĦ ÙħØ§
ĠÚ¯ÙĪ Ø¬Ùĩ
ĠÙħØ¤ ÙĦÙģÙĩ
ĠÙĤÙģ Ø³Ùĩ
Ø³ ÙģØ±
Ø¨Ø§ÙĨ ÙĪ
ĠÙħØ§Ùĩ Ø§ÙĨÙĩ
ĠÚ¯Ø´ Ø§ÛĮØ´
Ø§ Øº
ĠÚ©Ø§ØºØ° ÛĮ
ĠØ¨Ø´Ú© Ùĩ
p or
ĠÙĨÙĪÚ©ÙĦ Ø¦
c er
ĠØ· ÙĪØ·ÛĮ
ĠØ§Ø´Øª Ø±Ø§
ĠØ±ØŃ ÙħØ§ÙĨÛĮ
ĠØŃØ¬ Ø§Ø²ÛĮ
Ġma j
ĠØ¨ÙĨÚ¯ Ø§ÙĦ
ĠÙĨ ÙĪÛĮØ²
ĠØ´ÙĪØ± Ø§ÙĩØ§ÛĮ
ĠÙ¾Øª Ø±ÙĪ
Ġab out
ĠØ¨ÙĪØ¦ ÛĮÙĨ
ĠØ§ÛĮØ²Ø¯ Ø§ÙĨ
ĠÙ¾ÙĦØ§Ø³ ÙħØ§
Ġw ater
ĠØ¨Ø§ÙĦ Ø¯
ad em
ĠØ¨Ø±ÙĪÙĨ ÙĪ
ĠØªØ·Ø¨ÛĮ ÙĤÛĮ
ĠÙħÙĨØ§Ø¸ Ø±Ùĩ
Ġ ul
ĠØ¢ÙĨ Ú©Ø§Ø±Ø§
Ġt al
Ġin cl
ud e
ĠØ¨Ø§Ø¨ ÙĦÛĮ
ĠØ¨Ø§ÙĪØ± ÙĨØ¯
Ġpd f
ĠØ¬ Ø¨Ø±ÛĮ
ĠÙĦ Ø§Ú¯
ĠØ¨Ø³ Ø§Ø²Ø¯
ĠØ³ÙĪØ² ÙĨ
ĠÙħÙĪ Ø§Ø²
ĠØ§Ø± Ø¨
ĠÚĨ Ú©ÛĮ
ĠÚ©ÙĦ Ø±ÛĮØ¯
ĠØ³Ú© ÙĪÛĮ
ĠØ³Ø§ÙĨ ØŃÙĩ
ĠÙĪ Øª
ĠØ§ÙĨØ¯ ÙĦØ³
Ġf est
Ġh ow
ĠØ§ÙħØª ÙĨØ§Ø¹
Ġb us
ĠÚ¯Ø± ÙĨ
ĠØ´ÛĮ Ø¹ÛĮ
ĠØ®ÙĦØ¨Ø§ÙĨ Ø§ÙĨ
ĠÙĩÙħØ¯ Ø§ÙĨÛĮ
Ġ Ï
ĠØ§ ÙĪÛĮÙĦ
ĠÙĩ Ø§ÙĨÛĮ
Ø§Ø¨ Ø§ÛĮØª
ĠÛĮ Øº
ĠÙĩÛĮ ÙĪÙĨØ¯Ø§ÛĮ
ĠØªØ¹ Ø±
Ø§ÙĪ ÙĪØ³
ĠØªÛĮØª Ø±Ø§Úĺ
ĠØ·Ø§Ùĩ Ø±ÛĮ
ĠØ¢ Ø³ØªØ§ÙĨ
ĠÙĦ Ø§Ø±ÙĨ
ĠØ¯Ø§Ø¨ ÙĦÛĮÙĪ
Ġh u
ĠÙħØµ ÙĪØ¨Ùĩ
ÙĬ Ø±
Ø´ÙĨ Ø²
ĠØ³Øª Ùħ
ĠÙĤØ´ÙĤ Ø§ÛĮÛĮ
ĠÙĨ ØµÛĮ
ĠØ¨ÙĦ ÙĪØ±ÛĮ
Úĺ Ø§ÙĨ
ĠØ§ÙĨØªÙĤØ§Ø¯ Ø§Øª
ĠØ§Ø³Ù¾ ÙĨ
n i
ÛĮÙħ ÙĪØ±
ĠØ¨ÛĮÙĨ ÙĨØ¯Ùĩ
ĠØ¨ÙĪÛĮØ± Ø§ØŃÙħØ¯
ĠØ§ ÙĪØ¯Ø§
ĠØ§ÙĦ Ø§ÙĩÙĦÛĮ
in es
ĠÙħØ« ÙĨÙĪÛĮ
ĠØµÙģ Ø§Øª
ĠØ¢Ø³ Ø§ÙĨÛĮ
ĠØµ ÙģØ§
ĠÚĨØ´Ùħ Ú¯ÛĮØ±
ĠÙħÙĪÙĦ Ø±
Ġus e
f or
ĠÙ¾ÙĪØ±Øª ÙĦÙĨØ¯
Ø±Ø§ Øº
ĠÙħÙĤØ± Ø±
Ø¶ ÙĦÛĮ
ĠÚĨÛĮØ² ÙĩØ§ÛĮ
Ġgra y
ĠÚ¯Ø³ Ø³ØªÙĩ
ĠÚĨ Ø§ÙĦÙĩ
ĠØ§ ÙĩØ±
ĠØª Ø¨ÙĦ
ĠØŃ ÙħØ¯
ĠØ¯Ø±Ø§Ùħ Ø§ØªÛĮÚ©
y e
ĠÚ©ÙĪ Ø²
ÙĪÙĦ ÙĪØ³
ĠØ§Ø± Ùĩ
Ġlangu age
ĠØ¢ÙĨ ÙĤØ¯Ø±
Ú© Ø³Øª
ĠÙģÛĮÙĦÛĮÙ¾ Ø³
Ġeng ine
ĠÙħØ¬ Ø±Ø¯
ĠÙħÙĤ Ø§Ø·Ø¹
ĠØªØ¹Ø¯ ÛĮÙĦ
Ġro b
Ø§Ø¨ Ø±Ø¯
ĠØ¯ ÙĪÙĨØª
ĠØªÙĤ Ø§Ø±ÙĨ
ĠØ§Ø³ Ú©Ø±
ÙĨÙĪ Ø§ÛĮÛĮ
ĠØ®ÙĪ Ø§Ø±ÛĮ
Ġg k
m in
ĠÙĩÙħ Ø¯ÛĮÚ¯Ø±
ĠØ³Ø± Ø³Ø¨
ĠÙ¾Ø± ÙĪØ±
ĠÙħØŃØµ ÙĪØ±
ĠÙħØª ÙĨÙĪØ¹ÛĮ
Ã³ n
ÙĪÙ¾ ÙĦ
ĠØªÙħØ§ Ø´Ø§ÛĮ
ĠÚ¯ÛĮÙħ Ø²
Ùħ Ú©
ĠØµ ÛĮØ¯
ĠÚ©ÙĪ Ø¨Ùĩ
ĠÙĩ ÙĪÙĨØ¯Ø§
ĠØ¬ Ø¨ÙĦ
Ø§Øª ÙĨ
ĠÛĮ ÙĪØª
ĠØ§Ø³Ú© Ø±ÛĮ
ĠØª Ø§ÛĮØ±
ÙĪÙĦÛĮ Ø³Ùħ
Ġrev iew
ĠØ¯Ø§Ø¦Ø± Ø©Ø§ÙĦÙħØ¹Ø§Ø±Ùģ
Ø±Ø² Ø§Ø¯Ùĩ
op s
ĠÙĨØ§Ø® ÙĪØ§Ø³ØªÙĩ
ĠØ±Ø¬ Ø§ÙĦ
ĠÙħØŃØ± Ø§Ø¨
o ber
ĠØ³ÛĮ Ø³ØªÙħÛĮ
ÛĮ Ùģ
ĠÚĨÙĨØ¯ Ø²Ø¨Ø§ÙĨÙĩ
ĠØµØ¯ Ø±Ø§Ø¹
ĠØ¬Ø± Ø§ÛĮÙħ
Ġcam bridge
ĠÙģØ±Ø³ Ø§ÛĮØ´
ĠØ³ ÙħÙĨØ¯
ĠÙĤ ÙĪ
ÙĨ ÙĨØ¯
ĠØ¢Ù¾ ÙĪÙĦÙĪ
aw a
ĠØ¹Ø¨Ø§Ø¯ Øª
ĠØ³ÙĪØ¡ Ø§Ø³ØªÙģØ§Ø¯Ùĩ
ĠØ¨Ø± ÙģÛĮ
Ġs qu
Ġh ome
ĠÙħØµØ§Ø¯ Ø±Ùĩ
Ġt ar
ĠØ¹ÙĩØ¯ ÙĨØ§ÙħÙĩ
ĠÙħØ§Úĺ ÙĪÙĦ
ÙĨ ÙħØ§ÛĮ
ĠÚ© ÙĪØ³
ĠØ§ÙĦ Ø³Ø§ÙĦ
ĠÙģØ±Ø² Ø§Ø¯
ĠÙħØ¬ÙħÙĪØ¹ Ø§
ĠØ§ÙĦÛĮ ÙĪØª
ĠØ³ÙĪÙ¾Ø± ÙħÙĨ
Ġep is
ĠÚ© Ø§Ø¦
ĠÙ¾Ø±ÙĪ Ø³Øª
ĠØ¨Ø§Ø²Ø® ÙĦÙĤ
ĠØ¨Ø§ Ùģ
ĠØ¹ Ø²ÙĦ
ĠÙģÙĦ Ø¬
ĠØ³Ø§Ùħ Ø±
ĠØ¹Ø¨Ø¯Ø§ÙĦ Ú©Ø±ÛĮÙħ
Ð ¹
Ø§ÙĦ Ø¨ÛĮ
ĠØ® Ø³ØªÙĩ
ĠØªÙĨ Ø¨
ĠØ¹Øµ Ø¨Ø§ÙĨÛĮ
m i
ĠÙħ ÙģØ§
Ø® Ø³Ø±ÙĪ
Ġl t
Ù¾Ø± Ø³ÛĮ
ĠØ¢Ø³Øª Ø§Ø±Ø§
ĠØ³Ø¨Ø²ÛĮ Ø¬Ø§Øª
ĠÙĩ ÙĪÙĨÚ¯
ĠØ±ÙĪØ¨Ø± ØªÙĪ
Ø¸ Ùģ
ĠØ¯Ù¾ Ø§Ø±ØªÙħØ§ÙĨ
ĠÚĨØ§Ù¾ ÛĮ
ĠÙģÛĮØ± ÙĪØ²Ùĩ
ĠÚ©Ø§ØªØ§ÙĦ Ø§ÙĨ
Ø§ÙĦÛĮ Ø§ÙĨ
ÙĪÙĨÛĮ ÙĪÙħ
o o
ĠØ¨Ø± Ú©Ùĩ
ĠÙĨÙħØ§ÛĮ Ùĩ
Ú¯ Ø§Ø¯
Ġb ab
ĠÚ©Ù¾ÙĨÙĩØ§ Ú¯
ĠØºÛĮØ±Ø¯ ÙĪÙĦØªÛĮ
Ã ¦
ĠÙĩÙĦ ÛĮÚ©
ĠÙĨØ®Ø¨ Ú¯Ø§ÙĨ
ÛĮØª Ø³Ùĩ
ĠØ¯Ø§ÙĨ Ø§
ĠÙĨÙĪ Ø¨ÙĪÙĨ
ĠÙħØ· ÙĩØ±ÛĮ
ĠØ¨Ø´ ÙĪØ¯
ĠØ³Ø§ÛĮ ÙĪØ²
ĠÚ¯Ø±Ø§ÙĨ Ø´
Ú© ÛĮÙĨÚ¯
ĠØ¢Ø¨ Ø²ÛĮ
ĠØ¹Ø¯ Ø³ÛĮ
ĠÙħÙģ Ø³Ø±
ĠØ± Ø§ÙĦÙģ
Ġj ack
ĠØ¬ÙĨ Ø§ÛĮØ§Øª
ÙħÙĪÙĨ ÛĮÚ©
Ġass oc
Ø§Ùħ Ø²
Ø§Ø¯Ùĩ Ø§ÛĮÛĮ
Ġh and
ĠÚ©Ø§ÙĦ Ø§ÙĩØ§
ĠÙħÛĮØ® Ø§Ø¦ÛĮÙĦ
ĠÙĦØ¨ÙĨ Ø§ÙĨÛĮ
Ø§Ø± Ø¶
Ø® Ø§ÙĦ
ÚĨ ÛĮÙĨÛĮ
ĠØ´Ø§ÙħÙĦ ÙĪ
ĠÙĦØ² ÙĪÙħØ§
ĠØ¨ ÙĪØ²
Ø§Ø¯ Ø§ÙĨ
om b
ĠØ¹ÙħÙĦÚ©Ø±Ø¯ ÛĮ
ĠÙħÛĮÙĩ ÙħØ§ÙĨ
ĠØ³ Ø§Ú©Ø³
ÙħØ¯ Øª
ĠØ§ Ù¾ÛĮ
ĠÙħØª Ú©ÛĮ
ĠØ´ÙĪ Ø®ÛĮ
Ġfor m
ĠÙĨØ§Ø¯Ø± Ø´Ø§Ùĩ
ĠØ¯Ø¨ÙĦÛĮÙĪØ¯Ø¨ÙĦÛĮ ÙĪØ¦ÛĮ
ĠØ² ØŃ
Ø§Ø±ÛĮ Ø³Øª
ĠØ« Ø§ÙĦØ«
ĠÙĨØ¯Ø§Ø´Øª ÙĨ
a ir
ĠØ¯Ø± ØµØ¯ÛĮ
ĠÚĨ Ø±Ùħ
Úĺ Ø§Ø¯
ĠØº Ø¯Ùĩ
ĠÙĪØ± Ø¯ÛĮ
ĠÙģØ±Ø² ÙĨØ¯ÛĮ
Ġrich ard
ĠØªØ§ÛĮØª Ø§ÙĨ
ĠØ¨ Ø¬ÙĨ
ĠÙĦÛĮ Ù¾
ĠØªØ¹ Ø§Ø±ÛĮÙģ
ĠÙħ ÚĨ
ĠÙĦ ÙĪØ²
ĠØªÙħ Ø³
ÙģÙĪØ± ÙħØ§Øª
il y
n ing
ĠØ¬ Ø¹ÙĦÛĮ
Ġa x
ĠÙĨØ³ Ø¨ÛĮØª
ĠÙħØ£ ÙħÙĪÙĨ
Ġs at
ĠØ±Ø¤ ÛĮ
ĠÙĨÙĪØ¨ÙĪÙĨ Ø§Ú¯Ø§
ĠØ§Ø± ÙĤØ§Ùħ
ĠØ³ÛĮØ§Ùħ Ú©
ĠØ§Ø± ÙĦ
ĠØ± ÙĨÙĩ
Ø¨Ø§Ø± Ø¯ÛĮ
ĠÙĤ ØŃ
ĠØŃ ÙģØ±
ĠØ§ÙĨØª ÙĩØ§
ĠØ¢Ø±Ø§ Ø¡
ĠÙħÙĪØ§Ø¬Ùĩ Ùĩ
ĠØ§Úĺ Ø¯ÙĩØ§ÛĮ
ĠØ¬ÛĮ Ø¨
ĠØ§ÙģÙĦØ§Ø· ÙĪÙĨ
ĠÙĩØ§ ÙĪÚ©
ĠÚ© ÙĪÙĨÚ¯
ĠØ¨Ø§ ÙĩÙħ
ĠØªØ± Ø¨
Ø§Ú© Ø±ÛĮ
ĠØº Ø§ÙģÙĦ
ĠÙģØ±Ø¢ÛĮÙĨ Ø¯ÙĩØ§ÛĮ
ĠØ§Ø¯ Ú¯Ø§Ø±
ĠÙĨØ¨ÙĪØ¯ ÙĨ
ĠÚ¯ Ø§Ø¯
ĠØ±ÙĪ ÚĨ
Ø§ÙĦÛĮ Ø³ØªÛĮ
ĠÚ©ÙĨ Ø³Ø±ÙĪ
ÙĪÛĮØ¯ ÙĨ
ĠÚĨØ± ÚĨ
ĠØ§ÙħØ¶Ø§ Ø¡
l s
ĠØ¯Ø± Ø¨ÙĨØ¯
ĠØ¢ÙĨ Ø§ÙĦÙĪÚ¯
ĠØªÙĪ Ø¨Ø§
Ġo m
ĠØ¯ÙĦ ÙģÛĮÙĨ
Ùħ ÙĪÙĨØª
ĠØªØ± ÙħÙĪØ¯
ĠØ« ÙĪØ±
Ġv ers
ĠÙ¾Ø±ÙĪ Ùģ
ĠØ¢Ø²Ø§Ø¯ Ø³Ø§Ø²ÛĮ
ĠØ®ÙĪØ´ÙĨ ÙĪÛĮØ³ÛĮ
Ġjan uary
ĠØµ ÙħÛĮÙħÛĮ
Ġs ign
Ø§Ùģ Ø±ÛĮ
ĠØ§ ÙĬÙĨ
ĠÙĦ ÙĨÚ©
ĠÚ¯ÙĪ Ú¯Ø±Ø¯
ĠØ¨ÛĮ Ø¬Ø§Ø±
ĠØ¢Ø² Ø§Ø¯Ø±
ĠØªØ¹ ÙĪÛĮÙĤ
ĠÙħÙĪØªÙĪØ± Ø²
Ã¡ n
ĠØ¨ ÙĤØ§
ĠÙĦ Ø§ÙĦ
ĠØ° Ø±Øª
ĠØ¯Ø´ ÙĪØ§Ø±ÛĮ
ĠÚ¯Ø±Ø¯Ùĩ ÙħØ§ÛĮÛĮ
Ú¯ ÙĪØ¯
ĠØ´ Ø§Ùģ
ĠØ´Ø¯ Ùħ
ĠÚ¯Ø± Ø³ÙĨÚ¯ÛĮ
ĠØªÙĪØ± Ø§Øª
ĠØ¨Ø§ ÙħØ¯Ø§Ø¯
ĠÙĨÙĪØ± ÙĨØ¨Ø±Ú¯
ĠØ§Ùĩ Ø¯Ø§ÛĮ
Ø§ÙĤ Ø§ÙĨ
Ġfr ance
ÚĨ ÙĪØ§ÙĨ
Ġp c
Ġc op
ĠÙħÙĩØ± Ø¨Ø§ÙĨ
ĠØ§ÙĨÙĤØ¨Ø§ Ø¶
ĠÙĪØ¬Ùĩ ÛĮ
ĠØ® Ø§Ø¯
ĠØ³ØŃ Ø§Ø¨ÛĮ
ĠØ¨Ø¨Ø± ÙĨØ¯
Ø² ÙħÛĮ
ĠØ±ÙĪÛĮ Ø§Ø±
Ġl ight
ĠÛĮØ§Ø¯ Ø¢ÙĪØ±
ĠØ¯ÙħØ§ ØºÙĩ
ĠØ§ÙĦ Ø«
ĠÙ¾ÛĮØ± Ø§ÙĨ
ĠØ® ÙĨØ¯Ùĩ
ĠÛĮ ÙĪØ²
Ġc ult
on es
ĠØ¹Ùħ ÙĪØ¯
ĠÚ¯Ø°Ø± ÙĨØ§ÙħÙĩ
ÙĪÙĨØª ÙĪ
ĠØ³Ùģ Ø±ÛĮ
ĠØ¬Ø³ ÛĮÚ©Ø§
Ġfeb ru
Ġsociet y
Ġdirect ory
ĠØ®ÙģØ§ Ø´
ĠØ¯ ÙĤ
ĠÙĤØ±Ø§Ø± Ú¯ÛĮØ±ÛĮ
ĠØ¬ÙĦ Ø¯ÛĮ
ĠØ¨ÙĪÚ©Ø³ ÙĪØ±
ĠÙģØ±Ø´Øª Ú¯Ø§ÙĨ
er ing
ĠØ±ÛĮ Ú¯
ĠÙģÛĮ ÙĪØ±
ĠÙĪØ§Ú© Ùĩ
ĠØ§ ÙĪØ§ÙĨ
ĠØ´ ÛĮØ§
ĠÙ¾ÙĪØ´ Ø§ÙĨØ¯Ùĩ
ĠÙĨØµØ± Ø§ÙĦÙĦÙĩ
Ġoct ober
ĠÙĦ ÙĪØ±ÛĮ
Ġc u
ĠØªØ±ÛĮÙĨ ÛĮØ¯Ø§Ø¯
ĠÙħÙĪ Ø¸Ùģ
ĠØ³Ú© ÙĪÙĦØ§Ø±
ĠØ§Ø³Ø§Øª ÛĮØ¯
ĠØ· ÙĪÙĦÛĮ
Ġd own
Ġr p
ĠÙĪØ§ÛĮ Ø³
ĠÙĨ Ø¯Ø§ÙĨ
Ø§Ú© ÛĮÙĩ
ÙĨØª ÛĮÙĨØ§
ĠÙĨØ¬ ÙĪÙħÛĮ
ĠØ¯ÙĨ Ø³
ĠØ·Ø± ÙĤ
ĠØ¨Ø±Ú©ÙĨ Ø§Ø±ÛĮ
Ø¯ Ø§ÙĨÙĩ
Ġe u
ĠØ§Ø±Ø¯ ÙĪÛĮ
iv es
ĠØ¨Ø±Ø§Ø¯ ÙĪÛĮ
ĠØ§ÙģØªØ§Ø¯ ÙĨ
Ùħ ÙĩØ±
ĠØ® Øµ
Ġm ur
Ġg i
ÙĬ Ø¯
Ġq ue
ĠÙħÙĨÙģ Ø¬Ø±
ĠÙ¾ÛĮÙĪÙĨØ¯ ÛĮ
Ġf am
ĠØ¨Ø§Ø± Ø§ÙĨÛĮ
ĠØ²ÙħØ§ÙĨ Ùĩ
Ġinform ation
Ġ um
Ġ Å¡
ĠØ´Ø®Øµ Ø§
ĠÙģØ³ ÙģØ±
ĠØ§Ø¯ ÙħÙĪÙĨØ¯
ĠÙĪÛĮØ± ÙĪØ³ÛĮ
ĠÙĩØ§ÙĦ ÙĪ
ĠØ¨ÙĩØ§Ø¡ Ø§ÙĦÙĦÙĩ
st e
ĠØ¢Ø® ÙĪÙĨØ¯
ĠØ§ÙĨ ÛĮ
ĠØ¯Ø§Ø± Ø§Ø¨
ĠÙĨØ§Ø´ Ø±Ø§ÙĨ
ĠØ¨Ø±Ø³ ÙĨØ¯
Ġis lam
ĠØ´Ø§ÙĩÙĨØ´ Ø§Ùĩ
ĠÙĨØ§ÙħØ² Ø¯ÙĩØ§
ĠØ§Ø³Øª Ø±Ø§Ø³
Ù¾ ÙĪÙĦÛĮ
ĠØ§Ø¯ Ø§ÛĮ
ĠØ´Ø± Ø·ÛĮ
ÙĪ ÙĪÛĮÚĨ
ĠÚ©Ø±Ø¯Ùĩ Ø§ÛĮ
ĠØ³ÛĮØ± Ø¬Ø§ÙĨ
ĠØ±Ø¤ ÛĮØ§ÛĮ
ĠÙģØ±Ø§Ø® ÙĪØ§ÙĨÛĮ
ĠØ¨Ùĩ Ø¨ÙĪØ¯ÛĮ
ĠÙħÙĪØ± ÚĨÙĩ
ĠÚ©Ø¨ Ø¯ÛĮ
Ú¯ÛĮØ± ÙĨØ¯Ùĩ
ĠØ§ÙĦØ¹ Ø±Ø¨ÛĮ
ĠÙĨØ±Ø³ÛĮ Ø¯
ĠØ³ ÙĪÙħÛĮ
ĠÙĩÛĮÚĨ Ú¯Ø§Ùĩ
Ġim g
ĠÙģØ±Ø§ÙĨ ÚĨ
ĠØ¯ÛĮØª Ø§ÙĦÛĮØ§
ĠÙħÙĪØ³ÛĮÙĤ Ø§ÛĮÛĮ
y le
ĠØ¨ÛĮ ÙĪÙĩ
Ġh as
Ġr b
ĠØ³Ùĩ Ø§ÙħÛĮ
ĠØ§Ø³Ù¾Ø± Ø§ÙĨØªÙĪ
Ġdec ember
ĠÙħØ¨Ùĩ Ùħ
Ġa er
al ia
Ġr am
ĠØ§ÙĦÙĨÙĩØ± ÛĮÙĨ
ÙĪØ¯ Ø§Ø±
ĠÙĦ ÙĪÙĨ
Ġl u
ĠÙ¾Ø´Øª ÙĪÙĨ
ĠÙĨÚ©Ø±Ø¯ ÙĨØ¯
Ä «
Ġf all
Ġcomm un
ĠØªØ²ÛĮ ÛĮÙĨ
Ú© Ø§Ø³
ÙĪØ² ÛĮÙĨ
ĠØ·Ø± ÙģÙĩ
ĠØ§Ø³ ÛĮØ±Ø§ÙĨ
ĠÚ©ÙĪ Ø®
ĠØ§Ø¬ ÙĦØ§Ø³
ĠÚ©ÙĦ Ø§Ø¨
ĠØ¹ÙĦ ÙĨÛĮ
ĠÙħÛĮ Ø±Ø¯
ÙĦÛĮ ÙĪÙĨ
ĠÙħØŃÙħØ¯ ØŃØ³ÙĨ
ĠÙ¾Ø¯ Ø±ÙĪ
ĠØ§Ø³ÙģØ± Ø§ÛĮÙĨ
ĠÙĪ Ø§Ø±Ùĩ
ĠÚ¯ Ø§Ø¦
ĠØ¢ÙħÙĪØ² Ú¯Ø§Ø±
ĠÙĦÙĨÚ¯ Ø±
ĠØ®Ø¯Ø§ØŃØ§Ùģ Ø¸ÛĮ
Ø¨ÛĮ Ø¯Ùĩ
ĠÙĪØ² ÙĨÛĮ
Ġfr ank
ĠÐ º
ĠØ± Ø³ØªØ§
ĠÙĤ Ø±ÛĮÙĩ
Ø¶ ÛĮÙĩ
ĠØ¯Ø§Ùħ ÙĨ
Ġin s
ĠÚ¯ ÙĪØ²ÙĨ
ÙĨØ² ÙĪ
ĠÙĨÙħ Ø§Ø¯ÛĮ
ĠØµØ¯ Ùģ
ÙĦÛĮ Ø²
ĠØ±Ø§ ÙĪ
Ġc up
ĠÙĩÙĨØ¯ ÙĪØ±Ø§Ø³
ĠØªÙĪØ± Ø¨ÙĪ
Ø¬ÙĪ Ø§Ø¯
ĠØ³Ø±ÙĨÚ¯ ÙĪÙĨÛĮ
Ø§Ø® Ø§ÙĨ
id ent
Ġar ts
ĠØ±ØŃ ÙħØ§ÙĨ
Ġm ass
it ies
ĠØ®Ø¯ Ø§Ø¨
ĠÙĨ Ø±Ø³
ĠØªÚ© Ø±Ø§Ø±ÛĮ
Ġjap an
Ġfebru ary
ÙĦ ÙħÛĮ
ĠØªØ² Ø¦ÛĮÙĨÛĮ
ĠØªÙĨÚ© Ø§Ø¨ÙĨ
ĠÙħØª ÛĮ
ĠÙĦ Ø§ÙĨØ¯
ĠÙħÙĩ ØªØ§Ø¨
ĠØ§Ø¹ØªÙĤØ§Ø¯ Ø§Øª
k y
Ú© Ø§Ø±ÙĩØ§ÛĮ
ĠØª Ø§Ø±Øª
ĠÙħÙģ Ø±Ø¯
ĠØ§Ø³Øª Ø§ÙĦ
ĠØ¢ÙĨ Ùĩ
ip p
Ġde v
ĠÛĮÙĪÚ© ÙĪÙĩ
ĠÙħØª Ø±Ø§Ú©Ùħ
ÙĨØª ÙĪÙĨ
ÙĪØ±Ú© Ø§
ĠØ¢Ø²Ø§Ø¯Ø± Ø§Ùĩ
ÙĪÙħ Ø§Øª
ĠÙģØ± Ø¹ÙĪÙĨ
ĠÙ¾ÛĮ Ø´Øª
Ġm t
ĠØ¨Ø§ÙĤÛĮ ÙħØ§ÙĨØ¯Ùĩ
ĠØ¬ Ø§Ùĩ
ĠÙ¾Ø§Ø±Ø§ÙĨ ÚĺÙĩØ§ÛĮ
ĠÚ¯Ø²ÛĮÙĨ Ø´
ĠØŃÙĦÙĤ ÙĪÛĮ
Úĺ ÛĮÙĨ
Ġj u
Ġbook s
ĠØ§ÙĨØµ Ø±Ø§Ùģ
ĠÙĨ Ø§Ø±Ø§
Ø¹ ÙĪØ¯ÛĮ
ĠØ¨Ùĩ Ùħ
ØªØ± Ø²
ĠØºÛĮØ± Ø§ÙĨØª
ch er
ĠØªØ´ÛĮ ÛĮØ¹
io us
ĠØ¨ÙĪÚ© Ø§ÙĨ
ĠÙĨØ§Ú© Ø§Ùħ
ĠØ¢Ø¨Ø´ Ø§Ø±ÙĩØ§
Ġgener al
Ġw il
ĠÙħØ§Ú© Ø±ÙĪ
ĠÙģØ±Ø§Ú¯ ÛĮØ±ÛĮ
ĠÙĨ ÙĪÙĨ
ĠØ¨ÛĮÚ© Ø§Ø±ÛĮ
ĠØ³ ÙģØª
ĠÙ¾ Ú©
ĠÙĩØ§ Ú©
ĠÙ¾Ø§Ø± ÙħØ§
ĠÙĤÙĨ Ø¨Ø±ÛĮ
ĠØ¬ Ø³ÛĮ
ĠÙħÙĨ Ø§Ø±Ùĩ
Ġm w
Ġo k
ĠÙĦÙĪÚ©ÙĪÙħÙĪØªÛĮ ÙĪ
ĠÙĨÙĩØ§ ÙĪÙĨØ¯
Ġf c
ĠØŃÛĮ Ø«
ĠØŃÛĮ ÙĪØ§ÙĨÛĮ
ĠÙĨØ± Ú¯Ø³
ĠÙħØ¯ÛĮØ± ÛĮØªÛĮ
ĠÙĦÙĪÚ© Ø§
ĠØ§Ø³ØªØ¹ ÙħØ§Ø±ÛĮ
ĠÙĨÙĪ Ø§Ø²ÛĮ
ĠÙĤØ± Ùħ
ĠØ®ÙĪØ§ÙĨØ¯ ÙĨØ¯
at us
is c
ĠÙħØ´Ú© ÙĦÛĮ
ĠØ§Ø³ØªØ¹ ÙģØ§ÛĮ
ĠÙħØ¹ ÙĦÙĤ
ĠØ¬ÙĪ Ø§ÙĩØ±
ĠØªØ¨ Ø®ÛĮØ±
ĠØ§ÙĦØ¬Ø² ÛĮØ±Ùĩ
ĠØ¯Ø§Ø± Ø§Ø³Øª
Ġb ill
ĠÙ¾Ø±Ú© Ø§Ø±
m ad
ÙĪÙĦ Ø²
ĠØªÙĪÛĮ ÙĪØªØ§
Ð¾Ð ²
Ä Ł
ĠØ®ÙĦØ§ÙĤ ÛĮØª
ĠÙĪÛĮØ±Ø§Ø³Øª Ø§Ø±
Ġlibr ary
ĠÙĩØ§ÙĨÙĪ ÙģØ±
Ø³ Ø§ÛĮØ¯
ĠÙħØŃ ØªØ±
ĠÙħÙĩØ¯ ÙĪÛĮ
ĠÛĮ ÙĪØ§ÙĨ
Ġg s
Ġn as
Ø§ÙĪ ÛĮØ±ÛĮ
Ġdis c
ĠÛĮÙĪÚ©ÙĪÙĩ Ø§ÙħØ§
ĠÚ©Ø§Ø± ÙĪÙĨ
ĠØªÙĨ Ø§Ø³Ø¨
Øª ÛĮÚ©ÛĮ
ĠÙĩ Ø¬Ø±
ĠÙħØ³ØªØ¹ ÙħØ±Ø§Øª
ĠØ¢ ÙĪØ§
ĠØ¯Ø± Ø¬Ø§Øª
ÚĨ Ùģ
ĠÙĦÙħ Ø³
ĠÙĩ Ø§Ø¯Ø±
ĠÙĨØ§ÙħÙĨ Ø¸Ùħ
ĠØ³Ø±ÙĦ Ø´Ú©Ø±
Ġchampion ship
ĠÙģ ÙĦÙĪ
ĠØ¨Ø¹ Ø«
ĠØ³ÙĪØ³ Ú©
Õ¡ÖĢ Õ
Ø¨ ÛĮØ±ÛĮ
ĠÙħØ´ ÙĪØ±Øª
ĠÚ©ÛĮ ÙģÛĮ
ĠØ¢ÙħÛĮ Ø®ØªÙĩ
ÙĪØ± Ø¯ÙĩØ§
ĠØ·Ø¹ ÙħÙĩ
ĠÙĦÙĨ Ùģ
ĠØ¨Ø¨ ÛĮÙĨØ¯
ĠÙ¾Ø±ÙĪØ¯ Ø§Ú©
o is
al y
ĠÛĮÙĪÙĨ Ø³
ĠØ¯Ú© ÙħÙĩ
ĠØ¯Ù¾ ÙĪØ±ØªÛĮÙĪÙĪ
Ġp ower
ĠÚ©Ø§ÙĦ ÚĨÙĪ
ĠØ² ÙħØ±Ùĩ
ĠÙĨØ±Ø³ÛĮ Ø¯Ùĩ
ĠÙĨØ§ÙĩÙĨØ¬ Ø§Ø±ÛĮ
ĠÚĨØ§ÙĦ ÙĪØ³
ĠÚ¯ÙĪÚ¯ÙĨ ÙĩØ§ÛĮÙħ
ĠØ¨Ø§Ø² Ø¯Ø§Ø±ÙĨØ¯Ùĩ
ĠÙĨÙĪ Ø§Ø¨
ĠØ¨Ø±Ø® Ø·
Ġec onom
ĠÚ©Ø´ ÙħÛĮØ±
ĠÚĨÙĨØ¯ ÙĨÙģØ±Ùĩ
ĠÙĤØ±Ø§Ø±Ø¯ Ø§Ø¯ÙĩØ§ÛĮ
ĠØ§Ø´ Ø¨Ø§Ø¹
ĠÙ¾ Ø§ÙĨØª
ĠØµ ØºÛĮØ±
ĠÙ¾ÛĮØ´ Ø¨Ø±Ø¯
Ġg all
ĠØ±ÙĪØ´ ÙĨÛĮ
ĠØ¯Ø® ÛĮÙĦ
ĠØ§Ø³ØªØ« ÙĨØ§
ĠØ±ÙĪÛĮØ§Ø± ÙĪÛĮÛĮ
ĠØ§ÙĦ Ø§Ùħ
ĠØ§ÛĮØ±Ø§ÙĨ Ø´ÙĩØ±
Ġw a
Ù¾ÛĮ ÙĪÙĨØ¯
ĠØµØ¯Ø±Ø§Ø¹ Ø¸Ùħ
ĠÙħØ± ÙħØ±
ĠØ§Ø¬Ø± Ø§ÙĩØ§ÛĮ
ĠØ®Ø´ Ø§ÛĮ
ĠØªÙĪ ÙĩÙħ
ĠÙħØ³ ÙĨ
ĠØ¨Ø±Ø§Ø¯Ø± Ø²Ø§Ø¯Ùĩ
ĠØ´ÙĩØ± Ø³ØªØ§ÙĨÛĮ
ĠØªØ± Ùħ
ĠÙĤØ¶ Ø§Ø¦ÛĮÙĩ
Ã º
ÛĮÙĨ Ú¯Ø±
ĠØ§ÛĮØ± Ø§Ø¯
ĠØ¬ÙĨ ØªÛĮ
ĠØ± Ø¢
ĠØ³Ø§ÙĦ ÙĩØ§
ĠØ³Ø§ ÙĪØ§Ú©
ĠØ¬ÙħÙĩÙĪØ±ÛĮ Ø®ÙĪØ§Ùĩ
ĠØ®Ø±Ùħ Ø´ÙĩØ±
ĠØºØ¯ Ø¯
ĠÙĦ Úĺ
ĠØ¯ÙĪØ³Øª Ø´
ĠÚ© Ø§Ú¯
ĠØ´ ÙĪÛĮÙħ
ĠÙħÙħ ÙĦ
ra y
ĠØªØ± ÙħØ²
ĠØ±ÙĪØŃØ§ÙĨÛĮ Øª
ĠØ§ÙĦØªØŃ ØµÛĮÙĦÛĮ
Ġbu ild
ĠØ¨ ÙģØ±
ĠÙĩØ± ÛĮÚ©
ĠØ¨Ø§ÙĦ Ú©Ø§ÙĨ
ĠÙĨÚ¯Ø± ÙģØªÙĩ
ĠØª Ø¨Øª
ĠÙģÙĦ ÙĪÛĮØ¯
ĠÙ¾ÙĨØ¬ Ø´ÙĨØ¨Ùĩ
ĠÙħÙĪØ¬ÙĪØ¯ ÛĮØª
Ġte le
ĠØ¬Ø§Ø³ ÙĪØ³
ĠÙħÙĨØŃØµØ± Ø¨Ùĩ
ĠØ¨Ø§ÙĦØª ÛĮÚ©
Ú¯ ÙĪØ³
ĠØ´Ùĩ Ø¯Ø§ÛĮ
Ġe b
ĠØŃØ± Ø§Ùħ
ÛĮÙĨØ§ ÙĪÛĮ
ĠØŃÛĮØ¯ Ø±ÛĮÙĩ
Ġbiograph ical
ĠØ¯ÙĪÙĨØª Ø³Ú©
l as
Ø¨ Ø§ØªÛĮ
ĠÙħÙĩ Ø§Ø¨Ø§Ø¯
ĠØ®Ø±ÙĪ Ø³
ĠØ±ÙĤØµ ÙĨØ¯Ùĩ
ĠÙħØºÙĪÙĦ Ø§ÙĨ
Ġ è
ĠÙĪ Ø§Ø³ÛĮ
ĠÚ©Ø´ ÙĨØ¯Ùĩ
ĠØ³Ø±Ø§ Øº
ĠØ¹Ø¨ Ø¯ÛĮ
ĠØ² ÙĩÛĮ
ÙĪØª ÛĮÙĨ
and er
Ġpubl ish
ÚĨ Ú¯ÛĮ
ĠÙĨÙ¾Ø°ÛĮØ± ÙģØª
ÙĪÙĦ ÛĮÙĨÛĮ
ĠÙĨÙħØ§ÛĮØ´ Ú¯Ø±
ĠØ§Ø®ØªÛĮ Ø§Ø±ÛĮ
ĠÛĮØ§ÙĤ ÙĪØª
Ø¨ ÙĩØ§
ĠÛĮØ§ Ø²Ø¯ÙĩÙħÛĮÙĨ
ĠÙ¾Ø±ÙĪØª ÙĪÙĨ
ĠÛĮÙĪÙĨ ÛĮÚ©Ø³
ĠØ¢Ø¯ Ø±ÛĮØ§ÙĨ
ĠÙģ ÙĪØ±Ø§ÙĨ
Ġtw o
ĠØ¯ÛĮÚ©Øª Ø§ØªÙĪØ±ÛĮ
h i
j e
ĠÙģØ± Ú¯Ø´ØªÛĮ
ĠÙĦ Ø·ÙģÛĮ
ĠØ§ÙĨ Ø²
ĠØ§ÙĨÙĤÙĦØ§Ø¨ÛĮ ÙĪÙĨ
ĠÙħØ¹Øµ ÙĪÙħÙĩ
ĠÚĺØ±Ùģ Ø§ÛĮ
Ġartic le
c le
c il
ĠÙħØª Ø§ÙģÛĮ
ĠÙ¾ÛĮ Ø§ÙħÛĮ
ĠØ¹ Ø³Ú©
ĠÚ©Ø§Ø± ØªÙĪÙĨ
ĠØ¢Ø± Ø³ÛĮ
ĠØ¨Ø§Ø®Øª Ø±
sk i
ĠØ¬ ÙĪØ¯ÛĮ
Ø· Ø§ÙĦØ¨
ĠØ´ÛĮ Ø·Ø§ÙĨÛĮ
Ø±Ú© Ø§ÙĨ
ĠÚ¯ÙĦ Ù¾Ø§ÛĮ
ĠØ¨Ø§Ø² Ú¯
ĠØªÙĪ Ø¦
ĠÙĨÛĮ Ø³Ø§ÙĨ
ĠØ³Ø±Ø¯ Ø§Ø±Ø§ÙĨ
ĠÙĤ Ø§Ø·Ø¹
ĠØ±Ø³ Ø§ÙĨØ§
Ġsy n
ĠÚ¯ ÛĮØªÛĮ
ĠØ§ÙĦÚ©ØªØ± ÙĪØ¯
ĠÚ©ÙĪØ± ÛĮÙĨ
ĠØ§ÙĤØ¯ Ø§ÙħÛĮ
ĠØªÚ© Ø§ÙħÙĦÛĮ
ĠÙĤÙĦ ÙħØ¯Ø§Ø¯
Ġle t
Ġro y
ĠØªÛĮØ± ÙħØ§Ùĩ
ĠÚ©ÛĮÙĨÚ¯ Ø²
ear ch
Ġpers ian
ĠØ§ÙĦÛĮ ÙĪØ±
Ø¨ ÙĪÚ©
ĠÙħØªØŃ ÙħÙĦ
ĠØ¨ Ø§ÛĮØª
er g
ĠØ®ÙĪØ±Ø¯ ÙĨØ¯
ĠÚ©ÙĪÙħ Ø§Ø±
ĠØ¬Ø±Ø§ ØŃ
ĠÙģÙħÛĮÙĨÛĮ Ø³ØªÛĮ
ĠÙĨØ¨ Ø§Ø´
Ġla w
ĠØ¨Ùĩ ÙĨØ§Ùħ
ĠÙħÛĮ Ø±ØŃ
ĠØ¬ÙĨ ÙĪØ§
ell o
ĠÚ©ÙĪÛĮ ÛĮÙĨØ²
ĠØ¨Ø± ÙħÙĩ
ĠØ³Ø¹ ÛĮØ¯ÛĮ
i que
Ġsh ah
ĠØªÙĨØ¯ Ø±ÙĪ
ĠØ³Ø± Ø®Ø±
ĠÙĦÙĪ Ú¯Ø§ÙĨ
ĠÙħØ¹Ø§ ÙĪÛĮÙĩ
ĠÙħØ§Ø¯ Ø±Ø§ÙĨ
ĠØ§ØªÙħ Ø³ÙģØ±
ĠÙħØ´Ø§ÙĪØ± Ø§ÙĨ
ĠØ²ÛĮÙħ Ø¨Ø§Ø¨
ĠÙĤ ÙĪØª
Ø§Ø¯ÛĮ Ø³
Ġst and
ĠØ¨ÙħØ§ÙĨ ÙĨØ¯
ĠØ¬ Ú©ÛĮ
ĠÚ©ÙĪ Ø´Ú©
Ø³ Ø§Ø¨
ĠØ¬ Ø§Øª
ĠØ¯Ø§ÙĨ Ø´ÛĮ
ĠØªØ§Ú© ØªÛĮÚ©
ĠØ¢Ø±Ø´ÛĮ ÙĪ
ĠØ²ÛĮØ± Ú¯ÙĪÙĨÙĩ
Ġg n
id es
Ġfr ont
ĠÙħØ§Ø±Ù¾ÛĮ ÚĨÛĮ
ĠÚ¯ ÙĦØ§
ĠÙģÙĪÙĦ Ú©
ĠØªØ±ÛĮÙĦ Ø±
ĠØ§Ø³Ú©Ø§ÙĨØ¯ ÛĮÙĨØ§ÙĪÛĮ
ĠØªØ¨ÛĮ ÛĮÙĨ
ĠØ²ÛĮÙħØ¨Ø§Ø¨ ÙĪÙĩ
ĠÚ¯ ÙĨÚ¯
Ù¾ ÙĦÛĮ
Ø®ÙĪ Ø§ÙĩÛĮ
ĠØ¹Ø§Ø± Ø¶Ùĩ
ĠÙĩÙħ ÙĪØ§Ø±
ØªÛĮ Ø§ÙĨ
od es
Ġpu eb
Ø¨ Ø§Ø¦ÙĪ
ĠØ¬ Ø§Ø±
ĠØ³ÙĦ ÙĪÚ©ÛĮ
ĠØ§Ø³Ú© ÙĦ
ĠØ¨ÙĩØ¨Ùĩ Ø§ÙĨ
ĠÙĨØ³ Ø®
ĠÙħØŃÙħ ÙĪØ¯ÛĮ
ĠØ±Ø¨ÛĮ Ø¹
Ġs on
ĠÙħØ³Øª ÙħØ±
ĠÙĨØ¯ Ø§Ø¯Ùĩ
ĠÙħ Úĺ
ĠÙĤØ± Ø¶ÛĮ
ÙĦÙĪ Ù¾
av a
ĠØ¹Ø±ÙĪ ÙĤÛĮ
ÙĨ Ø§ÙĦ
iz ation
ĠØ§ØªÙĪÙħ Ø§ØªÛĮÚ©
ĠØ³ÛĮÙĨÙħ Ø§ÙĩØ§ÛĮ
Ú¯ ÙĨÛĮ
ÙĪØ§ ÙĪØ±
Ġbl ue
ĠØ¯Ø§ Ø´
ÙĪÙĩ Ø§ÙĨ
ĠØªØµ Ø§ÙĪÛĮØ±ÛĮ
ĠÙĨÛĮÚ© ÙĪ
ĠÙĨØ¬ ÙĪÙħ
ĠÚ©Ø§ÙĪØ´ Ú¯Ø±Ø§ÙĨ
ĠØª Ø±Ø§Ø¬
ĠØ³ÛĮÙĦ ÙĪØ±
ĠÙĨØ§Ù¾ ÙĪÙĦÛĮ
ĠØ§ÙħØ§Ùħ Ø§ÙĨ
ĠÙħØ±ÙĪØ± Ú¯Ø±
ĠØ®ÙĪÛĮØ´Ø§ ÙĪÙĨØ¯
ĠÙħ Ø¶Ø±
ĠÙĦ Ø¦
ĠØ§ÛĮØ± Ø¨Ø§Ø³
Ġh ot
ĠØ¬ÙĪ Ø§ÙĩØ±Ø§Øª
ĠØ±Ø§Ø¨ÛĮÙĨ Ø³ÙĪÙĨ
Ġtur k
ÙĨ ÙħØ§ÛĮÛĮ
Ø§Ø± ÙĤ
ĠÙħØ¹ Ø§Ø´
ĠÙĨÙĪ Ø³Ø§Ø²ÛĮ
ĠØ¢Ø¨ Ú©ÛĮ
ĠØ®Ø±Ø¯ Ø³Ø§ÙĦ
ĠÚĨ ÙĪÙĨÚ¯
ĠØ§Ø¬ Ø¯Ø§Ø¯
Ġpro t
ĠÚ© ÛĮØªÛĮ
ĠÚ©ÙĦ Ú©
ĠÛĮØ²Ø¯ Ú¯Ø±Ø¯
ĠÙĩÙħ Ø´ÙĩØ±ÛĮ
ĠÚ¯ÙĨØ¬ Ø´Ú©
ĠÙģØ±ÙĨ ÚĨ
g ar
ÛĮØ§ Ø²ÛĮ
at ing
ot o
ĠÙĤÙĪÚĨ Ø§ÙĨ
ĠØ´Ú© ÙĪÙģ
ĠÙģÙĦ ÙģÙĦ
ĠÙĨØ§Ù¾ Ø§ÛĮØ¯
Ġr os
ĠØ¢Ø¨Ø± Ø§ÙĩØ§Ùħ
Ġconf eder
ĠØ¯Ø± ÛĮÚ©
ĠÙĤ Ø¨Ø§ÙĦ
ĠÙħØ´Ú© ÛĮ
ĠØªØ±ÙĪØ±ÛĮ Ø³Øª
ĠØ¯ÛĮ ÙĪÛĮ
ĠØŃÙħ Ø§Ø³
Ø´Ø§ Ø¡
ĠØ¨Ø± ÛĮÙĨ
ĠØ´ÙĩØ± Ú©Ø±Ø¯
ĠÚ©ØªØ§Ø¨ Ø´ÙĨØ§Ø³ÛĮ
ĠØ§Ø³Ù¾ ÛĮØ±
ĠØ¢Ø¯ ÙĦ
ĠÙĪ ÛĮÙĨÛĮ
ĠÚ©ÙĪØ¯Ú© Ø§ÙĨÙĩ
ĠÚ©ÛĮÙħ ÛĮØ§
ĠÚĨ ÙĤØ¯Ø±
ĠØ´ÛĮØ± ÙĪØ§ÙĨ
ĠÙħØŃØ¯ Ø«
Å «
ĠØ±ÙĪ Ú©Ø´
ĠÙĨÛĮÙĪØ² ÙĦÙĨØ¯
ĠØ§ÙĨØŃ ØµØ§Ø±
pr ess
ĠØ³Ø±ÙĨÚ¯ ÙĪÙĨ
Ú© Ø±ÛĮØª
Ø§ÙĦ Ø³ÙĦ
ĠÙĪ Ú©ÙĦ
ĠØªÚ© ÙĦÙħ
ĠÚ©Ø§Ø± ÙĩØ§ÛĮÛĮ
ĠØªØ± ØºÛĮØ¨
ĠØ§ÙĦÙħ ÙĨØ§
ĠÙħÙĩØ± ÙħØ§Ùĩ
ĠØ±Ø§ÙĨ Ø´
ĠÙħØªØŃ Ø¯Ø§ÙĨ
ĠØ±ÛĮ Ú¯Ø§ÙĨ
ĠÛĮØª ÛĮÙħ
r is
ĠØ±ÙģØ³ ÙĨØ¬Ø§ÙĨ
Ġg t
ĠØªØ¬ Ø³ÙħÛĮ
ÙĪÙ¾ Ø§ÛĮÛĮ
Ġte x
ĠÙħÙĨØ³ÙĪ Ø®
ĠØ¨ Ù¾Ø°ÛĮØ±
ĠØ¹ Ø²Ø§Ø¯
ĠØ±Ø§ Ø´
ĠØ³Ø± Ø´
Ġp ost
ĠØ¢ÙĦ Ø³
ĠØ³ ÙĪÛĮÛĮ
ĠÙģØ± ÙĤ
ĠÙĤØ± Ø¶
ĠØ³ÙĨÚ¯ ÛĮÙĨÛĮ
ĠØ®Ø± Ø§Ø¨ÛĮ
ĠØ¯ÛĮ ÙĦÛĮ
ĠÙ¾Ø§ÙĦ Ø§Ø³
ĠÙĨÛĮØ± ÙĪÙħÙĨØ¯
ĠÙ¾ÙĦÛĮ Ø³ÛĮ
am b
Ġ ç
ĠØ¨ Ø³ØªØ§ÙĨ
ĠØ³ Ø§ÙĨØ¯Ø±
ĠØ³ÛĮ Ùĩ
Ø³Ù¾ Ø§Ø±ÛĮ
Ġp y
Ø² ÛĮØ±
ĠÙģØ± ÙĪØ±
ĠÚ©Ùħ Ù¾ÙĦ
ĠÙģØ± Ø¬
ĠÙĩÙħ ÛĮØ´
ĠØ§Ø´Øª Ø§ÛĮÙĨ
ĠÙħØ§Ø´ ÛĮÙĨÛĮ
ĠØ±ÛĮØ§Ø¶ ÛĮØ¯Ø§ÙĨ
ĠÙĦØ§ÙĩÛĮ Ø¬Ø§ÙĨ
ĠØºÛĮØ±Ø§ÙĨØª ÙģØ§Ø¹ÛĮ
ĠØ®Ø´Ø§ÛĮ Ø§Ø±
ĠØ§ÙĦÙħ Ø¹
ch es
ĠÚ©Ø§ÙĦ Ø§ÛĮ
ĠÙģ ØµÙĪÙĦ
ĠÙĤ ØµÛĮ
ĠØ§ÙĪ Øº
ĠØ±ÙĪÛĮ Ø§ÙĨ
ĠÙĪØ§ØŃ Ø¯ÛĮ
ĠÙĨØµ ÛĮØ±ÛĮ
ĠÙħØ±Øª Ú©Ø¨
ĠØ´ Øª
Ġp m
Ø¢ Ú¯Ø§Ùĩ
ĠÙ¾Ø§Ø³ Ú©Ø§ÙĦ
Ġpueb lo
Å Ĥ
ĠÙħØ± Ø¬Ø§ÙĨ
ĠÙĨÛĮÚ© Ø§Ø±
Ġas p
ĠØ¢Ø±ÛĮ Ø§
Ġres earch
ĠØ¨ ÙĨØ¯Ùĩ
ĠØ±Ø§ Ø³ØªÛĮ
ĠÚ©ÙĨØ³ÙĪÙĦ Ú¯Ø±ÛĮ
Ú© Ø§Øª
ĠØªØ³ ÙħÛĮÙĩ
ĠØ¨Ø± Ø§Ùģ
ĠØ® Ø´Øª
ĠÚ©ØªØ§Ø¨ ÙĩØ§ÛĮ
ĠØ¢Ùģ Ø±ÛĮ
Ø« Ø§Ø±
ĠÙħØŃ Ø¨Øª
ĠØ³Ø§Ø®Øª Ú¯ÛĮ
Ġo ther
ĠØ§ÙĨØ¯Ø§Ø² Ø¯
ĠØ±Ø³ØªØ§ Ø®ÛĮØ²
Ġr s
ĠØ¹Ø§ÙĦ ÙħØ§ÙĨ
ĠÙĦ Ø§Ø´
Ð° Ð½
Ø¬ Ø§Ø²
ĠÙĪ ÛĮØ§
ÙĪÛĮ ÙĦÛĮ
ĠØ³Ø§ÛĮ ÙħÙĪÙĨ
ĠÐ ¿
ĠØªÛĮØª Ø§ÙĨÛĮÙĪÙħ
Ġis s
ĠØ¨Ø±Ú¯ Ùĩ
man n
Ġcent ral
ÙĪÙĨÛĮ Ùĩ
Ġm p
Ġm ult
it or
ĠØ§ØŃ Ø§Ø¯ÛĮ
pp ed
Ġsport s
ÙĨØ¯ Ú¯Ø§ÙĨÛĮ
Ø® Ùħ
ĠØ§ÛĮ ÚĨ
Ø¦ Ø§ÙĦ
ĠØ²ÙĨØ¯ Ú¯Ø§ÙĨÛĮ
ĠÙħÙĪØ± ÙģÛĮ
Ø§Ú© ÙĦ
ĠØ§ÙĪØ± Ø§ÙĨÛĮÙĪÙħ
Ġph ys
ĠØ¯ÛĮÙĪ Ø§Ø±ÙĩØ§
Ġthom as
ĠØªÙħ Ø¨Ø±
ĠÙĩÙģØª ØµØ¯
ĠØ³Ø±Ø® Ø³
ÙħÙĨ Ùĩ
is ter
ĠÙģÛĮØ²ÛĮÚ© Ø¯Ø§ÙĨ
Ġbl vd
ĠÙħØ¸ ÙĨÙĪÙĨ
Ġsch ool
Ġpe op
ĠØªÚ©ÙĪØ§ÙĨØ¯ ÙĪÚ©Ø§Ø±Ø§ÙĨ
ĠÙħØ¬Ø§Ø± Ø³ØªØ§ÙĨÛĮ
ÙĪ Ø«
ÙĪ Ø³ØªØ±
ĠÛĮÚ© Ø§ÙĩØ§ÛĮ
Ġg ard
ĠÙĨ Ø²Ø§
Ø¸ Ø¨ÛĮ
ĠØ¨Ø® ØµÙĪØµ
ĠØŃÙģØ§ Ø¸
ĠØ¢ Ø³Ú©
Ġn y
Ġv ide
ĠØ§Ø¨ ÙĦØ§
ĠØ³Ø§Ø¨ÙĤ Ø§
ĠÙĦÙħ Ø¨Ø§Ø±Ø¯ÛĮ
ĠÚ©ÛĮÙĩ Ø§ÙĨÛĮ
Ø§Ø±Øª Ø§
ĠÙĨØ§ ÙĪØ¨Ø±ÛĮ
ĠØ¶ ÛĮØ§Ø¡
ĠØ²ÛĮØ¨ Ø§ØªØ±ÛĮÙĨ
Øº Øª
ĠØ¯ÛĮ Ø§Ø±
Ġb ig
Ġk ev
ĠØµÙĨ Ø¹
ĠÙĨØ§Ø± Ø§ØŃØªÛĮ
Ġex t
ÙĨÚ¯ Ø±
ĠØŃØ³ Ø§Ùħ
ĠÙĨØ§Ùĩ ÛĮØ¯
ĠØ¢Ø± ØªÛĮ
ĠÚ©ÛĮ ÙĪØ§ÙĨ
ĠØ¯Ø§Ùħ ØºØ§ÙĨ
ĠÙħÙĨØªÙĤ Ø¯ÛĮÙĨ
Ġnov ember
ĠØªØ± Ø§Ùħ
ĠÙ¾Ø± ÙĦ
ĠØ¢Ùħ Ø§ØªÙĪØ±
Ñģ Ðº
ĠØ¬ÛĮØ± ÙģØª
ĠÙħ ÙģØ±
ĠÙĨÙĤ ÙĪØ´
ĠÙħØ® Ø§Ø²ÙĨ
Ġm d
ĠÙ¾ÛĮØ´ Ø§ÙĨÛĮ
Ġd iv
ÙĪÙĦÛĮ Ø§
ĠÙĪ ÙĦÙĪ
ĠÚ©Ø§Ø± Ø²Ø§Ø±
ĠØ¯Ø± ÛĮÙħ
ĠØ§Ùĩ ÙĦÛĮ
ĠÙĤØ± Ø¨Ø§ÙĨ
ĠØ³Ø§ÛĮ Ø¨Ø±ÛĮ
ĠÙħÛĮÚ©Ø±ÙĪ Ø¨ÛĮ
ÛĮÙĨ Ø§Ùģ
ĠØ®ÙĪ Ø§Ø¨ÛĮ
ĠÙĪØµ Ùģ
ĠØ¨Ø§Ø² Ø±Ø³
ÙĪÙĩ ÛĮ
ÙĪÛĮØª Ø³Ùĩ
ĠØ¢ÛĮØ¯ ÙĦ
ĠØ¢ Ú©Ø±
Ġn on
Ġk ur
ĠØ¨Ø®ØªÛĮ Ø§Ø±
ĠÙħØªØ£ Ø«Ø±
Ġrec ord
ĠØ³Ø±Ø³ Ø®Øª
Ġm ak
ĠØªØµ ÙĪÙģ
ĠØ§Ø¨ÙĪ Ø¸Ø¨ÛĮ
ĠØ¨ÛĮÙĦ Ø¨Ø§Ø¦ÙĪ
Ġsoc ial
ĠØ³Ø±Ø³Ø¨ Ø²
n y
Ø ¥
ĠØ® Ø§Ø±Ú©
ĠÙģÛĮØ±ÙĪØ² Ø¢Ø¨Ø§Ø¯
ĠØ§Ø³ØªØ« ÙĨØ§ÛĮ
ĠØ³Ù¾Ùĩ Ø¨Ø¯
ĠØ¬Ø°Ø§Ø¨ ÛĮØª
ĠÙħØ®Ø±ÙĪ Ø·ÛĮ
Ã ±
ÛĮØ³ ÙĨ
ĠÙħÚ© Ø§ÙĦ
Ġk l
ĠØ¢ÙĪ Ø§ÛĮ
ĠØªØ§Ùħ ÛĮÙĦ
ĠÙĪÚ© Ø§ÙĦØª
ĠØªÙħØ§ÛĮ ÙĦØ§Øª
ĠÚ©Ø§ÙĦØ¨Ø¯ Ø´ÙĨØ§Ø³ÛĮ
m ar
z o
ĠÙħÛĮ ÚĨÙĦ
ĠØ§Ø± Ø§Ø¨Ùĩ
ĠÚ©Ø´ÙĪØ± Ø´
Ø´ÙĨ Ø§ÙĦ
ĠØ§Ø³Ú© ÙĦØª
ĠØ±Ø³Ø§ÙĨÛĮ Ø¯
ĠÙħÙĪÙĨØªØ± Ø¢ÙĦ
ĠÙħØ´Ø±ÙĪØ· ÛĮØª
ĠÙĨØ¨Ø±Ø¯ ÛĮ
ĠÙ¾Ø§Ø±Ø³ÛĮ Ø§ÙĨ
Ġox ford
ĠØ§Ø³Øª Ø¨Ø¯
ĠÙħÙĦ Ø§ÛĮÙħ
ĠÙĨØ§Ø² ÙĦ
ĠØŃÙĪØ§ Ø´ÛĮ
ÙĦ ÙĪÙĨ
ĠØªÙĪØ± ÛĮÙĨÚ¯
em a
od y
ĠØ¨Ø±ÛĮ Ø¬
ĠÙĩØ±ÙĪØ¯ ÙĪØª
Ú¯ Ø§Ø±Ø¯
Ø§Ø± Ø¬
ĠØ¯Ø§Ø± ÙĪÛĮÙĨ
ĠÙ¾Ø§Ú© Ø³ØªØ§ÙĨÛĮ
ĠÚ©ÙĦØ§ Øº
ĠØ¨ÙĦ Ø´ÙĪ
Ġv on
ĠØ¯ÙĦ ØªØ§
ĠÙĨÚ¯ÙĩØ¨Ø§ÙĨ Ø§ÙĨ
Ã ł
ĠØ¬ Ø§ÙĩØ§ÛĮ
ĠÙĦ ÙĪØ±Ø§
ĠØ³Ø± Ø´Ø§Ø±
ĠÙħØµ Ø§Ùģ
ĠØ±Ø§ÛĮ Ø§ÙĨØ´
ĠÙ¾Ø§Ø² ÙĪÚ©ÛĮ
Øµ ØªÛĮ
ĠØ·Ø§ÙĦ ÙĤØ§ÙĨÛĮ
ĠØ¨Ø¯ÛĮ Ø¹
Ø¨ÛĮ ØŃ
ĠÚ¯ÙĪ Ø§Ø±Ø´
ĠØ§Ø³Ù¾Ø± ÛĮÙĨÚ¯
ĠÙħÙĨØ§Ø¸ Ø±
ĠÙĩØ§ÛĮÙĨ Ø±ÛĮØ´
ĠÙ¾ÙĨÙĩ Ø§ÙĨÛĮ
ĠØ§ÙĨØ· Ø§Ú©ÛĮÙĩ
k in
ĠÚ¯ÛĮ Ø¨
ĠØ¨Ø±Ø¬ Ø§ÛĮ
ĠØ³Ø± Ú¯Ø±Ø¯
ĠØ§Ø¹Øª Ø¯Ø§ÙĦ
ĠØªÙģÙĨÚ¯ Ø¯Ø§Ø±Ø§ÙĨ
ĠØ§Ø³Ù¾ÙĨ Ø³Ø±
ĠØ¨ÛĮ Ø§Ø¨Ø§ÙĨÛĮ
ĠÙħØ¹ Ø´ÙĪ
Ġc ant
ĠØ¬ÛĮ ÙĪÙĩ
ĠØ§ÙĨØªÙĤ Ø§ÙĦÛĮ
ĠØ´ÙģØ§Ùģ ÛĮØª
ĠÚ¯ÙĪ Ø§Ø¯
ĠÚ¯Ø§Ø±Ø¯ ÛĮÙĨ
ĠØ¨Ø§Ø± ÙĨØ²
ĠÙħØ§Ùĩ ÙĪØ±
ĠÙ¾ÛĮØ± Ø³
ĠØªÙħØ±ÛĮÙĨ Ø§Øª
ĠØªØ±Ø§Ø¬ ÙĨØ³ÛĮ
ĠØ² Ø¦ÙĪØ³
ĠØ¬ÙĨÚ¯ Ø¬ÙĪÛĮØ§ÙĨ
ĠØªÙĤ Ø±ÛĮØ¨
ĠÙ¾ÙĦ Ø§Øª
ĠØ¯Ø±Ø®Ø´ Ø´
ĠÚ©Ø§Ø± ÙģØ±
ĠÙĤØ± Ø¢ÙĨÛĮ
Ø²Ø¨ ÙĪØ±ÙĪ
ĠÙ¾ÚĺÙĪÙĩ Ø´Ú©Ø¯Ùĩ
ĠØªØ±ÙħÛĮÙĨ Ø§ÙĦ
Ø² ÙĨØ¯Ú¯ÛĮ
ĠØªÛĮÙħ ÙĪØ±ÛĮ
ĠÙħØ® Ø±Ø¨
ĠØªÙĪØ± Ø§ÙĨ
Ú©ÛĮ Ø§ÙĨ
Ġje an
Ø¯ Ø³
ĠÙĪ Ø§Ø²
ĠÚ©ÙĪ Ø´ÛĮØ¯
ĠØ´Ø¨ ØŃ
ĠÙĩÙħÛĮØ´ Ú¯ÛĮ
ĠØ¨Ø± Ø´ÛĮ
Ù¾ Ø§ÙĦ
ĠØ´Ø¹ Ø¨Ø§ÙĨ
Ø³Ù¾ Ø§Ø±
ĠØ³ Ø§ØªØ±
ĠØ§Ø· Ø§Ø¹Øª
Ú¯ Ø±ÙĪ
ĠØ§Ø¹ Ø²
ol f
ĠÙĨØ§ ÚĨ
ĠØ¯Ø±Ø§Ùħ Ø²
Ġar g
ĠØªØ±Ø§ Ø´
ĠØ´Ú©Ø§Ø± ÚĨÛĮØ§ÙĨ
ĠØ¹ÙĤÛĮ ÙĦÛĮ
ĠÚ©Ø±ÛĮØ³Øª ÛĮÙĨØ§
ĠÚ¯Ø±Ø§ÙĨ Ø´ÛĮ
ĠÙħÛĮ Ø±ÛĮ
ĠÙģÙĪØª ÙĪÙĨ
Ġand re
ĠÕ ´
ĠØ¢ÙħÛĮÙĨ Ùĩ
ĠØ¨ ÙĪØ±Ú©
ĠØ§Ùĩ Ø±ÛĮ
Úĺ Ø§ÙĨØ³
ĠÙħØ¹ Ø§Ùģ
Ġt ot
ĠÚ¯ÛĮ Ø¬
ĠÙĩÙĪØ§Ù¾ÛĮÙħ Ø§ÙĩØ§
ÙģÙĪÙĨ ÛĮÚ©
ĠØ¢ÙĦØ¨Ø± ØªÙĪ
ĠØ¯ Ø§ÙĨÛĮÙħ
ĠØ¯Ø± ÙĨÚ¯
ĠØª Ú¯
Ø¹ Ø¸
ĠÚ©ÛĮ Ø¨ÙĪØ±Ø¯
ĠÙģØ±Ø§ÛĮ ÙĨØ¯ÛĮ
ĠØ±Ø® Ø¯Ø§Ø¯
Ú© ÙĪÙģ
ĠØ´ ÙĪÛĮØ¯
Ġt b
Ġhe ad
ĠØ²Ø§Ùħ Ø¨ÛĮ
ĠØªØ§ÙħÛĮ ÙĦÛĮ
ÙĪØ±Ø¯ Ø§ÙĨ
ĠØ³ÛĮ Ø§Ø±
ect ion
ĠÚĨÙĨ Ø§Ø±
ĠØºÛĮ Ø¨Øª
ĠØ±ÙĪØ¯Ø±ÛĮ Ú¯Ø²
ĠØ¨Ø±Ø§ÛĮ ØªÙĪÙĨ
ĠØ²ÙĨ Ø§ÙĨÛĮ
ĠØ´Ø± Ø¹ÛĮ
ĠØªÚ© Ø§ÙĨ
ĠÙĪÛĮØ± Ø§ÙĨÙĩ
ĠÙħØ§ÛĮ ÙĦÛĮ
r am
ĠØ§Ø® ÙĪØ§ÙĨ
ĠÙĨØ´Ø¯ ÙĨØ¯
o y
Ù¾ ÙĪØ±ÛĮ
ĠÙĦØ§ÛĮ ÙĪ
Ġwh o
ĠØ¯Ø§ ÙĪ
Ġd am
Ġdatab ases
ĠÚ© Ø±Ø§Ú©
ĠÙĤ ÛĮØ±
ĠØ¯Ø§ ÙĪÛĮØ¯
ĠÙħØ± Ø¹
Ġl im
ĠØ¬ÙĨ ÙĪÙĨ
ÙĪÙ¾ ØªØ±
ĠØ§ÙĦÛĮ Ø§Ø³
ĠÙĨ ÙĪÙħ
ĠÙĩØ§ÛĮ Ø¯ÙĦ
ĠÙĪØ± Ø´Ú©
Ø£ Øª
Ø§Ø¦ ÙĦÛĮ
ĠÚ©Ø±ÛĮ Ú¯
ĠØªÙĪØ± ÛĮÙĨÙĪ
ĠØ¹Ø¨Ø§Ø± Ø§Øª
Ù¾ ÙĪÙĨ
Ø§Ø² ÙĪÙĦ
Ġd s
Ġfest ival
Ùħ Ø§ÙĦÛĮ
as ter
ĠÚ¯ÛĮ Ø´Ùĩ
ĠØ¹Ø¶ ÙĦÙĩ
ĠØªØ§Ùħ Ù¾Ø³ÙĪÙĨ
ÙĨ ÛĮÙħ
ĠØªÙĪ ØŃÛĮØ¯
ub e
ĠØ§Ø³Ù¾ Ø§ÙĨÛĮ
ĠØ´ÙĨ ÙĪØ¯
ĠØ³ ÙħØ§
ĠÙĨ ÛĮØ¯
Ġch ild
ĠØ¨ÙĪÙĦ ØªÙĪÙĨ
ĠÙħØ¹Ø´ÙĪ ÙĤÙĩ
ru ct
ĠØª Ø¨Ùĩ
ĠÙĦÛĮ Ø³Ø¨
ĠÙħØ±Ø² Ø¨Ø§ÙĨ
ÙħÙ¾ ØªÙĪÙĨ
ĠØ¨Ú¯Ø°Ø§Ø± ÙĨØ¯
ĠØ§ÙĦÙħÙ¾ ÛĮØ§
Ø³Øª ÛĮØ¯
ĠÙĩ Ø§ÙĦÙĩ
ĠÙħØ¯ Ø®ÙĦ
Ø§ÙĤ Ø¨
Ġd d
ĠØ¨ÙĨ ÙĪÛĮØ³
ÙĪØ§Ø± ÙĪÙ¾Ø§ÛĮÛĮ
ĠÙħØµ Ø§Ø±Ùģ
ĠÙ¾Ø§Ù¾ ÛĮ
ĠØ²Ø§Ø¯Ú¯Ø§Ùĩ Ø´
ĠÙĨ Ø³ÛĮÙħ
ĠÙħÙĤ Ø§ÙħÛĮ
ĠØªØ¹ Ø·ÛĮÙĦÛĮ
ĠØ¢ÙĨØª ÙĪØ§ÙĨ
ĠÙħØªÙĪ ÙģÛĮ
ĠØ´ Ø¨ÛĮ
ĠÚ©ÙĦ Ø§ÙħÛĮ
ÙĪØ¨ ÛĮÙĨ
ĠØªÚ© Ø°ÛĮØ¨
ĠØ¨Ø· Ø±ÛĮ
ĠØ§ÛĮ Ø´
ĠÙħØ´ Ø±Ùģ
ĠØ§Ø³ÛĮ Ø¯ÛĮ
ĠØ¨Ø± Ù¾Ø§ÛĮÛĮ
ĠØ¢Ø¨ Ø®
ĠØ§ÛĮÙĦ Ø§Øª
Ø·Ø¨ÛĮ Ø¹ÛĮ
ĠÙħØ§Ø±Ù¾ÛĮ ÚĨ
ĠÚ©Ø±ÙĨ ÙĦ
ĠØ¢Ø±Ø² ÙĪÛĮ
ĠØ¯Ø± Ø§Ù¾Ø±
ĠØµ Ø±Ø§
Ø¬ÛĮ Ø§ÙĨ
ĠØªØ§Ùħ ÛĮÙĨ
Ø±ÛĮ ÙģÛĮ
ĠÙĪÛĮ Ø²
ĠØ§Ø¨ ÙĪØ³
ĠÙħ ÛĮÙĨÚ¯
ĠØ§Ø³Øª Ø±ÙĪ
ĠÚĨ Ø±Ú©
ĠÚ©Ø§Ø± Ø¨
ĠØ¨ÙĨ Ø§ÛĮÛĮ
ĠØ¬ÙĦ Ø§ÙĦÛĮ
ĠØ¹ÙħØ± Ø§ÙĨÛĮ
Ġpro duction
ĠØ¨ÛĮÙħØ§Ø± Ø³ØªØ§ÙĨÛĮ
ĠØ´Ø±ÛĮ ÙģÛĮ
ĠØ¬Ø§Ø¨ Ø¬Ø§
Ùĩ Ø§ÙĦ
ĠÙĪ Ø²Ø±
ĠØ³Ø§ÙĦÛĮ Ø§ÙĨ
Ġl y
ĠØ¨ÙĪØª Ø§ÙĨ
ĠÙģØ± ØµØªÛĮ
Ġf t
ĠØ³ÙĪ ÙģÛĮ
Ø§Ø¨ÙĦ ÙĪ
ĠÙĨØ§Ø± ÙĨØ¬
ĠÙħÛĮÙĦ ÙĪ
ĠÚ© ÙĪÙĦÛĮÙĨ
ĠØŃÙĤ Ø§ÛĮÙĤ
ĠØ¯Ø±Ø¢ ÙħØ¯ÛĮ
Ġwor k
ĠØ³ÙĪÙģ ÛĮØ§
ĠØ® Ø§Ø´
Øµ Ùģ
ĠØ¨Ø§Ø² ÙĨÚ¯Ø±ÛĮ
ĠÙĦ Ø§Ø¬
ĠÙħØ´ Ø§ÛĮ
ĠÚĨ Ø§Ø¯
ĠÚĨ ÛĮÙĨÚ¯
ĠØªØ§ Ø´Ú©
Ø§ÛĮ Ø´ÛĮ
Ø¬ Ø¨
ĠØ§Ø³Øª Ø§Ø±Ú©
ÙħÙĪ Ø²ÛĮ
Ġv s
Ø¦ ÙĪÙħ
ĠØ³ÛĮ Ø§ÙĦØ§Øª
ĠØ§ÙĨØ³Øª ÛĮØªÙĪ
ĠØ§ÙĨØª ØŃ
ĠÙħÙĪØ± ÙĪ
Õ¡Õ µ
ĠØ±ÙĪÛĮÚ© Ø±
ĠÚ¯Ø¦ ÙĪØ±Ú¯
ĠØ³ÙħØ± ÙĤÙĨØ¯
ĠÙģØ§Ø± ÙĨ
Ġco ur
ĠØ§ÙĦÙĤØ§ Ø¹Ø¯Ùĩ
Ùħ ØŃ
ĠØ¬ Ø±Ø¯ÙĨ
Ġn av
ĠÙħØ§ÙĪØ± Ø§Ø¡
ĠØ¨Ø± ØªÙĪÙĨ
ĠØ¨Ø¯ ØªØ±
ÙĨØª Ø²
Ø§ÙĨÚ© ÙĪ
ĠÙĤØ¯ Ø±ÛĮ
ĠÙĤÛĮÙħ ØªÛĮ
ĠÙģØ´ Ø§Ø±ÙĩØ§ÛĮ
ĠÙĪ Ø¢ÙħØ¯
ĠÚ©Ø§Ø± ÙĦØ³
Ġc le
Ġm ah
Ú¯Ø§ÙĨ Ú¯
ĠØ¯ÙĪ Ø³
il a
Ù¾Ø±Ø¯ Ø§Ø²
ĠÚ© ÙĪÙĨÛĮ
Ø³Øª Ø±Ø§ÙĨÚ¯
ĠÙģ Ø§ÛĮØ±
ĠÙ¾Ø§ÙĦ Ø±ÙħÙĪ
ĠÚĨØ±Ø® Ø´ÛĮ
ĠÙģØ±Ø§Ùħ Ø§Ø³ÙĪÙĨ
ĠØ³Ø± Ø§ÛĮÛĮ
ĠØ¯Ø§ÙĨØ³Øª ÙĨ
ĠØ³Ø±Ú¯ Ø¦ÛĮ
ĠØº Ø´Ø§ÛĮ
Ġcomp ut
ĠØ§ÙĨØ´ Ø¹Ø§Ø¨
Ġconfeder ate
ĠØ§ÛĮ Ø²Ø¯ÛĮ
ĠÙħØ¬ Ø±Ùħ
Ø¹ÙĦÛĮ ÙĤ
ĠÚ©Ø±ÛĮØ³Øª Ø§ÙĦÛĮ
ĠØ¯Ø§ÙĪØ·ÙĦØ¨ Ø§ÙĨÙĩ
ĠÙģØ±Ø¯ÛĮÙĨ Ø§ÙĨØ¯
Ø§ÙĦ Ø§Ùħ
ĠÚ¯ÙĦ Ø²ÙĨ
Ġi g
Ġv ict
ĠØ±ÙĪØ¨Ø± ÙĪÛĮ
ĠØŃØª ÙħØ§
ĠÙħØ³Øª ÙĦØ²
Ġhum an
Î ¹
ĠÙĩ ÙĪÙģ
ĠÙħØ³ Ø§ÛĮÙĦ
ĠÙ¾Ø± Ø®
ĠÙĨÙĪ Ø³ÙĨÚ¯ÛĮ
ĠÛĮÙĪÙĨÛĮ ÙĪÙĨ
ĠÚ©Ø±Ø¨ÙĨ Ø§Øª
ĠÙ¾Ø±ÙĨØ³ Ø³
ĠÙĤØŃ Ø·ÛĮ
ĠØ´ ÙĤ
ĠÙĤØ± Ø¹Ùĩ
ĠØ²ÛĮØ± Ú©
ĠØ§ÙĨØªØ´Ø§Ø± Ø§ØªÛĮ
ĠÙĪØ§ÙĦ Ø§Ø³
ĠØ¯ÛĮÙĨ Ø§Ø±
ĠÙħ Ø´ÛĮ
ĠÙ¾ Ø§ÙĩØ§ÛĮ
ĠÙģØ±Ø³Øª Ø¯
ĠÙĨÛĮÚ©Ø§Ø± Ø§Ú¯ÙĪØ¦Ùĩ
o ok
ĠÙĨÛĮ ÙħØ±
ĠØ³Ø§Ø² ÙĪÚ©Ø§Ø±
ĠÙħØ§Ø± Ø³ÙĦ
ĠÙĩØ´Øª ØµØ¯
ĠØ³ÙĪØ§Ø±Ú© Ø§Ø±ÛĮ
ĠØ§ÙĦØ³Ø§ÙĦ ÙĪØ§Ø¯ÙĪØ±
Øª Ú©
ÛĮØ± Ø§ÙĨÛĮ
ĠÚ©Ø´ ÙĨØ¯
ĠÚ¯ÙĪØª ÛĮÚ©
ĠØ¯Ø³Øª ÙĪØ±ÛĮ
Ø±Ùĩ Ø§ÛĮÛĮ
ĠÚ©Ø§ ÙĪÛĮ
ĠÚ¯ÛĮØª Ø§Ø±ÛĮØ³Øª
ĠØ§ÙĦÙħÙĨØ§ ÙģØ¹
ĠØ¨ÛĮ ÙģØªØ¯
ĠÚĺ ÙĪÙĦ
Ġr un
ĠØ¹Ø± Ø¶ÛĮ
Ġrep ubl
ĠÙĤØ±Ø§Ø¦ Øª
ÛĮÚ© Ø§ÛĮÛĮ
ĠÙĨÚĺ Ø§Ø¯ÙĩØ§ÛĮ
ĠØ³Ø±Ø®Ø± Ú¯
ĠÙħØ³ØªÙĦØ² Ùħ
ĠØ¯ÙĪ ØŃÙĩ
ĠØ¯Ø§ÙĨØ´Ú¯Ø§ÙĩÛĮ Ø§ÙĨ
ĠØ´Ùħ Ø´
ĠØ¨Ø®Ø´ ÛĮØ¯ÙĨ
ra ft
ĠÙĦØ¦ÙĪÙĨ Ø§Ø±Ø¯
ĠØ´ÙħÛĮØ±Ø§ÙĨ Ø§Øª
ĠÙĦÛĮØ³Ø¨ ÙĪÙĨ
ĠÙħØ¯Ø± ÙĨÛĮ
ĠØ±Ø² ÛĮÙĨ
ĠØ§ÙĪØ³Øª Ø§ÛĮÛĮ
Ø¨ Ø§ØŃ
ĠÚĨ Ø´ÙħÛĮ
Ġj ust
ĠØ§ØŃ ØªØ±Ø§
Ġk al
ĠØ± ÚĺÙĩ
ĠØ³Ø± Ú¯Ø±Ùħ
ĠØµØ¯ Ø§ÛĮÛĮ
ĠÙ¾ÙĪØ´ ÛĮØ¯ÙĨ
ĠØ§Ø³ØªØ§ÙĨØ¯ Ø§Ø±ÛĮ
ĠØ§Ø³ØªØ® ÙĪØ§ÙĨÛĮ
ograph y
ĠÙģØ±Ø§Ø® ÙĪØ§ÙĨ
ĠÚ© ÛĮÙħÛĮ
ĠØ¢ Ø´ÛĮ
an ia
ĠÚ©Ø±Ø¯ÙĨ Ø´ÛĮÙĨ
ĠØ³ÛĮ Ø³ØªØ§ÙĨÛĮ
Ø§Ú¯ ÙĪÙĨÛĮØ³Øª
Ġem p
ĠØ³Ø§ÙĨØ³ Ú©Ø±ÛĮØª
ĠØ³ Ø§ÛĮÙĨ
Ġf m
ĠÙĩØ±ÛĮ Ø³ÙĪÙĨ
ĠÚ©ÙĪ Ù¾Ùĩ
ol ution
ĠÚ©Ø§Ùħ ÛĮÚ©
Ã ª
ĠÙĨ Ø±ÛĮ
ĠÙĪ ÙĪØ¦ÙĦ
Ø§Ø¨ ÙĦØ§
ĠÙħØ¬ Ø±Ø§ÛĮ
Ġs z
ra w
ĠÙħÙģ Ø³
Ġcro pped
ĠØ¯ ÙĦÛĮÙĦÛĮ
ÙĤ ÙĪÙĦ
ĠÙ¾ ÙĪÚ©
r ess
Ġo d
Ġjp eg
ra it
ĠÚ©Ø´Øª Ú¯Ø§ÙĨ
ĠØ¨Ø± Ø§Øª
ÙħØ± Ø«
ĠØ´Ø´ ØµØ¯
ĠØªØ²Ø¦ÛĮÙĨ Ø§Øª
Ú¯ ÙĪØª
ĠÙħÙĪ Ú©
ĠÙħØ³ Ø§ÙģØ±ÛĮ
ĠØ§Ø¯ ÙĪÛĮÙĩ
ĠÙĨÚ¯ Ø±ÛĮ
ĠØªØ¹Ø§ ÙĪÙĨÛĮ
ĠÙĤØµÛĮ Ø¯Ùĩ
ĠÛĮÚ© Ø³Ø§ÙĨÛĮ
ĠÙ¾ÙĦ Ø§ÙĨ
Ġsen ators
ĠØ¶Ø§ÛĮ Ø¹Ø§Øª
ĠØª ÙĨØ¯Ø±
Ø§Ùħ Ø§Øª
ĠÚĨ ÛĮØ±Ùĩ
ĠØ¯Ø±Ø¢ ÙĪØ±Ø¯Ùĩ
Ġc er
ĠÙĩÙĨØ¯ Ø±
ĠØ¨ÙĦØ§ Ú©
ÙĪÙĨ Ø§ÙĦÛĮÚ¯Ø§
ĠÙĦÛĮ ØªØ±ÛĮ
ĠÙģØ±ÙĪ Øº
ÙĪØ± ÛĮÙĨ
ĠÙ¾Ø± ØªÙĤ
ĠØ§Ø¬ Ø¨Ø§Ø±
ĠÚ©ÛĮ Ø§Ø±
ĠÙĩÙĪ Ø§Ø¯Ø§Ø±
ĠÙģØ±Ø²ÙĨØ¯Ø§ÙĨ Ø´
at ic
Ø§Øµ Ø¨
Ġv a
ĠØ§Ø·ÙĦØ§ ÙĤ
ĠÚ©Ø±Øª Ø§Ø³Ùĩ
ĠØº ÛĮØ§
Ġb c
ĠØªÙĦØ§ Ø´ÛĮ
ÙħØ§ÙĦ Ú©
ĠØ§Ø¨Ø±ÙĤÙĩØ± ÙħØ§ÙĨÛĮ
ĠØ´ Ø§ÙħÙ¾
ĠÙĨÛĮ Ø§ÛĮØ´
e k
ÙĨØ¯ Ø±ÛĮ
ĠØ¨ÙĤ Ø§ÛĮ
ĠÚ©ÙħÛĮÙĨ Ùĩ
ÙħÛĮ Ø³
ĠÙĨØ§ Ø§ÙħÛĮØ¯
ĠØ´Ú©ÙĦ Ø§Øª
ĠÙħØªÙĤ Ø§Ø±ÙĨ
ĠØ¨Ø§ ÙģØªÙĩ
ĠÛĮÚ© ØµØ¯
Ø° Ø±ÛĮ
ĠÙ¾Ø±ÙĪ Ø³Ùĩ
ĠØ§ÙĪØ± ÙĨØ¬
ĠØ¹Ø§Ø´ ÙĪØ±Ø§
ĠØ¨Ø§Ø²Ú¯Ø±Ø¯ Ø§ÙĨØ¯
ĠÙĨØ§Ø³ Ø§Ø²
ĠØ¢Ø±Ùħ Ø³ØªØ±Ø§ÙĨÚ¯
Ġmunicipal ity
ĠÙħØ³Øª Ø·ÛĮÙĦ
ĠÙħ ÙģÙĤ
ĠØ§Ø³Øª ÙĨØ¯
Ġg if
ĠØ§Ø±Ø² Ø´ÛĮ
ĠØ®Ø´Ú© Ø³Ø§ÙĦÛĮ
ĠØ´ ÙĨÙĪØ§ÛĮÛĮ
ĠÙĨÙĪ Ø¢Ø±
ĠØ±ÙĪØ´ÙĨ ÙģÚ©Ø±Ø§ÙĨ
ĠÙħØŃØ± ÙĪÙħÛĮØª
Ú¯ ÙĦÛĮ
ĠØº ÙģØ§Ø±ÛĮ
id s
ĠØ¨ Ù¾ÛĮÙĪÙĨØ¯
ĠØ¯ Ø¯
ĠØ± ÙĨØ¯ÛĮ
ĠÙĨ Ø´Øª
Ù¾Ø± ÙĪØ±ÛĮ
ĠÙħØ° Ú©Ø±
ĠØ±Ø® Ø¯
ĠØ¨Ø§Ø²Ú¯Ø±Ø¯ Ø¯
ĠÙĩØ§ÛĮØ¯ÙĦ Ø¨Ø±Ú¯
Ø§Ø¨ ÙĪÙĨ
ĠÚ©ÙĪÚĨ ÙĪÙĦÙĪ
ir a
ĠÙĪØ§ÛĮ Ú©ÛĮÙĨÚ¯
ĠÙħÙħÙĦ Ú©Øª
i as
ĠØ¨ÙĦ Ø§ÙĨ
ĠÙĦØ¨ Ø®
ĠØ§ØŃØ³ Ø§Ø³ÛĮ
ens e
ĠØ¨Ø±ÙĪØ¬ Ø±Ø¯ÛĮ
ĠØ®Ø³Ø± ÙĪÛĮ
ĠØ¹ ÙĪØ¯
ĠØ§Ø³ ÙħØ§ÙĦ
ĠØ¯ÙĪ ÙĤ
ĠÚ©Ø§ Ø³ØªÙĩ
ĠÙħØ±Ø§ Ø³ÙħÛĮ
ĠØªØ´ ÙĨØ¬
ĠØ§Ø³Øª Ø§Øª
ÙĪÙĨØª Ø±ÛĮ
ĠØ®ÛĮ Ø¨Ø±
ĠØ§Ø±Ø¯ Ú©
ĠÙħÙĤØµ ÙĪØ¯
ĠØ¢Ú©ÙĪ Ø§Ø±ÛĮ
Ġstad ium
ĠØ ¥
Ø¹ Ø§ÙĦ
ĠÙģØ± Ø§Ú©
ĠØ±ÛĮ ÙĪÛĮ
ĠØ³Ø¨ Ú©ÛĮ
ĠØªÙĦ ÙģÛĮÙĤ
ĠÙħØ¹Ø§ÙĪÙĨ Ø§ÙĨ
Ġchar les
ĠÙĩ ÛĮÙĨ
ĠØ¨ÛĮ Ø¶ÛĮ
ĠØªØ± ÙĨØ±
Ġt ak
ĠØ§Ø³Ùģ ÙĨØ¬ÛĮ
ĠØ¬Ø³ ÙħØ§ÙĨÛĮ
Ġdes ign
ĠØ®Ø§ ÚĨ
ĠÙģØ±Ø§Ùĩ Ø§ÙĨÛĮ
ĠÙĨØ³Øª Ø¹ÙĦÛĮÙĤ
ĠØ³Ø± Ú¯ÛĮ
ĠÙĦÛĮ ØªÙĦ
ir o
ĠØµØ¯ Ø§ÙĩØ§ÛĮ
ĠØ´ Ø§Øª
om a
ĠÙħØªÙħØ§ÛĮ ÙĦ
ĠØ§ÙĪØ¯ ÛĮÙĨ
ĠØ¢ ÛĮØ³
ĠØ³Ø§ Ø¦
Ø³Ú©ÙĪ Ù¾ÛĮ
ĠÙħØ§Ø±Øª Ø§
ĠÙħÛĮÙĪØ² ÛĮÚ©
Ø³ Ø§Ø²Ø§ÙĨ
ĠØ¨Ø§Ø² Ú¯Ø±Ø¯Ø§ÙĨ
ĠÙĦÛĮ Ùħ
ĠÚ©ÙĪ ÙģÛĮ
ĠØ±ÙĪØ¯ Ø§ÙĨ
ĠØ§Ø±Øª Ø¹
ĠÙĦÛĮÙĨ Ø¯Ø§
Ġap pl
ĠØ§ÙģØ²ÙĪØ¯ ÙĨÛĮ
Ú© ÛĮÙĩ
ĠÙħ Ø§Ø²ÛĮ
Ø® Ø¯
ĠØªØ¬ ÙĦÛĮÙĦ
ĠØ¨Ø§Ø²Ø® ÙĪØ§ÙĨÛĮ
ĠÚ©Ù¾ Ø³ÙĪÙĦ
ĠØ³ØªÛĮ Ø²ÛĮ
ĠØ¨Ø¬ÙĨ ÙĪØ±Ø¯
ĠÙĪ Ø§Ø¯ÛĮ
ĠÚĨ ÛĮØ¯
ĠØ¨Ø§Ø´ Ú©ÙĪÙĩ
ĠÙħØ¹ Ø·
ĠÚ©Ø´ ÛĮØ¯ÙĨØ¯
ĠØ¨Ø§Ø± Ø§Ú©
Ġac adem
ĠØ®ÙĪØ§Ø± Ø²ÙħÛĮ
ĠÙħØ³ØªØŃ Ú©Ùħ
ĠØ¨Ø§ÙĦØª ÛĮÙħÙĪØ±
ĠØªØ· Ø§Ø¨ÙĤ
Ø²ÛĮ Ø³
Ø§Ø¦ ÙĨ
Ġphot o
ĠÚĨØ§ÙĤ ÙĪ
Õ¸ÖĤ Õ
ĠÙĦ ÛĮØ±
ĠØ§Ø¯Ø¹ Ø§ÙĩØ§ÛĮ
ĠØ¨Ø±Ø¯ Ú¯Ø§ÙĨ
ĠØªÛĮ Øº
ĠØ¨Ø§Ø²Ú¯Ø±Ø¯ Ø§ÙĨØ¯ÙĨ
ĠØ¯ÙĦ Ø§ÛĮÙĦÛĮ
ĠÙħ Ø§Ø¨
ĠØª Ø§ÛĮÙĦØ±
ĠØ¨ÛĮ Ø§ÙĨÛĮ
ĠØ®Ø§Ú© Ø³Ù¾Ø§Ø±ÛĮ
ĠØ¢Ú© ÙĪØ±Ø¯
ĠØ¨Ø§ÙĨÚ© ÙĪÚ©
Ġfo und
ĠØ¬ÙĨØ¨ Ø´ÛĮ
Øº Ø±Ø¨
ĠÙĨÙĩ Ø§ÙĨ
ĠÙĪÙĪØ¦ÙĦ ØªØ§
ĠØ¨ Ø§ÙĨÚ¯
ÛĮÙĦ ÛĮÚ©
ĠØ±Ø§ÙĩÙĨ ÙħØ§
ĠØ¨Ù¾Ø±Ø¯ Ø§Ø²ÙĨØ¯
ĠÙģÙĦ Ú©
ĠÚ©Ø§ÙĦ ÛĮÙĨØ²
ĠØ®ÙĪØ± ÙĨØ¯
ĠÙĦÙĪÚ© ÛĮ
ĠØ§Ú© ÙĪ
ĠØªØ´Ú© ÙĦ
ĠÙģÙĤÙĩ ÛĮ
ĠØ¨Ø§Ø²ÙĨ ÙĪÛĮØ³ÛĮ
l u
u le
ĠØª Ø³ÙĪ
ĠØ¨Ø§ Ø³Ú©
Ġr t
ĠØ¯ Ú©ÙĦ
ĠØ§ÙĦ Ø±Ø¶Ø§
ĠØµ ÙħØ¯
Ø´Øª ÙĨ
Ġc t
ÙħÙĨ Ø¸
ĠÙħØ§Ø±Ú©Ø³ÛĮ Ø³Ùħ
ĠØ±Ú¯ÛĮ ÙĪÙĨØ§ÙĦÛĮÚ¯Ø§
ĠØ´Ùħ Ø¹
Ø§ÙĦ Ø²ÙħØ§ÙĨ
ĠÚ¯ÙĦ Ø¯Ø§ÙĨ
ĠØ±ÛĮÚ© Ø§Ø±Ø¯ÙĪ
Ð ·
ĠÚ©ÛĮ ÙĪÙĨÚ¯
ĠÙĤØ¨ Ø§Ø¯
ĠÙĪÚ©ÙĦ Ø§ÛĮ
Ø§ÙĨ ÙĪÙĦ
ĠØ¨Ø§Ø² ÙĪ
ĠÚ¯ÙĪØ¯ Ø§ÙĦ
ĠØ§ÙĨØ¹ ÙĤ
ĠØ¨Ø§Ø² ÙĪÛĮ
ĠÙĨØ§Ùħ Ø±
ĠÙĪÛĮ ÙĪ
ĠØ§ÙĨØª ÙĩØ§ÛĮÛĮ
Ġch ina
Ġbar b
ĠØ·Ø§ÙĦ ÙĤØ§ÙĨ
Ú© ÙĦØ§
ĠØ³ Ø§ÙĨÛĮ
Ø¦ ÙĪÙĨÚ¯
ĠÙħØ´Øª Ø§ÙĤ
Ú©Ø±Ø¯ ÙĨ
ĠØ¢Úĺ Ø§Ú©Ø³
ĠØ§ÙĦØ´ Ø¹
ĠØ¹ØªÛĮ ÙĤ
r ia
ĠØªØ±Ø§ Úĺ
ØºØ± ÙĦ
ĠÙĨØ² ÙĪÙĦ
Ġpeop le
ÙĤØ± Ø§ÙĨÛĮ
ĠÙĩÙĪØ§Ùģ Ø¶Ø§
Ø¯Ùĩ Ø§Ùħ
ĠØ¨Ø§ ØªÙĦ
ÙĦØ§ ÙģÛĮ
ĠØ´ÛĮ ÙĪØ§
ĠÚ©Ø´Ùħ Ú©Ø´
ĠÚ¯ ÙĪÙĦØ¯
ĠÚĨÙĩØ§Ø± Ø±Ø§Ùĩ
ĠÚĨÛĮ Ø¨Ø§
ĠÙħÙĪÙĨ ÛĮÚ©Ø§
ĠØªÙĨØ¸ÛĮÙħ Ø§Øª
Ġad d
Ġinstit ute
ĠØ§Ùĩ Ùħ
ÙĩØ§ÛĮ Ø´
ĠÚ¯Ø±ÛĮ Ùħ
ĠØªÙĪÙĦ ÙĪØ²
ĠÚ¯ ÙĪØ§ÙĨ
ĠÙħØ§ÛĮ Ø§
ĠÙĦØ¦ÙĪÙĨ Ø§Ø±Ø¯ÙĪ
Ø¶ Ø§ØŃ
ing er
ĠØ§ÙħØª ÛĮØ§Ø²ÛĮ
ĠØªØ§Ø¨ÙĦ ÙĪÛĮ
ĠØ§ÛĮØ± ÙĨØ§
ĠÚ¯Ø± Ø§ÙħÛĮ
Ġw at
ĠÙĨÚĺØ§Ø¯ Ù¾Ø±Ø³ØªÛĮ
ĠØ´ ÙĪØ±ÛĮ
ĠØ¨Ø§Ø± ÙĪÚ©
ĠØ±Ø² Ø±ÙĪ
Ġsp ace
ĠØºÛĮØ±Ø¹ Ø§Ø¯ÛĮ
j i
ĠØ§ÛĮ Ú¯ÙĦ
ĠØ§ÙģØ² Ø§Ø±ÙĩØ§
ĠØªØ® ÙĦÙģ
st r
Øµ Ø§Ø¯
ĠÚĨ ÛĮØª
ĠÙĩÛĮØ± ÙĪØ´ÛĮÙħØ§
vel op
Ġyo ung
ĠÙĪØ§ÙĨØ¯Ø± Ø±Ø²
ĠÙ¾ Ø²ÛĮ
ĠÙĤ Ø¯ÛĮØ³
ĠÙħÙĪ Ø²ÙĪÙĨ
ĠØ¯Ø§Ø¯ Ø±Ø³ÛĮ
ĠÙ¾ÛĮÚ© Ø±Ùĩ
ĠÙ¾Ø§ÙĦ Ø§ÛĮØ´
ĠÚ¯Ø±ÛĮÙĨ ÙĪÛĮÚĨ
Ġnet work
Ġd ur
at o
ĠØ±ÙĪØ² Ú¯Ø§Ø±ÛĮ
ĠØ§ØŃ ÙħÙĤ
ĠØ·ÙĩÙħ Ø§Ø³Ø¨
ĠØ§Ø³ØªØ±Ø§Ø³ Ø¨ÙĪØ±Ú¯
ĠÙĨØ²Ø§ Ø¹
ĠØ¯Ø± Ú¯Ø±ÙģØª
Ø¶Ø§ÛĮ ØªÛĮ
ĠØ±Ø¬ Ø§ÛĮÛĮ
ĠÚ©ÛĮÙĪ ÙħØ±Ø«
ĠØ¨Ø§ÙĦØ¯ ÙĪÛĮÙĨ
Ġt m
Ø¯Ø± Ùĩ
et te
ĠÚ©Ø§ØªØ§ÙĦ ÙĪÙĨÛĮØ§
Ø± Ø§Ø²
ĠÙ¾Ø§ÛĮ ØªÙĪÙĨ
il ity
ag ue
ĠÙ¾ Ø¯Ø§Ùģ
ĠÙĦ Ø¬
ĠÙĦ Ø§Ùģ
ĠØ³ÙĪ ÚĺÙĩ
Ġpro gram
Ø§Ø¦ÛĮ Ø§ÙĨ
ĠÙĩØ± ØªØ²
ĠØ¹ÙħÙĦ Ú¯Ø±
ĠÚ¯ÛĮÙĦ Ø¨Ø±Øª
ĠØ®Ø§Øª Ùħ
ĠØ²ÛĮÙĨ Ø¨
ĠØ¯Ø±Ø¨Ø± Ú¯ÛĮØ±ÙĨØ¯Ùĩ
ĠÙĪ Ø³ØªÙĩ
Ø´Øª Ø§Øª
ĠÙĦ ÙĪÛĮÙĨ
ĠÚ¯Ø±Ø¯ Ø§ÙĨØ¯
ĠÙĨÙħ Ø§ÙĩÙĨÚ¯
Ï ģ
Ùĩ ÙĦ
ĠÙ¾ Ø§ÙĨØ¯
ĠØ±Ø² ÛĮØ¯
ĠØ¯Ø§ÛĮ ÙħÛĮ
Ù¾ Ø§ÛĮØ§ÙĨ
ÙĪØ±ÛĮ Ø§ÙĦ
Ġs g
ĠØ¨Ø§Ø²Ú¯Ø´Øª ÙĨØ¯
ĠØªØ§Ø¨ÙĦ ÙĪ
ĠØ¢ ÙħØ§ÙĨ
ĠÚĨ Ø²
ĠØªØŃØª Ø§ÙĨÛĮ
ĠÚ©Ø§ÙħÙ¾ Ú©Øª
Ø§ÙĦ ÛĮÙħ
ĠÙĪØ± ÙħØ§ÙĨØª
ĠÙħØ§ÙĨ Ú¯Ø§ÛĮ
ĠØ¯Ø±ÛĮ Ø§ÙĨÙĪØ±Ø¯ÛĮ
ĠÙ¾Ø§Ø³ Ø§Ø±
Ġso ur
Ġpol it
Ġbrit ish
ĠØ´Ú©ÙĪÙģ Ø§ÛĮÛĮ
ĠØ§Ø³ Ø±Ø§ÛĮ
ĠØ§Øª ÛĮÙĨ
ĠÙĨØ§ ÙģØ±
Ø§ÙĨÙĪ Ø§Ø¯Ùĩ
ĠÙĤÙħ Ø§Ø±
ĠØªØµØ¯ÛĮ ÙĤ
Ø§Ø¨ Ø¯ÛĮÙĨ
ĠÙħÙĩ Ø§Ø±Ú©ÙĨÙĨØ¯Ùĩ
Ġk ey
ĠØ¢Ø´ ÙģØªÚ¯ÛĮ
ĠÙħØªÙĨ Ø§ÙĩÛĮ
ĠØ¯ÙĪØ§Ø²Ø¯Ùĩ ÙħÛĮÙĨ
ĠÙĩØ§Ù¾ Ú©ÛĮÙĨØ²
Ø¨ Ø²
ĠÙĨ Ø¯ÛĮ
ĠØ¯Ùĩ Ø³ØªØ§ÙĨÛĮ
Î ½
ĠØ§Ø³Ú© ÙĪØ±
Ï Ĥ
ĠØ¢ Ø³Ùħ
ĠØ§ÙĪ Ø§
Ġb and
ĠÚ¯ÙĦ Ø²ÙĨØ§ÙĨ
ĠØªØ±ÛĮÙĨ ÛĮØªÛĮ
ĠÚ¯ÙĨ Ø¬Ùĩ
Ġman ag
ath er
ĠØ§Ø¨Ø² Ø§Ø±ÙĩØ§
ĠØ¯Ø± Ø§
ĠØª ÙĪÙĨÚ¯
ĠØ§ÛĮÙĨ Ø´ØªÛĮÙĨ
ĠØ§ÙĦ ÙĨØ§
ĠØ§ÙĨ Ø¶
ĠØ§Ø³Ù¾Ø± ÛĮÙĨÚ¯Ø²
Ġcro ss
ĠÙ¾ÙĪØª ÛĮÙĨ
ĠÙĨÚ©ÙĨ ÙĨØ¯
ĠØ±Ø¨Ø§ Ø¹ÛĮ
h ran
ÛĮØ± Øª
Ø´Ø¯ ÙĨ
ĠØªÙĪ Ú©ÙĦÛĮ
os p
ĠÙħÙĪØªÙĪØ± Ø³ÛĮÚ©
ĠÙĨ Øº
ÙĨÛĮ Ø³
ĠÙħÙĨØµ ÙĪØ±ÛĮ
ĠØ¯ÙĦØ§ ÙĪØ±
ĠÙĩÙħÚ©Ø§Ø±Ø§ÙĨ Ø´
ĠÙĩØ§ ÙĪ
ĠÙħÙĤ Ø§ØµØ¯
ĠØ¬Ø¯ Ø§ÙĦ
ĠØ¶Ø± Ø±
ĠØ¯ÙĦØ§ ÙĪÛĮØ±
ĠÚ¯Ø±ÛĮÚ¯ ÙĪØ±ÛĮ
ĠØ§ØŃØ§Ø¯ÛĮ Ø«
ĠÚĺ Ø§ÙĨØ¯
Ġr m
ĠØ¹Ø¨Ø¯Ø§ÙĦ ØŃ
ĠØ¯Ùħ Ø§ÙĩØ§ÛĮ
ĠØ§Ø³Ú©Ø±ÛĮ Ù¾Øª
ĠØ´ ÛĮÙĦØ§
Ø® ÙĪØ§Ø³Øª
ĠØ§ÙĪ Ú¯
ĠØ§ÙĨ Ùĩ
ĠØ§Ùħ Ø¯Ø§Ø¯
ĠØ¢ÙĦØ¨ ÙĪÙħÛĮ
ĠØ¨Ø± ÛĮÚ©
ĠÙĪ Ø§ÛĮÙĨ
ĠÙĦ Ø¦ÙĪÙ¾
ĠØ§ÙĪ Ø¦
Ġb ir
ĠÙĨØ§ Ø§Ùħ
ĠÙģØ±ÙĪ ÙĩØ±
Ġpo int
ĠÛĮØ¯ Ø§ÙĦÙĦÙĩ
ĠØ¹ÙĦØ§Ø¡ Ø§ÙĦØ¯ÛĮÙĨ
ov a
ĠÙĨØ§ÙĪ ÚĨÙĩ
Ø±ÛĮ ÙĪ
ĠØµ ÙĪØ±
ĠØ¹ÙĦ Ø§ÛĮÙħ
ĠØ¢Ø± ØªÛĮØ³Øª
ĠØ±ÙĪÙĨ ÙĪÛĮØ³ÛĮ
ĠÙģ ÙĪÙĨØª
ĠØ§Ú© Ø³ØªØ±
ĠØ§ÙĪÙĦ Ø¯
ĠØªÙĨ Ø¨ÛĮÙĩ
ro w
ĠØ·ÛĮ ÙģÛĮ
ĠØ§ÛĮÙĦ Ø®Ø§ÙĨÛĮ
ĠØ®Ø± ÚĨÙĨÚ¯
Ġcon c
ĠØ¨ÛĮÙĩ ÙĪØ´ÛĮ
p ar
ĠÙħÙĨØª Ø¸Ø±ÛĮ
Ġcent ury
ĠÙĤØ§ÛĮ ÙĤØ±Ø§ÙĨÛĮ
ĠØªØ±Ø§Úĺ Ø¯ÛĮ
ĠÙĪ Ø«
ĠÚ©ÙĦ Ø§Ø±Ø§
Ġv en
Ġret urn
ĠØ²Ø±Ø§ Ø¹Øª
ĠÚ¯ ÙĪØ³
ĠØ¢Ø¬ Ø±ÛĮ
ĠÙĩ Ø§ÙĨÚ¯
ĠØª Ø®ØªÛĮ
Ú¯Ø± ÙĨ
Ø²ÛĮ Ø³ØªÛĮ
ĠØ³Ø± Ø²
ĠØ¢ÙĨØª Ø§Ú¯ÙĪÙĨÛĮØ³Øª
ĠÙģÛĮÙĪØ± ÙĨØªÛĮÙĨØ§
ĠØ§Ø¨ÙĦØ§ Øº
m y
Ø´ ÙĨÛĮ
ĠØªÙĪØ¨Ø§ Ú¯ÙĪ
Ġserv ice
ĠØ®ÙĦÙģ Ø§ÛĮ
Ã ®
ĠØ¯ÙĪØ± ÙĪØ¯
ĠØªØ£ Ø«ÛĮØ±ÛĮ
ĠÚ©Ø§ÙĪØ´ Ú¯Ø±
ĠØ¢Ø¨Ø´ Ø§Ø±ÙĩØ§ÛĮ
ĠÙħÛĮÚ© ÙĨÙĨØ¯
ĠÐ ¼
ĠØ¹Ø· Ø§ÛĮÛĮ
ĠÙĩÙĪØ§ÙĨ Ú¯
ÛĮÙĨ ÙĪØ³
Ġs ah
ĠØº Ø§Ø²ÛĮ
ĠÙħÙĦ Ú©Ø´
ĠØŃÙĪ Ø§Ø±ÛĮ
ĠØ²ÛĮØ§Ø±Øª Ú¯Ø§Ùĩ
ĠØ§ÙĨØ³Øª ÛĮØª
ĠØµØ¯ÛĮ ÙĤ
ĠÙħØŃÙħ ÙĪÙĦÙĩ
ĠØ§Ø³ØªØŃÚ©Ø§Ùħ Ø§Øª
ĠÚ©Ø§Ø±Ø¯ÛĮ Ùģ
l or
ĠÙĩ ÛĮÚ©
ĠØ¨Ø± Ø³Ø§ÙĨ
ĠØ¨ÛĮÙĨ ÙĨØ¯
Ġw ay
Ġg od
Ġpl an
ĠØ¨Ùĩ Ø§Ø±ÛĮ
ĠØ§Ø± Ø¶ÛĮ
Ð° ÑĢ
ĠØ§Ú©ØªØ´ Ø§ÙģÛĮ
Ġche m
ĠØ§ØŃØªØ±Ø§ ÙĤ
Ø· ÛĮØ±
ĠÙ¾ÛĮÙĪÙĨØ¯ Ø¯
ĠØ¨Ø§Øº Ø§Øª
ĠÙĨØ§Ø± Ø¶Ø§ÛĮØªÛĮ
ĠØ¨ÙĨÛĮØ§Ø¯ ÛĮÙĨ
ĠØ§Ø¹Ø² Ø§ÙħÛĮ
ĠØ§ÛĮÙĨ ØªÙĦ
Ø§Ø² Ø§Ú©ÛĮ
ĠÙĤÙĨ Ø§ØªÛĮ
ĠØªÙĪ Ùģ
Ã© r
ĠØ± Ø¬ÙĪ
ĠÚĨ ÛĮÙĨÙĩ
ĠÙĦÛĮ Ø§ÙĤØª
ĠÙħÙģ Ø¹
b l
Ø´ Ø§Øª
ĠÙĤØ¯Ø± ØªÛĮ
ĠÙĪÛĮØ± Ø§ÙĨÛĮ
ĠÙĩÙĪØ± ÙĨ
ĠØ³ ÙħÛĮÙĨ
Ø§Ø¯ Ø±Ø§ÙĨ
ĠØ³ÙĦ ØªÛĮÚ©
ĠØ§Ø³Ø§Ø³ ÙĨØ§ÙħÙĩ
Ġde velop
ĠØ³ÙĪÙĦ ÙģØ§Øª
Ġint ro
ĠØ±ÙĪÙĨØ§ÙĦØ¯ ÙĪ
ĠÙĤØ§Øª ÙĦØ§ÙĨ
ĠØ¯ÙĪ Ø¶Ø±Ø¨
Ġj a
el le
ĠØ®Ø± ÙħØ§
ĠÙĨØ´Ø³Øª ÙĨ
ĠÚ¯ÙĦÙĪÚ© Ø²
Øª ÙĪØ±ÛĮ
ĠÙĪ Ú©ÛĮ
ĠØŃ ÙĦÛĮ
ĠØ¯ÛĮ Ø²ÙĦ
ĠÙĨÙĪ Ø§Ø²Ø§ÙĨ
ĠÙħØŃØªØ± Ùħ
ĠØ± Ø§ÙĦÛĮ
ĠÚ©ÙĦ ÙĪØ¨
ĠØºÛĮØ± Ø·Ø¨ÛĮØ¹ÛĮ
ĠÙ¾Ø§Ø± ÚĨ
ĠÙ¾Úĺ ÙħØ§ÙĨ
ĠÚĨÛĮ Ø²ÙĩØ§ÛĮÛĮ
ĠÙĩØ§ÙĨ ØªØ±
ĠØ¯ÙĪÙĤÙĦ ÙĪ
f s
n et
ĠØ± Ù¾Ø±
ĠÙģ ÙĦØ§ØŃ
ĠÙĨÛĮ ÙĪØ§ÙĪØ±
ÙĪÚ© Ø§ÙĨ
ĠÙħÙĩ Ø±ÛĮ
ĠÙħØ´ ÙħÙĪÙĦ
Ġl at
ĠØ¬Ø§ ÙĪÙĩ
ĠØ¢ ÙĪØ§Ø±
Ø§ÛĮÛĮ Ø§ÙĨ
ĠØ· Ø¨Ø¹
ĠÙħØ§ ÙģÛĮ
ĠÙĤÛĮ ØµØ±
ĠØ¨ÙĪØ±Ø¯ ÙĪ
ĠØªØ§Ø´Ú© ÙĨØ¯
Ø±Ø¨ ÙĨ
Ġg d
ĠØ¨ÙĦÚ© Ø¨Ø±ÙĨ
ĠÙħÙģÙĤ ÙĪØ¯
ĠØ³ ÙĪØ¨
ĠØ¢ ÙĪØ§ÙĨ
ĠØ±ÙĪ Ø¨ÙĨ
ĠØªØ§ Ø®Øª
ĠÚ©Ø´ Ø´ÛĮ
ĠÙĩØ± Ø¬
Ú¯Ø° Ø±
ĠØ¨Ø§Ø² Ú¯Ø´Ø§ÛĮÛĮ
ĠØ²ÛĮ Ú¯
ĠÙħ ÙĨØ¯Ø§ÙĨ
ĠÙĦÙĪ ÙģØª
ÙĨØ§ÛĮ Ø¯Ø±
ĠØ³ÙģØ± Ùĩ
Ġto ur
ĠØ¨ÙĪØ³ Ùĩ
ĠØ±Ø§Ø¬Ø± Ø²
ĠÙħÙĪØªÙĪØ±Ø³ÛĮÚ© ÙĦØª
Ùģ ÛĮÚ©
ĠÙģØ± ÙĪÛĮØ¯
ĠÙħØª Ø®ÙĦ
ĠØ³Ø§ Ù¾
ro und
ad o
ÙĪØ³ÛĮ Ø§ÙĨ
ĠØ³Ùħ ÛĮØ±
ict ion
l l
ĠØ¢ ÙģØ±
ĠØ§Ø³Øª Ù¾
ĠØ§ÙĪØ± ÚĺØ§ÙĨØ³
ĠÙħØ¨Ø§Ø± Ø²Ø§ÙĨ
ĠÙĨØ§ÙĨ ÙĪÙħØªØ±
ĠÛĮÙĪØ³ ÙģÛĮ
ĠØ§ÙĨÙģØ¬ Ø§Ø±ÛĮ
ĠØ® ÙģÛĮÙģ
Ø§Øª Ø§Ø±ÛĮØ®
ĠÙĤ Ø´Ùħ
ĠØ¨ÛĮ Ú¯Ø§ÙĨ
ĠØªØŃ ÙĤÛĮÙĤÛĮ
ĠØ§Ø¬ Ø³Ø§Ø¯
ĠÚ¯ÙĦ Ú©Ø³ÛĮ
ĠØ§Ø¨ Ø¯ÛĮ
ĠÙĩÙħØ§ÙĨ Ø·ÙĪØ±
ĠØ¨Ø± ÛĮØ²
ĠØ® Ø¬
ĠØ² Ø¨Ø±
Ø±Ø§ ÙĤÛĮ
ĠØ¯Ùĩ ÙĦ
Ġa y
Ġb ell
Ġb bc
Ø§Ø¯ Ùģ
ĠÙĨÙĪÛĮØ³ Ùĩ
ĠÙĩÙĨØ¯ ÙĪØ§Ø±ÙĪÙ¾Ø§ÛĮÛĮ
ĠÙħØº Ø°ÛĮ
ĠÙħÙĨØ¸ ÙĪØ±Ùĩ
Ġx i
ĠÙħØª Ø¶
ĠØªØ¬ Ùħ
ĠØ¢Ø²Ø§Ø¯ Ø§ÙĨÙĩ
ĠÙħÙģ ØµÙĦÛĮ
Ø§ÙĦ ÙħÙĦÚ©
ĠØŃØ³ ÙĨÛĮ
ĠÙ¾ÙĪØ´ Ø´ÛĮ
ĠØ¨Ø· ÙĪØ±
Ġ ë
ĠÙħÙĪ ØµÙĦ
ĠØ®Ø· Ø§ÙĩØ§ÛĮ
ĠØ¨ÙĪØ± Ú¯
ĠØ§ÛĮÙĨØªØ± ÙĨ
ĠÙ¾ÛĮØ´Ø± Ø§ÙĨÙĩ
ĠØ¨ÛĮØ¯ Ø§Ø±ÛĮ
Ġaf ter
w are
ĠØ¨ ØµÙĪØ±Øª
ĠÙĩ Ø±Ø¯
Ø´Ú© Ø§
ĠÙĩÙħ Ø®ÙĪØ§ÙĨ
ĠØ¯ÛĮ Ù¾
ĠÚ©ÙĪ Ø²Ùĩ
ic es
ĠØªØ§Ú© Ø³ØªØ§ÙĨ
Ø±Øª Ø²
ĠÙģØ±Ùĩ Ø§Ø¯ÛĮ
Ġmet h
Ø± Ú¯
ĠØ¨ ÙĪØ±ÛĮØ³
ĠØ¨Ø± Ø§Ú©
Ø· Ùģ
ĠØ±ÙĪ Ø²Ø±Ø³Ø§ÙĨÛĮ
ĠØ¯ÛĮ Ú¯
Ġn ame
os oph
ĠØ¨Ø±Ú¯Ø²ÛĮØ¯ Ú¯Ø§ÙĨ
ĠØ¨Ø®ÙĪ Ø§ÙĩØ¯
ĠÙĩ Ø¯Ø±
Ġr ay
ap e
Ġber lin
ĠØ¨Ø± Ø¨Ø±
ĠØº Ø§Ø±ÙĩØ§ÛĮ
Ġn c
ĠÙģØ´ Ø§Ø±ÛĮ
ĠÙħØµØ§Ø¯ Ùģ
ĠÚ¯ÙĦ Ø²ÙĨÛĮ
Ø§Ø¦ Ø¨
ĠØªÙĪØ± ÙĩØ§ÛĮ
ot e
ĠØ¢ÙħÙĪØ²Ø´ Ú¯Ø§Ùĩ
ĠÛĮØ® Ø¨ÙĨØ¯Ø§ÙĨ
Ø± ÙĨ
Ø±Ø¯ Ø§ÙĨÛĮ
ĠÙħÙĨ Ø³
ĠÚ©Ø§Ø± Ø¯ÛĮÙĨ
ĠÙħØ± ÙĪØ¯Ø´Øª
ĠØ¸ ÙĦÙħ
Ø¨Ø³ Ø§Ø·
ĠØ¢ÙĨØ§Øª ÙĪÙħÛĮ
ĠØªØ¯Ø§Ø±Ú© Ø§Øª
ĠØ¨ÙĦØ´ÙĪ ÛĮÚ©
ĠÙħ ØºØ§ÙĨ
ĠØ¯ÛĮ Ø¨Ø§
Ġs ong
Ġb ank
ĠÙħØ¹ÙĦ ÙĪÙĦ
ĠÙĦØ§Ø¦ ÙĪØ³
ĠØ²Ø¹ ÙģØ±Ø§ÙĨ
ĠØ¹Ø²Ø§Ø¯ Ø§Ø±ÛĮ
ĠØ² ÙĦØ§ÙĨØ¯
ĠØ´Ø± ÙĦÙĪÚ©
ĠØ±ÛĮ ÛĮØ³
Ġin v
ĠØ¢Øª Ø§ÙĦ
ĠØªÙĨØ§ ÙĤØ¶
Ļ ×
ĠØ¨ Ø§ÛĮÙĨ
Ø´ Ø§Ø±ÛĮ
ĠÚ©ÛĮ Ø³Øª
ad y
Ġst ory
ĠØºØ²ÙĨ ÙĪÛĮ
ĠØ§ Ù¾ÛĮÚ©
ĠØ± Ø¨Ø¹
ĠØ´Ø¯ ÛĮØ¯Ø§
ĠØ¨ÙĦ ÛĮÚ©
ĠÚ©ØªØ§Ø¨ Ø´
Ø¢Ø± Ø§ÙħÛĮ
ĠÙģ Ø³ÛĮÙĦ
ĠØ§ÙĨ Ø¨Ø³Ø§Ø·
Ġl itt
ĠÚ©Ø§Ùħ ÙĦÛĮ
ĠÙħÙĤØ¯Ùħ Ø§Øª
ĠÙħÙĪÙĨØªØ± Ø§ÙĦ
ØŃ Ø§Ø¨
ĠÙ¾Ø± Ø³ØªÙĪÙĨ
Ġt ro
ĠØ³ÛĮÙĦ ÙĪØ§
ĠÙ¾Ø±ÙĪØ¯Ø§Ú© Ø´ÙĨØ²
Ġj ose
ĠØ³Ø±ÛĮ Ø§ÙĦÛĮ
ĠØ§ÛĮØ²Ø¯ Ø¨Ø§ÙĨ
ĠÙħØ§Ø²ÛĮ Ø§Ø±
ĠÚ© Ø´Ú©
ĠÙ¾ ØªÛĮ
ĠÙħÙĪ Ø²Ø§Ùħ
ĠÙĪÙĦ ÙĪØ±Ùĩ
ĠØ¯ÙĪØ¯ ÙĪÛĮÛĮ
Ġcoun cil
ĠØ´Ø§Ùģ Ø¹ÛĮ
r et
ĠØ§Ùģ Ø³ÙĪÙĨ
ĠØ§ÙĨØ¬ ÛĮØ±
ĠÙ¾Ø°ÛĮØ± Ø§ÛĮÛĮ
Ġy e
Ġsec ond
ÙĪ ÙħØ±
ĠØ¨ ÚĨ
ĠØ¨ ÙħÙĦ
ÙĤ ÙģÛĮ
ĠØ² Ú©Ø±ÛĮ
ÙĨØª ÛĮÙĨ
ĠÙ¾ÙĦ Ø§ÙĨÚ©
ĠÙ¾ÛĮØ´ Ø§ØªØ§Ø±ÛĮØ®
ĠÙģØ±Ø³ØªØ§Ø¯ ÙĨ
Ġaf r
Ú¯Ø± Ø¯ÙĩØ§ÛĮ
ĠØªØµ Ø±ÛĮØŃ
Ø¨ÙĦ Ø¯ÙĪÙĨ
Ø§Ú¯ ÙĪØ³Ø§
ĠØ·Ø¨ Ø³
ÙĪØ³ÛĮ Ø³ØªÙħ
ĠÙĩ Ø±ÙĪ
ĠØªØ± Ø§Ø¨
ĠØ¨Ø§Ø± Ú¯ÛĮØ±ÛĮ
ĠØ±ÛĮ Ø¨
ĠØªØ±Ú© ÙħØ§ÙĨ
Ġt ab
ĠØ§ÙĨØ¯ ÙĪÙĩ
ĠÚ¯ÙĪ Ø´ØªÛĮ
ĠØŃÚ© Ø§Ú©ÛĮ
ĠÙĤØ§ÙĨÙĪÙĨ Ú¯Ø°Ø§Ø±ÛĮ
ĠØ³Ùħ ÙģÙĪÙĨÛĮÚ©
Ġw ood
ĠØ¨Ø¯ Ø®
ĠÙħØŃÙħØ¯ ÙħÙĩØ¯ÛĮ
Ġmart in
ĠØ³ Ø§ÛĮØ¯
ĠÙģ ÙĨØ¯
Ġthe ory
Ġpr in
ĠØªÙħØ§Ø´Ø§ Ú¯Ø±
Ġk ir
ĠÙħØ·Ø§ÙĦ Ø¹Ø§ØªÛĮ
ĠÙĩÙĪÙĦ ÙħØ²
ĠÙĪØ§Øª ÙģÙĪØ±Ø¯
Ø±Ø§Ø· ÙĪØ±ÛĮ
ĠÙĩÙĪÚ© Ø§ÛĮØ¯ÙĪ
ĠÙĪØ³ØªÙĩ Ø§Ùħ
Ø² ÙĪØ±
Ġb ad
ĠØ®ÙĪØ§Ùĩ ÛĮØ¯
ĠÙĨØ§ Ø¢Ø±Ø§ÙħÛĮ
ĠØ±Ø¤ Ø³Ø§ÛĮ
Ġstud ies
ĠÙĪÛĮÙħ Ø¨ÙĦØ¯ÙĪÙĨ
ĠØ¢ÙģØ±ÛĮ Ø¯Ùĩ
ĠØ´Ú© ÛĮ
ĠØ±ÙĪØ² ÙĪÙĦØª
Ø¨Ø§Ø±Ùĩ Ø§
re am
ĠÙ¾Ø±Øª ÙĪÙĩØ§ÛĮ
ĠÚ©ÙĦØ§ÙĨ ØªØ±
ĠØ¬ÙĪØ² Ù¾Ùĩ
Ġeurope an
ĠÙħØŃ ØªÙħ
ĠÛĮ Ø²ÛĮØ¯
om et
ĠØºÛĮØ± ÙħØ¹
ĠØ¢Ø®Ø± Ø§ÙĦØ²ÙħØ§ÙĨ
ĠÙĨÛĮÙĪØ§ÙĪØ± ÙĦØ¦Ø§ÙĨ
ĠÛĮ Ø®ÛĮ
ØªÛĮ ÙĪØ³
ĠÚ©Ø± ÙĨØ´
ĠØ³ÛĮ Ú¯
ĠØªØ® ÙĦ
ĠØ¨ÙĦÛĮ Ø²
ĠÙĨÙĤ Ø§Ø¨
ĠØ§ØŃÙħØ¯ Ø¢Ø¨Ø§Ø¯
ĠÙĩÙħ Ú¯Ø§ÙĨ
Ġgl ob
Ġgov ern
ĠØ®Ø¯Ø§Ø¨ ÙĨØ¯Ùĩ
ÙĨØ§ ÙĪ
ĠÚ©ÙĪ Ø«Ø±
ĠÙģÙĦ Ø§Ùħ
ĠØ³ÛĮØ³ØªÙħ Ø§ØªÛĮÚ©
Ø¨ Ø§Ùģ
Ú¯ Ø²Ø§Ø±
ĠØ¯ÛĮØ¯ Ø§Ø±ÛĮ
ĠØ§ÙħÙ¾Ø±Ø§Øª Ø±ÛĮØ³
ĠØ¹Ø· Ø§
ÙĪØ± ÙĪØ¯
ĠØ³Ø± Ù¾ÙĦ
Ġc v
Ú¯Ø±Ø¯ Ø¯
ĠÙħØªØ± ÙħØ±Ø¨Ø¹
ĠØ¢ÛĮ ÙģÙĪÙĨ
ĠØ¯Ø³ØªÙĪØ± ÙĩØ§ÛĮ
ĠØ´ÙħØ§ Ø¹ÛĮ
ĠØ¯Ø±Ø¯ Ø³Ø±
ĠÚ¯ÙĪØ±Ú© Ø§ÙĨÛĮ
ĠØ±Ø²ÛĮØ¯ ÙĨØª
ĠØ¨Ø± ÙĪÚ©Ø³
as c
ĠÙħØªØ§Ø¨ ÙĪÙĦÛĮØ³Ùħ
ĠØ§Ø³Øª Ø§ÛĮÙĦ
ĠØ² Ø§Ù¾
Ġj ac
ĠØ±Ø§Ùħ Ø³Ø±
ĠÙħ ÙħØ§ÙĨ
ĠÙĨØ´Ø§ÙĨ Ø¯Ùĩ
ĠÙĪÛĮÙĦ ÙĨ
ÙĪØ±Ø¯ ÙĨ
ĠØ§Ø´Øª ÛĮØ§
Ã© e
Ð ³
ĠØª Ø§ÛĮÙĦ
Ø±ÛĮ Ø¹
ĠÙĩØ± Ú¯Ø§Ùĩ
Ġtrans l
ĠÙĩØ§ ÚĨ
ĠÙĦ ÙĪØªØ±
ĠÙħØ± ÙħÙĪØ²
ĠÚ©ÙĦ Ú©ØªÙĩ
ÙĪÚ© ÙĪÚ©
ĠØ§Ø· ÙģØ§ÙĦ
ĠÙĦØ¨ ÙĨÛĮ
Ġpol y
ĠÙħØ¹Øª ÙħØ¯
Ð ±
ÛĮÚ© ÙĪÙĦ
ĠÚ©ÙĪÚĨÚ© ØªØ±ÛĮÙĨ
ĠÙħØ¶ Ø§ÙħÛĮÙĨ
ĠØ³ÙĪÙ¾ Ø±Ø§ÙĨ
ĠØ¨Ø§Ø²Ú¯ Ø´ØªÙĩ
ĠÙģØ± Ø§Øª
ĠØªÛĮÙħ ÙĪØ±ÛĮØ§ÙĨ
Ġo ly
ĠØªÙĪØ§ÙģÙĤ ÙĨØ§ÙħÙĩ
ĠÚ© Ø¹
ĠÙĩ Ø±Ø§Ú©
ĠÙħÙĩ Ø³Ø§
ĠØ¢ÙĨ Ø§Ùĩ
ĠØ§Ø³Ú© ÙĪ
m b
ÙĨÛĮ Ø§ÛĮ
Ġc it
ĠØ§Øª ÛĮÙĦÙĨ
ĠØŃØ¶ ÙĪØ±Ø´
ĠØ¹ÛĮÙĨ Ú©
ĠÙģØ§ÙĨ ÙĪØ³
ĠØ¬ ÙĪØ¦ÙĦ
ĠÙĨÛĮØ´Ø§Ø¨ ÙĪØ±ÛĮ
ĠÚ©ÙĦÛĮØ³ Ø§ÛĮÛĮ
ĠÚ©Ø§ÙĪ ÙĪØ³
ĠØªØ±Ø¨ ÛĮØªÛĮ
Ø§ÙĦØ³ÙĦ Ø·ÙĨÙĩ
ĠÚ¯ ÛĮØ³
Ù¾ Ø´Øª
ĠÙħØ³Øª Ø¹Ø¯
Ġgo od
ĠØ§Ø¯ÛĮÙĨ Ø¨Ø±ÙĪ
ĠÙģ Ø§ÙĨÛĮ
ĠØ¨Ø§ Ø¦
ÙħØ± Ø§ÙĨ
ĠØ§Ø¯ Ø§Ø±Ø§Øª
ĠØ±Ø³ Ø§ÙĦØª
Ġr c
ĠØ¬Ø§ ÙĪÛĮØ¯
ÙħØ¨ ÙĦÛĮ
ĠÙħØ´Ùĩ ÙĪØ¯
ĠØ³Ø§Ø± Ø§Ú¯ÙĪØ³Ø§
ĠØ¨Ú¯ ÙĪÛĮØ¯
ĠÙĪ ÙĪÚ©
ĠÙĦ ÙĦ
ĠØ±ÙĪ Ø³ÙĪ
ĠØ§Ú© ØªØ§
ĠÙĦÙĪ Ú¯ÙĪ
Ã¼ n
ĠÙĨØ§ÙĨÙĪ Ø°
ĠÙħØ¬Ø± ÙħØ§ÙĨ
ĠØ§ÛĮÙĨØªØ±ÙĨ Ø´ÙĨØ§ÙĦ
Ø¹ Ø¨Ø¯
ĠØ¯ÙĪØ± Ø§ÙĨÛĮ
ĠÙħØ¹ Ø§Ø¨Ø¯
ĠÙģÙĦ ÙĪØ¦
ĠØ¬Ø¹ ÙĦ
ĠØ¨Ø· ÙĦÙħÛĮ
ĠØ§ÙĪÙĦÛĮ ÙĪØ±
ĠØ¯ Ø§ÙĦÛĮ
ĠÙģ Ø¦ÙĪØ¯
ĠØ®ÙĪØ¯ Ø²ÙĨØ¯Ú¯ÛĮ
ĠØ´Ø± ÙĪØ±
ÙĪÙĨØ¯Ùĩ Ø§
ĠØµØ¯Ø§Ù¾ÛĮØ´ Ú¯ÛĮ
ĠÙ¾Ø§Ø±ØªÛĮ Ø²Ø§ÙĨ
Ø³Ú© ÛĮÙĨ
Ø´Ø¯ Ú¯Ø§ÙĨ
ĠØ´Ø§Ø¹ Ø±ÛĮ
ĠÙĦØº Ø²Ø´
Ġnum ber
ĠØ§ØŃØªÛĮØ§ Ø¬
ĠØ¨Ø§ØªÙĦ Ø±
ĠÙĪ Ø®
ĠØªÚ© ÙĨÙĪ
ĠÚ©Ø´Øª ÙĨØ¯
ĠÙĨØ§Ø± Ø§ØŃØª
ĠÙĨÙĪÚ© ÛĮØ§
ĠØ§Ø³Øª ÛĮÚ©
ĠÚ©Ùĩ Ø±ÛĮØ²
ĠÙ¾Ø± Ø³ÛĮØ¯
ĠØªÙģ Ø±ÛĮØŃ
ĠØ¢Ø´ ÙģØªÙĩ
ĠØ§Ù¾ ÛĮØ¯
ĠÙħØŃØ§Ùģ ÙĦ
Ġvol ume
ĠØµÙĪÙģÛĮ Ø§ÙĨ
Ù¾ ÛĮØ¯
ĠØ±Ø§ Ú©ÛĮ
ĠØºÛĮØ± Ø®
Ġcl a
ĠØ²Ø±Ø§ Ø¹ÛĮ
w ell
ĠØ· ÙĦØ³
ĠØªØ± ÙħÙĪ
Ø§Ø¨ÛĮ Ø§ÙĨ
ĠØ¯ÙĨ ÙĪØ±
ĠÙ¾ÙĪ Ø´ÛĮ
ĠØ§ÛĮØ² Ø§Ø¨ÙĦ
ĠÚ¯Ø§ÙĨ Ø¯ÛĮ
ĠÙĩÙħØ³Ø§ÛĮ Ú¯Ø§ÙĨ
ĠØ´ÙĩØ± Ùĩ
Ġp en
Ø§Ø¦ ÛĮÙĨ
ĠØ¨Ø±Ú¯ Ø²
ĠØªÙĩ ÙĪØ¹
ĠÙħØ´Øª ÙĤØ§Øª
ĠÙħØ§Ø¯Ùĩ Ø§
ĠÐ ±
ĠØ¯Ú¯Ø± Ú¯ÙĪÙĨ
Ġter r
ĠÙģØ¶Ø§Ù¾ÛĮÙħ Ø§ÛĮ
ĠÙĦÙĪÛĮ ÛĮØ³
Ġphil osoph
Ġ á
ĠØ§ÙĦ Ø¥
Ġs and
ĠØ¨Ø¹Ø¯ ØªØ±
ec k
ĠØ®Ø±Ø§ Ø¬
ĠØªÙĪÙ¾ ÙĪÙĦÙĪÚĺÛĮ
Ġn h
ĠÙħÛĮ Ø§
ĠØ§ÙĨÚ¯Ø´Øª Ø§ÙĨ
ĠÙ¾ Ø±ÛĮØ¯
Ø§Ùħ ØªÛĮ
ĠØ¨ÛĮ Ø¹Øª
Ø±Ø® ÙĪ
ers on
ĠØ¯Ø§Ø±ÛĮ Ø¯
ĠØ¨ÙĦÙĪ ÚĨÛĮ
ĠÙ¾Ø§Ø³Ø§Ø± Ú¯Ø§Ø¯
s d
Ø® Ø§ÙĦÛĮ
ĠÙĤ ÙģØ³
ÛĮØª Ø§ÙĦ
ĠÙĦ Ø§ÙĨØ³
ĠÙħØ± Ø¶ÛĮÙĩ
Ġt ko
Ġk u
ĠØªÙĩ Ùħ
ĠØ¨Ø± Ø´Ø§
Ú¯Ø² Ø§Ø±Ø§ÙĨ
ĠØ¯Ø³ØªÚ¯Ø§Ùĩ ÛĮ
ĠØ±ÛĮÚĨ ÙĦ
ĠØ¢ÙĦØ§ÛĮ ÙĨØ¯Ùĩ
ĠØ¨ ÙĨÙĪ
ĠØ± ÙģÛĮÙĤ
ĠÙģ ÙĪÙħ
ĠØ¯ÙĪ Ø³ÙĦØ¯
Ø¯ÛĮ Ø§ÙĨ
Ġfr an
ĠØ¹ÙĪ Ø§ÙħÙĦÛĮ
ĠØ§ØµØ·ÙĦØ§ØŃ Ø§
ĠÙĨØ§ÙħØ· ÙĦÙĪØ¨
ĠØ³ ÛĮØ±ÛĮ
Ġl l
Ġch ap
ĠØ¹ÙĪ Ø§ÙĤØ¨
ĠÙĢ ÙĢ
ĠÙĩÙĦÛĮÚ© ÙĪÙ¾ØªØ±
ĠÙħ ÙĪÙħÛĮ
ÙĪÙĨ ÛĮÙĨ
ĠÙĨÛĮØ§ ÙģØªÙĩ
Ø§ÙĨÛĮ Ø³Øª
ĠØ³Ø± ÙħØ§ÛĮ
Ġp i
ĠØ´Ùĩ Ø¨Ø§Ø²ÛĮ
ĠØ±Ø§Ùĩ Ø¨
ĠÙĨÙĩ ØµØ¯
ill a
ÙĪØ± Ú¯ÛĮ
Ġc iv
ĠØ´Ùĩ Ø¯Ø§
el a
ĠÙ¾ÙĦÛĮ ÙħØ±ÛĮ
Ġre f
lin es
ĠÙħÙĨØ¬ ÙħØ¯
ip s
Ġre al
Ġu e
ĠÙ¾ÙĪÙĦ Ú©
ĠÙħÙĪØ²Ø§Ùħ Ø¨ÛĮÚ©
d le
ĠØ¬ Ø§ÙħÙĩ
ĠÙĤ ÙĤ
Ø±Ú© ÛĮ
ĠÙħÛĮÙĨ Ø³ØªØ±
ĠØ¨ÙĨÚ¯ Ø§ÙĦÛĮ
ĠÙħÙģØ³ Ø±Ø§ÙĨ
ĠÙĦ Ø¹
Ġm b
ÛĮØ¯ ÛĮÙĨ
ĠØ§Ø¬ ÙħØ§Ø¹
ĠØ®Ø· Ø¨Ùĩ
ĠØ¢ÙĨØ¯ Ø±Ø§ÙĨ
Õ« Õ¶
ÙģØ±Ø§ÙĨ Ø³ÛĮØ³Ú©ÙĪ
ĠØ¯ÙĪØ³ÙĦØ¯ ÙĪØ±Ùģ
Ä ĵ
ĠÚ© Ø«ÛĮ
Ġr j
ĠÙħØŃÙħØ¯ Ø¬ÙĪØ§Ø¯
ĠØ³ÛĮØ± Ø§
ĠØ¨ÛĮÙĦ Ùĩ
ĠÙĨØ§Øª ÙĪØ§ÙĨ
ĠÚ©ÙĦÛĮÙĨ ÛĮÚ©
Ġport rait
Ġvide o
Ġan im
ĠØ¢Ø¯ ÙħÛĮ
ĠÙĦÛĮØ² Ø±ÛĮ
ĠØ®Øª ÙĨÙĩ
ĠÚĨÙĨØ¯ Ø¬ÙħÙĦÙĩ
ĠÚ¯ÙģØª ÙħØ§ÙĨ
ĠÙĪÛĮØ±Ø¬ ÛĮÙĨ
ĠØ¨Ø§Ø· ÙĦ
ĠÙ¾Ø±ØªÙĤ Ø§ÙĦ
ĠØª Ø±Ø§Ú©
ĠÙ¾ Ø³ØªÙĩ
ĠÙħØ¯ ÛĮØ³ÙĪÙĨ
ĠÙħØ± Ø®Øµ
Ø§Ùħ ØŃÙħØ¯
ĠÙħØ§Ø± ÚĨ
ĠØ¢ÙĤ Ø§ÛĮØ§ÙĨ
ĠØ³ÙĪØ¯ ÙħÙĨØ¯
v en
ĠÙħÙĪ ÙĪÙħØ§ÙĨ
Ġp t
ĠØ²Ø¨Ø§ÙĨ ÙĩØ§ÛĮ
ic us
ĠÚĨÚ© Ø´
ĠÙĤØ§ Ø¹Ø¯
ĠÚ¯Ø±ÛĮÙĨ ÙĦÙĨØ¯
ĠÙħØªÙĨØ§ Ø¸Ø±
ĠØ§Ù¾Ø±Ø§Øª ÙĪØ±
Ġassoc iation
Ø² Ø¨Ø±ÛĮ
ĠØ³Ùģ Ø§Ø±Ø´ÛĮ
ĠÙĪØ§Øª Ø³ÙĪÙĨ
ĠØ¬ Ø§ÙħÛĮ
ĠÙĩÙħ Ø³Ø§ÙĨ
Ġt l
Ġb os
Ġim db
ĠØ²Ùħ Ø§Ùħ
Ġcast le
ĠÙħØª Ø§Ø®Ø±
ĠØ¨ÛĮ Ø³ØªÙĪÙĨ
Ġb ib
ĠØªØŃ Ú©ÛĮÙħ
Ø³ØªØ± ÙĪÙĦ
Ġre port
Ġtim es
ĠØªÙĤÙĦ Ø¨
ĠØ§Ø¬Ø²Ø§ Ø¡
Ã ¸
ĠØ§Ùħ ÙĦ
or ia
ĠØ¬ÙĦ Ø¨Ú©
ĠØ³Ú© Ø§ÙĨØ³
ĠÙĨØ§Øª ÙĨÛĮ
ĠÚ© Ø¨ÛĮ
Ø§Øª ÙĪØ§Ø±
ÚĨ ÙĦÛĮ
Ġal i
Ġre ference
ĠØ§ÛĮ ÙĪØ¨ÛĮ
Ġh om
ĠÙģØ¶ ÛĮÙĦØª
ĠØ±ÙĪÙĦ ÛĮÙĨÚ¯
ĠÙĪØ¬ ÙĪÙĩ
ĠØ§ ÙĬ
ĠØ· ØºØ±ÙĦ
ÙĪØ¨ ÙĪ
Ġg p
Ø§ÛĮ ÙĪ
ĠÙ¾ Ùħ
ĠØ§ÙħÙ¾Ø±Ø§Øª ÙĪØ±Ø§ÙĨ
m on
ĠØ¢ Ø¯ÛĮ
ĠÙĪ ÙĪÛĮ
ĠØªØ¹ Ø§ÙħÙĦÛĮ
ĠÙĪÙĦ Ø¯
Ø³ Ø¨Ø±Ú¯
ĠÙĩ Ø±Ø§Ø³
Ġma ch
ĠØ§Ø³Øª Ùĩ
ĠØªÙģ Ø§ÙĩÙħ
ĠØªØ±ÛĮ Ù¾ÙĦ
ĠØ®ÙĪØ´ÙĨ ÙĪÛĮØ³Ø§ÙĨ
ĠØ¨Ø±Ø³Ø§ÙĨ ÙĨØ¯
ĠÙĪÙĦÙĪØ±Ùĩ ÙħÙ¾ØªÙĪÙĨ
ĠØ³Ø§ÙĨ ÙģØ±Ø§ÙĨØ³ÛĮØ³Ú©ÙĪ
ĠÙĨÙĪØ´Øª ÙĨØ¯
ĠØ¯ÛĮÙħ ÛĮØª
Ġ é
Ø§Ø±ÛĮ Ø³
ĠÙģØ¶Ø§Ù¾ ÛĮÙħØ§
ĠÚ¯ Ø³ÛĮÙĦ
Ø¸ Ø±Ùĩ
ĠØ¯Ø±ÙħØ§ÙĨ Ú¯Ø§Ùĩ
ĠÚ©Ø§Ø³ Ù¾ÛĮÙĨ
ĠØ§ÙĨØ¹ Ú©Ø§Ø³
p os
ĠÙĪ ÙĨØ³
Ø³ÛĮ ÙĪÙħ
ĠØ®Ø§ÙĨ Ø§Øª
ĠÙģØ± ÙĪÙħ
ĠÚ¯Ø±Ø¯ ÙĨÙĩ
Õ¡Õ ¾
ĠØ´ ÙĪÙĦ
Ġb ak
ĠÙħÙĦ ÙĪÚ©
ĠØ¨ÙĨÙģ ÛĮÚ©Ø§
ĠÙħØªØ± Ø§Ø¯Ùģ
ĠØ§ØŃØªÙħ Ø§ÙĦØ§Øª
ĠÚ©Ø¹ Ø¨Ùĩ
ĠÙĩÙħ Ø¬
ĠØ§Ø´ Ø±Ø§ÙģÛĮ
ĠØ¢ÙĨÙĩØ§ Ø³Øª
ĠØ¢Ú© ÙĪØ³Øª
ĠÚ©ÙĨØ³Ø±ÙĪ Ø§ØªÙĪØ§Ø±
ÙĪÙĨ ÛĮØª
ĠÛĮ ÛĮÙĨ
ĠØªÙĦ ÙģÛĮÙĤÛĮ
ĠØ§ÙĨØªØŃ Ø§Ø±ÛĮ
ÛĮØ§ Ù¾
ĠØªØ± ÙĨØª
ĠÚĺ ÛĮØ±
ĠØ¢ÙĨØ¬ ÙĦ
ÙĤ Ø§Ø¨
ĠÙĦ Ø§Ø¨
ĠÙħØ¹ Ø§ÛĮØ¨
ĠØ§Ø´ ÙħÛĮØª
ĠØŃØ¨ÛĮ Ø¨ÛĮ
ĠØ§Ø³Ù¾Ø§Ø±Øª Ø§Ú©
Ġl b
ĠÙĨØ® Ø§Ø¹ÛĮ
ĠÙħÙĩØ± Ú¯Ø§ÙĨ
ĠØ¹ÙħØ± Ø´
ĠÚ©ÙĪØ±Ø¯ ÙĪØ¨Ø§
ĠÙģØ§Ø´ÛĮ Ø³Øª
Ġtot al
ĠØ¯ÙĪÙĤ Ø·Ø¨ÛĮ
ĠÙħ Ø²Ùĩ
ĠÙĩÛĮ Ø³Øª
oth er
ĠÚ¯ÙĪÙħ Ø²
ĠØ§Ø¨ÙĪÙħ Ø³ÙĦÙħ
ĠØ§Ø´ÛĮ Ø§ÛĮ
ĠØ³ Ø¬Ø§Ø¯
Ø§Ø² Ø§
ĠÙĨÙħ Ú©ÛĮ
ĠØªØºÛĮ ÛĮØ±ÛĮ
ĠØ¢ÙĪÛĮØ² Ø§ÙĨ
ÙĪ Ø¨Ø±
ĠÙĨ Ø§ÙĨØª
ĠÚ¯ ÙħØ§ÙĨÙĩ
ĠØ¯ÛĮ Ø³
Ġr y
ĠØ³ÙĦ ÙĪÚ©
ĠÙħÙħ ÙĪØ±ÛĮØ§ÙĦ
ĠØ´Ø¹ Ø¨
ĠØ§ÙģØ³ Ø±ÛĮ
ĠØ±ÛĮÚĨ ÙħÙĪÙĨØ¯
sk y
ĠÙĤÙĤ ÙĨÙĪØ³
ĠØ± ÙĪÙĨÛĮ
ĠÚ©Ø± Ø§ÙĦ
Ġt n
Ġw all
ĠÙħÙĨØ· Ø¨ÙĤ
ĠØ§Ø³ÙĦ Ùħ
ree k
Ġcoun tr
ĠØ§ÙĨØ¯ÛĮ Ø´Ùħ
ĠØ§Ø³ ÙĩØ§ÙĦ
ĠØ®ÙĪØ¯ Ú¯Ø±Ø¯Ø§ÙĨ
Ġc ry
ĠØ¹Ùħ ÙĪÛĮØ´
ĠØ¢ÙĨØ¯Ø±Ø§ÙĨ ÛĮÚ©
Ø´ÙĨØ§ Ø®ØªÛĮ
ĠÙ¾Ùĩ ÙĨØ§
ĠØ´ÙĦÙĪ Ø§Ø±
ðĲ ¬
ĠÙĤØ±Ùħ Ø²ÛĮ
Ø¯ ÛĮÙĨÚ¯
ĠÙģ ÛĮØ¯
ĠØ« Ø§ÙĨÛĮ
Ġl os
ĠØ®Ø§Ø·Ø± ÙĨØ´Ø§ÙĨ
ĠÚ¯Ø±Ø§ÙĨ Ø§Ø¯Ø§
ĠÚ©Ø§Ø´ Ùģ
Ø´Ø§Ø® Ùĩ
ĠÚ©Ø§Ø¨ ÙĦÛĮ
ĠÙĨÙĪ Ø²Ø¯Ùĩ
ĠÙĪØ± Ø§ÙħÛĮÙĨ
ĠØ³Ù¾ ÙĩØ±
ĠØ¬ÛĮ Ø§ÙĨÚ¯
u es
ĠÚ© Ø³Øª
Ġh ay
Ġv l
ĠØ³Ø±ÛĮØ¹ ØªØ±
ĠÙħÙĤØ§ÙĦØ§Øª ÛĮ
Ùģ ÛĮØ±
ÚĨ Ø§ÙĨ
ĠØ§ÛĮ ÙĪÙĦ
ĠÙĨÛĮ ÙĪÙħÙĨ
ĠØªÙĤ Ø§Ø¨ÙĦ
ĠØ§ÙħÙ¾ Ø±Ø§Ø·ÙĪØ±ÛĮ
ĠÙĤØ¯ Ø±Ø¯Ø§ÙĨÛĮ
ĠÙģØ±ÙĪ ØºÛĮ
ĠÙħØ¬ØªÙĩ Ø¯
Ø³ Ø§Ø±Ø§ÙĨ
ĠÙ¾ Ø´
ĠÙħÙĪ Ùĩ
ĠÙ¾Ø§ÛĮ Ø´
ĠØ±ÙĪØ² ÙĨ
ĠØ²ÛĮÙĨ ØªÛĮ
ĠØª Ø²Ø§Ø±
Ø¬ Ø§ÛĮ
ĠØ¢ÙĨ Ø±ÛĮ
ĠÙĪØ§ ÚĺÙĨ
ĠØ®Ø± Ø§Ø¨Ùĩ
Ġcal if
ĠÙħÛĮØ±ØŃ Ø³ÛĮÙĨ
ĠØ¨ ØªÛĮ
ĠÙ¾ Ø§ÙĩØ§
ĠØ®ÙĦÛĮ ÙĦÛĮ
ĠÙ¾ÛĮØ§ÙħØ¨Ø± Ø§ÙĨ
ĠØ§Ø®ØªØ± Ø´ÙĨØ§Ø³Ø§ÙĨ
Ġmod ern
m ed
ĠÙĨ ÙħØ§ÙĨØ¯Ùĩ
ĠÚ©ÙĨ Ø¬
en ch
ĠÙģØ§ÛĮ Ø¯Ùĩ
Ġoly mp
ĠÚ¯ Ø±ÛĮÙģ
ĠØ´ÛĮ Ø¨Ø§ÙĨÛĮ
ĠÚ©ÙĪÙĩ Ù¾Ø§ÛĮÙĩ
ĠØ§ÙĦÛĮ Ø³
ĠÙĦÛĮÚ© ÙĨ
s i
ĠØ§Ú© ÙĪØ³ÛĮØ³ØªÙħ
ĠÙĤÙĦ Ø¹
ĠØ§ÙħØ± Ø§ÛĮ
ÙĪÚ©ÛĮ ÙĪ
ĠÙĦØ§Ú© Ùĩ
Ù¾ ÛĮØ±
ĠØ·Ø¨ÙĤ Ø§ØªÛĮ
ĠØ´ Ø§Ø³ÛĮ
ÙĪØ²ÛĮ Ø³ÛĮÙĪÙĨ
Ġz h
ĠÙģØ±Ø§Ùħ ÙĪØ´ÛĮ
ÙĪ ÙģØ§
ĠØ³Ø±ÛĮ Ø§ÙĨÛĮ
Ġe th
ĠØ®ÙĦØ§ Ø¡
ĠÐ ²
ĠØªÙĪ Ø§ÙĨÛĮ
Ġb or
ĠØ³ÙĪ Ø§ÙĦØ§Øª
Ġl as
Ø¨Ø§ Ø´ÛĮ
as on
ĠÙħØ¯ Ø¯
ĠØ¢Ù¾ Ø§Ø±Øª
ĠØµØ¯ ÙĤ
ĠØ³Ø§ÙĨ ÚĨ
Ġre le
Ġ à
ÙĪÙħ Ø§ØªÛĮÚ©
ĠÙħØ¹ Ø§ÛĮ
ĠØ®Ø§ÙĨ ÙĤ
ĠÚ¯ÙĦ Ø§Ø¨
ĠÙħØº ÙĪÙĦÛĮ
ĠØ§Ú©ØªØ´Ø§Ùģ Ø§Øª
ĠÙĨ Ø§Ùģ
ĠÙĤ ÛĮØ§Ø³
ĠÚ©ÙĦ ÙĪ
ĠØ¬ÙĨÚ¯ ÛĮØ¯
ĠØ´Ø§ÛĮ Ø¹Ùĩ
Ø± ÙģØª
Ø§ÙĨ Ø³ÛĮ
ĠØ§ÙĦ Ú©ØªØ±ÛĮ
Ġo g
ĠØ®ÙĪØ§ÙĨ Ø³Ø§Ø±ÛĮ
ÙĦØ§ Ø¹
ĠÙħØ¬ ÙĨÙĪÙĨ
ÙĪØ§ Ø´
ÙĪØ´ ÛĮØ§
ĠÚ¯ÙĦ Ø¨ÙĪÙĦ
ĠÙħÙĪØ± ÛĮØª
p ut
ĠØªÙĪ ÙģÛĮÙĤ
ĠÚ©Ø§Ø± ØªÛĮ
ĠØ¹ÙĨ Ø§ÛĮØª
at i
ĠØ¹Ø§ÙħÙĦ Ø§ÙĨ
ĠØ¢Ø´Ú©Ø§Ø± Ø³Ø§Ø²
ĠØ¢Ø´Ù¾Ø² Ø®Ø§ÙĨÙĩ
Ú¯ ÙĪÙĦ
ĠÙĦ ÙĪÙĦ
ĠÚ©ÛĮ Ø§ÙĨÛĮ
ĠÙĦØ§Ø±ÛĮ Ø¬Ø§ÙĨÛĮ
ĠØ¨Ø§ Ø³Øª
ĠØ¹ ÛĮØ¨
ĠÙħØŃ ÙĪ
Ø¨Ø± Ú¯Ø±
Ġf al
Ġl uc
ĠØªÙĤ ÙĪÛĮ
ĠÚ©ÙĦÛĮ ÙĪÛĮ
ĠÐ ½
ĠØ¯ÛĮÙĦ Ùħ
ĠØ¹Ø´ ÙĤÛĮ
ĠÙħØ² Ø§ØŃ
ĠØ±ÛĮÙħ ÛĮÚ©Ø³
ĠÙĩÙħ ÙĦØª
ĠØ§ÙĦÙħ Ù¾ÛĮ
ĠØ³Ùĩ ÙĪÙĦØª
ĠØ¯ÛĮÙ¾ÙĦ ÙħØ§Ø³ÛĮ
l ar
ĠØ® ÙħÛĮÙĨ
ĠÙĨÙĪØ± ÙģÚ©
ĠØ¶Ø± Ø¨Ø§ÙĨ
ĠØ§ÙĦØ³ÙĦ Ø·Ø§ÙĨ
Ú© ÙĨØ¯
ĠÙħÛĮ Ùħ
ĠÙħØ¹ Ø±ÙĪÙģÛĮ
Ġh or
ĠØ³Ø§Ø³ Ú©Ø§
ĠØ¨ÛĮÚ¯ Ùħ
b an
v i
ÙĨ ÙĪÛĮØ³
ĠÙħØ± ÙĨØ¯
ĠØ¯Ø³Øª Ø®
Ġb att
Ú¯ÛĮØ± Ø§ÙĨÙĩ
ĠØ¢Ø´ØªÛĮ Ø§ÙĨÛĮ
Ġn ar
ĠØ¨ÙĨÛĮØ§ÙĨ Ú¯Ø°Ø§Ø±ÛĮ
ĠØ§ÙĪØ± Ø§Ø³ÛĮØ§
Ġh on
Ġc ard
ĠÙĦÛĮ Øª
ĠÙĪØ± ÙĦØ¯
Ġb h
Ø§ÙĨØª Ø±ÛĮ
ĠØ¯Ø±Ø³ Ø¯ÙĨ
ĠÙĪ Ú¯
ĠØµ ÙĪØ±ÛĮ
Ġpar ty
ĠÙ¾ÙĩÙ¾ Ø§Ø¯
ĠØ¯ Ø¬
ĠÙ¾ Ù¾
Ø§Ø² ÙĩØ§
ĠÙĪØ± ÙĤÙĩ
Ġb p
Ø§Ø´ ÙĨØ§Ø³ÛĮ
ĠÚ¯Ø±ÛĮ Øª
ĠÙħØªØ§ÙģÛĮ Ø²ÛĮÚ©
ĠÚ©ÙĦ Ø§Øª
ay a
ĠØ³ÙĨØª ÙĪØ±
Ġsm ith
ĠÚ©Ø±ÛĮØ³ØªÛĮ Ø§ÙĨ
ĠØªØ±Ø§Ú©ØªÙĪØ± Ø³Ø§Ø²ÛĮ
c ol
ĠØµ Ø¨Ø±
ĠØ³Ø± Ø·Ø§ÙĨÛĮ
he mat
Ø§Ø² Ø§Ø¯Ùĩ
ÙĨÚ¯ Ø§ÙĨ
Ġw es
ĠØ¬ÙĪ Ø®Ùĩ
Ġal g
ĠØ®Ø³ Ø§Ø±Ø§Øª
ĠØ²ØŃ ÙħØª
ĠÙĨØ¸ Ø§Ø±ØªÛĮ
Ġd m
ĠØ´Ú© ÙĪÙģÙĩ
ĠÙ¾Ø§Ø± ÛĮÙĨÙĩ
ĠÙĩØ§Ùģ ÙħÙĨ
ĠØºØ± ÙĪØ±
ĠÙħÙĨØ¹ ÙĤØ¯
Ġhy d
ĠÙħØ´ØªØ±Ú© ÛĮ
ĠØ¨Ø§Ø² ÙĦ
ĠØ¹Ùħ Ø¯ÛĮ
ĠØ¹Ø¨ ÛĮØ¯
ĠØ³Ø§Ø³Ú©Ø§ ÚĨÙĪØ§ÙĨ
Ø§ÙĦ ÙĨ
ĠØ¬ ÛĮÙĨÛĮ
Ġr w
ĠØ³Ø§ÙĨØ¯Ø± ÙĦÙĨØ¯
ĠÚ© Ø§ØªØ±
ĠØªÙĪÙĦÛĮØ¯ Ùħ
ĠÚ©ÙĪÙĩ Ø¯Ø´Øª
ĠØªÙĪØ±ÛĮ Ø³ØªÛĮ
ĠØ§ØŃØª ÛĮØ§Ø·
k h
ĠØ¨ ÙĪÛĮÛĮ
ĠØ³ÙĪ Ø®ÙĪ
ĠÙĨÛĮÚ© ÙĪÙĦØ§
ĠØ¢ÙĪ Ø§Ø²ÛĮ
Ñģ ÑĤ
ĠÙĨÙĪØ´ ÛĮØ¯ÙĨ
Ø³ ÙĦØ§ÙĪ
ĠÙħ ÛĮÚ©ÛĮ
ĠÙħÛĮ Ø§ÙĨØ¯
ĠØ¨Ø§Ø² Ú¯ÙĪ
ĠÚ©Ø´ Ø§ÙĨØ¯
ÙħØ¯ Ø§Ø±
Ġn ic
ĠØµØ¯ ÙħÙĩ
ĠØ¬Ø§ ÙĪØ¯Ø§ÙĨ
ĠÙĩØ§Ø± ÙĪÛĮ
ĠÙĩÙĨØ±ÙħÙĨØ¯ Ø§ÙĨÛĮ
Ġcomp any
ĠØŃØ§Ø¦ Ø²
ä ¸
ĠÙĪØ§Ø± Ø¯Ùĩ
ĠÙħÙĨØŃ Ø±Ùģ
ĠÙħØªØ¹ Ø§Ø±Ùģ
ĠÙģØ§ÙĦ Ú©
Ġmaj or
ĠØ§ÙĨØ¹ÙĤ Ø§Ø¯
Ø§ ÙĪÙĦ
ĠØ®ÙĦ Ø£
ĠÙħØ´Ø±ÙĪ Ø¹ÛĮØª
ĠÙĨØ´ÛĮÙĨ Ø§ÙĨ
m en
ĠØ¨ ÙĪÛĮÙĩ
Ø§Ú© ÙĪÙĦØ§
Ġf b
ĠÙģÛĮ Ø´
Ú© ÙĪØª
ĠØ´ Ø§ÛĮØ§ÙĨ
ĠÙģ Ø§Ø²ÛĮ
ĠÙģØ§Ø± Ø§Ø¨ÛĮ
ĠÚ¯Ø´Øª ÙĨØ¯
ĠÚ©Ø±Ø¨ ÙĨÛĮ
ÛĮØ§ ÙģØªÙĩ
ĠÙĦ Ø§Ø±Ø³ØªØ§ÙĨ
un e
ap p
Ġcl ub
Ġfl ight
ĠÙħÚ¯ Ø§ÙĪØ§Øª
Ġsh ort
ĠÙĤ Ø§Ùģ
ĠØ§ÙĦ Ø§Ø³Øª
ĠØ§Ø³ØªÙģ Ø±Ø§Øº
ĠØªØ£ ÙĦÛĮ
ĠÚ¯ÛĮÙĦ Ø§Ø³
Ġara b
Ġcalif orn
z y
Ġt est
ĠØ¨Ø±Ø¯ Ú¯ÛĮ
ĠØ³Ú© Ø³ÛĮ
ĠÙĨÛĮÚ©ÙĪÙĦ Ø§ÛĮ
ĠØ¨ Ú©ÙĨ
ĠÙħ Ø§Ø®
ĠÙĪØ± ÙĨØ±
ĠÙĨØ´ Ø¯ÙĨ
Ġb at
ĠÙħØ¸ ÙĦ
ĠÙĦØ§Ùĩ ÙĪØ±
ĠÙģØ±Ø§Ú© Ø³ÛĮÙĪÙĨ
Ġlitt le
ĠØ¨Ø± ØŃ
ĠÙĤ Ø§Ø¯Ø±ÛĮ
ĠÚĺ ÛĮÙĦ
Ġt i
ĠÚ©ÙĪ Ø¨ÛĮ
ĠÚ¯Ø±ÙģØª Ú¯ÛĮ
Ġz e
ĠØ¢Ú¯ ÙĪÙĨÛĮØ³Øª
Ġbuild ing
ĠÚ¯ Ø³ÛĮ
Ø§Ø³ Ø§ÙĨ
ĠÙĩØ± Øª
ĠØ§Ø³Ù¾ Ø±Ùħ
ĠÙĩÛĮ ÙĪØ²
ÙĪÙ¾ ÙĪØ±Øª
ĠØ¨ÙĪØ± ÙĦÛĮ
ĠÙĩ Ø°
ĠØ±Ø§ Ø´Ø¯
ĠØ±ÛĮ Ø´ØªØ±
ĠÙĦØ´Ú© Ø±ÛĮ
ĠÚ¯Ø±Ø§ÙĨ Ø¯Ùĩ
ĠÕ ¾
ĠÙĤÙħÛĮ Ø´ÛĮ
ÙĨÙĪ Ø§Ø²Ø§ÙĨ
ĠÙ¾Ø§ÛĮ ÙĨ
ĠÙĤØ¶ Ø§Øª
ĠÙĨÛĮÚ©ÙĪÙĦ Ø§Ø³
ĠØ¨ Ø¬Ø²
ÙĤ Ø´
ĠØ¹ ÛĮØ§Ø±
ÙĪÚ© ÛĮÙĨ
ÛĮÚ©ÛĮ Ø´ÙĨ
ĠÚĨÙĨØ¯ ÙħÙĨØ¸
Ġk er
ro s
Ú©ÙĪ Ø¨ÛĮ
ĠÙģÙĪ Ø¬ÛĮ
ĠÙģÙĪÚ© ÙĪØ¦ÙĪÚ©Ø§
ĠØªØ±Ø§ÙĨØ²ÛĮØ³Øª ÙĪØ±
ĠÙĩ ÙĪØª
Ù¾ Ø§Ø±Øª
ĠØ³Ø± Ø§ÙĨÙĩ
ĠØ³Ø· Ø±
ĠÙħØ±Ø§ ÙĤØ¨
ĠÙĨØ§ÙĨÙĪØ° Ø±Ø§Øª
ĠÙħ Ø§Ø³ÛĮ
Ø¨ ÙĪØ±ÛĮ
Ø¨ Ø®Ø´ÛĮ
ĠÚĨ Ø±ÛĮÚ©
ĠØ§ÙĦ ÙħØ§ÙĨ
ĠÙħÛĮÚ© ÙĦ
ĠØ¨Ø±ÙĨØª ÙģÙĪØ±Ø¯
c om
ĠÙħØ³ Ø§Ø¦ÙĦÛĮ
ĠØ¢ÙĦ ÙģÙĪÙĨ
ĠÚĨÙĨØ¯ÙħÙĨØ¸ ÙĪØ±Ùĩ
ÙĪ ÚĺÙĨ
Ø® Ø±ÛĮ
ĠØ´ÙĨØ§Ø®Øª ÙĨ
ĠØ±Ø´ ÛĮØ¯ÛĮ
ĠØ¢ÙĦ ØªØ±ÙĨ
Ġit s
ĠÙĨÙħØ§ÛĮØ§ÙĨ Ú¯Ø±
ĠÙĨØ§ÚĨ ÛĮØ²
ĠØ¨Ø§ÛĮØ¯ ÙĨ
ÙĦØ¨ Ø§Ø´
ĠØ³ÙģÛĮØ¯ Ù¾ÙĪØ³Øª
Ġsp ir
ĠØ§Ø« Ø±Ø¨
ĠÙ¾ ÙĪÙĦÛĮØª
ĠÙĪ ÙĦÙĩ
ĠÙĦ Ø´
ÙĪØ±Ø´ ÙĨØ§Ø³ÛĮ
ĠÙĨØªÙĪØ§ÙĨ Ø³ØªÙĨØ¯
ĠÚ©ÙĦÛĮØ³ Ø§ÙĩØ§
ĠØ¯Ø§ÙĨ Ùħ
ĠØ¢Ùħ ÙĦÛĮ
ĠØ¯ÙĦ Ø§ÙĦØª
ĠØ¹ÙħØ± ÙĪ
ĠÙħØªØ¹ÙĦÙĤ Ø§Øª
w ar
Ã £
ĠØ¯ÙĪ Ø¬Ø§ÙĨØ¨Ùĩ
Ø§Ù¾ ÛĮ
Ġb m
Ġb ah
ĠØ²Ø¨Ø§ÙĨ Ø§ÙĨ
ch i
ĠÚ¯ÙģØª Ø§Ø±ÛĮ
ĠØ¨ÛĮÙĨ ÛĮÙħ
Ġn s
ĠØ¬Ø¯ÛĮØ¯ ØªØ±ÛĮÙĨ
ĠØ§ÙĨØ³ØªÛĮØª ÙĪÛĮ
g s
ÙĪ Ø¬Ùĩ
Ġil l
ĠØ±Ø§Øª ÙĨ
ĠÚ¯ Ø§ÙĦØ§Øª
ÙĪØ³ ÙĪÙĨ
ĠÚ©ÙĦ Ø¨Ùĩ
ĠÛĮÚ©Ù¾Ø§Ø± ÚĨÚ¯ÛĮ
ĠØ¨ ÙĨÛĮÙĨ
Ùģ ÙĪØ¹
or ial
ĠØ§Ø¹Ø¶Ø§ Ø¡
ĠÙħØµÙĦ ØŃØª
ĠØ¹Ø³Ú© Ø±ÛĮ
Ġrepubl ic
ÙģÛĮ Ø²ÛĮÚ©
ĠØ§ØŃ Ø±Ø§Ø²
Ġiran ian
Ø³ ÛĮÙĨÛĮ
ÙĪØª Ø³Ú©ÛĮ
ĠÚ¯ÙĦ Ø§Ø¯
ac y
ĠØªÙĪØ± Ø¬
ĠØ±ÙĪÙħ Ø¦ÙĪ
ĠÙĤØ² ÙĦØ¨Ø§Ø´
ĠØ§ÙĦØ¹ Ø§Ø¨Ø¯ÛĮÙĨ
ĠØ§ÙĨØ³ ÙĪÙĦÛĮÙĨ
Ġl ast
ĠØªØ¬ Ø§Ø±
ĠØ§ÛĮÙĨØªØ± ØªÛĮÙĨÙħÙĨØª
ĠØ²ÙĨØ¬ Ø§ÙĨÛĮ
ĠØ¯ÛĮÚ©Øª Ø§ØªÙĪØ±
ÙĦ Ø¨Ø§ÙĨ
ĠØ±ÙĪ Ø¨ÛĮÙĨ
ĠØ¬Ø³Øª Ø§Ø±ÙĨ
ĠÙħÙĦ Ø²Ùħ
ĠØ§Ø¨ Ø·
ĠØ§ÙĦØ²Ø§Ùħ Ø§Øª
ĠÙĪÚ©ÛĮ ÙĦÛĮ
Ñ ĩ
ĠØ® Ø§ÙĪÛĮØ±
ĠØ§ÛĮ Ú¯
ÙĪØ±Ø´ Ø¯Ùĩ
ĠØ§ÛĮØ³Øª Ø§Ø¯
ĠØ§Ø° Ø¹Ø§ÙĨ
ĠØ¬ ÙĪÙĦØ§ÛĮ
ĠØ¨ÛĮ ÙĪØ´ÛĮÙħÛĮ
ÙĪØ¦ ÙĪ
Ġf ire
ĠØ§Øµ ØŃØ§Ø¨
Ø¨Ú© Ø§
ĠØ¸Ùĩ ÛĮØ±
ĠØ²Ø§Ùĩ Ø¯ÛĮ
Ġt d
ĠÙģØ±ÛĮ Ø²Ø±
ĠØºÙĪØ§ ØµÛĮ
ĠØ¯ ÙħØ§ÛĮÛĮ
Ú¯ ÙĪÙħØ±ÛĮ
ĠØ¯Ø± Ø³Ø§ÙĦ
ĠØ±ÙĪØ´ ÙĩØ§ÛĮ
ĠØŃØ³ÛĮÙĨ Ø¹ÙĦÛĮ
ĠØ±ÙħØ² Ú¯Ø´Ø§ÛĮÛĮ
ĠØ¢Ø´Ú© Ø§Ø±Ø§
ĠØ¬ÙĨØ¬ Ø§ÙĦÛĮ
Ġsystem s
ĠÚ¯ÙĦØ§Ø³ Ú¯ÙĪ
ĠØ¢ÙĨ ÙĩØ§ÛĮÛĮ
Ġp ier
Ġo t
Ø¨Ø§ Øº
ĠÙĪØ§ØªØ± Ø²
ĠÙĩÙħØ³Ø§ÛĮ Ú¯ÛĮ
ĠÙĨ Ø¬Ùħ
Ġe ver
ĠØ¯Ø¨ÛĮØ± Ø³ØªØ§ÙĨÛĮ
ĠØ±Ùħ Ø²ÛĮ
ain s
ĠÙ¾Ø¯ÛĮØ¯ Ø¢ÙĪØ±
ĠØ¬Ùĩ Ø§Øª
ĠÙģÙĤÛĮÙĩ Ø§ÙĨ
ĠÙĦÛĮ ÙħØ§
Ø§ÙĨØ¯ Ø±ÛĮØ§
Ø¬Ø± Ùħ
ĠØ±ÙĪÛĮ Ø´
ĠØµØ¯ Ø³Ø§ÙĦÙĩ
Ø§Ø± Ø³
ĠØ¨ÛĮ Ú¯ÛĮ
Ø§ÙĨØ³ ÙĪØ±
ĠÙĨØ® Ø¬ÙĪØ§ÙĨ
Ġbr idge
ĠÐ °
j an
ĠÚ© ÛĮÙĨÙĩ
ĠÛĮÙĩ ÙĪØ¯Ø§
ĠØ±ÙĨÚ¯ Ø¯Ø§ÙĨÙĩ
ĠÙħÛĮØª Ø±Ø§
ĠØ¢Ú¯ÙĪØ³Øª ÙĪØ³
Ġspec ial
ĠØ¨ ÙĦÛĮØª
Ġh ard
ĠØ²ÛĮØ± Ø®
ĠØ§ÙĨØ¬Ø§Ùħ Ø¯
ĠØ¢Ùģ Ø±ÛĮØ¯
ĠØ®ÙĪØ´ ØŃØ§ÙĦ
ĠØ¬ÛĮÚ© ÙĪØ¨
ĠØ·ÙĦØ³ Ùħ
ĠØ¨ Ø¦
Ø§Ø² ÙĪ
ĠØ³Ø§Ø² ÙĩØ§
Ø§Ú©ÙĨ ÙĨØ¯Ùĩ
ĠØ±ÙĨÚ¯ Ø§Ø±
ĠÙĨØ§Øª Ø§ÙĦÛĮ
o h
ĠØ¯Ø± Ø§ÛĮÙĨ
ĠØ¨Ø§Ø± ÙĪ
ĠØª Ø³ÙĨ
ĠØ´ Ø¬Ø±Ùĩ
ĠØ¢ÙĨ ÚĨ
ĠÚĺ Ø§ÙĦÙĩ
ĠÚ¯Ø±ÙĪ Ù¾
ĠØ§Ø³Ù¾ Ùĩ
ur us
am i
ÑĢ Ð°
ĠÙĨØ§ÙħØŃ Ø¯ÙĪØ¯
ĠÙħÙĨ Ø§ØµØ¨
ĠØ¨ÙĨ Ø§Ø¯Ø±
ot s
ÙģØ§ÙĦ ÙĪ
ĠÙĩ Ø³ÙĨ
ĠØ³Ø± Ø§ÛĮØ§ÙĨ
ĠÙħÙĪØ± Ø¯ÛĮ
ĠØ§ÙĤØ¯Ø§Ùħ Ø§ØªÛĮ
ØªÙĪØ± Ù¾
ĠØ§ÙĦØªØŃØµÛĮÙĦ Ø§ÙĨ
ĠØ¨ ÙĨØ¯ÙĩØ§ÛĮ
ĠØ± Ø¨Ø§ÛĮÛĮ
ĠØ´ ØªÙħ
ĠØ³ Ø¨Ø¯
ĠÙ¾ ÙĦÙĪ
ĠÚĨ ÙĪÙĦ
ĠØ±ÙĪ Ø¨ÛĮ
ĠØ¢ÙĦ Ø±
ĠÚ©ÙĦ ÛĮÚ©
ĠØ¨ÙĪ Ø®
ĠÙĩÛĮ ÙĪÙĦØ§
Ú©Ø§ ÙĪÛĮ
ÙĤØ¯ Ø³
c ed
ĠÚ© Ø§Ø²Ø§ÙĨ
ĠÙĨ Ø¯Ø§Ø±ÛĮ
Ø§Ø¯ Ø§Øª
Ġe qu
Ðµ Ð½
ĠØ§Ø³ØªÛĮ Ø¶Ø§ØŃ
ĠØ®Ø§ÙĦ ÙĤÛĮ
ĠØ³ÙĨØªØ± Ø§ÙĦ
ĠÙĩØ¬Ø± Øª
ĠÙħ Ø§ØªØ±
Ø´Øª Ø±ÛĮ
ĠØ¨ÛĮ Ø²Ø§ÙĨ
ĠØ®ÙĪ Ø´ÛĮ
Ġn m
ĠÙĦÛĮØ¨Ø± Ø§ÙĦÛĮØ³Ùħ
ĠÙģØªÙĪ ØŃØ§Øª
Ġincl ud
ĠÙĩÙħØ¬ ÙĪØ§Ø±
ĠØ¯ Ø³ÛĮ
Ø§ÙĦ ÛĮÚ©
ÛĮÙħ ÙĨ
ĠÙĩÙĪ Ù¾
ĠØ¨Ø®Ø´ÛĮ Ø¯Ùĩ
ian o
ĠÙĨÙĩØ§Ø¯ ÙĨØ¯
ĠÙģØ§Ø³ Ø¯
ĠØ§Ø´ØªÛĮØ§ ÙĤ
Ø§ ÚĨ
Ø´Ú© ÛĮ
Ø¢ Ù¾
Ġval ue
ĠØ¯Ø± ÙĩØ§ÛĮ
ĠØ¨Ø§ Ù¾
ĠØ¢ÙĦ ØªÙĪ
or i
ĠØ§ØµÙĪÙĦ Ú¯Ø±Ø§
ĠØ¢ÙĨØ§Ø±Ø´ÛĮ Ø³Øª
Ø± ÙģÛĮ
ĠØ¨ ÙĪÛĮØ²
ÙĪÛĮ Ø¯ÛĮ
ĠØ§Ø³ÙĦØ§Ùħ Ø´ÙĩØ±
Ġair lines
ĠÚ©Ø§Ø³Øª ÛĮØ§
ert ain
ĠÙĨ Ø·
ĠØ§Ø³Øª Ø±ÛĮÙħ
ĠÚ¯ ÙĦØ³
it ch
ĠØ¢ÙħÙĪ Ø²ÛĮ
ĠÚ©Ø§ÙħÙ¾ Ø§ÛĮÙĦ
ĠØ²ÙĨÚ¯ ÙĨÙĩ
ĠØŃÙģØ§Ø¸ ØªÛĮ
ĠÚ¯ Øª
ĠØ³ÛĮ Ø²Ø¯ÙĩÙħÛĮÙĨ
ĠØ§Øµ ÙĪÙĦÛĮ
ĠØ³ÙĦ Ùģ
ĠÙģÙĦ Ø¯
ĠÙ¾Ø§Ø±Ú© ÛĮÙĨÚ¯
ĠÚ©Ø±ÙĪ Ø§Øª
ĠØ¯Ø¨ÛĮØ± Ø®Ø§ÙĨÙĩ
ĠÙĨÛĮØ§ Ú©Ø§ÙĨ
ĠØ¢Ùĩ ÙĪ
Ø¨ÙĦØ§ Ø³Øª
ĠØ§Ø³Øª ÙĪØ§
Ú¯Ø± Ùĩ
ĠÙħÙĪ Ø«
ĠØ´Ø¹ Ø§Ø±ÙĩØ§ÛĮ
Ġmar y
ĠÙģÛĮÙĦÛĮÙ¾ ÛĮÙĨÛĮ
ĠØ¨Ø±ÙĪÙħ ÙĨØ¯
ĠØ§ÙĨØ· Ø¨Ø§ÙĤ
c on
ĠØ¯ ØºØ¯
ĠØªØ± Ø´ÛĮ
ĠÙģÛĮ Ø§Øª
ĠØ³Ú© ÙĪ
ĠÚ©ÙĪÙħ ÙĪ
ĠÙĨÚ©Ø±Ø¯ ÙĨ
ĠØ§ÙĦÙĨ ØµØ±
ĠÙģÙĦØ§ÙĨØ¯ Ø±ÛĮ
Ú¯Ø§Ùĩ Ø±ØªØ²
ĠÚ©ÙĦÛĮ Ø¯ÙĩØ§ÛĮ
ĠØ¨Ø§Ø² Ø´Ø¯Ùĩ
Ġd ia
ĠØ¢Ø± ÙħÛĮÙĨ
ĠØ¹Ø²ÛĮ Ø²ÛĮ
ĠØ¨Ø±ÙĪÙħ ÙĪÛĮÚĨ
ĠØ¬ ÙĪÙĩ
ĠÙħØŃ ÙģÙĦ
ĠØ¨Ø¹ Ø¶Ø§
ĠØ³Ø¹ ÙĪØ¯
ĠØŃÛĮØ¯Ø± Ø¢Ø¨Ø§Ø¯
ĠØª Øª
id er
ĠØ³Ø±Ø¯ Ø±Ø¯
Ġeng land
ĠÙĨØº ÙħÙĩ
ĠØ¯Ø± ÙĪØ¯
ĠØ® Ø§ÙĦÙĩ
ĠÚ©ÙĦ ÙħÙĨ
Ø§Ø¦ ÙĪÙĦÙĪ
ĠØ®Ø¯ÙħØª Ú©Ø§Ø±
ĠØ±ÙĪØ³ Ù¾ÛĮ
ĠÙĤØ§Ø¦ ÙĨØ§Øª
ĠÙĨØ§Ø¦ Ø¨
t i
ĠÙ¾Ø± Ø±ÙĨÚ¯
Ġh r
Ġan al
ĠØ§ÛĮ Ø¬
ĠÙ¾ÛĮ Ø¬
ĠÙĨÛĮØ± ÙĪÛĮÛĮ
ĠÙħÙĪÙĨØª Ú¯ÙĪÙħØ±ÛĮ
ĠÙĪÛĮÚ© ØªÙĪØ±ÛĮ
ĠÙĨÙĪØªØ± ÙĪÙĨ
ĠØ§ÙĦÚ©ØªØ±ÛĮ Ø³ÛĮØªÙĩ
ĠØ´ÙĩØ± Ø¢
ĠØ¬ÙĦ ÙĪÛĮÛĮ
ĠØ¯Ø±Ø¢ Ùħ
c ul
Ø¨ ÙĪØª
ĠÙĨ Ø±Ø¯
ĠØ®ÙĪØ¯ Ø¢
Ġc ode
Ø³ØªØ± ÙĪÙħ
ĠØ³ÙĪÙħ Ø±ÛĮ
Ù¾ÙĦ Ø±
ĠØ§Ø³ØªÙĨ Ø¨Ø§Ø·
ĠØ± Ø¨Ø·
ĠØ´ ÙģÛĮØ¹ÛĮ
ĠÙģ Ø³Ø§
Øº Ø±ÛĮ
ĠØ¨Ø§Ø²ÛĮ ÙĩØ§ÛĮ
ĠÙ¾Ø± Ùħ
ĠÙĨÙĪ Ø§Ø±ÙĩØ§ÛĮ
ĠÙħØ§ÙĦ Ú©Ø§ÙĨ
ĠÙħØ§ÛĮ ÙĪØ±Ú©Ø§
ĠÙħÚ©Ø²ÛĮÚ© ÙĪ
ĠÙģØ±Ø³ØªØ§Ø¯ ÙĨØ¯
ĠÚ©ÙĦÙħ Ø¨ÛĮ
Ġcolle ge
ĠÚĨØ§Ø±ÙĦ ØªÙĪÙĨ
z h
ĠØ§ÙĪ Ø³ÛĮ
ĠØ³Ø± Ø§Ùħ
ĠÙ¾Ø±Øª ÙĪÛĮ
ĠØ¬Ø³ØªØ§Ø±ÙĨ ÙĪÛĮØ³Ø§ÙĨ
ĠÚ© Ø§ÙĦÙĩ
ĠÚ©ÙĦ ÛĮØ±
ĠÙħØ·Ø§ÙĦ Ø¨ÛĮ
ĠÙħØ² Ø§ÛĮØ§
Ġind ia
Ø³ÙĦÛĮ ÙħØ§ÙĨ
Ø§Ø³ Ú©
ĠØºÛĮØ± ÙħÙĨØª
ĠÙ¾Ø±ÙĪØª Ø¦ÛĮÙĨÛĮ
ĠÙĪØ§Ø± ÙĪÙĨ
Ġsh ift
ĠÙģÙĪÙĦ Ú©Ø³
ĠÙħØ·Ø¨ÙĪ Ø¹
ĠÛĮÙĪÙĩ Ø§ÙĨØ³
ĠÙĩ ÙĪÙĩ
ĠÚ©ÙĨ Ø±Ø§Ø¯
ĠØ³Ø± Ù¾ÙĪ
Ġb ul
ĠØ¬Ø¯ÛĮØ¯ ØªØ±
ĠÙħØ®Ø±ÙĪ Ø·
ĠØ¯Ø± Ú¯Ø²
Ùģ ÙĪØ³
ĠÙħØª ÙĪÙĦÛĮ
Ø§Ù¾ ÙĪ
ĠØ§ÙĦØ³ÙĦ Ø§Ùħ
ĠÙħÙĪØ³ÛĮÙĤ ÛĮØ¯Ø§ÙĨ
ĠÙģØ±ÙĨÚĨ Ø§ÛĮØ²
ĠÙħØ³ Ø§ÙĦ
ĠÚĺ ÙĪØ±Ø§Ø³
ĠØ±ÙĪØ² Ø§Ùģ
ĠØªØ¦ ÙĪØ¯
ĠÙĪØ³ Ø§Ø²
ĠØ¨Ú¯ÛĮØ± ÛĮÙħ
ĠÙĪØ§Ú¯ ÙĨØ±
ĠØ¯ÛĮØ±ÛĮÙĨ Ú¯ÛĮ
ĠØ¯ÙħÚ©Ø±Ø§Øª ÛĮÚ©
Ø¨ ÙĪØ³
ÙĪØª Ø±Ø§Ù¾ÛĮ
Ø¨ÛĮ Ø²
Ġf act
ÙĬ Øª
ĠÙ¾ÙĨÚ¯ ÙĪØ¦ÙĨ
ĠÚ©Ø§Ø± Ø®Ø§ÙĨ
Ġf em
ĠØ³ÙĨÚ¯ Ø±
ad i
ĠÙ¾ÙĨØ§Ùĩ ÙĨØ¯Ú¯ÛĮ
ĠÚ¯ ÙĪÙĨÚ¯
ĠØ³Ø± Ú¯Ø±Ø¯Ø§ÙĨ
Ġgu ide
ĠÙ¾ ÙĪÙĨØª
Ø±ÛĮ ÙĤÛĮ
ĠØŃ ÙĪØ²
ĠÙħØ¹ ÙĨØ§Ø³Øª
ĠØ§Ú© Ø±
ĠØ¢ÙĦØ¨ Ø§ÙĨÛĮØ§ÛĮÛĮ
ĠØ§ÙħØ±ÛĮÚ© Ø§
ĠØ¹Ø§Ø¯ÙĦ Ø§ÙĨÙĩ
Ø¦ ÛĮÙĦ
Ġth ree
ĠÛĮ Ø§Øª
ĠÙħØ¬ Ø§ÙĦØ³
ĠØ¬Ùħ ÙĦØ§Øª
ĠÙģØ¹Ø§ÙĦÛĮØª Ø´
ÙĦØ§Ø· ÛĮÙĨ
ĠØ§ÙĪÛĮ Øº
Ġcolle ction
ĠÚ©Ø«ÛĮ Ùģ
d uc
ĠØ¨ Ø´Ø§Ø±
ĠÙħ Ø§ÙĨÙĩ
ĠØ§Ø³ Ú©Ø³
Ø§ÙĨØ³ Ø§ÙĨÛĮ
t o
ĠØ¢Ø¨ Ø¬ÙĪ
ĠØ²Ø¯ Ú¯ÛĮ
Ġan c
Ø§Ùĩ Ø§ÙĨ
ĠØ§Ùĩ ÙĪØ±
ĠØ³Ø± ÙĪØ§ÙĨ
an um
Ø§Ø´ Ø§
ĠÙĨÙĩ Ø§Ø¯ÛĮ
ĠØ§Ø¨ ÙĩØ±
ĠÛĮÙĪ Ø¬ÛĮÙĨ
ĠØ§Ø³ØªØ« ÙĨØ§ÛĮÛĮ
Ġs ab
Ġd h
ag on
ac he
ĠØ§Ø±Ø¯ Ø¨ÛĮÙĦÛĮ
ĠÚ©Ø¯ Ú¯Ø°Ø§Ø±ÛĮ
ĠØ¯Ø±Ø®Øª ÚĨÙĩ
Ġo pt
Ġre ad
ĠÚ©ÙĨÚ¯ ÛĮ
ĠØªÙĪÙħ ÛĮØª
Ġfl or
ĠÙħÛĮÚ©Ø±ÙĪ Ø¨
ĠÙĤØ´ ÙĦØ§ÙĤ
ÙĤ Ø·
Ġn p
ĠØ¢Ø±Ø§ÛĮ Ø´ÛĮ
Ø³ ÙĪÛĮ
ĠÙĩ ÙĪÙħÙĨ
ĠØª Ø§Ø²ÛĮ
ÛĮÙĨ Ø³Ú©ÛĮ
ĠØ§Ø³Øª ÙĨØª
ĠÙħØ´ Ø¹ÙĦ
ĠÙ¾Ø¯Ø± Ø®ÙĪØ§ÙĨØ¯Ùĩ
ĠÙħØ¤ Ø«Ø±ÛĮ
ĠÙģØ±Ø§ÛĮ ÙĨØ¯ÙĩØ§
ĠØ§ÛĮÙĨ ÚĨÛĮ
ÙĪØª ÙĪÙħÛĮ
ĠØ§Øµ ÙĪÙĦØ§
ik a
ĠÙ¾Ø§Ø³Ø® Ú¯ÙĪÛĮÛĮ
ĠØ§ÙĪÚ© ÙĦÙĨØ¯
Ġbro wn
ÙĪÚĺ Ø§ÙĨ
ĠÙħØ¸ÙģØ± Ø§ÙĦØ¯ÛĮÙĨ
ĠÙ¾Ø¯Ø§Ùģ ÙĨØ¯
ĠÚĺÙĪØ±Ø§Ø³ ÛĮÚ©
ĠÙħÙĪ Ø¬ÛĮ
ĠÙģÛĮ Ø¬ÛĮ
ĠØ¬Ø¯Ø§ ÙĪÙĦ
Ġinter view
ÙĪØ´ Ø§
ĠØ±ÙĪØ§ÙĨ Ø¯Ø§
ĠØ¨Ø±Ø§Ø¯ ÙģÙĪØ±Ø¯
Ġlou is
Ġchampionship s
ĠØ¢ØªØ§ÙĦ Ø§ÙĨØªØ§
ĠØ´ ÛĮÙĦØ¯
ØŃ Ùħ
ĠØ¯ÙĪØ± Ú¯Ùĩ
ĠØ¨ÛĮÙĨ Ø´
ĠÙħØ´ ÛĮØ±
ĠÚ©Ø§Ø±ÛĮ Ø²
ĠØ±Ø³ÙĪØ¨ Ø§Øª
ĠØ¨Ø²ÙĨ ÙĨØ¯
ĠØ¯ ÙħÛĮ
ĠÙĨ Ø§Ø¬
ĠØ³Ø§ÙĦ Ø±
ĠØ§ÙĦ ÙĪÙĨØ¯
ĠØ¹Ùħ Ùĩ
ell i
olog ical
ĠÙĨ Ø§ÛĮÙĦ
ĠÙ¾ Ø§Ø¨ÙĦÙĪ
ĠØ¨Ø± ÙĨÙĪ
Ġg ames
ĠØŃØ³ Ø§Ø¨Ø±
ĠØ§ÛĮÙĦ Ø§ÙħÛĮ
Ġcaliforn ia
ĠØ¯ØºØ¯ ØºÙĩ
ĠÚĨ ÛĮØ±
ĠØŃÚ© ÙħÛĮ
ĠØ± ÙĤÛĮ
ĠØ¨Ùĩ Ø§Ø¯Ø±
ĠØ¹ Ø²ÛĮÙħ
ÙĪÙħ ÙĪÙĨ
ĠØ§Ùħ ÙĪÛĮ
ĠÙ¾Ø³Ø± Ø§ÙĨÙĩ
ĠÙĪÛĮØª ÙĨ
ĠØ¢Ú©ÙĪØ§Ø±ÛĮ ÙĪÙħ
Ø² ÙĪÙĨÛĮ
ÙĨØ§ Ø³ÛĮÙĪÙĨ
ĠØ³ÛĮ Ø§Ø±Ø§Øª
ĠÙħØ³Ø¦ ÙĪÙĦÛĮÙĨ
ĠØ§ÙħÛĮÙĨ Ùħ
ĠØºÛĮØ±ÙĨØ¸Ø§ÙħÛĮ Ø§ÙĨ
ĠÙħØŃØªÙĪÛĮ Ø§Øª
Õ µ
ĠØ§ÙĨ Ú©
ĠÙħØ¹ Ø±ÙĪ
ĠØªØŃ Ø±ÛĮÙģ
ĠÐ ´
Ø¯ ÛĮÙĦ
ĠØ±Ø¦ÛĮØ³ Ùĩ
ĠÚĨÙĩØ§Ø±Ø¯Ùĩ ÙħÛĮÙĨ
ĠØºÛĮØ±ÙħÙĨØª Ø¸Ø±Ùĩ
Ġ ess
ĠÙģØ± ÙĪØ³
ĠØ« Ø§Ø¨ØªÛĮ
ĠÚ©ÛĮ Ø®Ø³Ø±ÙĪ
ĠØªØ´Ø®ÛĮ ØµÛĮ
ĠØ§ÙĦØ¬Ø² Ø§ÛĮØ±ÛĮ
ĠØ§ÙĦ Ú©Ø³ÛĮ
Ġc all
ĠÙħØ¹Ø· ÙĪÙģ
ØªÛĮ ÙĪÙħ
Ø§Ú© Ø³ÛĮ
ĠØ¢ÙĦ ÙĪ
Ġd in
Ġd yn
Ġst ev
ĠØ¯ÙĪÙħÛĮÙĨ ÛĮÚ©
Ġpr inc
Ġmat hemat
ĠØªØ§ÛĮÛĮØ¯ Ø´Ø¯Ùĩ
ĠØ®ÙĪØ´Ø¨ Ø®ØªÛĮ
ĠØ³Ø± ÙģØ±Ø§Ø²
ĠØ§Ø¬ ÙħØ§ÙĦÛĮ
ĠØªÛĮ Ø§ÙĨ
ĠÙħÛĮÙĨ ÙĪ
ĠÙĤØ´ ÙĪÙĨ
Ġgerman y
ĠÙĪ ØŃÛĮ
ĠØªÙĪ Ø¨Ùĩ
ĠØ¯Ø§ÙĨ Ú¯
ĠØ¨ÛĮÙĨ ÙĨØ¯Ú¯Ø§ÙĨ
Ġf u
Ġb on
ĠØ³Ø§Ùħ Ø§ÙĨÛĮ
ĠØ³Ø±Ø¯ Ø¨ÛĮØ±ÛĮ
ĠØªÙĩÙħ Ø§Ø³Ø¨
Ġm n
ĠÙĪÙĦ Ø²ÛĮ
ĠØ§ÛĮÙĦ Ø®Ø§ÙĨ
ĠÚ©Ø±ÙĪ Ø¨ÛĮ
ĠÙģØ§ Ø³ØªØ±
ĠØ§Ø³Ù¾Ø§ÙĨÛĮ ÙĪÙĦ
Øª Ø§ÛĮÛĮ
ĠØ¨Ùĩ Ø§ÛĮ
Ø§Ø¨ ÙĪ
Ø±Ø§ Ø¡
ĠØ§Ùģ Ø´Ø§ÛĮ
Ù¾ÛĮ ÙĪÙĨ
ĠÙģÙĦ ÙĪØª
Ø±Ø®ÙĪ Ø§ÙĩÛĮ
ÙĪ Ú¯ÙĦ
ĠÙĪØ± ÙĪÙĨ
ĠØ¬ÙĪ ÙĦÛĮØ§ÙĨ
ÙĦÙĪ Ùģ
ĠÚ©Ø§ÙĦ Ø¯
ÙĪÙ¾ ÙĪÙĦ
ĠÙ¾Ø§Ø³ Ø®ÛĮ
ĠÚ¯ÛĮÙĦ ÙħÙĪØ±
ĠÙħØ§Ø±ÛĮ ÙĪÙĨ
ĠÙĨØ± ÙģØª
ĠÙħØ§Ú© Ø³ÛĮÙħ
ĠÙĦÙĪØ± ÙĨØ²ÙĪ
Ġfun ction
Ġepis ode
ĠØ¯ ÙģØª
ĠÙħØ¬ ÛĮØ¯ÛĮ
ĠÚ©Ø§ÙĨ ÙĪÙĨÛĮ
ĠÙĨÙĩ ÙģØªÙĩ
ĠÙĤØ§Ø¨ ÙĪØ³
ĠØ¨ÙĪÙĩ Ùħ
ĠØŃØ§Ø¦ Ø±ÛĮ
ĠØ³ÙħÙ¾ Ø¯
ĠÙģ ÙĪÙħÙĨ
er i
ĠÙħÙĨØª Ø³Ø¨
ĠØ§ÙĦÙĦÙĩ ÛĮ
ĠØ³ÛĮØ± Ú©
Ø§ÙħÛĮØ¯ ÙĨÛĮ
Ùħ ÙĪØª
ĠÚ¯ ÛĮÙĨ
ĠØ§ÙĨ ÙĪØ±
ĠÙħÙħ ÙģÛĮØ³
ĠÙħØ³Ø§ Ø¹Ø¯
ÙģØªØ± ÛĮÙĨ
Ġwh at
bo ok
ĠÙ¾ÛĮ Ø²
ĠÚ©Ø± ÙħÛĮ
ĠØ¨ÙĨ Ú©
ĠØ¢Øº ÙĪØ´
Ġu pr
Ġorg an
ĠÙ¾ÙĪØ±Øª Ø³
ĠØ§Ø¹Ùħ Ø§ÙĤ
ĠØ¨Ø§Ø²Ú¯Ø±Ø¯Ø§ÙĨ Ø¯Ùĩ
z i
ĠØ´Ø¯ Ú¯ÛĮ
ĠÙħØ¯ ÙģÙĪØ¹
ĠØ¢ÙĦ Ø²Ø§ÛĮ
Ø§ÙĪØ± Ø§ÙĨ
ĠÙĪØ¶Ø¹ÛĮØª ÛĮ
ĠÙģØª ØŃÛĮ
ĠØ¨Ø§Ùĩ Ø§ÙħØ§
ĠØªÙĨØ¨ Ø§Ú©ÙĪ
d i
ĠØ± Ø³ØªÙĩ
ĠØ® Ø§ÙħÙĩ
ĠÙģØ± Ø¢ÙĪØ±ÛĮ
Ġw o
Ø±Ø§Ø¦ ÛĮ
ĠØŃÙĪ Ø§Ø³
ĠÚ©Ø§ÙĦÛĮÙģØ± ÙĨÛĮØ§ÛĮ
ĠÙħÙĪÙĤØ¹ÛĮØª ÛĮ
Ġse a
ĠÕ °
ĠØ¹ Ø§ÙĤ
ĠÙħØª Ø²
ĠØ¨Ø±Ø§ÛĮ ÙĨ
ĠÙĨÛĮ Ø¬Ø±
ĠØªÙĪØ§ÙĨ ÙħÙĨØ¯
ĠÙ¾Ø¯Ø± Ø§ÙĨ
ĠØ§Ø¯ÙĪØ§Ø±Ø¯ Ø²
ĠØ®Ø§ÙĨÙĤ Ø§Ùĩ
Ø´ ÙĪØ±
ĠÙħÙĤ ØµØ±
ĠÙ¾Ø§Ø±Ú© ÛĮÙĨØ³ÙĪÙĨ
ĠÛĮ ÙĪÙĦ
ĠØ§Ø´ ÙĦÛĮ
ĠØªØ¹ ØµØ¨
ÙĨØª Ø§ÙĦ
ĠÙħØ§ÙĦ Ø§ÛĮ
ĠÙħÛĮÙĩ ÙĨÛĮ
ĠØ±ÙĪÛĮÚ©Ø± Ø¯ÙĩØ§ÛĮ
ÛĮÚ© Ø±
ĠÚ©ÙĨÛĮ Ø³Ùĩ
ĠÙħØ¹Øµ ÙĪÙħ
ĠØ§ÙĦØ§ ÙĪÙĦ
ĠÙĦØ±Ø² Ø´
ĠØ¨Ø§ Ø¯ÙĩØ§ÛĮ
al is
ĠØ±ÙĤ Ø¨Ø§ÛĮ
ĠØ´ÙĨØ§Ø³ Ø¯
ĠÙĤØ·Ø¹ Ø§
ĠÛĮØ²Ø¯ Ø§ÙĨÛĮ
ĠØªØ¹ÙĩØ¯ Ø§Øª
ĠÙħØ±Ø¹ Ø´ÛĮ
ĠÚ© Ø§ØªÛĮ
ĠÙĪ Ùħ
ÙĨÙĪ Ø´
Ġn n
Ø¦ÛĮ Ø§ÙĨ
Ġon ly
Ù¾Ø§ÙĨ ÚĨÙĩ
ĠÙĩ Ú¯Ø²
ĠÙĨ ÙĨÚ¯
ĠÙģ Ø³ÛĮÙĦÛĮ
in n
ĠØ§ÙĪØª Ø§Ø±
ĠÙħØ±Øª Ø¶ÙĪÛĮ
ĠØªØ¬Ø¯ÛĮØ¯ Ù¾Ø°ÛĮØ±
ĠØ§ÙĦ ØªÙĪ
ĠÙħØ´ Ú¯ÛĮÙĨ
Ġk ore
ĠÙĤØ¨ ÙĦÙĩ
ie f
ĠÚ©ÙħÛĮ Ø³Ø±
ĠÙĩÙħØ³ Ø±ÛĮ
Ġdep art
Ùģ Ø±Ø§
Ġm ost
Ġj er
Ġr en
Ø¨Ø¯ Ø§ÙĨ
Ø³ÙĪ Ø§Ø±Ø§ÙĨ
Ġroy al
Ùģ Ø±ÛĮØ¯
ĠÙģ Ø¯Ø§
ĠØ¨Ø§Ùĩ ÙĪØ´
c us
ĠØ³ ÙĪÛĮÙĩ
ĠÚ©ÙĪ Ø¨Ø§ÛĮÛĮ
ĠÙĩÛĮ Ø¨Ø±ÛĮ
Ø³ØªÛĮ Ø²ÛĮ
ĠÙģØ±Ø² Ø§ÙĨÙĩ
ĠÚ¯ÚĨ Ø³Ø§Ø±Ø§ÙĨ
r as
ĠÙħÛĮ Ø¨Ø¯
Ø³ÛĮ ØªÛĮ
ĠÙĪØ¬ÙĪØ¯ ÛĮ
ĠÙ¾ÙĦÛĮ ÙħÙĪØ«
ĠØ§ÙĪØ¯ Ø³Ø§
ĠÛĮØ§Ú© ÙĪØ¨
ĠÚĨÛĮØ¯ ÙħØ§ÙĨ
ĠÙ¾ ÙĪØ³ÛĮ
ĠÙĪÛĮ Ø§Ø±
ĠØ´ÛĮ Ø²
ĠØ´Ø¨ Ø³ØªØ§ÙĨ
ĠÙĩØ§Ø± ÙħÙĪÙĨÛĮ
ĠØ¯ÙĩÙĤØ§ÙĨ Ø§ÙĨ
ĠÙĩ Ù¾Ø§Øª
ĠØ§Ø³Øª Ø§Ùģ
it es
ĠØ¨ÙĪØ± Ø³ÛĮÙĩ
Ġcon n
ĠØ§ØµØ· Ú©Ø§Ú©
Ø±ÙĪ Ù¾ÛĮ
Ø« Ø§ÙĦ
ĠØ²ÛĮ Ø³ØªÙĩ
ĠÙĨÙĪØ¬ÙĪØ§ÙĨ Ø§ÙĨÙĩ
ĠÙĨØ§Ùĩ ÙħÙĪ
ĠØ¢ÙĦØ²Ø§ÛĮ ÙħØ±
ĠØ§Ø³Øª Ø§Ø±Øª
ÙĪÙ¾ Ø§ØªÛĮ
ĠØµØŃ Ø§Ø¨Ùĩ
ĠØ¹Ø¨Ø¯Ø§ÙĦ Ø±Ø¶Ø§
ĠØ¢Ø´ Ø§ÙħÛĮØ¯ÙĨÛĮ
ĠÙĨØ®ÙĪ Ø§ÙĩÙĨØ¯
ĠÚ¯ÙĪÛĮ Ø´ÛĮ
Ùģ Ø§ÙĨÙĩ
ĠØ¢ Ù¾Ø§
ĠÙ¾ Ø§Ø¨Ø±
Ø§ÛĮØ´ Ø§ÙĨ
ĠÙħÙĪØ¶ÙĪØ¹ Ø§ØªÛĮ
ĠÙĨØ¨Ø§Ø´ ÙĨØ¯
ĠØ±ÙĨÚ¯Ø§Ø± ÙĨÚ¯
ĠØ¹Ø²ÛĮÙħ Øª
ĠÚ© ÙĪØ±Ú©
ĠÚ¯ Ø¬Ø±
ĠÙ¾ÛĮ Ø§ÙĨ
Ġm h
ĠÙĨØ§ Ø¸
um p
ĠØ¹Ø´ Ø§ÛĮØ±ÛĮ
ĠÙħÛĮØª Ø³ÙĪ
ĠØ³Ø±Ø² ÙĨØ´
ĠÚ©Ø¨ÛĮ Ø³Ùĩ
ĠØ³ÙħÙ¾Ø¯ ÙĪØ±ÛĮØ§
ĠØªØ±ÙĪ Ø§
ĠÙħÛĮ Ú¯ÙĦ
ĠØ¢ÙĨ ØªÙĪØ±Ù¾
ĠØ¨ÙĨÛĮ Ø§ÙħÛĮÙĨ
Ġor ient
ĠÙĤÙĪØ§ÙĨ ÛĮÙĨÛĮ
ĠÙ¾ÛĮÙħ Ø§ÛĮØ´
ÙĨ Ø«
ĠØ¯ÙĪ Øº
Ġb ase
Ġg b
Ġn am
ĠØ³ÙĨ Ø³ÙĪØ±
Ġe y
ĠØ§ÛĮØ³ ÙĨØ§
ĠØ¨ ÙĪØ±ÛĮ
ĠØ¢ Ø¯Ø§
ĠØ¯Ø§Ø± Ø§ÙĦÙģ
ĠØ³Ø± Ø¹ØªÛĮ
ĠØ³Øª ÙĪØ¯Ùĩ
ĠÚ¯Ø²Ø§Ø±Ø´ Ú¯Ø±
ĠÙ¾ÚĺÙĪÙĩ Ø§ÙĨ
pl ay
ĠØ´ Ø§Ú©
Ø±Ø§ Ø¬ÛĮ
Ġk im
ĠÚ©ÛĮ Ø§ÙĨÚ¯
ĠØ¹Ú© Ø³ÛĮ
ĠØ¨Ø±ÙĨ Ø²ÛĮ
ĠØ¹Ø· Ø§Ø±
ĠÚ¯Ø°Ø±Ø§ÙĨ Ø¯Ùĩ
Ã ¥
ĠØ±Ø§ Ø¦ÙĪÙĦ
ÙĪÙĦ ÛĮÚ©ÛĮ
ĠÙħØª ÙħÙħ
ĠÙĨÙĪ Ø´ÙĩØ±
le ct
ĠØ¢Ø° ÛĮÙĨ
ĠÚ©ÙħØ§ÙĨ Ø¯Ø§Ø±Ø§ÙĨ
Ġamer ica
Ġreg ion
ĠØ¨ Ø´ÙħØ§Ø±
ĠØ§ÛĮ ÙĪØ¨
el y
ÙĨØ³ ÙĪÙĦ
Ġhen ry
d om
ÙĪÙĨ Ø³
ĠØ² Ø´Øª
ĠØ¢Ø´ ÙĪØ±ÛĮØ§ÙĨ
ĠØ³ÙĤ Ø±Ø§Ø·
al th
ĠØ¨Øª ÙĨÛĮ
ĠÚ¯ÙĪÙĨ Ø²
ĠÙħØŃØªÙħ ÙĦ
i os
ĠØ§ÙĦ ÙħØ±
ĠØ³ÙĨ Ø³
ĠØ¬Ø± ÙĤÙĩ
ĠØ¯ÙĪÙĨ ÙģØ±Ùĩ
ĠÙħØ±ÛĮ ÙĪØ§ÙĨ
ĠÙ¾Ø±ØªØ§Ø¨ Ú¯Ø±
ĠØ¹Ø° Ø±Ø®ÙĪØ§ÙĩÛĮ
ĠÙĤØ§Ø¹Ø¯ Ú¯ÛĮ
Ø§ ÙĪØ±ÛĮ
ĠØª ÙħÛĮ
ĠØ¨ÛĮ ÙĪÚ¯Ø±Ø§ÙģÛĮ
Ġb all
ĠÚ©Ø§Ø¨ ÙĪØ³
ĠØ§ÙĨØ¨ Ø§Ø±ÙĩØ§ÛĮ
Ġmod el
ĠÙħØªÙĤØ§ Ø¶ÛĮ
Ġang el
ĠØ´ ÙħØ§ÛĮ
ĠØ±ÙĪ Ø§ÛĮÛĮ
ĠÙħÙĪ Ø«Ø±
ĠÚ©Ø§ÙĨ Ø§Ú¯Ø§ÙĪØ§
ĠÚ¯ÙĪ Ø§Ø±Ø´ÛĮ
ĠÙħØ±Ø§ Ú©Ø´ÛĮ
ÙĪØ³Øª Ø§
ect ure
Ġfin al
ĠØ§Ø±ØªØ¹ Ø§Ø´
ĠØºÛĮØ±Ø® Ø·ÛĮ
ĠØª ÙĪÛĮØ³
ĠØ¯ÙĪØ± ØªØ±
ĠÙ¾Ø³ Ø§
ĠÚ¯ÙģØª Ú¯
ĠÙĪØ§Ú©ÙĨ Ø´ÛĮ
ĠÙĤØ·Ø¹ Ø§ØªÛĮ
ĠØ¹Ø¬ Ø§ÛĮØ¨
ĠÙħØ¹ Ø§ÙĦ
ĠÚ¯ÛĮÙĦ Ø§ÙĨÛĮ
ĠØ¬ÙĪØ± Ø§Ø¨
ĠØªØ§Ùħ Ø³ÙĪÙĨ
ĠÙĦÙĪÚ©ÙĪÙħÙĪØªÛĮ ÙĪÙĩØ§ÛĮ
Ġengine ering
ĠØ³ ÙĦØ§Ø·ÛĮÙĨ
ĠØ² Ø§ÙĦ
ĠØ§ÙĨ ØµØ§Ø±
ĠØªÙĪ Ø¨
ĠØ¨Ø§Ø´ Ùħ
ĠÙĤØ§ÙĨ Ø¹
ĠØ¹ÙĤ Ø±Ø¨
ĠÚ¯Ø±Ùħ Ø³Ø§Ø±
ĠØ§Ù¾ ÙĪØ²ÛĮØ³ÛĮÙĪÙĨ
qu es
ĠÚ©Ø³Ø± ÙĪÛĮ
ĠØ± Ú¯Ø±
ĠÙģ ÙĪØ±Ø§
ĠØ² Ú©
Ġp v
ĠØ¨Ø®Ø´ Ø´
ĠÙ¾ÙĪØ´ Ø§ÙĨØ¯
ĠØ¨ÙĩØ¨Ùĩ Ø§ÙĨÛĮ
ĠÙħØ§Ø¨ ÙĤÛĮ
ĠØª ÛĮØ±ÛĮ
ĠØ¨ÙĪØ¯ ÛĮÙħ
ĠØ¨ ÙħÛĮØ±
ĠØ´ÙĩØ± Ú©ÛĮ
ĠÙĨÙĪ Ø¬
al i
Ø² ÛĮØª
ĠØ±ÙĪ ÙĩØ§ÛĮ
ĠÙħØ¯ Ø§Ø±Ø§ÙĨ
ĠØ¯ÙĪ Ú¯Ø§ÙĨ
ĠÚ¯ÙģØª Ùħ
ĠÙĦÙĪ Ú¯ÙĪÛĮ
ĠØ§ÛĮ Ø¨Ø§Ø±
ĠÙģÛĮÙĦÙħ Ø³Ø§Ø²
Ġm ore
ĠÙĨØ® ÙĪØ¯
ĠÚ©Ø§ Ø°Ø¨
d s
ĠØ¯Ø± Ø²
ĠÙģ Ø§Ø¦
ĠØ¢ÙĨ ÚĺÛĮ
ĠØ· Ø§Ø¹
ĠÙĨÛĮ ÚĨÙĩ
ĠØ§Ø³Ù¾ Ø±Øª
ĠÙħØ§Ø± ÛĮÙĨÙĪ
ĠØªÙģØ§ÙĪØª ÛĮ
ĠØ¨Ø¯Ø® Ø´Ø§ÙĨ
Ø² Ø§Ø³ÛĮÙĪÙĨ
ĠÙ¾ Ø§Ø³ÛĮ
ĠÚ¯ ÙĪÚ©
ÚĨ ÙĪÙĨ
ĠÙħÛĮÙĦ ØªÙĪÙĨ
Ġt ower
Ġl iv
ĠØ§Ø¨ÙĪ Ø·Ø§ÙĦØ¨
ĠØª ÙĨØ¯ÛĮ
ĠÙħÙĨ Ø§Ùģ
ĠÚĨ ÙĪÚ©
Ø®Øª Ú¯ÛĮ
ĠØ· ØºÛĮØ§ÙĨ
ĠÙĨØ® ÙĪØ±Ø¯Ùĩ
ĠÙħØ³Ø¬Ø¯ Ø³ÙĦÛĮÙħØ§ÙĨ
ĠÙħÙħØ§ÙĨ Ø¹Øª
ĠØ§Ø³ ÙĦØ§
ĠØ¨ÛĮ ÙĪØª
ĠØ³Ø± Ø®ÛĮ
Ġm edia
ĠÚĺØ§ÙĨ Ú¯
ĠÙģØ±Ø§ÙĨÚĨ Ø³Ú©ÙĪ
Ġs om
ĠØ³Ø±Ù¾ÙĪ Ø´ÛĮØ¯Ùĩ
ĠØ¨ Ø§Ø±ÙĩØ§ÛĮ
ĠØ§Ùģ ÙĪÙĦ
Ġg m
ĠØ¨Ø¯ÛĮ ÙĩÛĮ
ÙħØ±Ø¯ Ø§ÙĨ
ĠÚ¯ÙĪÚ¯ ÙĪØ±ÛĮÙĪ
ØŃ Ø±
ĠÙĪ Ø§ØªÛĮÚ©
Ø§Ø´ Ø±
ĠÚ¯Ø±Ø¯ ÛĮ
ch a
ĠØ³Ùģ ÛĮÙĨÙĩ
ĠØ·Ø±ÛĮÙĤ Øª
Ġse e
ĠÙĨØ§Øª Ø§ÙĨ
u i
ÙħÙĪ Ùģ
ĠØ§Ùģ Ú©Ø§Ø±ÛĮ
Ġr g
ĠØ³ÙĪ Ø´ÛĮ
ĠÙģØ±Ø¯ Ø±ÛĮØ´
ĠØªÙħØ§Ùħ Ø§
ian s
ĠØ³ÙĪØ² Ø§ÙĨØ¯ÙĨ
ĠÙĩØ§ Ú¯
ĠÚĨ Ø±ÛĮ
ÙĪØ¦ ÛĮÙĩ
Ġw ash
ĠØ¨Ø§ÙĦ Ø§Ø¯
ĠØ¹Ø±ÙĪ Ø³Ú©ÛĮ
ĠÙĨØ§Ù¾Ø§ÛĮØ¯ Ø§Ø±
ĠÙģØ± ÙħÛĮ
ĠØªØ§ ÙĤ
Ġt t
ĠØ§ÙĦÙħ ÙĪØª
ĠÙ¾ÙĪØ´ Ø§ÙĨ
ĠØ¯ÛĮØ± Ø¨Ø§Ø²
ĠÙĨ Ø·ÙĨ
Ø®Øª Ø§Ø±ÛĮ
ĠÙĦ Ø§ÙĪØ±
ĠÙĨÙĪ ÙĪØ§
ĠÙħØ±Ú© ÙĪØ±ÛĮ
ĠØªØ¨ Ø¹ÛĮØª
ĠØ±Ø¢ Ú©ØªÙĪØ±
Û ķ
ĠØ¯ ÙĦÙĪ
Ø§Øª Ø±ÛĮ
ĠÙħØ¯ÛĮØ± Ú©ÙĦ
ĠØªØ´ Ø¨ÛĮÙĩ
ĠÙħÙĪØªÙĪØ±ÛĮ Ø²Ùĩ
ĠØºÛĮØ±ÙħØ¹ ÙħÙĪÙĦ
ĠÚ©Ø§Ø±Ø®Ø§ÙĨ Ø¬Ø§Øª
Ø³Øª Ø±Ø§
ĠÙħÛĮ Ø³Ø±
ĠØªÙĪ ÙģØ§ÙĨ
ĠÙ¾Ø± Ø·Ø±Ùģ
ĠØ¨Ø® ÙĪØ§ÙĨØ¯
Ġy our
Ġpro cess
ĠÚ©ÙĦØ§Ùĩ Ú©
ĠØ¨ Ø«
Ø¹ ÙĪ
ĠÚĨ ÛĮØ³
ĠÚ©Ùħ Ø¨ÙĪ
Ġte hran
Ġas h
ĠÚ©Ø§Ø³Øª Ø±ÙĪ
ĠØ²Ø§Ùħ Ø¨ÛĮØ§
Ġmos que
ĠØ§ÙĦÙħÙ¾ÛĮ Ø§Ø¯
Ø´ ÙĪÙĤ
ÛĮÙĨ Ú©
ĠÙħÛĮ Ø±Ø§ÙĨ
Ø´ÛĮ Ù¾
ĠÙħÙĤ ÙĪÙĦÙĩ
Ġst an
ĠØ¹ÙħÙĦ Ú©Ø±Ø¯ÙĩØ§ÛĮ
ĠØ¢ ÙģÛĮØ³
ĠÚ¯ ÙħÙĨ
ĠØ§ÙĨÚ¯ Ø´ØªÛĮ
ĠÚ©Ø§ ÙĪÙĨØªØ±ÛĮ
ĠØ¯ÛĮÙĦ ÙħÛĮ
ĠØªØ¨Ø± Ø¦Ùĩ
Ø³ ÙĦØ§
ĠÚ© ÙģØ±
ĠØ¯Ø± Ø¨Ø±Ø¯
ĠØ¨Ø±Ø§ÛĮ Ø´Ø§ÙĨ
Ġr n
ĠØ¬ÙĪ Ø§Ø±
ol i
Ø§ÛĮ Ø§ÙħØ§
Ø¹ Ùħ
ÙĨØ§ÙĨ Ú¯
ĠÙħÚ© ÛĮ
ĠØªØ³ Ø±ÛĮØ¹
ĠØºÛĮØ±Ùħ Ø¬Ø§Ø²
ĠØ¢ÙĦÙĪÙħ ÛĮÙĨ
ĠØ³ ÛĮÙĨÛĮ
ĠØ· Ø§ÙĪÙĪØ³
ĠØªÛĮÙħ Ø´
ĠØ¹ÙĦ ÙĪÛĮØ§ÙĨ
ĠØ±ÙĪØ´ ÙĨÚ¯Ø±ÛĮ
ĠÙĦÛĮÙĨ ÚĨ
ĠÙĪØ§ÛĮÙĦ Ø¯
ÙĨ Ùģ
ĠØ® ÛĮØ±Ùĩ
ĠÙĨÙĪ Ø§Ø±ÛĮ
Ġf d
Ġg ran
ĠØ±ÛĮ Ø¬
ĠØ³Ø±Ø§ Ø¬
ĠØ³Ø§ÙĨØª Ø§ÙĨØ¯Ø±
ĠÚ©ÙĦØ§ ÙĪØ³
ĠØ±Ùģ Ø§ÙĩÛĮ
ĠÙħÙĨØ§Ø² ÙĦ
ĠÚĺØ§ÙĨØ¯ Ø§Ø±Ùħ
s ter
ĠÙĩ Ø±Ø§
ÙĪÙĩ ÛĮØ¯
Ġe f
ĠÙħØ±Ø§Øª Ø¹
ĠØ¯Ø§ÛĮÙĨØ§Ø³ ÙĪØ±ÙĩØ§ÛĮ
ĠØ² ÙĨÚ¯ÛĮ
and a
ĠÙħØ§Ø¯Ø± Ø²Ø§Ø¯ÛĮ
ĠØ§Ø¹ØªÙĤ Ø§Ø¯ÛĮ
ĠØºÛĮØ§ Ø«
ĠÚ©Ø§Ø±Ø¯ÛĮÙĨ Ø§ÙĦ
ÙģØª ØŃ
ĠØ±ÙĪ Úĺ
Ġf eder
un a
ĠÙ¾Ø§Ø± Ø³Ø§
ĠØªØ® ÛĮÙĦ
ak i
ĠØ¨Ø±Ø®ÙĪØ±Ø¯Ø§Ø± ÙĨØ¯
ĠÙħØµØ¯ ÙĪÙħÛĮØª
Ø³ ÙĪØª
ĠØ¨ Ø·ÙĨ
ĠÙħØ¹ Ø±Ùģ
ĠØ³Ø± ÙĪØªÙĪÙĨ
ĠØ¢Ø± ÙħÙĨ
ĠØ´Ø§Ùĩ Ø¯Ø§ÙĨ
ĠØ¯Ø±ÛĮØ§ÙģØª ÛĮ
ĠÙ¾Ø±ÛĮ Ø´ÛĮ
Ġfo ur
ĠÙħÙĨØ² ÙĪÛĮ
ĠØ³Ø§ÙĦ ÙĪØ§Ø¯ÙĪØ±
ĠÛĮ ÙĪÙħ
ĠØ¹Ùħ ÙĤÛĮ
ĠØ§ØµØ§ÙĦØª Ø§
ĠÙĦØ§Ú©Ùĩ ÛĮØ¯
ĠØ± Ø®Øª
ÙĪÛĮ Ø³Øª
ĠÙħÙĤ ÙĨ
ĠØ¨ÙĦÚ© Ù¾ÙĪÙĦ
ĠÙħØ¹Ø§ÛĮ ÙĨÙĩ
ĠØ³Ø§ Ø¦ÙĪÙ¾
Ġn r
ĠØ³ÛĮØ§Ùĩ Ø±Ú¯
ĠÙĨØ§Ø® ÙĪØ¯
ĠØ¢Ø¯ÙĦ Ø§ÛĮØ¯
ĠØ¢ÙĦ Ø¨Ø§
Ġe ff
ĠÙħØ§ ÚĨ
ĠØ³Ø¨Ø² ÙĪØ§Ø±ÛĮ
ĠØ¯Ø§ÙĪØ· ÙĦØ¨Ø§ÙĨ
ĠØ¬Ø§ÙĨØ¯ Ø§Ø±
ĠØ¯ÙĨØ¯ Ø§ÙĨÙĩ
Ùħ Ø§ÙĩÛĮ
Ø³Øª Ø§ÙĦ
ĠØ¨Ùĩ Ø´ÙĩØ±
ÙĦÛĮ ØªÛĮ
ÙĩÙĨÚ¯ ÛĮ
ĠÚ©Ø´Øª ÛĮØ±Ø§ÙĨÛĮ
Ġpr int
ĠØ¨Ø´Ø±Ø¯ÙĪ Ø³ØªØ§ÙĨÙĩ
Ġdig ital
Ġcant on
ĠØ§Ø«Ø±Ø¨ Ø®Ø´ÛĮ
ĠÙĩ Ø§ÙħÙĪÙĨ
Ø§Ø¨ ÙĦØ³
ÙħØ§ÙĨ Ø¯ÛĮ
ĠØ²ÛĮØ± Ø¨
Ø³ÛĮÙĦ ÛĮÚ©
ĠÚ¯ÛĮÙĦ Ú©ÛĮ
ĠØ´ÛĮÙħ ÛĮØ¯Ø§ÙĨ
er b
Ø§ÙĨØ³ ÙĨ
ĠÙ¾Ø§ÙĦ ÙħÛĮØ±
ĠØ¯Ø§ÙĨÛĮ Ø§ÙĦ
ĠÙĪØ§ØªÛĮÚ© Ø§ÙĨ
ĠØ§ÙĨ ÛĮÙħ
ĠØªØ± ÙĨ
ĠÙĨØ²Ø¯ÛĮÚ© Ø§ÙĨ
Ġle e
Õ« Õ
ĠØ²Ø§Ø± Ø¹
ĠØ®Ø§Ø¯ Ùħ
ĠØ¶ ÙħÙĨÛĮ
ĠÙ¾Ø±ÙĪ Ø¬Ø§
ĠØ§ÙĦÙĩ ÙĦØ§ÙĦ
ĠØ¨Ø³Øª Ú¯Ø§ÙĨ
Ġcr c
Ġbiograph y
ĠÙĩÙĦÛĮ ÙĪÙħ
ĠØ± Ø¬ÛĮ
ĠØ¨Ø± Ø§Ø¨
ĠØµ Øµ
ĠÙħØ§Ø± ÙħÙĪÙĦ
ĠÚ©ÛĮ ÙģØ±
ĠÙĪØ§Ø´ ÙĨÚ¯
ĠØ´Ø§ÙĦ Ú©Ùĩ
ĠÙħØªØ¹Ø§ÙĤ Ø¨
Ġpan or
Ġ ÙĪØ¯Ø§
ĠØ² Ø³Ú©Ø§
ĠÙĦ Ø§Ø¯ÙĨ
ĠØ´Ú© ÙħÛĮ
Ġw id
he dr
ĠØ³Ùĩ ÙĦ
ĠØªØ¹ Ø§ÙĦÛĮÙħ
ĠØªÙħ Ø¬
ĠØª Ø§ÙĨØ¯
ĠØ§Ø³Øª ÛĮØª
ĠÛĮ Ø´Øª
ÛĮÚ©ÛĮ Ø§ÙĨ
ĠÚ©Ø§ Ø³ØªÛĮ
Ġad am
ĠØ¢ÙĨ Ø²
ĠÙĨØ§Ùħ ÛĮØ¨
ol k
Ġst ruct
ĠÕ ¿
ĠÙħÛĮÚ©Ø± ÙĪÙĨØ²ÛĮ
Ġear th
ĠØ§Ø´Ø¹ Ø§Ø±ÛĮ
ĠØ§ ÚĺÙĩ
ĠØ´ Ø±ÛĮØ§ÙĨ
ĠØ¨Ø± ÛĮØ¯ÙĨ
ĠØ¯Ø§Ø± Øª
on ia
ĠØ§Ú© Øª
ĠÚ¯Ø±Ø¯ÛĮØ¯ ÙĨØ¯
ĠÙħØ³ØªÙĨØ¯ Ø§Øª
ĠÙħØ§Øª Ø±ÛĮ
Ġab b
iy a
ĠÚ©Ø±Ø§Ú© ÙĪÙģ
ĠÙħÛĮ Ø³ÙĪÙĨ
ĠØ² Ú©ÛĮ
ĠØµ Ø§Ø¨Ø±
ĠÙ¾ÛĮ Ø³ØªÙĪÙĨ
ĠÙħÛĮÙĨ Ø³Ú©
ÚĨ ÛĮÙĨÙĪ
ĠØ¨Ø§Ø²ÛĮÚ© ÙĨÛĮ
Ú¯Ùħ Ø´
ĠÙģØ± ÙĪØ²Ø§ÙĨ
ĠÙĦÛĮ ÙģØª
ĠØ¯ÙĪÙĦ ØªØ´
ĠÚ¯ÙħØ± Ú©
ĠØ´ÙĪ Ø´ÛĮ
ĠÙħÙĩÙĨØ¯ Ø³ÛĮÙĨ
ĠÙ¾Ø´Øª ÙĪ
Ġac c
Ø§ÙħØ² Ø¯Ø§
ĠÙĨØ§Ùħ Øª
Ġa ud
is hed
Ġcom b
Ġad v
ĠØª Ù¾Ø§ÙĨÚĨÙĩ
ĠÙģ ÙĪØ¬
in us
ÙĨØ´ ÛĮÙĨÛĮ
ĠÙħÙģ Ø§Ø¯
ĠØ±Ø´ Ø¯ÛĮ
ĠÙĩ Ø§Ø±ÛĮ
ĠÚ¯ÛĮÙĦ Ú¯ÙħØ´
ĠØ§ÙĦØ¹ ÙħÙĦ
ĠÚ¯ ÙĩØ±
Ġthe at
ĠÙħØ§Ø± ÛĮÙĨØ§
ĠØ¯ÙĦ Ùģ
ĠÙħØ§ÙĦ Ø§Ú¯Ø§
im edia
ĠØ¹Ø± ÙĤ
ĠØ³Ø§Ø± Ø§ÛĮ
Õ¥Õ ²
ĠØ±Ø¬ÙĪ Ø¹
f o
Ġs us
ĠÙ¾ÛĮØ´ Ú¯ÙĪÛĮÛĮ
ĠÙ¾ÙĨ Ø§ÙĩÛĮ
Ø¨ÛĮØª Ø§ÙĦ
ĠØ¨Ø§Ú©ØªØ±ÛĮ Ø§ÛĮÛĮ
ĠÙĪØ§Ø¬ Ø¨
ĠØ±ÛĮÙĨ ÙĪÙĦØ¯
ĠÙħØ¹Ø±ÙĪ ÙģØªØ±ÛĮÙĨ
ĠÙ¾ Ø·
ĠÙĦ ÙĪØ§ÙĨ
Ġp ot
ĠØµØ±Ø§ ØŃØª
ĠØ§ÙĩÙĪØ± Ø§ÙħØ²Ø¯Ø§
Ø§Ø³ ÛĮØ±
ĠØ¢ÙĦ ØªØ±
ÙĨØª Ùĩ
ĠØ¢Ú¯Ø§Ùĩ Ø§ÙĨÙĩ
ific ation
ĠÙħÛĮ Ø¬ÛĮ
Ġa e
Ġg et
ĠØ§ØŃÙħØ¯ Ø±Ø¶Ø§
ÙĪØ¬Ùĩ ÛĮ
ĠÙĨ Ø¯Ø§
ĠØ¨Ø§ ÙħÛĮØ§ÙĨ
ĠØ® ÙĪÙĨÙĩ
ĠØ³Ø§ÛĮ Ú©
ĠØªØ§Ú© ØªÛĮÚ©ÛĮ
ĠØ§Ú©Ø³ Ù¾Ø±Ø³
ÛĮÙĨØ§Ùħ ÛĮÚ©ÛĮ
ĠØªÙĪÙħÛĮØª ÙĪØ²
ĠØ´ ÛĮØ¯Ø§
re y
ĠØªØ³ÙĩÛĮÙĦ Ø§Øª
Ù¾ÙĪÙĦÛĮ ØªÙĨ
ĠØ·Ø§Ø¹ ÙĪÙĨ
Úĺ ÛĮØª
ĠÙĨÙĪ Ø¢
ĠÚ©ÙĦ ÙĩØ±
ĠØ³ÛĮØ¯ ÛĮ
ĠÙģØ±Ø² ÛĮÙĨ
ĠØ®ÙĪØ¯Ùħ Ø®ØªØ§Ø±ÛĮ
ĠÙĪØ§ÙĦØ¯ÛĮÙĨ Ø´
ĠÚ©Ø±ÙĪÙĨØ§ ÙĪÛĮØ±ÙĪØ³
Ġmid dle
ĠÚ© Ø§ÙĨØ³
ĠØªÙĪØ§ÙĨ Ùħ
ĠØ±ÛĮ Ù¾
ĠÙħØ³Øª ÙĤ
ĠØ§ÙĪØ± ÛĮÙĨØª
ĠØ¨ÛĮØ²Ø§ÙĨ Ø³ÛĮ
Ġj r
ĠØ§Ø¯ Ø±Ø§Ø±ÛĮ
ĠØ´ÙĨØ§ ÙĪØ±ÙĩØ§ÛĮ
ĠØ§ÙĪØª Ø±
ØªØ§ ÙĪÙĨ
ĠÙĤØ¯ Ø§ÙħÛĮ
ĠØ¢ÙĪ Ø§ÛĮÛĮ
Ġl ow
ĠØ¶ ÙħÛĮØ±
ÚĨ Ø§ÛĮ
ĠÚĨ ÛĮÙĦ
ĠØ´ÙĩØ±Ø¯ Ø§Ø±Ø§ÙĨ
ĠÙĩÛĮØ¯Ø±ÙĪ Ú©Ø³ÛĮ
ĠÙĪÛĮ Ú¯
Ġc orn
ĠÚ©ÙĪ Ø§ÙĦ
ÙĪØ¦ ÛĮØ³Ùħ
ĠÚ¯ÙĦ Ø´ÙĨ
ĠØªØ¹ Ø¬Ø¨
ĠÙħÙĨÙģ Ø¬Ø±Ùĩ
ĠØ¹Ø¸ ÙħØª
m ing
ķ ×
ĠÙ¾ÛĮ Ø²Ø§
ĠØªØ± Ùĩ
ÙĨØ§ Ù¾Ø°ÛĮØ±
ĠØ±ÙĪØ² ÙĨÙĩ
ĠÚ¯Ø±Ø¯ Ø§ÙĨÛĮ
ĠÛĮØ§Ø¯ ÙħØ§ÙĨ
ĠÙĨÙĪØ± Ø§ÙĦØ¯ÛĮÙĨ
ĠÙħØ¤ ÙĨØ«
ul ation
ĠÙħØ§Ø¯ ÙĪÙĨ
ĠØ¢Ø´ÛĮ Ø§ÙĨÙĩ
ĠØ³Ø§Ø¦ÙĪÙ¾ Ø§Ø¦ÙĪÙĦÙĪ
ĠØ¯ Ø§Ø¯ÛĮ
ĠØ´ ÛĮØ¯
ĠØ¨Ø§ Ú¯
ĠÙ¾ ÙĪØ±ÛĮ
ĠÙħØ¹ Ø´ÙĪÙĤ
Ġs af
ĠØ¢ÙĦ ÙĪØ¯
Ġb ern
ÙħØ§ Ø¡
Ġso und
Ġvir gin
Ġtex as
Ø¨ Ø§Ø±Ø§ÙĨ
Ø· Ø§Ø±
Ġm l
ĠÙĪÙĦ Ø§ÛĮØ§Øª
ĠØµØ¯Ø§ Ú¯Ø°Ø§Ø±ÛĮ
ĠØ¯Ø±Ø¢ÙħØ¯ ÙĨØ¯
ĠØ§Ø³Ø¨ ÙĤ
Ġus a
ĠÙĨØ§Ø® ÙĨ
ĠÙħØ§Ø±Ú©Ø³ÛĮ Ø³ØªÛĮ
ĠØ²Ø¨ Ø§ÙĨÙĩ
Ø´ ÙĪÙĨØ¯Ùĩ
Ġc os
Ġh p
ĠÙħÙĪÙĨ Ø´ÙĨ
ĠÙĩÙĦ Ø¯ÛĮÙĨÚ¯
ĠØ§ÙĦÚ©ØªØ±ÙĪ ÙĦÛĮØª
ĠÙĨØ±Ø³ Ø§ÙĨØ¯
ĠØ¯ÙĪ Ø¨ÙĦØ§
ĠØº Ø²ÙĨÛĮ
Ġa w
ĠØ³ÛĮÙħ Ù¾Ø³ÙĪÙĨ
sh ire
ĠØ§ÛĮÙĨØ¯ÛĮ Ø§ÙĨ
ĠØ§Ø´ØªØ±Ø§ Ú©ÛĮ
ĠØ¯ÛĮ ÙĪØ¯
ĠØªØ§ Ø¦
ĠÙĪØ± ÙĨ
ĠÙģØ¹ Ø§ÙĦÛĮ
ĠØ§ÙģØ² ÙĪÙĨÙĩ
ĠØ¨ÙĦÙĨØ¯ ØªØ±
ĠØ¨Ø±ÙĨ ÙĦÛĮ
ĠØ¯ÙĨØ¯Ø§ÙĨ Ù¾Ø²Ø´Ú©ÛĮ
ĠÙ¾Ø¯ÛĮØ¯Ø¢ ÙħØ¯Ùĩ
ĠÙ¾Ø±ÙĪØ³Øª Ø§Øª
ÙĨÛĮ ÙĪØ³
ĠØ¯ÛĮ Ø²ÙĦÛĮ
ĠÙĨÛĮ ÙĪÙ¾ÙĪØ±Øª
ĠØº Ø§Ø²
Ġr ub
ĠØªØ´Ú© Ø±
ĠÙĨÛĮÚ© ÙĦØ§ÛĮ
ĠÙĨØ¨ Ø´ØªÙĩ
Ġem b
Ġvers ion
ĠÙ¾ÙĪÙĦÛĮØª Ø²Ø±
Ø§ÙĨ Ø¯ÛĮ
ÛĮØ± ÙĪØ³
ĠØ§Ø³ØªØ± ÙĦÛĮÙĨÚ¯
ĠØ´ÙħØ§ÙĦ Ú¯Ø§ÙĨ
ĠØ³Ø§Ø³ Ú©Ø³
ĠØ¨Ø±Ø§ÙĨÚ¯ÛĮ Ø®ØªÙĩ
ĠØªØŃØ±ÛĮØ± ÛĮÙĩ
ĠÙĦØ¨Ø® ÙĨØ¯
ĠÙģ Ø§ØŃ
ĠØ±Ø§ ÙĪÛĮØ§ÙĨ
ĠÚĺ ÙĪÙĦÛĮØª
ĠÚ©ÙĦ Ø§ÙĨØªØ±ÛĮ
ĠÙħØ¨Øª ÙĦ
ĠÙħØ§Ø±ÛĮ Ø§ÙĨ
ĠÚ©Ø§Ø±ÙĪØ§ÙĨ Ø³Ø±Ø§
ĠØªÙģØ± Ø´
ĠÙħÙĨÚ¯ ÙĨØ²
ĠØ¨ ØªÛĮØ³
ĠÙĨ Ø¯Ùĩ
ĠÙ¾ÛĮ Ø´ÛĮ
ĠÙĦÛĮ ØªÙĪÙĨ
ĠÚ¯Ø±ÙĪÙĩ Ø§ÙĨ
ĠØ¨Ø§Ø¨ Ø³ÙĦØ¯
ĠØ³ÛĮØ± Ø§ÙĦ
ĠØ±ÙĪØº ÙĨÛĮ
ĠÚ©ÙĪÙĩÙĨ ÙĪØ±Ø¯ÛĮ
ĠØ³Ø±Ø§Ùħ ÛĮÚ©ÛĮ
ÙĪÛĮ Ú¯ÙĪ
ÙħÛĮ ÙĦÛĮØ§ÙĨ
ĠØ´Ø§Ø± Ù¾
ĠÙħØªØ±ÙĪ Ú©Ùĩ
ĠÙ¾Ø±ÙĪÙģ Ø§ÛĮÙĦ
ĠØ± ÛĮÚ©ÛĮ
ĠØ± Ø§Ø¨ÛĮ
ĠØ³ Ú¯Ø§
Ġf ull
ist a
ak h
ĠØ¯ÙģØªØ± ÚĨÙĩ
ĠØ§Ø±Ú© Ø§ÙĨ
ĠØ¹ÙħÛĮ ÙĤÛĮ
Ġdevelop ment
Ùħ ÙĨØ§
Ġuk ra
ĠØ´ ÙĨÚ¯
ĠØ¨Ùĩ Ø§
ĠÙħØª Ø¯
ĠØ§Ø± Ú¯Ø§ÙĨÛĮØ³Ùħ
ĠØ¯Ø±ÛĮ Ø§ÙĩØ§
ĠØªØµÙĪÛĮØ± Ø³Ø§Ø²ÛĮ
Õ¡Õ ®
ĠØºÙĦØ§Ùħ Ø¹ÙĦÛĮ
ĠØ¯Ø±Ø§Ø² Ø§ÛĮ
Ġarch it
ĠØ§Ù¾ÙĦ ÛĮÚ©ÛĮØ´ÙĨ
ĠØ¢ÙĨØ§Ùĩ ÛĮØªØ§
ĠØ¯ÙĪØ¨ÙĦØ§ Úĺ
ĠØ´ ÙĦÛĮ
ĠØ¨ÛĮ Ø´Ùĩ
Ġun ion
Ġfr ench
ĠØ³Ø±Ú© ÙĨØ³ÙĪÙĦ
ĠÚĨØ±Ø® Ø¯
ĠØ¯Ø¨ ÛĮØ±ÛĮ
ĠØªØ±ÙħÙĪØ¯ ÛĮÙĨØ§ÙħÛĮÚ©
ĠÙ¾Ø±Ú©Ø§Ø± Ø¨Ø±Ø¯
ĠØ¯Ø± ÙħÛĮØ§ÙĨ
ĠÚ¯Ø± Øª
ĠØ§ÛĮØ³Øª Ø§
ist s
r ipt
Ġf if
Ġn ow
ĠØºÛĮØ± Øª
ĠÙĪØ§ Ø¹Ø¸
ĠÚĨØ± ÛĮÚ©ÛĮ
ĠÙĤØµ Ø¨Ùĩ
ĠØ°ÙĪØ§ÙĦ ÙģÙĤ
ĠÙĪØ§Ø´ÙĨÚ¯ ØªÙĨ
Ø¯ Ú¯ÛĮ
ĠØ¯Ø± ÙĪÛĮ
ĠØ¯Ø§Ø¯ Ú¯Ø§ÙĩÛĮ
Ø§ØªÛĮ Ø§ÙĨ
Ġal so
ĠÙħØ² Ø¯Ø§
ĠÙĪØ§ÛĮ ÙħØ§Ø±
ĠØ±Ø³Øª Ú¯Ø§Ø±ÛĮ
ĠØªØ§ÛĮÙĦ ÙĨØ¯ÛĮ
ÙĪ Ø¬ÙĪØ¯
ĠØ¯ ÛĮØ§Ø²
ĠÚ¯ Ø§Ø±ÛĮ
Ø§ÙĨÛĮ Ø³Ùħ
ĠØ³ÙĦ Ø¨
ĠØ¯Ø§Ùħ Ù¾Ø±ÙĪØ±ÛĮ
Ġan th
ĠØ¨Ø±Ø§Ø¯ Ø±ÛĮ
ĠÙĩØ§ÙĨ Ø±ÛĮ
ĠÙĦÛĮÙĪÙĨ ÙĦ
ĠØªÙĪÙĦÛĮØ¯Ùħ Ø«ÙĦ
Ø¹ Ø±
ĠÙħØ±Ø¯ Ø§Ø¨
ÙĪØ¯ÛĮ ÙĪ
ip ort
ĠØªÚ©ÙĨ ÛĮÚ©ÛĮ
ĠÙģÛĮØª Ø²
ĠØ§Ø³Ú© ÙĪØ´ÛĮØ§
Ġan ton
u it
Ø³Øª Ø§Ø¯
ÙĪÙĦÙĪ Ú¯
ĠØ§Ø±Øª Ø´ÛĮ
ĠÚ©Ø±ÛĮØ³Øª ÙĨ
ĠØ±ÛĮØ³ ÛĮÙĨÚ¯
à¤° à¤
ĠØ§ÙĪØº ÙĦÙĪ
ĠØ¹Ø¨Ø¯Ø§ÙĦØŃ ÙħÛĮØ¯
ĠÙĨ Ø¨Ø§Øª
ĠÚĨÙĩØ§Ø± Ú¯Ø§ÙĨÙĩ
ĠÙħØ§ÙĦÛĮ Ùĩ
ĠØ§ØŃÙħØ¯ Ø´Ø§Ùĩ
ĠÙĩÛĮÙħ Ø§ÙĦÛĮØ§
ĠØ®ÙĪÛĮØ´Ø§ ÙĪÙĨØ¯ÛĮ
ĠØ¨ÙĩØ± Ø§ÙħÛĮ
Ø¯Ùĩ ÙĨØ¯Ùĩ
ĠÚ© Ø¨Ø±ÛĮ
ÙĪØ± Ø§Øª
ĠÙĤ Ø§Ø´
ĠÛĮÚ© ØªØ§
Ġf s
ĠØ³ÙĦ Øª
ĠØ±ÙĪØ¯ Ø³Ø±
ĠÙĩÙĪ Ø§Ø±Ø¯
ĠÙĨØ²Ø¯ Ú©
ĠØ³ÙĪØ®Øª Ú¯ÛĮ
Ġlo ok
ĠÙ¾Ø§Ø¨Ø± Ø¬Ø§
ĠÚ© Ø§ÛĮÙĦ
ĠØ® ÙĨØ¬
Ø§Ú© Ø§Ø±
ĠØ§ÙĦÙħ ÙĤ
ĠØ¨ÙĦ Ø§ÛĮØ§ÛĮ
ĠÙģØ§Øµ ÙĦ
ĠØªØ° Ú©Ø±Ùĩ
i h
Ñ ĸ
Ø³ Ø³
ĠØ¬ÙĪ ÙĪØ§ÙĨÛĮ
ĠØ³Ø§Ú© Ø±Ø§Ùħ
ĠÙ¾ÛĮÙħ ÙĪÙĨØª
ĠÙ¾Ø±Ø·Ø±Ùģ Ø¯Ø§Ø±
Ġs ir
Ġa uth
ĠØ¢Ø± ÙħØ§
ĠØ±ÙĪØ¯ ÙĪÙĦÙģ
ĠÙħØ¨ÙĦ ÙħØ§ÙĨ
Ġoff ice
ĠØªØ¬Ø¯ÛĮØ¯ ÙĨØ¸Ø±
ĠØ¨ÛĮÚ¯Ø§ÙĨ Ú¯Ø§ÙĨ
ĠÙĨÙĪØ¬ ÙĪÚ©ÛĮ
ĠØ¨Ø± Ú¯Ø±
ĠØ¢ÙĨ Ú¯ÙĦ
Ġk y
ĠØ®Ø±Ø¯ ÙħÙĨØ¯
ĠÙħØªØ¹ Ø§Ø¯ÙĦ
ĠÚĺÙĪÙĦÛĮ ÙĪØ³
Õ ²
ØŃ ÙĪÙĨ
ĠØ§ÙĪ ÙĪÙĨ
ÙĪØ´ Ø§ÙĨ
ĠØ¨Ø³ Ø²Ø§ÛĮÛĮ
ĠÙĪ Ø¨Ø§
ĠØ¨Ø§Ø² ÙĨØ¯Ùĩ
ĠÚĨ Ø§Ø±Ùĩ
ĠØ³Ø± Ø¨ÛĮ
ĠÙĪØ±Ø² ÙĤØ§ÙĨ
ĠÙħØ³Øª Øº
ĠØ¯Ø±ÛĮ Ø§ÙĨÙĪØ±Ø¯
ĠØ¯ÛĮØ¯ Ùħ
ĠÙĨØ§Ø¨ ÛĮÙĨ
ĠÙĦÙĪØ¨ ÛĮØ§
Ġupr ight
ĠÙĩ ÙĦÙĪ
ĠØ´ ÙģÙĤ
ĠØ¹ ÛĮÙĦ
ĠØ³Ø±ÙĪ Ø¯ÙĩØ§ÛĮ
ĠÙħØ§Ø±Øª ÛĮÙĨØ²
ÙĪØ± Ø§ÛĮ
Ø¯Ø§ Ø³ÛĮÙĪÙĨ
ĠÙħØ§ÙĨ ÙĪØ±
ĠØ« Ø±ÛĮØ§
ĠØ±ÙĪØ¯ Ú©ÛĮ
Ġhel iport
ĠÙģØ§Ú©ØªÙĪØ± ÙĩØ§ÛĮ
ĠÙħÚ©Ø§ÙĦ ÙħÙĩ
ĠØ§Ø³ØªØ¨Ø¯ Ø§Ø¯
ĠÚ¯ÙĦØ§Ø¯ Ø¨Ø§Ø®
Ġ ÑĤ
Ùħ ØªÛĮ
Ġp b
ĠØ§ÙĤ ÙĦØ§Ùħ
ĠØ¬ÙĪ Ø§Ø²
ĠØ±Ø§ÛĮ Ø³
ĠØ¨ÛĮØ³Øª ÙħÛĮÙĨ
ĠØ®ÙĪØ§Ø¨ Ú¯Ø§Ùĩ
ĠÙĩØ§Ø¯ Ø³ÙĪÙĨ
Ø§ÙģØª Ø§Ø¯Ùĩ
ĠØ±ÙĪØ²Ø§Ùģ Ø²ÙĪÙĨ
ĠÙĪ Ø«ÛĮ
ĠØ§ÛĮÙĨ Ø§ÙĨ
ĠÙĦ Ø§Ø¨ÛĮ
Ġt x
ĠÚ¯Ø±ÙĪÙĩ Ø¨Ø§ÙĨ
ol is
Ġat h
ĠØºØ± Ø¨Ø§ÙĦ
ĠØ±Ø³Ø§ÙĨ ÙĨØ¯
ĠÙħÛĮØ« Ùħ
ĠÙĨØ§ÙħÛĮØ¨ ÛĮØ§
ĠØ¨ Ú©Øª
ĠÙĦ ÛĮÙĨÚ¯
Øº Ø§Ø²
Ġe k
ÙĪÙĦÛĮÙĨ ÙĪ
Ø§Ø¯ÙĪ ÙĦÛĮØ¯
Ð¾ ÑĢ
ĠÙĦØ§Ùĩ Ùĩ
Ġfranc is
ĠØ´ Ø§Ø²ÙĨØ¯
ÙĪØ± ÛĮØ¯
ĠØ¬ Ø§Ø¨Ø±
Ġc g
ĠÙĦÛĮ Úĺ
ĠØ¢ÛĮ ÛĮÙĨÛĮ
ĠØªØ£Ø«ÛĮØ± Ú¯Ø°Ø§Ø±ÛĮ
ĠØªØ¹Ø§ÙħÙĦ Ø§Øª
Ġare a
ĠØ¯Ø±Ø§ÛĮ ÙĪ
ĠØ¨Ø±ØŃ Ø³Ø¨
y ch
ad d
Ġpr im
ĠÙ¾Ø§Ø±Ø§Ø¯ ÙĪÚ©Ø³
ĠÙħÙĪØ§Ø² Ø§Øª
ĠÙģØ±ÙĪØ³ Ø±Ø®
y pt
Ø´ ÙĪÛĮ
ĠØ§ÙĦ Ø´ÛĮ
ĠÙĨØ¨Ø± Ø¯ÙĩØ§
Ġintro duction
s en
ĠØ´ ÛĮØ±Ùĩ
Ø· ÛĮÙĨÙĩ
ĠÚ©Ø§Ø± Ùĩ
ĠØ¢Ø¨ Ø§Ø¯Ùĩ
ĠØ§Ø· Ø±Ø§ÙģÛĮ
ĠØªØ¹ ÙħÛĮØ¯
ĠÙĤÙĦ Ø§Ø¨
ÙĦØ¨ Ø§ÙĨÛĮ
ĠØ§ÙĨØ¨Ø§ Ø´ØªÙĩ
ØŃ Ø«
ĠØ§ÛĮ Ø«Ø§Ø±
Ø§Ø² ÛĮØ§
Ġs j
ĠØ§Ø³Ù¾ ÛĮÙĦ
ĠÚ©Ø§ Ø´ØªÙĩ
Ø³ÙĦ Ø§Ùħ
ĠÛĮØ§Ø¯ Ø´Ø¯Ùĩ
ĠÙĨÛĮÙħ Ú©Ø±Ùĩ
Ø³ÙĪ Ø§Ø±ÛĮ
Ġed s
ys is
ĠÙĪÛĮÚĨ ÙĨØ²Ø§
ĠØ¢Ú©ÙĪØ³Øª ÛĮÚ©
ĠÙĦÛĮ ÙħÙĪ
ar ia
ĠÙħÙĦ Ø§Øª
ĠØ¬Ø§ÙĨ Ø²
ĠØ¨Ø¹Ø¯ Ø§Ø²
ĠÙħØ« Ø§ÙĦÛĮ
ĠÙĪØ§ÙĦ Ø±ÛĮ
Ġex p
Ðµ ÑĢ
ĠØªØ´Ø±ÛĮÙģ Ø§Øª
ĠÙħØ¨ØªÙĦ Ø§ÛĮØ§ÙĨ
ĠÙĨØ§Ùħ Ø¯
ĠØ§Øª ÙĦØ§Ùģ
Ú©ØªØ± ÛĮÚ©
ĠØ²Ø± ÙĨØ¯
Ġsm all
ĠØªØ§Ø³ ÙħØ§ÙĨÛĮ
ĠÙĨÛĮÙħØ± ÙĪØ²
Ùģ ÛĮÙĦ
ĠØŃ Ø¬Ø±
ĠÚ©Ø§ Ø³ÛĮ
ĠØ§ÙħÛĮØ± Ø§ÙĨ
ĠÙĪÛĮØª ÙĪØ±ÛĮØ§
ĠØ³ÙĨØ¬ Ø§Ø¨
ĠÙĤÙĦÛĮ Ø§ÛĮÛĮ
ĠØ§Ø³Ú©ÙĨØ¯ Ø±ÛĮ
ĠØ¨Ø´Ø±Ø¯ÙĪ Ø³ØªØ§ÙĨ
ĠØ§ Ø¹ÛĮØ§ÙĨ
ÙĨÛĮ ÙĪÙħ
ÙĪØ² ÙĪ
ĠØ¨ÙĪ ÙģØ§ÙĦÙĪ
ĠÙĦØ´Ú© Ø±ÛĮØ§ÙĨ
Ù¾Ø±Ø¯ Ø§Ø²ÛĮ
ĠØ¯Ú© ØªØ±ÛĮÙĨ
ĠÙĩÙĪÛĮ Ø¯Ø§
Î µ
ĠØ³ ÙĦØ§
ĠÙĨÛĮ Ø³ØªÙħ
ĠÚĺ ÙĦ
ĠÙĨØ´ ÙĪÙĨØ¯
ĠÙħÚ© Ø¹Ø¨ÛĮ
ÙĪÛĮØª Ø²
ĠØ³ÙĪØ± ÙĨ
ĠØ±Ø´ ÙĪÙĩ
Ġrom an
ste in
Ġhyd ro
ÙĨ Ø§Ú©ÛĮ
Ø§Ùĩ Ø±ÛĮ
ĠØ³Ù¾ Ø§Ø³
ĠØªÙĨ ÙĪØ±
ĠØªÛĮØ± ÙĪØ¦ÛĮØ¯
Ġim p
ĠØ³Ø§Øª Ø±Ø§Ù¾
ĠÙĨ Ú¯Ø°
ĠØ¢ Ø³ØªØ±
Øµ ÛĮØ±
ĠÙĦ Ú¯Ø§Ø±ÛĮ
ĠÙħØŃ ÙģÙĪ
ĠØ¬ÙĨ Ø§Ø¨
ĠØ¨Ø³ Ø§Ø²ÙĨØ¯
ĠØ¨Ø·ÙĦÙħÛĮ ÙĪØ³
ĠØ³Ø§Ú©Ø±Ø§Ùħ ÙĨØªÙĪ
ĠØ³Ø§ÙĦ Øª
ĠÙĦ Ú©Ø³
ĠÙħÙĪ Ùģ
ÙĪÚ© Ø³ÛĮÙĨ
ĠÚĺØ§Ú© ÙĦÛĮÙĨ
ĠØ§ÙĪ Ø´
ĠØ§Ùħ Ø¯Ø§Ø¯ÛĮ
ĠØ¬Ùħ Ø§Ø¯ÛĮ
ĠØ§ÛĮØ±Ø§ÙĨ ÛĮÚ©Ø§
ĠÚ©Ùħ Ø§
ĠÙĨØ§ Ø¸Ø±ÛĮ
Ø±Ø§Ú© ØªÛĮÙĪ
ĠÙĨØª ÙĪØ§ÙĨØ¯
ĠÙħÛĮÚ© Ø±ÙĪÙģ
ĠØ·Ø± Ø§Ø¨ÙĦØ³
ĠÙ¾Ø°ÛĮØ±ÙģØª ÙĨØ¯
ĠØ²ÛĮØ±Ø® Ø§ÙĨÙĪØ§Ø¯Ùĩ
i at
ĠØ¯ Ø³Ø±
ĠØ³Ø± ÙĨ
ĠØ§Øª Ø§ÙĪØ§
ĠØ±Ø¶ ÙĪØ§ÙĨ
Ġdet ail
f c
ĠÙĦ Ø§ÙĦÛĮÚ¯Ø§
ÙĪØ±Ø¯ Ú¯ÛĮ
ĠØ§Ø± Ø§ÛĮÙĩ
Ġa j
ĠØ¨Ø® Ø§Ø±ÛĮ
ĠØ±ÛĮ Ø®ØªÙĨ
re en
ĠÚ©ÙĨØªØ± ÙĦÛĮ
ĠÙģØ±Ø§ÛĮ Ø¨ÙĪØ±Ú¯
ĠØ¨Ø³ Ø§ÙħØ¯
ĠÙĩØ³Øª ÛĮØ¯
Ã£ o
ĠÙ¾ ÙĨØ§ÙĨÚ¯
ĠØµ Ø¯Ùħ
Ġj ud
Ġd y
Ġch o
ĠÙĩØ§Ø± Ù¾Ø±
Ġcent re
ĠÚ¯Ø±Ú¯ ÙĪØ±ÛĮ
ĠØ§Ø³ÛĮ Ø¯ÙĩØ§
Ġtechn ology
Ú© Ø§Ø¨
ĠØ¢ Ú©ÛĮ
ĠÙ¾Ø±ÙĪ Ù¾Ø§
ĠØ§ÙģØºØ§ÙĨ Ø³ØªØ§ÙĨÛĮ
Ġth ro
ĠÙħÙĪØ³ ÙĪÙĦÛĮÙĨÛĮ
ĠØªØ®Ùħ Ú©
ĠÚ©Ø±Ø§ Ø³ÙĨ
ĠØ´Ú¯ÙģØª ÛĮ
ĠØ´Ø±Ú© Ø§ÛĮ
ĠÚ©Ø§Ø±ÛĮÚ© Ø§ØªÙĪØ±
ĠÚ© Ø§ÙħØ¨Ø±
ĠØ¨Ø§ ÙģØ±
ĠØ¬ ÙĦÛĮ
ĠØ´ÙĩØ± Ø²Ø§Ø¯
Ġb ud
ĠÚ©ÙĦ ÙĪÙĨ
ÙĪÛĮØ± Ø§
ĠÙĨÙĪØ±ÛĮ ÚĨ
ĠÙĨØ§Ø±Ø§ Ø¶ÛĮ
ĠØ¯Ø± Ø¯ÙĨ
ÙģØª ÙĨ
Ø« ÛĮÙĩ
ĠØ¨ÛĮ ÙĪÚ©
ĠØ¯ÙĪ Ø³Ø§ÙĦ
ĠÙħØ±Ø¯ Ø§ÙĨÛĮ
ĠØ§Ø¬Øª Ùĩ
ĠÙħØª ØµØ¯ÛĮ
ĠÙħÙĩ Ø±ÛĮØ²
ĠÙĩÙĨØ± ÛĮÚ©
Ú©Ø§ÙĨ ÙĪ
ĠØ¢ÙħÙĪØ®Øª ÙĨ
Ġed ward
ĠØ³ÙĪÙĨ Ø§Øª
ĠÚ© Ø¨Ø§Ø¨
ĠÙħÛĮ Ø±Ø¨
ĠØ¹ Ø¬Ùħ
ĠØ§Øª Ø§Ø¨Ú©
il i
ÙĪØ±Ú© ÙĪØ²ÙĨ
ĠÙħÙĩØ§Ø¬Ø± ÛĮÙĨ
em b
ÙĪØ³ÛĮ ÙĪØ³
ĠØ¨Ø±Ø¬ Ø³ØªÚ¯ÛĮ
ay s
ĠÙħØªØ±ÙĪ Ù¾ÙĪÙĦÛĮØªÙĨ
ĠÙĦÛĮØ¨Ø± ØªÛĮ
Ø³Øª Ú¯Ø§ÙĨ
ĠØ³ Ø³Ú©
ĠÙ¾ Ù¾Øª
ĠÚ¯ ÙĦÛĮÙħ
ĠØ§ÙĨÚ¯ÙĦ Ø³ØªØ§ÙĨÛĮ
ĠÙĨÚ¯Ùĩ Ø¯Ø§Ø±ÙĨØ¯Ùĩ
ant s
Ġfam ily
ĠÙģ ÛĮÙĨÛĮ
ĠØ® ÙĪØ³Ùģ
Ġb it
Ġr est
ĠØ¢Ø± ÛĮÙĦ
Ġn om
ĠÙ¾Ø§ÙĨ Ø²Ø¯ÙĩÙħÛĮÙĨ
ÙĪØ±Ùĩ Ø§ÛĮÛĮ
ĠÙħØ² Ø§ÛĮ
ĠÙħØªÙĩ ÙħØ§ÙĨ
ĠÙħÙĪØ±ÛĮØª Ø§ÙĨÛĮ
ĠØ±Ú¯Ø± Ø³ÛĮÙĪÙĨ
ĠÙĩÙħ ØªØ§
ĠØ§Øª Ø§ÙĤÛĮ
ĠØµÙģ Ø±Ø§
ĠØ´ÛĮØ± Ø§Ú©
ÙĬ Ùħ
ĠÙĪÙĨ ÙĪØ³
ĠÙ¾Ø§Ø¦ ÙĪÙĦ
ĠØ¬ÙĪÙĨÛĮ ÙĪØ±Ø²
Ġaustr alia
ĠÙħØ§Ø±ÙħÙĪÙĦ Ú©
ĠØ± Ø§ÙĦ
ĠÙ¾ÛĮ Ø§ÙĨÛĮØ³Øª
ĠØ§ÙĨØ¯ Ø±ÙĪØ²
Ġa ge
ĠØ¹Ùħ Ø§Ø±
ĠØªÚ© Ø§ÙĨÙĩ
ĠÙ¾ÙĨ ÙĦ
ĠÙħØ¤Ø³ Ø³Ø§ÙĨ
ĠØ± ÙģÛĮØ¹ÛĮ
ĠÙĪ Ø§Ø¯
Ġg ame
ĠØ§Ø³Ú© Ø§Ø¯Ø±Ø§ÙĨ
ĠØ¨Ø±Ø® Ø§Ø³ØªÙĩ
ap t
ĠÙ¾ÙĪØ± ÛĮØ§
ĠØ§Ø¹ØªØ±Ø§Ùģ Ø§Øª
Ġib m
ĠØ§Øª Ø§Ø¨
ĠØ§Ø¨ Ø±Ú©
ĠÙĦØŃ ÙĨ
ĠÙĦÙĪØª ÙĪØ³
Ġyear s
ĠØ¢ ØµÙģ
ĠÙ¾ ÙĪÙĩ
ĠÚ©ÙĦÛĮ Ø´Ùĩ
Ø±Ø® Ø§ÙĨ
ĠØªÙĪØµÛĮ ÙģÛĮ
ĠØ¯ÙĨÛĮ Ù¾Ø±ÙĪ
ub le
ĠÚĺÙĨØ± Ø§ØªÙĪØ±
ĠØ®Ø´Ø§ÛĮØ§Ø± Ø´Ø§
z en
Øª Ø§Ùħ
ĠÙ¾ÛĮØ´ ÙĪÙĨØ¯
et er
ĠØ§ÙħÛĮÙĦÛĮ Ø§
ĠØ¨Ø¬ Ø§ÛĮ
ĠÙĩØ§ ÙĬ
ĠØ¹Ø¯ ÙĦ
ĠØŃÛĮ ÙģØ§
Ä ĩ
ÙĨ ÙĩØ§
Ø´ Ø§Ùħ
ĠÙģ ÙĨØ±
ĠÙĦ ÚĨÙĩ
ĠÚ¯Ø±ÙĪ Ø³
ĠØ¨Ø¯ ÙĪÛĮ
Ġk or
Ġcar l
ĠØ± Ø¨Ø§ÙĨÛĮ
ĠØ¬ Ø²Ø±
ĠØ¯Ø§Ø± ÙĨ
Ġr and
ĠØ±ÛĮ Ø²Ùĩ
ĠÙħÛĮÚ© Ø§Ø¦ÛĮÙĦ
ĠØ¢ÙĨØ¬ ÙĦÙĪ
ĠØ¢ÙĦÛĮ Ø§
ĠÙĨÙĪØ³Ø§ÙĨ Ø§Øª
Ġjose ph
k en
o ff
ĠÙĪ Ø§ÙĦÙĩ
ĠÙĪØ± Ú©Ø³
ĠÚ©ÙĦ Ø³ØªØ±ÙĪÙĦ
ĠØ§Øª Ø¨Ø§Ø¹
ĠØŃØ³ Ø§Ø¨ÛĮ
Ġk am
ĠØ§Ø®Øª Ø±Ø§
Ú¯ÛĮØ± Ø¯
ĠØµØ¯ Ø§Ø¨Ø±Ø¯
ĠÙĨØ§ÙħØ± Ø¦ÛĮ
ĠØ¯Ø§Ø±Ø§ÙĦÙģ ÙĨÙĪÙĨ
ĠØ´ ÙĪÙĤ
ĠØ´Ø§Ùĩ Ø±
ĠÙħØ§Ùĩ Ø§ÙĨ
ĠØ±Ø¯ Ø¨ÙĪÙĦ
e x
ĠÙ¾ÛĮ ØºØ§Ùħ
ĠØ§ÙĨÚ¯ Ø§Ø±ÛĮ
ĠØ¢ÙĪ Ø§Ø²Ùĩ
ĠØ®ÙĦ Ø®Ø§ÙĦ
ĠØ¬Ø±ÛĮ Ø§ÙĨÛĮ
ĠÙĪØŃØ´Øª ÙĨØ§Ú©
ĠØ¬Ø§Ú© Ø§Ø±ØªØ§
ĠÙħÛĮ Ø±Ùħ
Ġt am
ĠÙĤØ±Ø§Ø± Ú¯Ø±ÙģØªÙĩ
ĠØ§Ø³Ú© ÙĦÙĩ
ĠÛĮÙĪ ØŃ
ĠØ¯Ø¹ Ø§ÛĮ
ĠØªØ±Ø¯ Ø¯
we ight
Ú¯ ÙĪØ³ÙĨ
ÙĪÙħ ÛĮÚ©
ĠØ¨ÛĮ Ø¶ÙĪÛĮ
ÙĪÙĨÛĮ ÙĪ
ĠØªÙĤ Ø·ÛĮØ±
ĠÙħÛĮØ±Ø² Ø§ÛĮÛĮ
ĠÕ ¬
ĠÙĪÙĨØ² Ø¯ÛĮ
ĠØ§Úĺ Ø¯Ø±
ĠØ°Ùĩ Ø§Ø¨
ĠØ¨Ø¨ÛĮÙĨ ÙĨØ¯
ĠØ¢ÙĦÙħ Ø±ÛĮØ§
ĠØ§ÙĨØ¶ Ø¨Ø§Ø·
ĠØ¯ ÙĦØ³
Øµ ÙĨ
ĠØ§ÙĨØ¯ Ø±Ú©
Ġg as
Ø§Ø¨Ùĩ Ø§Ø±
ĠÙĤØ¶Ø§ÛĮÛĮ Ùĩ
ĠÙħØªØ£ ÙĩÙĦ
ĠÙĪÛĮØªÙĨ Ø§ÙħÛĮ
m ark
Ø® ÙĪØ±
ĠØªØ¹ Ø§ÙĦÛĮ
Ġne ar
ĠÎ ¼
ĠØ¯Ø±ØŃØ§ÙĦ ÛĮÚ©Ùĩ
ĠØ¨Ú©Ø´ ÙĨØ¯
Ġciv il
ĠÚ© ÙĪÙĨØ¯
ĠØ¨Ùĩ Ø§ÛĮÛĮ
Øµ ÙĪØ±
Ø§Ø² ÛĮÙĨ
Ø§Ø³ Ø§Ú©ÛĮ
ĠÙĦÛĮ Ø²Ø§
Ø¬ÛĮ Ø¨ÛĮ
ĠÙĤØ· Ø¹ÛĮØª
ĠÙħØ« Ø§Ø¨Ùĩ
ĠØªØ¨ ØªÛĮ
ĠÙħÙĤØ± ÙĪÙĨ
ĠÚ¯ÙĪØ¯ Ø±Ø²ÛĮ
r ich
ĠÙģ Ø§Ø¨ÛĮ
ĠØ² Ø±ÛĮ
ĠÙĦ ÙĪØ²Ø§ÙĨ
ÙĬ Ùĩ
ĠØ§Ø±Øº ÙĪØ§ÙĨÛĮ
ĠØ§Ø¨ÙĪØ³ Ø¹ÛĮØ¯
ĠØ³Ø±ÙĪØªÙĪÙĨ ÛĮÙĨ
c raft
ĠÚ©Ùĩ Ú©Ø´
Ø¯ÛĮ Ø²
ĠØ¨Ø¯ ÙĨØ´
ĠØ®ÙĦ ÙĪØª
ĠÙħÙģØ§ ØµÙĦ
Õ °
Ø® ÙĪØ§
ĠÚĨ Ø§Ø´
ĠÚ©ÙĪ Ø³Øª
ĠÚ©ØªØ§Ø¨ Øª
Ġy a
ĠÙĨÛĮÚ© ÙĪÚ©Ø§Ø±Ø§ÙĨ
ĠØ¹Ø³ Ú¯Ø±ÛĮ
ĠÙħÙĤÙĨ ÙĨÙĩ
g han
ĠÙĨ ÙħØ§ÙĨØ¯
ĠÙħÛĮ Ø®ÛĮ
Ø§Ø¨ ÙĨØ¯
ĠÚĨ ÙĪØ³Ø§ÙĨ
ÙħÛĮÙĨ Ùĩ
it o
ĠÚĨÙĩØ§Ø± ÚĨÙĪØ¨
ĠÙ¾Ø§Ø¯ Ú©Ø³Øª
ĠØ¬Ø¯ Ø§ÛĮ
ak a
ĠÙĩÙĦ ÙĨÛĮ
ĠØ§ÙĦØ¹ ÛĮÙĨ
ĠØ¹Ø§ÙĦ ÙħÛĮ
v ision
ĠÙħ ÙĪÙĨØ§
ĠØ¯Ø§ÙĨ ØªÙĩ
ĠØ³Ø§Ø² ÙĨØ¯Ú¯ÛĮ
es c
ĠÙĨÛĮÙħ Ú©Øª
ĠÙ¾Ø±Ø¯Ø§Ø®Øª ÙĨ
ĠÙĦØŃ Ø¸Ø§Øª
ĠØ¢ÙĨØ¯Ø± Ø³
ĠÙĨØ§Ø®Ø§ÙĦ ØµÛĮ
ĠÙ¾ ÛĮÙĨÚ¯
ĠÙĪ ÙĪÙĦÙģ
ĠÙħØ³ ÙĪ
Ø§ÙĤ Ø¹ÛĮ
ĠØ¬Ø§ÛĮ Ø²
Ġv r
Ġwik imedia
ĠÚ¯ÛĮØª Ø§Ø´ÙĨØ§Ø³ÛĮ
ĠÙģÙĩÙħ ÛĮØ¯
ĠØ§ÛĮÙĨØª Ø±Ø§Ú©ØªÛĮÙĪ
ĠÙĪØ«ÛĮ ÙĤÙĩ
ĠØ± Ø¨Ú©Ø§
ÙĪØª Ùĩ
ĠÙħØ¹ ÙĦÙĪ
ĠÚ©ÙĦ Ø¯
ĠØ®ÙĪØ§ Ùģ
Ġsh ar
Ñ ħ
Ø³ Ù¾Ø±
ĠØ¯ Ú©ÙĪØ±
ĠÙĩ ÙĪÙĦØ¯
ĠØ³ Ø§Ø±Ú©
ĠØ§Ø³Ù¾ ÛĮØ³
Ø§Ø³ÛĮ Ø§ÙĨ
Ú©ÙĦ Ø±
ĠØ¨ÙĪØª Ø³
Ġfl y
ĠØ¨Ø±Ú¯Ø±Ø¯Ø§ÙĨ Ø¯Ùĩ
ĠÙĨ ÛĮÙĨØ§
ĠÙ¾ Ø§ÙĦÛĮ
ĠÙħÙĨ ÚĨ
ĠÙĦÛĮ Ø¨Ø±ÛĮØ§
Ø§Ø· ÛĮ
ØªØ´ Ø§Ø±
ĠØªØ³ ÙĦØ§
ĠÙĨØ§Ø® ÙĪØ´
ĠÚĨ Ø§Ø¨ÙĩØ§Ø±
ĠÙĦ Ø§ÙĨÚ©
ĠØªØ§ ÙĪ
ĠÙĪØ±Ø§ Ø«
Ġwash ington
ĠÙħØ³ Ø¹ÙĪØ¯ÛĮ
ĠØº Ø³ÙĦ
Ġh an
ĠØ³ÙĨ Ø§ØªÙĪØ±ÙĩØ§ÛĮ
ĠØªØ® ÙħØ¯Ø§ÙĨ
ĠØºØ° Ø§ÙĩØ§
ĠÙĪÙĨ ÙĤÙĦ
Ġsel f
ĠØ´ÙĤ Ø§ÛĮÙĤ
ĠÙħØ¯ ÛĮØ±ÛĮ
ĠØ¨Ø§ÙĦ Ø³ØªÛĮÚ©
ĠØªØ§Ø¨ ÙĪØª
Ġk b
ĠØ§Ø±ÙĪ ÛĮÙĨ
ĠØ§Ø«Ø± Ú¯Ø°Ø§Ø±
ĠÙĩÛĮÚĨ Ú¯ÙĪÙĨÙĩ
ĠØ´Ø§Ø¹Ø± Ø§ÙĨÙĩ
ĠØ³ÙĪØ§Ø¯ Ú©ÙĪÙĩ
Ġpres ent
ĠØ± Ø§Ø¯Ø±
ĠÚ¯ ÙĪØ±ÛĮ
ĠÙ¾Ø± ÙĪØ§ÙĨ
Ġl or
ĠÙĨÛĮÚ© Ø³ÙĪÙĨ
Ġtrans port
ĠÙħØ³Ø§ÙĦ ÙħØª
Ú¯ Øª
ÛĮÙĨ Ú¯ÛĮ
er ve
ĠØ¹ÙĨ ØµØ±ÛĮ
ĠØ³ÙĨ ÙĤØ±
ĠØ³Ùĩ ÛĮÙĦ
ĠÙħØ³ØªÙĨØ¯ ÛĮ
ĠØ¹ÙĨØ§ ØµØ±ÛĮ
Ġso ft
ĠØ¹Ø¨ Ø§Ø¯ÛĮ
ĠÛĮÛĮÙĦ Ø§ÙĤ
Ġdatab ase
ĠÙĦØ¦ÙĪÙ¾ ÙĪÙĦØ¯
Ø² ÙģÛĮÙĦØ¯
ĠØ´ ÙĦØ§ÙĤ
ĠØ´ÙĩØ± ÙĩØ§ÛĮÛĮ
Ġr ank
ĠØ³ØªÛĮ Ø²
Ù¾ ÛĮÙĩ
ĠÙħÙĪ Ø¹ÙĪØ¯
ĠØ§Øª ÛĮÙĦ
Ġr ail
ĠØ¢Ø± ÛĮÙĨ
ĠÙĨØ³ Ø±ÛĮÙĨ
ĠØ§Ø·ÙĦØ§Ø¹ ÛĮÙĩ
Ġro und
ĠÙĨØ§Ú¯ ÙĪÛĮØ§
Ġent ertain
ĠÚĨØ³Ø¨ ÙĨØ¯Ú¯ÛĮ
ĠÙĩÛĮÙĪÙĦ Ø§ÛĮÛĮ
o ch
v ir
ĠÙĨÛĮ Ú¯
ĠØ§ÙĦÙħ ÙĤØ¯Ø³
Ġb ag
om y
Ġst art
ĠØ¹Ø¨Ø¯Ø§ÙĦ Ø¹ÙĦÛĮ
ĠÙĨØ²Ø¯ÛĮÚ© ØªØ±ÛĮÙĨ
Ġfor ce
ĠØ±ØŃ Ø¨Ø§ÙĨÛĮ
ĠÙĪØ³Ø· Ø§ÛĮÛĮ
Ġval ley
Ġstand ard
ĠÙĩ ÛĮØ±ÙĪ
ĠØµ Ùħ
ÙĪØ³ ÙĪ
ØªØ´ Ø§ÙĨ
ĠØ¶ Ø¹ÛĮ
ur s
ĠØ§ÙĪØª ÛĮØ³Ùħ
ĠØ³Ú© Ø§ÙĩØ§
Ø²ÙĪ ÛĮÚ©
ĠÚ©Ø§Ø±ÙĦ Ø§ÛĮÙĦ
ĠØ³ÙĪØ®Øª ÙĨ
y th
Ġf ut
ĠØ¬Ø§ÛĮ Ú¯Ø§ÙĩÛĮ
ĠÙħÙħ Ø³ÙĨÛĮ
ØªÙħ Ø§Ùħ
ĠÙĪÙĦ Ø§ÛĮØªÛĮ
ĠÚ¯Ø±ÛĮ Ø®ØªÙĩ
ĠØªØ¯ Ø¨ÛĮØ±
ĠÙħÛĮÙĦÛĮØ§Ø±Ø¯ Ø±ÙĩØ§ÛĮ
ĠÙ¾ÛĮØ±Ø§ÙĨ Ø´ÙĩØ±
Ø® ÙĪÙģ
in ess
Ġd l
Ġl iter
ĠÚ©ÛĮ Ø³ÛĮ
ĠØ³Ø§Ùħ ÙĪØ¢
ĠØ¬Ø§ ÙĪÛĮ
ĠÙģÙĪØ±Øª ÙĪÙĨØ§
ĠÚ¯Ø³Øª Ø±Ø¯Ú¯ÛĮ
ĠÙħØ§Ú©Ø³ÛĮ ÙħÛĮÙĦÛĮØ§ÙĨ
Ġgir l
ĠØ¢Ùħ Ø¨Ø±
ĠØªÙĤ ÙĦÛĮÙĦ
ĠØªÙĦØ§ ÙĤÛĮ
ĠÙħØ§ÙĦÚ© ÙĪÙħ
ĠØŃØ¬ Ø§Ø²
ĠØ¨ÙĦÛĮ Ø·
Ġcp u
ĠÚ©ÙĪØ® Ø±Ø¯
ĠÙħØ³ØªØº ÙĦØ§Øª
ĠØ¹ Ø§ÛĮØ´
ĠÙĤÙĨ Ø§Ø±ÛĮ
ĠØ±ÛĮÙĨÙĪÙĦØ¯ Ø²
ĠÙħØŃ Ø³ÙĨÛĮ
ĠÚ©ÙĪ Ø¦ÙĨ
ĠØ´Ø± Ø¹
ĠØ¯Ø§Ø´Øª Ùħ
ĠØ´ÛĮ ÙģØªÙĩ
ĠÙ¾Ø°ÛĮØ± ÙĨØ¯
ĠØªØ§Ø¬ Ú¯Ø°Ø§Ø±ÛĮ
ĠÙħØ¸ ÙģØ±ÛĮ
ĠØ³ÙĪØ³ ÙĨ
we en
ĠÙĦÛĮÙĨÚ© ÙĪÙĦÙĨ
Ġmov ie
n ess
Ġ ÅŁ
Ø§Ùħ ÙĪØ³
el d
Ġv ii
ĠÙĩÙħØ±Ø§Ùĩ Ø§ÙĨ
ĠÛĮÙĪ Ø³ÛĮ
ce pt
ĠÚ©Ø§Ø±Ø¢ ÙģØ±ÛĮÙĨÛĮ
ĠÚĨÛĮØ² ÙĩØ§
ĠÙĨØ§Ú¯ Ø²ÛĮØ±
ĠÙħØ¹ØªØ¨Ø± ØªØ±ÛĮÙĨ
ĠØ±ÛĮØª ÙħÛĮÚ©
ÙĦØ§ ÙĪÙĩ
ĠÙħØ¯ ÙĦÛĮ
ĠÚ©ÙĨ Ú©
ĠØ¯Ùĩ ÙĤØ§ÙĨÛĮ
ÙĪØ¦ ÛĮØ¯ÛĮ
ĠÙĩÛĮÚĨ Ú©Ø§Ú©
ĠØ¯Ø§Ùħ Ù¾Ø²Ø´Ú©ÛĮ
ĠÙ¾ÙĪ Ø¢
ĠÚ¯ÛĮÙĦØ§ÙĨ ØºØ±Ø¨
ĠÙģØ±Ø§Ø² ÙħÛĮÙĨÛĮ
Ø±ÙĪÙĩ Ùĩ
ĠØŃÙĪØ¶ ÚĨÙĩ
ĠÚĨØ±ÚĨ ÛĮÙĦ
w in
Ð ¿
ĠØ± ÙģÛĮØ¹
ĠØ¯Ø± Ø§Ú¯ÙĪÙĨ
ĠØ¬ Ø¨Ø§ÙĦ
ĠØ§Ø³Øª ÙĪØ±
ĠØ² ÙĪØ¯Ùĩ
ÙĪÙħ Ø§Ø±
Ġt ree
ĠØ³Ø§Ú© Øª
ĠØ¨Ø±Ø§Ø¯Ø±Ø§ÙĨ Ø´
Ġht m
Ġgeorg ia
ĠÙĪØ²Ø± Ø§ÛĮ
j o
Ùħ Ø§Ú©
ĠÙĦ Ú¯ÙĨ
ĠØ¯Ø§ Ùģ
ĠØ´Ø§Ùĩ Ú©Ø§Ø±
Ġex pl
ĠÚ©ÙħÙ¾ÙĦ Ú©Ø³
ÙĪ ÙĤÙĩ
Ø§Ú© Ùĩ
Ġc ell
Ġi ee
ĠØªÙĪØ± ÙĪ
Ġcr it
ĠÚ¯ÛĮÚ¯ Ø§Ø¨Ø§ÛĮØª
ĠÙĨØ¯Ø§ÙĨ Ùħ
ĠÚ¯ÛĮØ¨ Ø³ÙĪÙĨ
Ø§Ú© Ø§Ø±ÛĮ
Ġc ab
ÙĪÚ© Ø´
am ent
ĠØ§ÛĮØ³Øª Ø§Ø¯Ú¯ÛĮ
ĠØ§ÙĦÚ©Ø³ Ø§ÙĨØ¯Ø±Ø§
ĠÙĩÛĮÙĦ Ø§Ø±ÛĮ
ĠØµØ¨ Ø§ØŃ
ĠØ¯Ø§Øº Ø³ØªØ§ÙĨ
ĠÙĦÙĪØ± ÙĦ
Ġacadem y
w an
ĠÙħØª Ø§Ú©Ø±ÛĮ
ĠØ¬ÙĪ Ø§Ø¯ÛĮ
ĠÙ¾Ø±ÙĪ Ù¾
ĠÙ¾ÙĨØ¬ Ø§Ø¨ÛĮ
ĠÙģØª ÙĨÙĩ
ĠÙĩ Ú©Ø±
ĠØ¢ ÙħØ±
ĠÙĩÙħ ÛĮ
ĠÙĨÙĪ Ú©ÛĮ
ĠØ¨ÙĦ Ø¨ÙĦ
ĠÛĮÙĩ ÙĪÙĩ
ĠÛĮØ§Ø± Ø§ÙĨÙĩ
ĠØµÛĮ Ø§Ø¯
Ġwind ows
ĠØ§ÛĮ Ú¯ÙĪØ±
ĠÙħØª ÙģÚ©Ø±
ĠÚ©ÙĪ Ø§Ø±Øª
ĠÙħÚ© ÙĨ
ĠÙĩÛĮ ÙĦÛĮ
Ø³Ø§ÙĨ Ø§ÙĨ
ĠÙĪØ§ ÙģÙĩ
ÙĪØªÛĮ Ù¾
Ø¦ÙĪØ³ ÙĨ
ĠØ¯Ø²Ø¯ÛĮ Ø¯Ùĩ
ĠÙħØªØ§Ú©Ø±ÛĮ ØªÛĮÚ©
Ø¯ ÙĪØ±
ĠØ± Ø¨ÙĪØ¯
ĠØª Ø§Ø±Ú©
ĠØ¨Ø§ ØªÛĮ
Ø§Øª Ø³ÙĪ
ĠÙĨÙĪ Ø¦ÙĦ
Ø§ÙĤ ÙĦÛĮ
Ġt p
Ġl c
ĠÚ©Ø§ÙĨ ÙĨ
ĠØªØ¬ ÙĦÛĮ
ĠÙģÙĨ ÛĮÙĦ
ĠØªØ±ØªÛĮ Ø¨ÛĮ
ĠÙĪÛĮÙĨ Ø³ØªÙĪÙĨ
ĠØ§ØªØ§ÙĤ Ú©
ĠÙģØ±Ø§Ø® ÙĪØ§ÙĨØ¯Ùĩ
ĠØªØ¨ÙĦ ÙĪØ±
ĠØ³ Øº
ĠØ¯ÙĪ Ø¨Ø±
ĠØ¢ÙĦ ÙĪØ§Ø±
Ġt an
ÙģÛĮ Ø§ÙĨ
ĠØ¨ÙĦ ÙĪØ±ÙĩØ§ÛĮ
ĠÚĨÙĨØ¯ Ø¢ÙĩÙĨÚ¯
Ú©ÙĪ Ù¾ÛĮ
ĠØ¨Ø§Ø²Ø¯Ø§Ø´Øª Ú¯Ø§Ùĩ
Ø¬ ÙĦ
ĠØ¨Ø± Ø´ØªÙĩ
Ø§Øª ÙĪÙĨ
Ġr na
ĠØ³Ùĩ ÛĮÙĦÛĮ
ĠÙħØªØ± ÛĮÚ©
ĠÙĩÙĪ Ø§Ø²ÛĮ
ĠØ§Ø³ØªØ¹ Ø§Ø±Ùĩ
Ø¨ÙĦØ§ Øº
ĠØ®ÙĦØ§ÙĤ Ø§ÙĨÙĩ
ĠØ§Ø±Ú¯Ø§ÙĨ ÛĮÚ©
Ġislam ic
ĠØ§ÙĪØ¯ÛĮÙĨ Ø²Ùĩ
ĠØ® ÛĮØ³
ĠØ³Ø± ØŃØ¯
ĠÚ©ÙĪ Ø§Ø±Ú©
ĠØŃÚ© Ø§Ùħ
ĠÚĨÛĮ Ù¾
ĠÙħØŃÚ©ÙĪÙħ Ø§ÙĨ
ĠÙģÙĪØ± Ø¨Ø²
ĠØµØ± Ø¹
ĠÙĦÛĮØ¨Ø± ØªØ±ÛĮÙĨ
ĠÙģØ¯ Ø§ÛĮÛĮ
Ġdan iel
ĠÙģØ§Ø±ÙĨ ÙĩØ§ÛĮØª
Ġ Ã¶
ĠÙĪ ÙģØ§
ĠÙĪ Ø§ÙĨØª
ÚĨ ÛĮÚ©
ĠØ´ÙĩØ± Ø¨Ø§ÙĨÛĮ
ĠÙħØ³ Ø§ØŃØªÛĮ
Ġa q
ĠØ³ÙĦ Ø·
ĠÙĨØ¯ Ø§ÛĮ
Ġsp e
Ġbe h
Ð¸ Ð½
ĠÙ¾ÙĨØ¯ Ø§Ø´Øª
Ġpres ident
ĠØ´ ÙĪÙ¾
ĠØ· Ø¨ÙĦ
ĠÙħÙĨØ§Ø¨Ø¹ ÛĮ
ĠÙĨÙĪ ÙĪØ§Ø±Ø§
is a
ĠØ´ÙĩØ±ÛĮ Ø§Ø±ÛĮ
ian t
ĠÙĨØ§Ù¾ Ø°ÛĮØ±ÛĮ
Ø¨Ø±ÙĪ Ø²
ÙĪÙĨ ÙĦÙĪ
ĠÚĨ Ø·ÙĪØ±
ĠØ§ÙĦ ÙĤØ±
ĠÙĦ ÙĪØ±Ú©ÙĪØ²ÙĨ
ĠÛĮØ§Ø¯ Ú©Ø±Ø¯ÙĩØ§ÛĮ
ĠØ´Ø§ ÙĪ
ĠØ¨ÙĨØ¯ ÛĮÚ©Øª
ĠÙĦÛĮÚ© Ø±Ø²
ĠØ¨ÛĮØ§ ÙĪØ±ÙĨØ¯
ĠØ§ÙĨØ³ Ø¯Ø§Ø¯
ĠÚĨÙĨØ¯Ø¢ÙĩÙĨÚ¯ Ùĩ
o ad
Ø§ÙĨØ³ Ú©ÛĮ
ĠÚ©ÙĪ ÙĩØ±
ĠØªÙĦ ÙĪÚ¯ÙĪ
ĠØªØ¹ Ø§Ø±Ø¶
ÙĬ ÙĦ
ĠÙħØ´Ø§Ø±Ú© ØªÛĮ
ĠØ¨Ø§Ú© Ø±Ùĩ
ĠÙħÙĨÙĩ Ø¯Ùħ
ĠØ²ÙĨØ§ Ø´ÙĪÛĮÛĮ
ØŃ Ø§ØªÛĮ
ĠÚĨ Ø§Ùħ
ĠØ§ÙĦ Ø§Ø¬
Ġk at
ĠÙĨÛĮØ§ ÙĪØ±Ø¯
ĠØŃØ¬ ÙħÛĮ
ĠÙģÙĩ ÙħØ¯
Ġwom an
ham mad
Ú©Ùħ ÙĪÙĨÛĮØ³Øª
ĠØ§Ø±ÛĮ ØªØ±Ùĩ
ĠØ¯Ø³ØªØ® ÙĪØ´
Ú© ÙĨÛĮ
ĠØ± Ø§ÙĨØ¯ÙĨ
ĠÙ¾ Ø§Ú¯
ĠØ§ÙĦ Ø±ØŃ
ĠØªØ± ÙĪÛĮ
ĠÙħØº Ø§ÛĮØ±
ĠØ¢Ø³ Ø§ÛĮØ´
ĠØ±Ø§Ø³Øª ÛĮÙĨ
cr ipt
ĠØªÙĪÛĮØ³ Ø±Ú©Ø§ÙĨ
p end
Ú© Ùģ
ÛĮØª Ø²
ĠÙģØ± Ø´ÛĮØ¯
ĠØ¨ÛĮ Ø¶Ùĩ
ĠØ§Ø¯ ÙĪÛĮÙĨ
ĠÚĨØ§Ù¾ ÙĦÛĮÙĨ
ĠÙħÙĪÙĤ ØªÛĮ
ĠØ³ÙĪÙĨ ÛĮÚ©
ĠÙĦÙĪØ± ÙĨØ³
ĠØ¯ÙĪÙĤÙĦ ÙĪÙĩØ§ÛĮ
ĠØ³Ø¬ Ø§Ø¯ÛĮ
r ed
ĠÚĨ ÙĦÛĮ
ĠØ®ÙĦ ÙģÛĮ
Ø¹ ØµØ±
ĠÚĨ Øª
Ø±ÙĪ Ø¦ÙĨ
ĠÚ©ÙĨ Ùĩ
ĠØªØ´ Ø¹Ø´
Ġde ath
ĠÙĩÛĮØ¯Ø± ÙĪÙĦÛĮÚ©
ĠØ³Ø§Ø±Ø§ÛĮ ÙĪÙĪ
ĠÚ©Ø§Ø± ÙħÙĨ
ĠÙĪØ§ÛĮ Ø§Ø¯ÙĪÙĦÛĮØ¯
Ġsup port
ĠØ¯ÛĮÙĪÛĮ Ø³ÛĮÙĪÙĨ
Ġappl ic
ĠÙħ Ú¯ÛĮ
Ú¯ ÙĪØ§Ø±
ĠØ² ÙħØ²
ĠØ§Ø³Ù¾ ÙĦÛĮØª
ĠÙħÙĦ Ø§ÙĨ
ĠØªÙħØ§Ùħ ÛĮØª
ĠØºØ± Ø§ÙħØª
ĠÙĨÛĮØª Ø±Ø§Øª
ĠÚ©Ø±Ø§ ÚĨÛĮ
ĠÚ¯ÙħØ§ Ø´ØªÙĩ
ĠØ² ÙĪØ§ÛĮ
ĠØ³Ø± ÙĪØ¯ÙĨ
ĠÙ¾ÙĪ Ø²Ùĩ
ĠÙĨØ§Ø¨ ÛĮÙĨØ§
ĠØ¨Ø±Ø¢ ÙħØ¯Ùĩ
Ġus ed
ĠÙĨØªÙĪØ§ÙĨ Ø³ØªÙĩ
ĠÙĪÙĦÙģ Ú¯Ø§ÙĨÚ¯
ĠÛĮÙĪ Ø¨ÛĮ
ĠØŃÙĤÙĪÙĤ Ø¯Ø§ÙĨ
ĠÙĨÙĪØ´Øª Ø§Ø±ÙĩØ§ÛĮ
ĠØ§Ø³Ø±Ø§ÛĮ ÛĮÙĦ
ĠØ¨Ø§ÛĮÙĨ Ø±ÛĮ
Ù¾Ø± ÙĪØª
ig an
ĠÚ¯Ø² ÛĮØ¯
ĠÙħØªØºÛĮØ± ÙĩØ§
ĠÙĪ ÙĪØ¯ÛĮ
ĠØ§Ùħ Ø¶
ØªÛĮ Ø¬
ĠÙģØ¹Ø§ÙĦÛĮØª ÙĩØ§ÛĮ
ĠÙģÙĤ Ø±Ø§Øª
ĠØ¨Ø¯ÙĨ Ø¨Ø§ÙĦ
ĠØ¢ÙĨØ¯ Ø±Ø§
ĠÙħÛĮÙĦÙĪ Ø§Ú©ÛĮ
ĠØ³ÛĮØ±Ø§ÙĦ Ø¦ÙĪÙĨ
Ø¨ Ø§Ø´
ĠÙĨØ´ ÙĪÛĮÙĦ
ĠØ®Ø¯ Ø§Ø¯
Ø¸Ùĩ ÙĪØ±
ĠØªØ³ ÙĦÛĮØª
ĠØ¨Ø±Ø§ÙĨ Ú©Ø³
ĠØ·Ø±ÙĤ Ø¨Ùĩ
ĠÙĪ ØªØ®Øª
Ġm es
ĠÙĨÛĮØ§Ø² ÙħÙĨØ¯ÛĮ
Ġorig inal
ĠÚ©ÛĮØ§Ø± Ø³ØªÙħÛĮ
ĠÙħØŃÙģÙĪ Ø¸
v o
Ø´ ÛĮØ¯ÛĮ
ĠØ¨Ø§Ø² Ø¯ÙĩÛĮ
ĠØ±ÙĪ Ø§ÙĦ
in um
ĠÙħØ±Ú© Ø¨Ø§Øª
ĠÙħÙĨØ´ Ø¹Ø¨
ĠØ§Ø±Ø¬ ÙħÙĨØ¯
Ø¹Ø¨Ø¯ Ø§ÙĦÙĦÙĩ
ÙĪÙĦ Ø±
ĠÚ¯Ø± Ø§Ø¯ÛĮØ§ÙĨ
Ġb x
Ġd ark
ĠÙ¾ÛĮØ§Ùħ Ø¯
ĠØ³Ø§ÛĮ Ø¨Ø±
ĠØ¢ÙĨØ¯ ÙĪØ±Ø§
Ġarmen ian
ĠØ¨Ø§Ø²Ø¯ÛĮØ¯ Ú©ÙĨÙĨØ¯Ú¯Ø§ÙĨ
ĠÙĦÙĪØª ÙĪÙĨ
ĠØ¨Ø±Ú¯Ø±Ø¯ Ø§ÙĨØ¯
ĠÙģÙĦØ§Ùħ ÛĮÙĨÚ¯ÙĪ
ÙĨØ§Ø³ÛĮÙĪÙĨ Ø§ÙĦ
b on
ĠØ¨ Ø³ØªÙĨØ¯
ĠÙģ ÙĨØ¬Ø§ÙĨ
ĠÚ©Ø§Ø± Ú¯Ø²Ø§Ø±Ø§ÙĨ
ĠØ¢ÙĦ ÙħØ§
ĠØ³Ø§ ÙĪ
ĠØ±Ø§Ùĩ Ø±ÙĪ
Ġge ograph
ĠÚ©ÙħØ§ÙĨ ÚĨÙĩ
Ġmeth od
ĠØ§ ÙĪØ±Ø¯
ĠÙħØ¯ ØŃ
ĠØ´Ùĩ ÛĮØ§Ø±
ag a
ĠØ³Ø§Ùħ Ø§ÙĨÛĮØ§ÙĨ
ĠØ±Ø¶Ø§ Ø®Ø§ÙĨ
ĠÙĦØº Ø§Øª
ĠØ§ÙĦØŃ Ú©Ùħ
Ġab c
ĠØ¯Ø±Ø®Ø´ Ø§ÙĨÛĮ
ĠÚ©Ø§Ø±ÙĦØ³ Ø±ÙĪÙĩÙĩ
ĠØ³Ø§ÙĨÚĨ Ø²
Ġentertain ment
ĠØ¨Ø± Ú©Øª
ĠØ¹ Ø§Ø±ÛĮ
ĠÙħØŃ Ø³ÙĪØ³
Ġc z
ĠØ¯ÙĦ ÙĤ
ĠØ¨Ø§Øº ÚĨÙĩ
ĠØ§Ø±ÛĮÚ© Ø³ÙĪÙĨ
ĠÙĨØ¦ ÙĪÚ©
ĠØ¯ÙĪØ²ÛĮ Ø³ØªØ§ÙĨ
Ġiee e
Ø¯ Ø®Øª
id o
Ú¯Ø±ÙģØª ÙĨ
Ġfilm s
ĠÙħÙĪØ¯ ÙĨØ§
ĠØªØ¹ÙħÛĮØ± Ø§Øª
ĠØ®ÙĪÛĮØ´Ø§ÙĪÙĨØ¯ Ø§ÙĨ
Û İ
ĠÙħ Ø¶Ø§
ĠØº ÙĦÛĮ
Ġr at
Ġg ab
ĠØ³ÙĦ Ø³ÛĮÙĪØ³
ĠÚ¯Ø§Ø² ÙĩØ§
ĠØ®Ø±ÛĮØ¯ Ø§Ø±Ø§ÙĨ
ĠÚ©Ø§ÙħÙ¾ÛĮÙĪØªØ± ÙĩØ§ÛĮ
ĠÙĦØ§ÛĮÙĨ Ø²
ĠØ· Ùĩ
ĠØ¯ÙĪØ± Ø¯Ø³Øª
Ġa le
av en
ĠÙħØ¹Øµ ÙĪÙħÛĮ
ĠÙĪÛĮØ¯ÛĮ ÙĪÛĮ
Ø§ ÙĪÙĨ
ĠÙĦ ÙĪÙĩ
ĠÚ©Ø§Ø± ÙĨÚ¯ÛĮ
ĠÙ¾Ø± Ø§ÙĨ
al ian
ĠØ±ÛĮ ÚĨÛĮ
ĠÙħØŃÙħØ¯ Ø®Ø§ÙĨ
ĠØ®ÙĪØ§Ùĩ Ø±Ø²Ø§Ø¯Ùĩ
ĠØ´ÙĪ Ø´ØªØ±ÛĮ
ĠØ¨ÙĦÙĨØ¯ ÙħØ¯Øª
Ø¬Ø¹ ÙģØ±
ĠÙħÛĮØª ÙĪÚ©
Ġbet ween
ĠØª ÙĨÚ¯ÛĮ
ĠØ³ ÙĪÙĨØ¯
ØŃ Ø¯ÛĮ
ĠØ¨Ø± Ø§Ùħ
ĠÙĩØ§ Ø³
ĠÙħØ± Ø¨Ø¹ÛĮ
ĠÚ©ÙĦ ÙĪÛĮÙĨ
ĠØ³Ùģ Ø§ÙĦÛĮ
ĠØ§Ø±ØªØ´ Ø¨Ø¯
ĠØ¨Ø§Øº Ø¨Ø§ÙĨÛĮ
ĠÚ©Ø±ÛĮØ³Øª Ùģ
Ã© n
ĠÚ©ÙĦÙħØ¨ ÙĪØ³
ĠÚ©Ø§ÛĮ Ø²Ø±
ĠÛĮØ§Ø³ÙĪ Ø¬
ĠÙ¾ÙĪÛĮ Ø§ÛĮÛĮ
ĠØ¢ÙħØ§ÙĨ Ø¯Ø§
ĠØ¬ Ø«Ùĩ
ÙĦØ§ ÙĪØ§
ic ht
ĠØ¢ÛĮ ÛĮÙĨÙĩ
ĠØ§Ø¹ØªÙħ Ø§Ø¯ÛĮ
ĠØ§ÙħØ§ÙĨ Øª
ĠÙĦÙĨÛĮÙĨ Ú¯Ø±Ø§Ø¯
ĠÙĩØ±Ùħ Ø³
ĠÚĨØ³ Ø¨ÛĮØ¯Ùĩ
ĠÙħØ³Ùħ ÙĪÙħ
ĠØŃØ³Ø§Ø¨Ø± Ø³ÛĮ
ĠØ´Ø¨ ÙĨÙħ
ĠØ³ÛĮØ¯ Ø¹ÙĦÛĮ
Ġsh o
ĠØºØ± ÙģÙĩ
ĠØ¢Ú¯ÙĪØ³Øª ÛĮÙĨ
Ġng c
ĠØ§ÙĦØ« Ø§ÙĨÛĮ
Ù¾ÙĪØ±ÛĮ Ø´ÙĨ
ĠØ¨Ø± Ø§ÙĤ
ĠÛĮÙĪ ÙĪÛĮ
ĠØ±Ø§Ø³ ÛĮÙĨÚ¯
ÚĨÙĨ Ú©ÙĪ
ĠØ§ÙģØ´ Ø§Ø±ÛĮ
ĠÙĨØ¯ÛĮ Ø¯Ùĩ
Ø¨ Ø³Øª
ĠØ¨Ø± Ø¯ÛĮ
ĠÙħØ¯ Ø§Ùħ
ÙĪØ³ ÙĪØ±
ĠØ§Ú© Ø³Ù¾
ĠÙĨÙĩ Ø§Ø¯ÙĩØ§
ĠØŃØ§ØµÙĦ Ø®ÛĮØ²
ĠÙ¾ÛĮØ´Ú© Ø³ÙĪØª
ĠÙħØ±Ø®Øµ ÛĮ
ÙĨ ÚĺØ§Ø¯
ĠÙĩ Úĺ
Ø±Ú© Ùĩ
Ġp ac
Ġk an
ĠÙĨØ§Ú© Ø§Ø±
ĠØ®Ø±ÛĮ Ø¯Ø§Ø±
Ø§Ø¦ Ùĩ
ĠØ¨Ø±Ú¯Ø±Ø¯ Ø¯
ĠÚ© ÙĪÙĦÙĩ
ĠÙģ Ø§Øª
ĠØ¨Ø± Ø§Ùĩ
Ġa ff
ĠÙħØŃØµÙĪÙĦ Ø§ØªÛĮ
ĠÙĪÛĮØ¯Ø¦ ÙĪÙĩØ§ÛĮ
ĠØ¨ÙĪØ±Ú© ÛĮÙĨØ§Ùģ
Ġglob al
ĠØ¯ÛĮÙħÛĮØª Ø±ÛĮ
k t
v ers
ĠØ¨Ø§ Ø³ÙĪ
ĠÙĦ Ø¯
ĠÙĪÛĮ Ø²Ø§
ĠÙĨØ§ ÙĪÙĩØ§ÛĮ
ul ts
ĠØ¢ÙĨØ¬ ÙĦØ§
Õ¡Õ ¯
ĠÙħØ¨ÙĦ ØºÛĮ
ĠØ§ÙĨØ¯Ø§Ø®Øª ÙĨØ¯
ĠÙħ Ú¯Ø§ÙĨ
ĠÚĨ ÙħØ±Ø§ÙĨ
ĠÙħØª Ø§ÙĨ
ĠØ¨Ø²Ø±Ú¯ Ø³Ø§ÙĦÛĮ
Ġk han
ÙĬ Ø´
ĠÙĤØ¯Ø±ØªÙħÙĨØ¯ ØªØ±ÛĮÙĨ
Ø§Ø¨ÙĨ ÙģØ´
ĠÙħÙĦØ§ØŃ Ø¸Ø§Øª
Ġsour ce
ĠØ¢ÙĨØ² ÛĮÙħÛĮ
b ar
Ø³Øª Ø§Ø±
ĠÙĩÙħ Ø®ÙĪØ§ÙĨÛĮ
ĠÚ¯Ø° Ø±Ø§
Ġj on
ĠØ¨ÙĦ Ø§Ø¯
ĠØ®ÙĪØ§ÙĨ Ø´
ol o
Ġmin nes
ĠÙħØªØ§ÙĦ ÙĪØ±
Äģ n
ĠÙħØ¨Ø§Ø±Ú© Ùĩ
ĠØ´ ÙģØª
ĠØ¨Ø± Ø§ÙĨØ¯ÙĨ
ĠÙĩÙħ Ú¯ÙĨ
ĠÚ©ÙĪ Ø§Ø±ØªØ²
Ġn l
el and
ĠØ¢ÙģØª Ø§Ø¨ÛĮ
ĠÙħØªØ®ØµØµ ÛĮÙĨ
ĠÛĮÙĪØ± Ú¯ÙĨ
ĠÙĨØµÛĮ Ø¨
hedr al
ĠØ¢ ÛĮÚ©
ĠÙħÛĮÙĦ Ø²
ĠÙħØ¹ ÙĤÙĪÙĦ
ĠÚ©ÙĦØ§Ùĩ Ø¨Ø±Ø¯Ø§Ø±ÛĮ
ĠØ¨ÙĨÙĪÛĮØ³ Ø¯
ĠÙĨØ§Ø§Ùħ ÛĮØ¯ÛĮ
ĠØ¯ ÙĨØ§
ĠÚ© Úĺ
ĠØ±ÙĪ Ø³Ø§ÛĮ
ĠÙħØ± Ø¬Ø§ÙĨÛĮ
al og
Ġg y
ĠÙĨØ´Ø§ÙĨ Ú¯Ø§ÙĨ
Ġv n
ĠØ¬Ø± Ø§ÙĦØ¯
ĠØªØ§Ø± ÙĨÙħØ§ÛĮ
ĠØ¨Ø±Ø¢ÙħØ¯ Ú¯ÛĮ
ÙģÙĪØ±ÙħØ§Øª ÛĮÚ©
ĠØ¢ÙĦØªØ±ÙĨ Ø§ØªÛĮÙĪ
ĠÙĨØ·ÙĨ Ø²
ÙĪØ± Ø³Ú©ÛĮ
ĠÙģØ± ÙĨÚ¯
ĠÙĪØ± Ø²ÛĮ
ĠØ§Ø´ ÙĨ
ĠØ¯Ø±ØµØ¯ Ø¯
ĠØªØ§ÛĮ Ù¾Ùĩ
Ä± n
ĠØŃØ§ÙħÙĦ Ú¯ÛĮ
Ġste ph
Ġminnes ota
ĠÚ© ÙĪØ§
ĠØ¯Ø± Ø¨Ø±Ø¯Ø§Ø±
ĠØ¨Ø§ Ø§Ø±
ĠÚ¯ Ø§Ø¨ÙĨ
ĠÚĨ Ø§ÙĤÛĮ
ĠÙĨÛĮ Ø§ÛĮ
ĠØªÙĪØ³ Ú©Ø§ÙĨÛĮ
Ġb ac
ĠØªÙĦ Ùħ
Ġg un
ĠØ¨Ø§ÙĦ Ú¯Ø±Ø¯ÙĩØ§ÛĮ
ĠÙħÙĦ ÙĪØ¯
ĠÙĪÙĦ ÛĮÚ©ÙĨ
ĠØŃÛĮ Ø·Ùĩ
ĠÙ¾Ø±ÙĪØ§Ø² Ø´
Ġed u
ĠØ§Ø³Ùħ Ú©
ÖĢ Õ
ĠØ§Ø³Ù¾Ø§Ø±Øª Ø§
ĠÙħØ¯ÙģÙĪÙĨ Ø§ÙĨ
ĠØ¨Ù¾ÛĮÙĪÙĨØ¯ Ø¯
ĠÙħ Ù¾
ĠÙģ ÛĮØ§
ĠØ²ÙĨØ¯ ÛĮÙĩ
Ø§Ø¨ÙĦ Ø§ÙĨÚ©Ø§
ĠØ±Ø§Ùĩ Ø¨Ùĩ
ĠØªÙģ Ø³ÛĮØ±ÛĮ
[...]
