{"<s>":0,"<pad>":1,"</s>":2,"<unk>":3,"<mask>":4,"0":5,"1":6,"2":7,"3":8,"4":9,"5":10,"6":11,"8":12,"9":13,"F":14,"I":15,"J":16,"M":17,"P":18,"R":19,"S":20,"T":21,"U":22,"W":23,"X":24,"Y":25,"Z":26,"_":27,"a":28,"b":29,"c":30,"d":31,"e":32,"f":33,"g":34,"h":35,"i":36,"j":37,"k":38,"l":39,"m":40,"n":41,"o":42,"p":43,"q":44,"r":45,"s":46,"t":47,"u":48,"v":49,"w":50,"x":51,"y":52,"z":53,"¡":54,"¢":55,"£":56,"¤":57,"¥":58,"¦":59,"§":60,"¨":61,"©":62,"ª":63,"«":64,"¬":65,"®":66,"¯":67,"°":68,"±":69,"²":70,"³":71,"´":72,"µ":73,"¶":74,"·":75,"¸":76,"¹":77,"º":78,"»":79,"¼":80,"½":81,"¾":82,"¿":83,"Ã":84,"Ä":85,"Å":86,"Æ":87,"Ç":88,"È":89,"É":90,"Ê":91,"Ë":92,"Í":93,"Î":94,"Ï":95,"Ð":96,"Ñ":97,"Ò":98,"Ó":99,"Ô":100,"Õ":101,"Ö":102,"×":103,"Ø":104,"Ù":105,"Ú":106,"Û":107,"Ü":108,"Ý":109,"Þ":110,"ß":111,"à":112,"á":113,"â":114,"ã":115,"ä":116,"å":117,"æ":118,"ç":119,"è":120,"é":121,"ê":122,"ë":123,"ì":124,"í":125,"ð":126,"Ġ":127,"Ģ":128,"ģ":129,"Ĥ":130,"ĥ":131,"Ħ":132,"ħ":133,"Ĩ":134,"ĩ":135,"Ī":136,"ī":137,"Ĭ":138,"ĭ":139,"Į":140,"į":141,"İ":142,"ı":143,"Ĳ":144,"ĳ":145,"Ĵ":146,"ĵ":147,"Ķ":148,"ķ":149,"ĸ":150,"Ĺ":151,"ĺ":152,"Ļ":153,"ļ":154,"Ľ":155,"ľ":156,"Ŀ":157,"ŀ":158,"Ł":159,"ł":160,"Ń":161,"ĠØ":162,"Ø§":163,"ÛĮ":164,"Ø±":165,"ÙĨ":166,"Ùĩ":167,"Ø¯":168,"Ùħ":169,"ÙĪ":170,"Øª":171,"ÙĦ":172,"ĠØ§":173,"Ú©":174,"Ø³":175,"ĠØ¨":176,"ĠÙħ":177,"Ø§ÙĨ":178,"ĠØ¯":179,"Ø²":180,"Ø¨":181,"ĠØ±":182,"ĠÙ":183,"Ø¯Ùĩ":184,"Ú¯":185,"Ø§ÛĮ":186,"Ø´":187,"ĠÚ©":188,"Ø§Ø±":189,"Ø³Øª":190,"ĠÙĩ":191,"ĠØ¯Ø±":192,"ĠØª":193,"ĠØ´":194,"ĠØ³":195,"ĠÙĨ":196,"ÛĮÙĨ":197,"Ø§ÙĦ":198,"Ùģ":199,"ĠØ±Ø¯Ùĩ":200,"Ø¹":201,"ĠØ¢":202,"ÙĨØ¯":203,"ĠÙģ":204,"ÙĪØ±":205,"ÙĤ":206,"ĠØ¨Ø§":207,"ĠØ¨Ùĩ":208,"ÛĮÚ©":209,"ĠÙ¾":210,"ĠÙħÛĮ":211,"Ø§Ø¯":212,"Ø®":213,"ĠØ§Ø²":214,"Ø¬":215,"Ø§Ùħ":216,"ĠØ¬":217,"ĠÙĩØ§ÛĮ":218,"ĠØ§Ø³Øª":219,"ÙĪØ¯":220,"ØŃ":221,"ÛĮØ±":222,"ĠØ¨Ø±":223,"ĠÙĪ":224,"Ø§Ùĩ":225,"ÙĦÛĮ":226,"ÙĪÙĨ":227,"ĠÚ¯":228,"Ø§Ø¨":229,"ĠØ®":230,"Ø§Øª":231,"ĠØ²":232,"ĠÚ©Ùĩ":233,"Ø·":234,"Ø±Ø¯":235,"ĠØ¹":236,"ÚĨ":237,"Ù¾":238,"Ø³ÛĮ":239,"ÙĪÛĮ":240,"Øµ":241,"ÛĮÙĦ":242,"ĠØ¨Ø§Ø²":243,"Ø±ÛĮ":244,"ÛĮØ§":245,"ĠÙĤ":246,"ĠØ§ÛĮÙĨ":247,"ĠØ±Ø§":248,"ĠØŃ":249,"Ø´Øª":250,"ĠØ§ÛĮ":251,"Ø§ÙĨÛĮ":252,"ĠÙħÙĨ":253,"ÙĩØ±":254,"ÙĪÙĦ":255,"Ø§Ø±ÛĮ":256,"Ø§Ø¯ÛĮ":257,"ÙĪØª":258,"ĠØ§Ùĩ":259,"ĠÛĮÚ©":260,"ÙĪØ§ÙĨ":261,"ĠØ¢ÙĨ":262,"ÛĮØª":263,"Ú¯Ø§Ùĩ":264,"Ø§Ø²":265,"ÙħØ±":266,"ÙĨÚ¯":267,"ĠÙĩØ§":268,"Ø§ÛĮÛĮ":269,"ÙĪÙħ":270,"ÙģØª":271,"ĠØ´Ø¯Ùĩ":272,"Ø¦":273,"ĠØ§ÙĩÙĦ":274,"ĠÙħÛĮÙĦ":275,"ÙħØ§ÙĨ":276,"ĠÙģØ±":277,"ĠÚĨ":278,"Ø³ØªØ§ÙĨ":279,"Ú¯Ø§ÙĨ":280,"ĠÙħØª":281,"ĠØ³Ø§ÙĦ":282,"ÛĮØ¯":283,"ÛĮÙħ":284,"ĠÙħÛĮÙĦØ§Ø¯ÛĮ":285,"Úĺ":286,"Ø®Øª":287,"ĠØ´Ø¯":288,"ĠÙģÛĮÙĦ":289,"Ø±Ø§":290,"ÙĩØ§ÛĮ":291,"Ø±ÙĪ":292,"Ø¶":293,"ĠÙģÛĮÙĦÙħ":294,"ĠØ§ÙĦ":295,"Ø°":296,"ĠÙĦ":297,"Ú¯Ø±":298,"Ø¨Ø§ÙĦ":299,"Ø§Ø¯Ùĩ":300,"ĠÙĩÙħ":301,"ĠØ±ÙĪ":302,"ĠØ§ÙĪ":303,"ĠÚ©Ø±Ø¯":304,"Ø§Ø³":305,"ÙĨØ§ÙĨ":306,"ĠØ§ÙĨ":307,"Øº":308,"ĠØ§Ø³":309,"ĠØ·":310,"ĠØ¨ÙĪØ¯":311,"ĠØªÙĪ":312,"ĠØ´ÙĩØ±":313,"ĠØµ":314,"ĠØ¨Ø§Ø´":315,"ĠØ¨Ø±Ø§ÛĮ":316,"Ø«":317,"Ø±Ú©":318,"ÙħØ±ÛĮÚ©":319,"ĠÙģÙĪØª":320,"ĠÙ¾ÛĮ":321,"ĠØ¨Ø§Ø²ÛĮÚ©":322,"ĠØ¨Ø§Ø²ÛĮ":323,"Ø¨ÛĮ":324,"ĠØ¢ÙħØ±ÛĮÚ©":325,"ĠÙģÙĪØªØ¨Ø§ÙĦ":326,"ÙģØ±":327,"Ø§Ø¨Ø¹":328,"ĠØ¯Ø§Ø±":329,"ØªØ±":330,"ĠÙħØŃ":331,"ĠÙħÙĪ":332,"ĠÚ©Ø§Ø±":333,"Ø§ÙĦÛĮ":334,"ĠÙħÙĨØ§Ø¨Ø¹":335,"ĠØ§Ùħ":336,"ĠØ¨Ø§Ø²ÛĮÚ©ÙĨØ§ÙĨ":337,"Ø¸":338,"Ø¨Ø±":339,"Ø²ÛĮ":340,"ÙĨÛĮ":341,"ĠÛĮ":342,"ÙĦØ§":343,"ĠÙħØ¯":344,"ÙĨØ¯Ùĩ":345,"ĠØ§ÛĮØ±":346,"ĠÚ©ÙĨ":347,"Ø§ÙĦØ§Øª":348,"Ø§Ø±Ùĩ":349,"Ø§ÙĨÙĩ":350,"ĠØ¨ÛĮ":351,"ÙĪØ±ÛĮ":352,"ĠÙĨØ§Ùħ":353,"ĠÛĮØ§":354,"ĠØ¯Ø§":355,"ØªÛĮ":356,"ĠØ´ÙĪØ¯":357,"ÙħÛĮ":358,"ĠØ¯Ø§ÙĨ":359,"ĠØ®ÙĪØ¯":360,"Ø§Ú©":361,"ĠØ¢ÙħØ±ÛĮÚ©Ø§":362,"ĠÙħØ³":363,"ÙĤÛĮ":364,"ÙĪÙĨØ¯":365,"ĠØ¯ÛĮ":366,"ĠÙħØªØŃ":367,"ĠÙħØ¹":368,"ĠØ¯ÙĪ":369,"ĠÙĨÛĮ":370,"ĠØªØ±":371,"ĠØ³Ø±":372,"ĠØ¯Ùĩ":373,"ĠØªØ§":374,"ĠÚ¯Ø±":375,"ĠÙħØªØŃØ¯Ùĩ":376,"ÙĦÙĩ":377,"ĠÙ¾Ø±":378,"ĠØ§ÛĮØ§ÙĦØ§Øª":379,"ÙĩØ§":380,"ĠÚ©Ø±":381,"ÙĨØ§":382,"ĠØ¨Ø§Ø´Ú¯Ø§Ùĩ":383,"Ø´Ú©":384,"ĠÙħØ¬":385,"ĠÙħØ±":386,"ĠÙĪÛĮ":387,"ĠÙĨÙĪ":388,"ĠØ¬Ùħ":389,"Ú¯ÛĮ":390,"Ø¯ÛĮ":391,"ÙĪÙĨÛĮ":392,"Ø§ÙĤ":393,"Ø³ØªÙĩ":394,"an":395,"ĠØ§ÛĮØ±Ø§ÙĨ":396,"Ø´ÛĮ":397,"ĠØ¯ÙĪØ±":398,"ÙħÙĪ":399,"ÙĪØ±Ø¯":400,"Ġs":401,"ÙĨØ¯Ú¯Ø§ÙĨ":402,"ĠÙĤØ±":403,"ĠØ³ÛĮ":404,"Ø¹Ùĩ":405,"ĠÚĺ":406,"er":407,"ĠØº":408,"ĠÙħØ±Ø¯":409,"ĠØ§Ø±":410,"in":411,"ĠÙĨÙĤ":412,"Ġp":413,"ĠÚ©ÙĨØ¯":414,"ĠØ¢ÙĦ":415,"Ġt":416,"ĠÚ©Ø´":417,"Ġc":418,"ÙħØ§ÛĮ":419,"ĠØ³Ø§":420,"ĠØ¹ÙĨ":421,"ÙĪØ§":422,"Ø´ØªÙĩ":423,"ÙħØ¯":424,"ĠØ§ÙĦÙħ":425,"ĠØ¯Ø§Ø±Ø¯":426,"ÙĪØ³":427,"ĠÙħÙĤ":428,"ĠØ¯Ø§ÙĨØ´":429,"ĠØ¹ÙĨÙĪØ§ÙĨ":430,"ÙħÛĮÙĨ":431,"on":432,"ÛĮÙĩ":433,"Ø¯Ø§":434,"ĠØ§ÙĨØ¯":435,"ĠÙ¾Ø³":436,"Ġa":437,"ĠØªÙĪØ§ÙĨ":438,"ĠÙĦÛĮ":439,"ÙĤÙĩ":440,"ĠØªÙĪØ³":441,"Ø§ÙħÙĩ":442,"ĠØ¯Ø³Øª":443,"ÙĨÙĪ":444,"ĠØ§ÙĨÚ¯":445,"Ø¨Øª":446,"Ø¹ÛĮ":447,"ÙģÛĮ":448,"ÙģØªÙĩ":449,"Ġm":450,"Ø¨Ø§ÙĨ":451,"Ø§ÙĨØ³":452,"ĠÚ©ÙĪ":453,"Ø¨Ùĩ":454,"Ø²Ùĩ":455,"Ø§ÙħÛĮ":456,"Ø§Ø±Ø§ÙĨ":457,"ĠØ³Ø§Ø²":458,"Ø§Ù¾":459,"or":460,"ĠÙĪØ±":461,"ĠÙĨØ¸":462,"ĠØ¨ÛĮØ±":463,"ĠØ¬Ùĩ":464,"Ø§Ø±Ø¯":465,"Ø§ÙĨØ¯":466,"ĠØ§Ø¹":467,"en":468,"ĠÚ¯Ø°":469,"ĠÚ©Ùħ":470,"ĠØ´Ùħ":471,"ĠÙĪØ§ÙĤ":472,"Ø§Ø·":473,"ĠÙħÙĦÛĮ":474,"ĠØ§ÙģØ±":475,"Ø§Ø±ÛĮØ®":476,"Ø¬Ùĩ":477,"Ø§Ø±ÙĩØ§ÛĮ":478,"ĠÙĨØ´":479,"ĠØ´ÙĩØ±Ø³ØªØ§ÙĨ":480,"ĠØ¨Ø§Ø²ÛĮÚ¯Ø±":481,"ÙĪÛĮØ³":482,"ĠØ¨Ø®":483,"ĠØªØ§Ø±ÛĮØ®":484,"ĠØ§Ùģ":485,"ÙĪØ¦":486,"ĠØ¨ÛĮÙĨ":487,"ĠØ§ÙĨØª":488,"ĠÙ¾ÛĮÙĪÙĨØ¯":489,"ĠØ¨ÛĮØ±ÙĪÙĨ":490,"ĠÚ©Ø±Ø¯Ùĩ":491,"ĠÙĨÛĮØ²":492,"Ġf":493,"ĠØ§ÙģØ±Ø§Ø¯":494,"ĠØ§Øµ":495,"ÙĨÛĮÙĨ":496,"Ø¬Ø±":497,"Ø±Ú©Øª":498,"ĠØªÙĪØ³Ø·":499,"ÙĪØ´":500,"ar":501,"ĠÙ¾Ø§ÛĮ":502,"ĠÙĪØ§ÙĤØ¹":503,"ĠØ³Ø§Ø®Øª":504,"Ġb":505,"Ġj":506,"ĠØ§Ø´":507,"ĠØ¯Ø§Ø¯":508,"ĠØ§Ú©":509,"ĠÙĤØ±Ø§Ø±":510,"ĠÙĩØ±":511,"ĠÙ¾ÛĮØ´":512,"ĠÚ©ÙĦ":513,"ÙĪÚ©":514,"ĠÙĩÙħÚĨ":515,"ÙĨØ§ÙħÙĩ":516,"ÙĪØ±Øª":517,"Ø²Ø§Ø±":518,"ĠØ§Øª":519,"ĠØ§Ø³ØªÙģ":520,"Ø¢":521,"ĠÙħÙĩ":522,"ĠØ§ÙĪÙĦ":523,"ĠØ²ÙĨ":524,"ĠØ¨Ø§Ø´Ø¯":525,"Ø§Ø¯Ú¯Ø§ÙĨ":526,"Ø§Ø±Ú©":527,"Ġd":528,"ĠØ§Ø¯":529,"ĠØ³Ø¯Ùĩ":530,"ĠÙħØ´":531,"es":532,"ĠØªØŃ":533,"ĠØ§Ø³ØªÙģØ§Ø¯Ùĩ":534,"ÙħØ§ÙĨÛĮ":535,"ÛĮÙĨÛĮ":536,"Ø²Ø±":537,"ÙĩÙĨÚ¯":538,"ĠØ¬Ø§ÛĮ":539,"ĠÙĪØ§Ø¨":540,"al":541,"ĠØªÛĮÙħ":542,"ĠØ¬Ø³Øª":543,"Ø£":544,"ÙħÙĨ":545,"ĠØ´Ø±Ú©Øª":546,"ĠÙĪØ§Ø¨Ø³ØªÙĩ":547,"ĠØ²Ø§Ø¯Ú¯Ø§ÙĨ":548,"ÙĩØ±Ø³Øª":549,"Ø¹Ø¯":550,"ĠÙģÙĩØ±Ø³Øª":551,"Ø§ØŃ":552,"ĠØ¹Ùħ":553,"ØªØ§Ø¨":554,"ĠØ¹ÙĦ":555,"ĠØªÙĦ":556,"Ù¾ÛĮÚ©":557,"ĠØ´ÙĨØ§":558,"ĠÚ©Ø´ÙĪØ±":559,"ÙĪÙĩ":560,"Ø¨Ø§Ø±":561,"Ú¯Ø°":562,"Ú©Ùĩ":563,"ÛĮØ±ÛĮ":564,"Ø¯Ø±":565,"at":566,"ĠÙĨÙħØ§ÛĮ":567,"ĠØ§ÙĦÙħÙ¾ÛĮÚ©":568,"ĠØ²Ø¨Ø§ÙĨ":569,"ĠØ¬Ø³ØªØ§Ø±ÙĩØ§ÛĮ":570,"ĠØ±ÙĪÛĮ":571,"ÛĮØ³":572,"ĠØ³Ù¾":573,"ÙģØ§":574,"Ø³ØªÙĨØ¯":575,"ÙĪØ¨":576,"ÙĪØ²":577,"ĠØ¬ÙĨÚ¯":578,"ÙħØ§":579,"ÙĦØ³":580,"Ø§ÙħÙĦ":581,"ĠØ¨ÙĪ":582,"ĠØ¢Ø¨":583,"ĠØ¯Ø§ÙĨØ´Ú¯Ø§Ùĩ":584,"ĠØ´Ú©":585,"ĠØ¨Ø®Ø´":586,"ĠÙĨÙĤØ´":587,"Ø¹ÛĮØª":588,"Ġw":589,"ØªØ´":590,"Ø®Øµ":591,"ÙģÙĩ":592,"ĠÙĪØ±Ø²":593,"ĠØ¨ÙĦ":594,"Ø§ÙħØ¨Ø±":595,"Ø³ØªØ§ÙĨÛĮ":596,"le":597,"Ø¬ÙĪØ¯":598,"ĠÙĨÙĪÛĮØ³":599,"ĠØ¯ÛĮÚ¯Ø±":600,"Ġh":601,"ĠØ±Ø³":602,"ĠÙĩÙħÚĨÙĨÛĮÙĨ":603,"Ø´ØªÛĮ":604,"Ġr":605,"ĠÙģØ±Ø§ÙĨØ³":606,"ØµØ±":607,"ĠØ¢Ø±":608,"ĠØ¨Ø§Ø²ÛĮÚ¯Ø±Ø§ÙĨ":609,"ĠÛĮÚ©ÛĮ":610,"ĠØ´Ø±":611,"Ø±Ø¨":612,"ĠØ²ÛĮØ±":613,"ĠÚ©ØªØ§Ø¨":614,"Ġo":615,"Ú¯Ø±Ø¯":616,"ĠØ¨Ø²Ø±":617,"ĠØ§Ø³ØªØ§ÙĨ":618,"Ø§ÙĨÛĮØ§":619,"Ø§Ø´":620,"ĠÚ©ÙĨÙĨØ¯":621,"ĠÙħØ¯Ø§ÙĦ":622,"is":623,"ĠØ²ÙĨØ¯":624,"ĠØ¯Ø§Ø´Øª":625,"ĠØ²Ø§Ø¯Ùĩ":626,"ÙĨØ±":627,"ĠØ±ÙĪØ²":628,"ĠÚ¯Ø±ÙĪ":629,"ĠÙħÚ©":630,"ĠØ®ÙĪ":631,"ÙħØª":632,"ĠØªÙĨ":633,"Ú©ÛĮ":634,"ĠØ²ÛĮ":635,"ĠØ§ÙħØ§":636,"ĠÙħØ¬ÙħÙĪ":637,"ĠÙħØ§ÙĨ":638,"ĠÚ¯Ø±Ø¯":639,"ĠÙħØ±Ú©":640,"Ø§Ùģ":641,"ĠØ§ÙĤ":642,"ĠÙħÙĪØ±Ø¯":643,"ĠÙĩØ§ÛĮÛĮ":644,"ÙĨØ¬":645,"ĠØ´ÙĩØ±ÙĩØ§ÛĮ":646,"ĠØ§ÙĨØ¬":647,"ĠØ¨Ø¯":648,"ĠØ¢ÙħØ±ÛĮÚ©Ø§ÛĮÛĮ":649,"Ø±Ø§Øª":650,"ÙĪÙĨÙĩ":651,"ic":652,"Ġjp":653,"ĠÚ¯Ø±ÙĪÙĩ":654,"it":655,"ĠÙħÙĨØ·":656,"ĠÙĦÛĮÚ¯":657,"ĠØ³ÙĪ":658,"ĠØ²ÙĨØ¯Ùĩ":659,"Ġg":660,"ĠØ±ÙĪØ³Øª":661,"Ġjpg":662,"ĠØ®Ø§ÙĨ":663,"ĠØµÙĪØ±Øª":664,"Ø§ÙĩÛĮ":665,"Ø±Ùĩ":666,"Ø·ÙĨ":667,"ĠØ¬ÙħÙĩ":668,"ĠØ§ØŃ":669,"ĠØ¨ÙĨ":670,"ĠØ«":671,"Ú©ÙĨ":672,"he":673,"ĠØ¬Ø§Ùħ":674,"ĠÙĨÙħ":675,"ĠØ§Ø³ÙĦ":676,"Ġl":677,"Ġn":678,"ĠØ¨Ø³ÛĮ":679,"ØªØ±ÛĮÙĨ":680,"ĠÙĨÙģØ±":681,"ÙĪØ¯ÛĮ":682,"ĠØ¨Ø§Ø±":683,"Ø§ÙĦÛĮØ§":684,"ĠØªØ£":685,"ĠÚĨÙĩ":686,"ĠØ¯ÙĪÙħ":687,"ĠØ±ÛĮ":688,"ĠÚ¯Ø°Ø§Ø±ÛĮ":689,"Ø§Ø²ÛĮ":690,"Ø§ÛĮØª":691,"ĠØ¨Ø²Ø±Ú¯":692,"ÙĪÛĮØ²ÛĮ":693,"ĠØ¬ÙĨÙĪ":694,"ĠØ§Ø¬":695,"ĠØªÙĦÙĪÛĮØ²ÛĮ":696,"ĠØªØ±Ú©":697,"ĠØ§ÙĩØ§ÙĦÛĮ":698,"ĠØ¯ÙĪØ±Ùĩ":699,"ĠØ¨ÙĨÛĮ":700,"ed":701,"ÚĨÙĩ":702,"ĠÙħÙĨØ·ÙĤÙĩ":703,"ĠØ¨ÙĪØ¯Ùĩ":704,"Ø´Ùħ":705,"Ø§Ø±Øª":706,"ÙĨØ¯ÛĮ":707,"ĠØ§ÙĨÚ¯ÙĦÛĮ":708,"ĠØ¯Ø±Ú¯Ø°":709,"ÛĮÚ©ÛĮ":710,"Ø§ÙĦØª":711,"ĠØªØµ":712,"ĠÙĨØ³":713,"Ø®ÛĮ":714,"ÛĮÙĨÚ¯":715,"ĠÚ¯ÙĦ":716,"ĠØ´ÙĪØ±":717,"ĠÙĩØ³ØªÙĨØ¯":718,"Ø¨Ø¯":719,"ĠÙĪØ¬ÙĪØ¯":720,"ĠØ²ÙħÛĮÙĨ":721,"Ø§ÙĨØª":722,"ĠØ¯Ø±ÛĮØ§":723,"ĠØ³ÙĨ":724,"ĠØ¶":725,"ĠØ³ÛĮØ§":726,"ĠÙģØ¹":727,"ĠÙħÙĪØ³ÛĮ":728,"ĠØ§Ø³Ù¾":729,"Ø²Ø¯":730,"ĠØ¢ÙħÙĪ":731,"ĠØ¨Ø§ÙĦ":732,"Ø§Ø¨Ø±":733,"ĠØ¨Ø±ÛĮØª":734,"ĠØ²ÙħØ§ÙĨ":735,"ĠØ³ÙĦ":736,"ÙĨÙĩ":737,"ĠÙģØ±Ø§ÙĨØ³Ùĩ":738,"ĠÙĩÛĮ":739,"ĠØ¢Ø«":740,"Ø±Ø§ÙĨ":741,"Ø«Ø±":742,"ĠØ³Ùĩ":743,"ĠØ¯ÙĩÙĩ":744,"ĠØ¢Ø²":745,"ÙĦÛĮØ¯":746,"ØŃÛĮ":747,"Ø´ÙĨ":748,"ĠØ§ÙĨÚ¯ÙĦÛĮØ³ÛĮ":749,"ĠØ§ÛĮØª":750,"ĠØ¢ÙĪØ±":751,"ÙĤÙĦ":752,"ĠØ¢Ø«Ø§Ø±":753,"ÙĨØ¯Ø§ÙĨ":754,"Ø§ØªÛĮ":755,"Ø¹Øª":756,"Ø§Ø¦":757,"ĠØŃØ³":758,"ĠØ¯Ø§Ø¯Ùĩ":759,"Ø¨ÙĪ":760,"ĠÙħØ¬ÙħÙĪØ¹Ùĩ":761,"ĠØ¯ÙĩØ¯":762,"ĠØ¬ÙħÙĩÙĪØ±ÛĮ":763,"Ø³ØªØ±":764,"ĠØ¯Ø±Ú¯Ø°Ø´Øª":765,"ĠÚ¯Ø±ÙģØª":766,"ĠØ§Ø´Ø§Ø±Ùĩ":767,"ĠØ¬ÙħØ¹ÛĮØª":768,"ĠÙħÙĪØ³ÛĮÙĤÛĮ":769,"ĠÚĨÙĨØ¯":770,"ĠÙħØŃÙħØ¯":771,"ÙħÙĩ":772,"ĠØ¨ÛĮØ´Øª":773,"ĠÙģØ±ÙĪØ¯":774,"ĠØ¹ÙĦÛĮ":775,"ĠØ´ÛĮ":776,"Ø§Øµ":777,"ĠÙĨÛĮØ±":778,"ĠØ´Ùĩ":779,"Ø§Ø¨ÙĦ":780,"ÙĪÙħÛĮ":781,"ĠØ®ÙĪØ§ÙĨ":782,"Ø³Ú©":783,"ĠØ¢ÙĦÙħØ§ÙĨ":784,"ĠÙĨÚ¯":785,"ÙĩØ±Ø§ÙĨ":786,"ĠÙģØ¹Ø§ÙĦ":787,"ÙĪÛĮÛĮ":788,"Ø¯ÛĮØ¯":789,"ĠØ¬ÙĩØ§ÙĨÛĮ":790,"ĠØ§ÙĨÚ¯ÙĦ":791,"ÙĪÙĨØ¯Ùĩ":792,"ĠØ´Ø§Ùĩ":793,"Ø¨Ø§":794,"ĠÙĨØ®":795,"ĠØ´ÙĪÙĨØ¯":796,"ĠØªÙĦÙĪÛĮØ²ÛĮÙĪÙĨÛĮ":797,"ĠØ²ÙĨØ¯Ú¯ÛĮ":798,"ĠØ±Ø§Ùĩ":799,"Ø¶Ø§":800,"ĠØ´Ø¨":801,"ĠØ¯ÙĪÙĦ":802,"ÚĺÙĩ":803,"Ø§Ø¯Ø±":804,"ĠÚ©Ø§ÙĨ":805,"ĠØ¨ÙĨÛĮØ§ÙĨ":806,"Ġthe":807,"ĠÙħØ§Ø±":808,"ĠÙħØªØ±":809,"ĠÙĩÙĨØ±":810,"ĠØ¨Ø±Ø¯":811,"ĠÚ©Ø§Ø±Ú¯Ø±Ø¯":812,"ĠÙħØ·":813,"ĠØªØ§Ø¨":814,"Ø§Ø¨ÙĤ":815,"ĠØªÙĩØ±Ø§ÙĨ":816,"ĠØ§ÙĨÚ¯ÙĦØ³ØªØ§ÙĨ":817,"ĠØ³Ø§Ø²ÙħØ§ÙĨ":818,"ØªØ¨":819,"ĠÚ©Ø±Ø¯ÙĨØ¯":820,"ĠÙģØ±ÙĩÙĨÚ¯":821,"Ø³Ùĩ":822,"el":823,"ĠÙħÙĦ":824,"Ø³Ø§ÙĨ":825,"ĠØ¢Ùħ":826,"ĠØ³Ø·":827,"ĠØŃØ¯":828,"ĠÙĨÙĩ":829,"Ø¬ÛĮ":830,"Ø±ÛĮÙĤ":831,"ÙĦÛĮÙĦ":832,"Ø§ÛĮØ´":833,"ĠÙĪØ·ÙĨ":834,"Ú¯Ø±ÛĮ":835,"ĠØ¬ÙĪ":836,"ĠØªÚ©":837,"Ø¨Ø±ÛĮ":838,"ĠØ¢ÙĨÙĩØ§":839,"Ø®ØªÙĩ":840,"ĠØªÙĪÙĦÛĮØ¯":841,"ĠÙģØ±ÙĪØ¯Ú¯Ø§Ùĩ":842,"ÛĮÙĨÙĩ":843,"as":844,"ÛĮÙħÛĮ":845,"ĠØ¬ÙĨ":846,"Ø§ÛĮÙĨ":847,"ĠØ§ØµÙĦÛĮ":848,"ĠØ§ÙĨØ¬Ø§Ùħ":849,"ĠØ¬Ø§ÙĨ":850,"ĠØªÙĤ":851,"ĠØ®Ø·":852,"ĠÙĨØ´Ø§ÙĨ":853,"ĠØ±Ø³ÛĮ":854,"Ø§ÛĮØ¯":855,"ĠØ¨Ø±ÙĨØ¯Ú¯Ø§ÙĨ":856,"ĠØ¢Ø³ÛĮ":857,"ĠØ¨Ø±ÙĨØ§ÙħÙĩ":858,"us":859,"ĠØ®ÙĪØ§Ùĩ":860,"ĠØ¬Ø§ÛĮØ²Ùĩ":861,"ĠÚĨÙĩØ§Ø±":862,"ĠÚĺØ§Ù¾":863,"ĠÚ¯Ø±ÙģØªÙĩ":864,"Ġi":865,"Ø§Ø®":866,"ĠØ¨ÛĮØ´ØªØ±":867,"ĠØŃØ§ÙĦ":868,"ĠÙģØ§Ø±":869,"ĠØ§Ø·":870,"Ø¶ÛĮ":871,"Ġk":872,"ÙĦÙĪ":873,"om":874,"ĠÙ¾Ø±ÙĪÙĨØ¯Ùĩ":875,"Ø¨Ø§Ø±Ùĩ":876,"Ø§Ø²Ùĩ":877,"Ø®Ø§Ø¨":878,"Ġof":879,"ÙĦÙĨØ¯":880,"Ø§ÛĮØ±":881,"ĠØºÛĮØ±":882,"ur":883,"ion":884,"Ø±Ø¨ÛĮ":885,"ĠØªØ±ÛĮÙĨ":886,"ĠÚ©ÛĮÙĦ":887,"ĠÙĨØ¸Ø±":888,"Ø¹Ø§Øª":889,"ĠØ§Ø±ÙĪ":890,"ĠÙĪØ±Ø²Ø´Ú©":891,"ĠØ¯Ø§Ø´ØªÙĩ":892,"Ø¨ÙĦ":893,"ĠØ¯Ø§Ø±Ø§ÛĮ":894,"ĠÙħÙĨØ§Ø·":895,"un":896,"Ú©Ø³":897,"ĠÚ¯ÛĮØ±":898,"ĠØªØ¹":899,"ĠØ·ÙĪØ±":900,"Ġin":901,"ĠÙħØ§ÙĨÙĨØ¯":902,"Ø´Ùĩ":903,"Ø³Ø±":904,"ĠÙħØ³Ú©":905,"Ø®Ø§ÙĨÙĩ":906,"ĠØ¨Ø¹Ø¯":907,"ĠØ§ÙĦÙħÙĦ":908,"ĠØ¬Ø²":909,"ĠØŃÙħ":910,"ÛĮØ²":911,"ĠÙĤØ·":912,"Ø±Ùģ":913,"ĠØ¨Ø±ÛĮØªØ§ÙĨÛĮØ§":914,"ĠÙħÙĨØ§Ø·ÙĤ":915,"Ú©Ø±":916,"ĠØ§ÛĮØªØ§ÙĦÛĮØ§":917,"Ø´Ø§Ø±":918,"am":919,"and":920,"ĠÙħØ§Ùĩ":921,"ol":922,"ĠØ§ÙĪÙĦÛĮÙĨ":923,"ĠÙ¾Ø±Ø¯":924,"il":925,"ØºÛĮ":926,"ĠÙħØ¹Ùħ":927,"ĠØ§ÙĨØªØ®Ø§Ø¨":928,"ĠÙħØ®Øª":929,"Ġv":930,"ĠØ³Ø·ØŃ":931,"ĠØ¬ÙĩØ§ÙĨ":932,"ĠØ±ÙĪØ¯":933,"ĠÙĨØ®Ø³Øª":934,"ĠØ§Ø³Ú©":935,"ĠØ¨ÙĪØ¯ÙĨØ¯":936,"Ø³ØªÙħ":937,"Ø§Ú¯":938,"ĠØ¨Ø±Ú¯":939,"Ù¾Ø§":940,"ĠØ´Ø®Øµ":941,"ÙĪÙĨØª":942,"ĠØªÙħ":943,"ĠÚ©ÙĦÛĮ":944,"ĠÛĮÙĪÙĨ":945,"ĠÙĨØ§ÙħÙĩ":946,"Ø·Ùĩ":947,"ĠÙ¾Ø±ÙĪ":948,"ÛĮØ±Ùĩ":949,"ĠÚ©Ø§Ùħ":950,"ØµÛĮ":951,"Ø¯ÙĩØ§ÛĮ":952,"ĠØ·ÙĪÙĦ":953,"ĠÙĤÙĩØ±":954,"Ø¨Ø¹":955,"ĠØ¯Ø±Ú¯Ø°Ø´ØªÚ¯Ø§ÙĨ":956,"Ø¨Ú©":957,"ĠØ±Ø¦":958,"ĠØ§Ø«Ø±":959,"ĠÙĪØ±Ø²Ø´Ú©Ø§Ø±Ø§ÙĨ":960,"ĠÙħÛĮØ§ÙĨ":961,"Ø±Ùħ":962,"ĠÙĪØ²":963,"Ù¾ÛĮ":964,"Ø³ØªÛĮ":965,"ĠØ¢Øº":966,"ĠØ°":967,"ĠÙĩÙĨØ¯":968,"ĠØ³Ø±ÛĮ":969,"Ø¶Ø§ÛĮ":970,"ĠØªØ§Ø¨Ø³ØªØ§ÙĨÛĮ":971,"Ġe":972,"ĠÙĤÙĦ":973,"Ø¯Ùħ":974,"ĠÙĩÙħØ±":975,"ia":976,"ÙĪÙĦÛĮ":977,"ĠØ¬ÙĨÙĪØ¨ÛĮ":978,"ÙĨÛĮØ§":979,"ÙĪÙĤ":980,"Ø¯Ø§ÙĨ":981,"ĠÙħØ³Øª":982,"ĠØ§ÙģØ²":983,"Ø³Ùħ":984,"Ø¨Ø±Ø¯":985,"ĠØªØ¬":986,"ĠØ¯ÙĦ":987,"ĠØ¢ÙĩÙĨÚ¯":988,"ØµÙĦ":989,"ÙĪÛĮÙĩ":990,"ĠØ§Ø®Øª":991,"Ø¶ÙĪ":992,"ĠØ¨Ø§Ø²ÛĮÚ©ÙĨ":993,"ĠØ¨ÛĮÙħ":994,"ĠØ§ÙĦÙħÙĦÙĦÛĮ":995,"ĠØ¨ÙĩØªØ±ÛĮÙĨ":996,"ĠÙħØ³Ú©ÙĪÙĨÛĮ":997,"Ø§ÙĦÙĩ":998,"Ú©ØªØ±":999,"ĠÙģÙĦ":1000,"ĠÚ©ÛĮ":1001,"Ø¬Ø§Ø¯":1002,"Ø±Ø§Ø¦":1003,"ĠØ´Ø§ÙħÙĦ":1004,"Ø¯Ø§Ø±":1005,"ĠÚĺØ§Ù¾ÙĨ":1006,"ĠØ´ÙĨØ§Ø³ÛĮ":1007,"ĠØ´Ø¯ÙĨØ¯":1008,"ĠÙħÙĨØªØ´":1009,"ĠØ¢ØºØ§Ø²":1010,"ĠÚ¯ÙĪ":1011,"ĠÙģØ¹Ø§ÙĦÛĮØª":1012,"Ø®Ùĩ":1013,"Ø§ÙĪØ±":1014,"Ø§Ø¬":1015,"ĠØ²ÙĨØ§ÙĨ":1016,"ĠÙħÙĨØªØ´Ø±":1017,"ĠØ§ÛĮØ¬Ø§Ø¯":1018,"ĠÙħØ«":1019,"ĠØ¯ÙĪÙĦØª":1020,"ĠØ³Øª":1021,"ĠØ¨Ø¹":1022,"ĠÙĨÙħÛĮ":1023,"ÙĪÙģ":1024,"ĠØ®Ø§ÙĨÙĪ":1025,"ÙĪÙħØª":1026,"ĠÙħØ±Ø¯Ùħ":1027,"ĠÙĨÙħØ§ÛĮØ´":1028,"et":1029,"ĠÙĩÙĪØ§":1030,"ĠØŃÚ©":1031,"ĠØ¯ÙĦÛĮÙĦ":1032,"ÙĪÙĩØ§ÛĮ":1033,"ĠØ¨Ø±Ø®ÛĮ":1034,"Ø§ÛĮÙĦ":1035,"ĠØªÙĩ":1036,"ÙĨØª":1037,"Ø§ÙĩØ§ÛĮ":1038,"ĠÙĩÙħØ±Ø§Ùĩ":1039,"ĠØ«Ø¨Øª":1040,"ĠÚ©Ø§":1041,"ĠØ±ÙģØª":1042,"ĠØµÙĨ":1043,"Ø´Ø§ÙĨ":1044,"ĠØ§Ø³ÙĦØ§ÙħÛĮ":1045,"ĠØ±ÙĪØ³ÛĮ":1046,"Ø³ÙĦ":1047,"Ø²Ø¨":1048,"ĠØ³ÛĮØ§Ø±Ú©":1049,"ĠØ³ÛĮÙĨ":1050,"ĠØ¨Ø³ÛĮØ§Ø±":1051,"ĠÚĺÙĪØ¦":1052,"ØµØ¯":1053,"ĠÙħØ®":1054,"Ø¯Ø§Ùħ":1055,"ĠÚ©ÙĪÚĨ":1056,"ĠÙĩÙĪ":1057,"ĠÙ¾ÛĮØ±":1058,"ĠØŃÙĤ":1059,"ĠÙħØ±Ø§":1060,"ĠØªØºÛĮ":1061,"ÙĦÙģ":1062,"Ø§Ø¨ÛĮ":1063,"ĠØ´ÙĨ":1064,"ing":1065,"ĠØ§ÛĮØ±Ø§ÙĨÛĮ":1066,"ĠØ®Ø§Ø±":1067,"ÚĺÛĮ":1068,"ch":1069,"ĠÚĺØ§ÙĨ":1070,"ĠØªØºÛĮÛĮØ±":1071,"ĠÙĨØ§":1072,"ĠÙħØ±Ú©Ø²ÛĮ":1073,"Ø§ÙĨÚ©":1074,"Ú¯ÛĮØ±ÛĮ":1075,"ĠØ¯Ø±Ø¨Ø§Ø±Ùĩ":1076,"ir":1077,"ĠØ¯Ø§Ø±ÙĨØ¯":1078,"ĠØªØ¨Ø§Ø±":1079,"ĠØ³ÙĨÚ¯":1080,"Ú¯Ø²":1081,"ĠÙħØ±Ú©Ø²":1082,"Ú©Ø§ÙĨ":1083,"ĠÙħÙħ":1084,"ĠØ§Ø¬Ø±":1085,"Ø§ØªØ±":1086,"ÛĮØªÛĮ":1087,"ĠØ±Ø¦ÛĮØ³":1088,"ĠØ´Ø¯ÙĨ":1089,"Ġpx":1090,"ĠÛĮØ§ÙģØª":1091,"ĠÙħÙĩØ§":1092,"ĠÚ©ÙĪÙĩ":1093,"ĠØ§Ú¯Ø±":1094,"ĠÚ©Ø±Ø¯ÙĨ":1095,"ĠØ³ÙĪÙħ":1096,"ĠÙħØ¯ÛĮØ±":1097,"ro":1098,"ĠØ¬ÛĮ":1099,"ĠØ³Ù¾Øª":1100,"ĠØ¢ÙħÙĪØ²":1101,"ÙĪØ³Øª":1102,"ÙĪØ±Ø´":1103,"ĠØ´Ú©ÙĦ":1104,"ĠÙĨØ²Ø¯":1105,"ĠØ³Ù¾ØªØ§ÙħØ¨Ø±":1106,"ĠØ³Ø§Ø²ÛĮ":1107,"ĠØ±Ø³ÛĮØ¯":1108,"Ø¬Ø§":1109,"ĠØªÛĮ":1110,"ĠÚ©Ø´ØªÛĮ":1111,"Ø³ÙĨ":1112,"ØªÙħ":1113,"ĠÙ¾Ø§Ø¯":1114,"ĠØ³Ø§Ø®ØªÙĩ":1115,"ÙĦØ§Ùħ":1116,"Ø§Ø³ÛĮ":1117,"ĠØ¬Ø¯ÛĮØ¯":1118,"ĠÚ¯ÙĪÙĨÙĩ":1119,"ĠÙħÛĮÙĦÛĮ":1120,"ĠØ§Ø¨":1121,"ÙĪØ±Ú©":1122,"ØªØ¨Ø±":1123,"ĠØªØ´Ú©":1124,"ÙĪÛĮØ¯":1125,"ĠÙĩÙħØ§ÙĨ":1126,"Ù¾Ø±":1127,"ĠØªÙĨÙĩØ§":1128,"ĠØ®ÛĮ":1129,"ÛĮØ§Ø²":1130,"ĠÙħØ³Ø§Ø¨ÙĤ":1131,"ĠÙģØ±ÙħØ§ÙĨ":1132,"ĠØ¯Ø§Ø³ØªØ§ÙĨ":1133,"ĠÙ¾Ø§ÙĨ":1134,"Ø¤":1135,"ĠØ§ÙĤØª":1136,"ĠØ¬ÙħÙĦÙĩ":1137,"ÙĪØ±ÛĮÙĩ":1138,"ag":1139,"ad":1140,"id":1141,"Ú©Øª":1142,"Ø§ÛĮØ¬":1143,"ĠÙħØ³Ø§Ø¨ÙĤØ§Øª":1144,"ĠÙĨÙĪÛĮØ³ÙĨØ¯Ú¯Ø§ÙĨ":1145,"ĠÙ¾ÙĨØ¬":1146,"ĠØ³Ùģ":1147,"ĠØ³ÙĪØ¦":1148,"ĠÙĩÙĨÚ¯":1149,"ĠØ®Ø§ÙĨÙĩ":1150,"ĠÙ¾Ø§Ø±":1151,"ÙĪÙĦØ§":1152,"ĠØ¯ÙĪØ±Ø§ÙĨ":1153,"ĠØ¢ÙĦØ¨":1154,"ĠØµÙģ":1155,"ĠØ§Ø³ØªØ±":1156,"ĠØ¸":1157,"ĠØªØ§Ø±ÛĮØ®ÛĮ":1158,"ĠØªÙĪØ§ÙĨØ¯":1159,"ĠØ±ÙĪØ´":1160,"ĠÙĩÙħÙĩ":1161,"ĠØ³ÛĮØ§Ø³Øª":1162,"ĠØ±ÙĪØ³ÛĮÙĩ":1163,"ĠØ³ÛĮØ³ØªÙħ":1164,"ĠØªØ´Ú©ÛĮÙĦ":1165,"Ø¯Ø§Ø´Øª":1166,"ÙĦØ§ØŃ":1167,"ĠØªØ¹Ø¯":1168,"Ø±ÛĮØ§ÙĨ":1169,"Ø§Ú©ÙĨ":1170,"ĠØ¯Ø±ÛĮ":1171,"ĠØ¨Ø±Ø§Ø¨Ø±":1172,"ĠØ§Ø³Ù¾Ø§ÙĨÛĮØ§":1173,"ĠÙħØ¬ÙĦØ³":1174,"ĠÙħØ§":1175,"ĠØ§ÙģØª":1176,"ĠØ§Ø·ÙĦØ§":1177,"ĠØ´Ø¨Ú©Ùĩ":1178,"ĠØªØ±Ø§ÙĨÙĩ":1179,"ĠÙģØ±Ø¯":1180,"ĠØ§Ø±ÙĪÙ¾Ø§":1181,"ĠØ¨Ø³ÛĮØ§Ø±ÛĮ":1182,"ÙĤÛĮÙĤ":1183,"Ø±Ø§Ùģ":1184,"ÙĪÙħØªØ±":1185,"Ø¨ÙĪØ±":1186,"ĠØŃØ¶":1187,"ĠÚ¯ÙģØª":1188,"ĠÙħØ¯Ø±":1189,"ĠÙĤØ§ÙĨ":1190,"ĠÛĮØ§Ø¯":1191,"ĠØ¢Ùģ":1192,"ĠÚ©ÙĨÙĨØ¯Ùĩ":1193,"ÙĪØ§Ø±":1194,"re":1195,"ĠØ¯Ø±ÛĮØ§ÙģØª":1196,"ĠØ¢Ø°":1197,"ĠÚ¯ÛĮ":1198,"ĠØªÙĪØ¬Ùĩ":1199,"ĠÙĪÙĤ":1200,"ĠØ§Ú©ØªØ¨Ø±":1201,"ĠÙ¾Ø§ÛĮØ§ÙĨ":1202,"ĠØ¨ÛĮØ´":1203,"ĠÙĨØ¸Ø§ÙħÛĮ":1204,"ĠØ¨Ø§ÛĮØ¯":1205,"ĠØ´ÛĮØ±":1206,"ĠÙĤØ¯Ø±":1207,"ĠÙĪÙĦ":1208,"ÙĦÙĤ":1209,"ĠØ§ÙĤØªØµ":1210,"ĠÙģÛĮ":1211,"Ø§Ø¯Ø§":1212,"ĠÚ©ÙĪØ¯":1213,"ĠØ¨Ø±ÙĨØ¯Ùĩ":1214,"ĠÙĨÙħÙĪØ¯":1215,"Ø±Ø²":1216,"ĠÚ©Ø±ÛĮ":1217,"ĠØ¯ÛĮØ¯":1218,"ĠÙ¾ÙĦ":1219,"Ġst":1220,"Ø±Ø³ÛĮ":1221,"ĠÙĨØ®Ø³ØªÛĮÙĨ":1222,"ĠØŃØ¯ÙĪØ¯":1223,"ĠØ·Ø±Ø§":1224,"ĠØªØŃØª":1225,"Ø³ÙĪÙĨ":1226,"ÙĨØ²":1227,"ĠØ´ÙħØ§Ø±Ùĩ":1228,"ĠØ¯Ø±Ø§Ùħ":1229,"ÛĮØ¯Ø§":1230,"os":1231,"Ø¯ÙĩØ§":1232,"ĠØ§ÙĪØª":1233,"ĠÙĨÙĪØ±":1234,"Ø´Ø¯":1235,"ĠÛĮÙĩ":1236,"ent":1237,"Ø±ÛĮÙĩ":1238,"Ø³ÛĮØ³":1239,"ĠÚĨÛĮÙĨ":1240,"ĠÚ©ÛĮÙĦÙĪÙħØªØ±":1241,"ĠÙħØµ":1242,"ÙģÙĤ":1243,"ĠØ³ÛĮØ§Ø³ÛĮ":1244,"Ø¡":1245,"ĠØ§ÙħØ±":1246,"ĠØ¯Ø§Ø®":1247,"ĠØ±Ùĩ":1248,"ac":1249,"ĠÚ©Ø³":1250,"ØªÙĤ":1251,"ĠÙħØ±Ø¨ÙĪ":1252,"ĠØªØ±Ú©ÛĮ":1253,"Ø§Ø¨Øª":1254,"ĠÚ©Ø±Ùĩ":1255,"ÚĨÛĮ":1256,"ĠÙ¾Ø§ÛĮÙĩ":1257,"ĠØŃØ²Ø¨":1258,"ĠÚ©Ø§Ø±Ú¯Ø±Ø¯Ø§ÙĨÛĮ":1259,"ut":1260,"ĠØ§ØªØŃ":1261,"ĠÙħØ±Ú¯":1262,"ĠØ§ÙħÙ¾":1263,"ĠØ§Ø¹Ø¶Ø§ÛĮ":1264,"ØªØ§":1265,"ip":1266,"ĠÙ¾Ø§Ø¯Ø´":1267,"ĠØ®Ø§ÙĨÙĪØ§Ø¯Ùĩ":1268,"ĠØ·Ø¨":1269,"ĠÙĪÙĦÛĮ":1270,"ĠØ§ÛĮØ§ÙĦØª":1271,"ĠÙĪØ§":1272,"ĠØ±ÙħØ§ÙĨ":1273,"ĠØ§ÙĨØªØ´Ø§Ø±":1274,"ĠØ´Ø§":1275,"ĠÚ¯ÙģØªÙĩ":1276,"ĠØ±ÙĤ":1277,"Ø®Ø±":1278,"ĠØ¹ÙħÙĦ":1279,"ĠØ¢ÛĮ":1280,"ĠÚ©Ø´Ùģ":1281,"ĠÙħØ§Ø±Ø³":1282,"ĠØŃØ¶ÙĪØ±":1283,"ĠÙħØ®ØªÙĦÙģ":1284,"ĠØ¹ÙĦØ§":1285,"ĠÙħØ±Ø¨ÙĪØ·":1286,"ĠÙħØµØ±":1287,"ĠÙģØµÙĦ":1288,"ĠÚ©ÙĪØª":1289,"ĠØ§Ø¬Øª":1290,"ĠØ±ÛĮØ§":1291,"Ú¯ÙĪ":1292,"um":1293,"ĠÙĨÙĪØ¹":1294,"ĠÚ©ÙĪÚĨÚ©":1295,"ĠØ´ÙĨØ§Ø®ØªÙĩ":1296,"ĠØ¨Ø±ØªØ±":1297,"ĠØ´ÙħØ§ÙĦÛĮ":1298,"ĠÙ¾Ø¯Ø±":1299,"ÙĪÛĮØ±":1300,"ĠÙĤØ³":1301,"ĠØºØ±Ø¨ÛĮ":1302,"ĠØ¢ÙĦØ¨ÙĪÙħ":1303,"ĠØ¬ÙĨÙĪØ¨":1304,"ĠØ´ÙĪØ±Ø§ÛĮ":1305,"Ú¯Ø´ØªÛĮ":1306,"ĠØ±ÙĨÚ¯":1307,"Ø±ÛĮØ¯":1308,"Ġand":1309,"ĠØªÙĪØ±":1310,"ĠØªÙĩÛĮÙĩ":1311,"ĠÚ©Ø§ÙĦ":1312,"Ø§ÛĮÙĩ":1313,"ĠÙģØ±ÙĩÙĨÚ¯ÛĮ":1314,"ÙĪÙĦØ¯":1315,"ĠØ¨Ø§ÙĦØ§Øª":1316,"ĠÙĤØ¯":1317,"ÙĦØ¨":1318,"ĠÚ©Ø§Ø±Ú¯Ø±Ø¯Ø§ÙĨ":1319,"ĠØŃØ§":1320,"Ø±ØŃ":1321,"ĠÙĩØ¯":1322,"ĠÙĩÙħÛĮÙĨ":1323,"ĠÙĨØ³Ø¨Øª":1324,"ĠØ§Ø³Ø§Ø³":1325,"ĠØ¢ÙģØ±ÛĮÙĤ":1326,"ĠØŃÙĪ":1327,"ĠÙĪÛĮØ¯":1328,"ĠÙħÙħÚ©ÙĨ":1329,"Ú©ÙĦ":1330,"ĠØ§Ø´Øª":1331,"ÙĪÛĮØª":1332,"ot":1333,"Ø²Ø´Ú©":1334,"ÛĮÙĨØ¯":1335,"ĠØ´ÙħØ§ÙĦ":1336,"ĠØ²Ø¯":1337,"ĠØ¨Ø¯ÙĪÙĨ":1338,"ØªÙĪÙĨ":1339,"Ø§Ø²Ø§ÙĨ":1340,"ÙħØ§Ø¹ÛĮ":1341,"ĠØ´ÙĩØ±ÛĮ":1342,"ĠÙħÛĮØ²":1343,"Ø°ÛĮØ±":1344,"ĠØ¢ÙħÙĪØ®Øª":1345,"ĠØ±Ø§ÛĮ":1346,"ĠØ§Ø¹ÙĦØ§Ùħ":1347,"ĠÙĤØ³ÙħØª":1348,"ĠØ§Ø±Ø¯":1349,"Ú©Ø§Ø±":1350,"Ú¯ÛĮØ±":1351,"ÙħÙĨØ¯":1352,"ĠÙ¾ÙĦÛĮ":1353,"ĠÙĨÙĪØ´ØªÙĩ":1354,"ĠØ¨Ø§ÙĦØ§ØªØ±":1355,"ĠÚ©Ø§ÙĦÛĮ":1356,"ĠÙħØ±Ø¨ÛĮ":1357,"Ø§ÛĮØ¹":1358,"ĠØ§ÙħÙ¾Ø±Ø§Øª":1359,"ĠØ§Ø®":1360,"ĠÙĤØ§Ø¨ÙĦ":1361,"ĠÙĨÛĮØ±ÙĪÛĮ":1362,"Ø¨ÛĮÙĨÛĮ":1363,"ik":1364,"ĠØ¯Ø³":1365,"Ø·ÛĮ":1366,"ØªÛĮØ¬Ùĩ":1367,"ØµÙĪ":1368,"ĠÙģØ§Ø±Ø³ÛĮ":1369,"ĠØ¨ÙĨØ¯Ø§ÙĨ":1370,"ØŃÙĩ":1371,"ĠØ´Ø¹":1372,"ĠØ§Ø¨Øª":1373,"ile":1374,"ĠØ³ÛĮØ¯":1375,"Ø¨Ø§ÙĨÛĮ":1376,"ĠÙħÙĩÙħ":1377,"ÙĪÙ¾":1378,"ĠØ¨ÙĨØ¯Ø§ÙĨÚ¯Ø´ØªÛĮ":1379,"ĠØ´ÙĨØ§Ø³":1380,"Ø¹Ø«":1381,"Ø§Ø®Øª":1382,"ĠÙĪØ¨":1383,"ĠØ§ÙĨØªÙĤ":1384,"Ø§ØŃÛĮÙĩ":1385,"Ø¯ÛĮÙĨ":1386,"ĠÙĨØªÛĮØ¬Ùĩ":1387,"ĠØ¯ÙĨ":1388,"ĠØ¨Ø§Ø¹Ø«":1389,"Ú¯Ø±Ø§ÙĨ":1390,"ĠÙħØ¤":1391,"ĠØªÙĪØ³Ø¹Ùĩ":1392,"Ø¨ÙĪØ¯":1393,"ĠÙħØ¹Ø±":1394,"ØªÙĦ":1395,"ĠØ´Ø±ÙĤÛĮ":1396,"ĠØªÙħØ§Ùħ":1397,"ĠÙĪÛĮØ±":1398,"ĠØ¯Ø®Øª":1399,"ĠÙħØŃØµ":1400,"ĠÙĨÙĪØ§ÙħØ¨Ø±":1401,"Ø®Ø´":1402,"ĠØŃØ±":1403,"ĠØ³Ù¾Ø³":1404,"ĠÚĺØ§ÙĨÙĪÛĮÙĩ":1405,"ĠØ¨Ø§Ø²Ø¨ÛĮÙĨÛĮ":1406,"ĠÙĨÛĮÙĪÛĮ":1407,"ĠØ§ÙĪØ±":1408,"ØºØ§ÙĨ":1409,"ĠØ§ÙģØ²Ø§ÛĮØ´":1410,"ĠÙ¾Ø²Ø´Ú©":1411,"ĠØ¯Ø³Ø§ÙħØ¨Ø±":1412,"ĠÙħÙĤØ§ÙĦÙĩ":1413,"ĠØ®ØµÙĪ":1414,"ĠÙĪØ±Ø²Ø´":1415,"ÙģØ§Ø¹":1416,"ĠØ®Ø¯":1417,"ĠÚ©ÙħÚ©":1418,"ĠÙĪÛĮÚĺÙĩ":1419,"ĠÙĩÛĮÚĨ":1420,"ĠØ¯Ø³ØªÙĩ":1421,"ig":1422,"ĠÚ¯Ø³ØªØ±":1423,"ĠØ·Ø±Ø§ØŃÛĮ":1424,"ĠØ¨ÙĨØ¯ÛĮ":1425,"ĠØ¬ÙĪØ§ÙĨ":1426,"ra":1427,"ĠØ±ÙĪÙħ":1428,"ĠØ³Ø¨":1429,"ĠÙĨÛĮÙĪÛĮÙĪØ±Ú©":1430,"ĠØªØ¦":1431,"ĠÙĨØ§ØŃÛĮÙĩ":1432,"ul":1433,"ation":1434,"ĠØ¢ÙħÙĪØ®ØªÚ¯Ø§ÙĨ":1435,"ĠÙħÙĩØ§Ø¬Ø±":1436,"ÙĪÙĦÙĪ":1437,"ĠÙĤØ±ÙĨ":1438,"ĠØ¹ÙĦÙħÛĮ":1439,"ĠÙĤØ¨":1440,"ĠØ§Ø¯Ø¨ÛĮ":1441,"ĠÙĤØ§ÙĨÙĪÙĨ":1442,"ĠÚ©Ø§ÙĨØ§Ø¯Ø§":1443,"ĠØ§Ø¬ØªÙħØ§Ø¹ÛĮ":1444,"ĠØ¢Ø²Ø§Ø¯":1445,"ĠÙĪØ§Ø±Ø¯":1446,"ĠØ³Ø§Ø®ØªÙħØ§ÙĨ":1447,"ĠØªØ¹Ø¯Ø§Ø¯":1448,"ĠÙ¾ÙĨ":1449,"ĠÙħØº":1450,"ĠØ´ÙĪØ±ÙĪÛĮ":1451,"ĠØ±Ø´ØªÙĩ":1452,"ĠÙĨÛĮÙħ":1453,"ĠØ±ÙĪØ³ØªØ§":1454,"ÙħØ§ÛĮÛĮ":1455,"ĠØ²ÙħØ§ÙĨÛĮ":1456,"Ø±ÙĪÙģ":1457,"ĠØ¢Ø¨Ø§Ø¯":1458,"ĠØ·ÛĮ":1459,"ĠØ´Ø®ØµÛĮØª":1460,"ĠÙ¾ÛĮÚ©":1461,"ĠÙĨÛĮØ³Øª":1462,"ĠÚ¯ÙħØ±":1463,"ÙħØ²":1464,"iv":1465,"ĠØ§Ø±ØªØ´":1466,"ØŃÙĦ":1467,"ĠØ·Ø±ÛĮÙĤ":1468,"ĠÙĩØ²Ø§Ø±":1469,"ĠØ§ÛĮÙĨÚ©Ùĩ":1470,"ĠØªØ£Ø³ÛĮØ³":1471,"ĠØ·Ø¨ÛĮ":1472,"ĠÛĮÙĩÙĪØ¯ÛĮ":1473,"ÙĪÛĮØ§ÙĨ":1474,"ĠÙĩÙģØª":1475,"ĠØµØŃ":1476,"ĠÙĪØ²ÛĮØ±":1477,"ØµÛĮÙĦ":1478,"ĠÚ©Ø§ÙĦÛĮÙģØ±":1479,"ĠØ¢ÙĪØ±Ø¯":1480,"ĠÙħÚ©Ø§ÙĨ":1481,"em":1482,"ĠÙħØŃØµÙĪÙĦ":1483,"ĠØ¹ÙĦÙĪÙħ":1484,"ĠØ®ÙĪØ§ÙĩØ¯":1485,"Ø§Ø±Ø³ØªØ§ÙĨ":1486,"ĠØµØ¯":1487,"ÙĦØ§Øª":1488,"ÙĦÛĮÙĩ":1489,"ĠØ§Ø¯Ø§ÙħÙĩ":1490,"ÙĨØ³":1491,"ĠØªØ¨Ø¯":1492,"ĠÙĤØ¨ÙĦ":1493,"ĠØ¢ÙħØ¯":1494,"ĠØªØ¨Ø¯ÛĮÙĦ":1495,"ĠÚ©Ø§Ùĩ":1496,"ĠÚ¯ÛĮØ±Ø¯":1497,"ĠØ¢ÙĪØ±Ø§ÙĨ":1498,"Ø²ÛĮÚ©":1499,"ØªÙĪ":1500,"ĠÛĮÙĪ":1501,"ĠØ²ÙħÛĮÙĨÙĩ":1502,"ĠØ³ÙħØª":1503,"ĠØ³Ø§Ùħ":1504,"ĠØ§ÙĦÚ©ØªØ±":1505,"Ø³ÛĮÙĪÙĨ":1506,"Ø§Ø¨ÙĤÙĩ":1507,"ĠÙĦÙĩ":1508,"ĠØ¢ÙĪØ±ÛĮÙĦ":1509,"ĠØŃÙĤÙĪÙĤ":1510,"ĠÙĤÙĩØ±ÙħØ§ÙĨ":1511,"ÛĮØ¯ÛĮ":1512,"ĠÙħØ·Ø§ÙĦ":1513,"Ø§Ú©ÛĮ":1514,"Ø¯Ø§Ø±ÛĮ":1515,"ĠÚ©Ø§ÙĦÛĮÙģØ±ÙĨÛĮØ§":1516,"ĠÙħØ´Øª":1517,"ÙĬ":1518,"Ø±ÛĮÙģ":1519,"Ø§ÙĨÛĮØ§ÛĮÛĮ":1520,"Ø«ÛĮØ±":1521,"ĠØ¨Ø±Ø²":1522,"ĠØ§ÙĨØ³Ø§ÙĨ":1523,"ØªÙĨ":1524,"ĠÚĨØ´Ùħ":1525,"ÙĪÛĮÙĨ":1526,"ec":1527,"ĠÙģÙĪØ±ÛĮÙĩ":1528,"ĠØ²ÛĮØ§Ø¯ÛĮ":1529,"ĠØ®ÙĪØ¯Ø±ÙĪ":1530,"ĠÙģØ±Ø²":1531,"ĠÙĨØ³Ø®Ùĩ":1532,"ĠØ¢Ø³":1533,"ĠÙĪÛĮØ¯Ø¦":1534,"Ø¯Ø§Ø¯":1535,"ĠØ¬ÙĦ":1536,"ĠÚ¯Ø²Ø§Ø±":1537,"ĠØ±Ø³ÙħÛĮ":1538,"ĠÙħØ°":1539,"ĠØ§ÙĨÙĤÙĦ":1540,"ĠÙħÙĪØ§Ø¯":1541,"Ø³ÛĮÙħ":1542,"ĠÚĨØ§Ù¾":1543,"ĠØ§Ø·ÙĦØ§Ø¹Ø§Øª":1544,"ĠØ´ÙĪ":1545,"ĠÚ¯ÛĮØ±ÛĮ":1546,"ĠÙĨÛĮØ±ÙĪÙĩØ§ÛĮ":1547,"Ø¨Ø§Øª":1548,"ĠØ´Ø±ÙĪ":1549,"ĠÙħÙĪÙģÙĤ":1550,"ĠÙħØ§ÙĦ":1551,"ĠØ¹Ø¶ÙĪ":1552,"ÙĩÙĨ":1553,"Ġch":1554,"ĠØ³ÙĪÛĮ":1555,"ĠØ¨Ø§Ø´ÙĨØ¯":1556,"ĠØ®ÙĪØ§ÙĨÙĨØ¯Ú¯Ø§ÙĨ":1557,"ĠØ¨Ø§ÙĦØ§":1558,"ĠØ¯ÙĩÙĨØ¯":1559,"ĠØ¢Ø®Ø±":1560,"ÙĪØ³ÛĮ":1561,"ĠÙ¾Ø³Ø±":1562,"Ø§ÙĨÚ¯":1563,"ĠØ³ÛĮØ§Ùĩ":1564,"Ø¨Ø§Ø³":1565,"ĠÙĨÛĮØ§Ø²":1566,"ĠÙĩÙĨ":1567,"ÛĮÚ©Ø³":1568,"Ġfile":1569,"ĠØ¹Ø¨Ø¯":1570,"ĠÙĤÙĩØ±ÙħØ§ÙĨÛĮ":1571,"im":1572,"ĠØ¹Ø±Ø§":1573,"ĠÙģÙĤ":1574,"ÙĪÙĨÚ¯":1575,"Ø²Ø¯Ùĩ":1576,"ĠÚ©ÙħØ¯ÛĮ":1577,"ĠØ¬Ø§":1578,"ĠÙħØŃÙĦ":1579,"Ø§ÙħØª":1580,"ĠØ®ÙĪØ§":1581,"ĠÚ©ÙĨÙĨØ¯Ú¯Ø§ÙĨ":1582,"ĠÙħØ¹ÙħÙĪÙĦØ§":1583,"Ø§ÙĨØ§":1584,"Ø§ØŃØª":1585,"ĠØ¹ÙħÙĪÙħÛĮ":1586,"ĠÙħØŃØ¯":1587,"ĠØŃÙħÙĦÙĩ":1588,"ĠØ¨ÛĮÙħØ§Ø±ÛĮ":1589,"ĠÙ¾Ø§Ø³":1590,"ĠÚ©Ø§ÙħÙĦ":1591,"Ø³Ø§":1592,"ÙħÙĨØ¯Ø§ÙĨ":1593,"Ø·Ø§ÙĨ":1594,"op":1595,"ĠØŃÙĦ":1596,"Ø´ÙĨØ§":1597,"ĠÙħØ³Ø¦":1598,"ĠØ§Ø³ÙĦØ§Ùħ":1599,"Ø¬Ùħ":1600,"ĠØ§Ø³ØªØ±Ø§ÙĦÛĮØ§":1601,"ĠØªØ±Ú©ÛĮÙĩ":1602,"ÙħÙĨÛĮ":1603,"ĠØ±ÙĪØ³ØªØ§ÛĮ":1604,"ĠØ³Ú©":1605,"ĠØ®Ø§Øµ":1606,"ĠØ§ÙħÙĨ":1607,"ĠÙ¾Úĺ":1608,"ĠØªÙģ":1609,"ĠØ§Ø±ØªØ¨":1610,"ĠØ§Ø±ØªØ¨Ø§Ø·":1611,"ter":1612,"ØªØ¨Ùĩ":1613,"ĠØ§Ø³ØªØ§Ø¯":1614,"ĠØ¨Ø±Ø²ÛĮÙĦ":1615,"ĠÙĪØ³":1616,"ĠØ§Ø±Øª":1617,"Ø¦ÛĮ":1618,"ĠØ´Ø±ÙĪØ¹":1619,"ĠØ¯ÙĩØ³ØªØ§ÙĨ":1620,"ĠÙģÙĦØ³":1621,"ĠÚ©Ø§ÙĩØ´":1622,"ĠÙħÛĮÙĦÛĮÙĪÙĨ":1623,"ÙģØ§ÙĪØª":1624,"Ø¨ÛĮØ±":1625,"Ġen":1626,"ĠÚ¯Ø²Ø§Ø±Ø´":1627,"ĠÙħØ¯Øª":1628,"ĠØ±Ø§Ø¨":1629,"ĠØ¹ÙħÙĦÛĮ":1630,"Ø±Ø§Ø¦Ùĩ":1631,"ĠÙ¾Ø°ÛĮØ±":1632,"ĠØ§Ø±Ø§Ø¦Ùĩ":1633,"ÙħØ¨":1634,"Ø¸Ùĩ":1635,"Ġy":1636,"ĠÙħØ³Ø§ØŃØª":1637,"Ø³Ø§Ø²ÛĮ":1638,"ĠÙħÙĪØª":1639,"ĠÙħØ³ÙĦ":1640,"ĠØ¯ÛĮÚ¯Ø±ÛĮ":1641,"ĠØ¬Ø±ÛĮØ§ÙĨ":1642,"ĠØ·ÙĦØ§":1643,"ĠØ§ÙĨØ¬ÙħÙĨ":1644,"ĠØ§Ø¨Ø±":1645,"Ú©Ø§Ø±ÛĮ":1646,"ĠØ¯Ø±Ø¢":1647,"ĠÙħØ§ÛĮ":1648,"ĠØ¢ÙħÙĪØ²Ø´":1649,"ĠÚ©Ø¯":1650,"ĠØ®ÙĪØ±Ø´":1651,"ĠÙħÙĪØ¬ÙĪØ¯":1652,"ÙĪØ²ÛĮ":1653,"Ø´ÙħØ§Ø±ÛĮ":1654,"ĠÙħÙĪÙĤ":1655,"ĠØ´Ú©Ø³Øª":1656,"ÙħÛĮØª":1657,"ĠØ¹Ø¨Ø¯Ø§ÙĦ":1658,"Ø±Ø§ÙģÛĮ":1659,"ĠÙĨÚ¯Ø§Ø±":1660,"Ù¾ÛĮÙħ":1661,"ÙĪÙĦÙĩ":1662,"ĠÙĤØ¯Ø±Øª":1663,"ĠØ¬Ø§ÙħØ¹Ùĩ":1664,"ĠÙħØ§ÙĦÛĮ":1665,"ĠÙħØ´Ø®Øµ":1666,"Ø®ØªÛĮ":1667,"ĠØ§ÙģØºØ§ÙĨ":1668,"ĠÙħØ¯ÙĦ":1669,"ĠØ¨Ø±Ø®":1670,"Ø¬ÙħÙĩ":1671,"ÙĨØ¯Ú¯ÛĮ":1672,"ĠØ®Ø§Ø·":1673,"ĠØŃÚ©ÙĪÙħØª":1674,"ĠØ±ÙĪØ²ÙĨØ§ÙħÙĩ":1675,"ĠØªØ®":1676,"ĠÚ©ÙĪØªØ§Ùĩ":1677,"ĠÙħÙĪØ±":1678,"ĠÚ©ÙĨØªØ±":1679,"ĠØ¹Ø¨Ø§Ø±":1680,"ĠÙħØ¹Ø±ÙģÛĮ":1681,"ĠÚ©Ø´ÙĪØ±ÙĩØ§ÛĮ":1682,"ĠØ¨Ø±Ø¬":1683,"ĠØŃØ³ÛĮÙĨ":1684,"Ú©Ø±Ø¯":1685,"ĠÙħØ³ÛĮ":1686,"ĠÙĪØ§ÙĦ":1687,"ĠÙĩÙĨØ±ÛĮ":1688,"ĠÚĺÙĪØ¦ÛĮÙĩ":1689,"ĠÛĮØ¹":1690,"ĠØ·Ø±Ùģ":1691,"ĠÙħØ´Ùĩ":1692,"ÙĪØ±Ø§ÙĨ":1693,"ĠØ§Ø¹Øª":1694,"Ġar":1695,"ÙħÙĨØ³ØªØ§ÙĨ":1696,"ĠØ§ÙĨØ¯Ø§Ø²Ùĩ":1697,"ĠØ³Ø±Ø´ÙħØ§Ø±ÛĮ":1698,"ĠÚ¯Ø±Ø¯Ø´":1699,"Ġal":1700,"Ø±Ø®":1701,"Ø´ÙĨÙĪ":1702,"Ø§ÙĪ":1703,"ĠÙĨÙħÙĪÙĨÙĩ":1704,"Ø¯ÙĨ":1705,"ĠÙħØ±Ø¨ÛĮØ§ÙĨ":1706,"ÙĦØ§Ùģ":1707,"ĠØªØ´":1708,"ĠÙ¾ÛĮØ¯Ø§":1709,"Ù¾Ùĩ":1710,"ĠÙĨØ´Ø¯Ùĩ":1711,"Ø³Ø§ÙĦ":1712,"ĠØ´ÛĮÙħÛĮ":1713,"ĠÚĺÙĪØ¦ÙĨ":1714,"ĠØ¯Ø³ØªÛĮ":1715,"ĠØ§ÛĮØ³Øª":1716,"ĠØ¬ÙĩØª":1717,"ÙĤØ±":1718,"ĠØ³Ø§ÛĮØ±":1719,"ĠØ¢Ø°Ø±Ø¨":1720,"ĠØ²ÛĮØ³Øª":1721,"Ġor":1722,"ÚĺÙĨ":1723,"ay":1724,"ĠØ¢Ø³ÛĮØ§":1725,"ĠÙĨØ²Ø¯ÛĮÚ©":1726,"ĠØ®Ø§Ú©":1727,"ĠØ¨Ø±Ú¯Ø²Ø§Ø±":1728,"ĠØ¹Ø±Ø¨":1729,"ÙĪØ§Ø¬":1730,"ĠØ¢Ø°Ø±Ø¨Ø§ÛĮØ¬":1731,"Ú©ÙĪ":1732,"ĠØ¬Ø´ÙĨÙĪ":1733,"ĠØªØ£Ø«ÛĮØ±":1734,"ĠÛĮØ§ÙģØªÙĩ":1735,"ĠØ¬Ø´ÙĨÙĪØ§Ø±Ùĩ":1736,"ĠÙģØ±Ø§ÙĨØ³ÙĪÛĮ":1737,"ĠÙħØ´Ú©":1738,"ĠÙĨÙĪÛĮØ³ÙĨØ¯Ùĩ":1739,"ĠØ¨Ø®Ø´ÛĮ":1740,"ĠÙħÙĩÙĨØ¯":1741,"Ø´Ø±":1742,"ĠØ¨Ø±Ø¯Ø§Ø±ÛĮ":1743,"ĠØ¹Ø±Ø§ÙĤ":1744,"ĠÙ¾ÚĺÙĪÙĩ":1745,"ĠØªÛĮØ±":1746,"ĠØ§ÛĮÙĦ":1747,"od":1748,"ĠØ¯Ø±Ø¬Ùĩ":1749,"ĠÙĦÙĪ":1750,"ÙĨÙĪÙĨ":1751,"ĠØ³Ø¹":1752,"ĠÙħØŃÛĮ":1753,"ĠÙħØ¯Ø±Ø³Ùĩ":1754,"ĠÙ¾Ø§ÙĨÙĪÛĮØ³":1755,"ĠØ¬Ø¯":1756,"ĠØ¯ÙĨØ¨Ø§ÙĦ":1757,"ĠØ³Ø§ÙĨ":1758,"ĠØ¯Ø§ÙĨØ§ÙĨ":1759,"edia":1760,"ÙĨØ¯Ø±":1761,"Ø¬ÙĪ":1762,"ist":1763,"ĠÙĩØ²":1764,"ĠÚ©ÙĨØªØ±ÙĦ":1765,"ÙĪØ±Ùĩ":1766,"ort":1767,"ÛĮÙĨØ§":1768,"ers":1769,"ĠÙĩÙĪØ§Ù¾ÛĮÙħ":1770,"Ø§Ø¯ÙĩØ§ÛĮ":1771,"ĠÚ¯Ø±ÛĮ":1772,"ĠØ¢ÙĦÙħØ§ÙĨÛĮ":1773,"ØºØ§ÙĦ":1774,"ĠÚ©Ø§Øª":1775,"ĠÙĨØ¯":1776,"ĠØªØ±Ø¬ÙħÙĩ":1777,"ĠÙ¾ÙĪØ´":1778,"ĠÚ©ÙĦØ§Ø³":1779,"ĠØ§ÙĨÙĤÙĦØ§Ø¨":1780,"Ø§Ø¨Ùĩ":1781,"ĠÙĨÙħØ§ÛĮÙĨØ¯Ú¯Ø§ÙĨ":1782,"ÙĪÙĨØ§":1783,"ĠÙħÙĪØ¶ÙĪ":1784,"Ø§ÙĩØ¯Ùĩ":1785,"ĠÚ©ÙĨØ§Ø±":1786,"ĠÙħØ±ØŃ":1787,"ĠØ§ÙħÙ¾Ø±Ø§ØªÙĪØ±ÛĮ":1788,"Ø±Ø§Ú©":1789,"ĠÙħÙĨØ¸":1790,"ĠÙĨØ±Ùħ":1791,"ĠÚ©Ø³Ø¨":1792,"ĠÙĩÙĪØ§ÛĮÛĮ":1793,"ĠØªØ¯":1794,"ow":1795,"ĠØªØŃØµÛĮÙĦ":1796,"ĠØ¨Ø±Ø±Ø³ÛĮ":1797,"ĠÙħØ¬ÙħÙĪØ¹":1798,"ĠØ¯Ø®ØªØ±":1799,"ĠÙģØ¶":1800,"ĠÚĨÙĪÙĨ":1801,"ĠØ¹ÙĦØª":1802,"ĠØ§Ø³Ø±Ø§Ø¦":1803,"ĠØ¹Ø¨Ø§Ø±Øª":1804,"Ø§Ø¨Ø§ÙĨ":1805,"ĠØªØµÙĪÛĮØ±":1806,"Ø¦Øª":1807,"Ġde":1808,"ĠØªØ¨":1809,"ĠØ§Ø±ÙħÙĨØ³ØªØ§ÙĨ":1810,"ĠØ¯Ø³ØªÚ¯Ø§Ùĩ":1811,"ĠÙĨØª":1812,"ĠÙħØ§Ø¯Ø±":1813,"Ø³ÛĮÙĨ":1814,"ĠØªØŃÙĤÛĮÙĤ":1815,"ĠØ±ØªØ¨Ùĩ":1816,"ĠØºØ±Ø¨":1817,"Ø§ÙĩØ§":1818,"ĠØ¯Ø±ÛĮØ§ÛĮÛĮ":1819,"ĠØªØ¦Ø§ØªØ±":1820,"Ġwik":1821,"ĠÙħÙĤØ§Ùħ":1822,"Ø§ÙĨÙĪ":1823,"ĠØ¨ØŃ":1824,"Ù¾ÙĦ":1825,"ÙħÛĮÙħ":1826,"ĠØ§ØŃØªÙħ":1827,"ĠÙħØ¹Ø§":1828,"ĠÙ¾Ø§Ú©":1829,"ĠØ¯Ø±ØµØ¯":1830,"ÙħÙĦ":1831,"Ø±ÛĮØ´":1832,"ĠØ¹Ø±Ø¨ÛĮ":1833,"ØªÛĮÚ©":1834,"ĠÙĩØ´Øª":1835,"ĠØ§ÙģØºØ§ÙĨØ³ØªØ§ÙĨ":1836,"ĠØ³Ø±Ø¹Øª":1837,"ĠØ¹Ø±":1838,"ĠØ¬Ø²ÛĮØ±Ùĩ":1839,"ĠÙ¾Ø§Ø±Ú©":1840,"ĠÙĨÙĪÛĮØ³Ø§ÙĨ":1841,"ĠÙĦÙĨØ¯":1842,"Ø²ÙħÛĮÙĨ":1843,"ÛĮØ¯Ùĩ":1844,"ĠÙĩØ¯Ùģ":1845,"ĠÛĮØ¹ÙĨÛĮ":1846,"ĠØ³Ø¨Ú©":1847,"ĠÙ¾Ø²Ø´Ú©ÛĮ":1848,"ĠÙ¾Ø±Ø¯Ø§Ø®Øª":1849,"ĠØªÙĦØ§":1850,"ĠÙĨÙĤØ±Ùĩ":1851,"ĠÙħÙĩØ±":1852,"ĠØ¯ÙĨÛĮØ§":1853,"ĠÙħØ±ØŃÙĦÙĩ":1854,"ĠÙĪØ²Ø§Ø±":1855,"ĠØ³Ø±Ø§":1856,"ĠØ§ÙĨØ±":1857,"ĠØ¯ÛĮÙĨ":1858,"ĠÚ©Ø´ØªÙĩ":1859,"ĠØ§Ø²Ø¯":1860,"Ø§Ø±Ø§Øª":1861,"Ø§ÛĮØ²":1862,"ĠÙģØ±ÙĪØ´":1863,"ĠØ±Ú©":1864,"ĠÙĤÙĦØ¹Ùĩ":1865,"ĠÚ¯Ø±Ø¯Ø¯":1866,"ĠØ¬Øº":1867,"ĠÚĨÙĨÛĮÙĨ":1868,"tt":1869,"ĠØ¯Ø§Ø®ÙĦÛĮ":1870,"ĠÚ¯Ø±Ø¯ÛĮØ¯":1871,"ĠØ³ÙĨØª":1872,"ĠÙĪØ²Ø§Ø±Øª":1873,"ĠØ§ØŃÙħØ¯":1874,"ĠØ¢ØªØ´":1875,"ĠØ·Ø¨ÛĮØ¹ÛĮ":1876,"ĠÙħØ±Ø¨Ø¹":1877,"ĠÙĪÛĮØ¯Ø¦ÙĪÛĮÛĮ":1878,"ĠÚĨÙĨØ¯ÛĮÙĨ":1879,"ÙĪØªÛĮ":1880,"ĠÙĪØ³ÛĮ":1881,"ÙĨØ§ÛĮ":1882,"ÙĪØ·":1883,"Ġcom":1884,"Ø§ÛĮØ§ÙĨ":1885,"og":1886,"ĠØµÙĨØ§ÛĮØ¹":1887,"ĠØ¢Ø°Ø±Ø¨Ø§ÛĮØ¬Ø§ÙĨ":1888,"ĠØ³Ø§Ø¹Øª":1889,"ĠØ§Ø¯Ø¨ÛĮØ§Øª":1890,"ĠØ¢ÙħØ¯Ùĩ":1891,"ĠÙĨÙĪØ´Øª":1892,"ĠÙħÙĨØª":1893,"ĠØµÙģØŃÙĩ":1894,"oc":1895,"ĠØ³Ø±Ø¯":1896,"ĠÙħØ¹Ø±ÙĪÙģ":1897,"Ø§ÙĨÛĮØ§ÙĨ":1898,"ĠØ¢ÙĨØ¬Ø§":1899,"ap":1900,"ĠÙģØ±ÙħØ§ÙĨØ¯Ùĩ":1901,"Ø¶Ø±":1902,"ĠÙħØ§Ø¯":1903,"ĠØ¹Ø¯":1904,"ĠØ®ØµÙĪØµÛĮ":1905,"Ø´Ú©Ø¯Ùĩ":1906,"ĠÙ¾Ø±Øª":1907,"ie":1908,"ĠØ±Ø³ÛĮØ¯Ùĩ":1909,"ĠØ´Ø§Ø¹":1910,"ĠÙħØ³Ø§Ø¨ÙĤÙĩ":1911,"ĠÙħÛĮØ±Ø§":1912,"ĠØŃØ§ÙĦØª":1913,"ĠØ±ÙĪØŃ":1914,"ĠØ¢Ø³ÛĮØ§ÛĮÛĮ":1915,"ĠØ¨ÙĪØ±":1916,"ess":1917,"ĠØ§Ø²Ø¯ÙĪØ§Ø¬":1918,"Ø§Ø³Øª":1919,"est":1920,"Ø§ÙĦÛĮØ§ÛĮÛĮ":1921,"ĠÙĪØ§ØŃ":1922,"ĠØ³ÙģØ±":1923,"ĠÙĨÛĮÚ©":1924,"ÙĦÛĮÙĨ":1925,"ĠØ§ÙħØª":1926,"ĠØ·Ø±ØŃ":1927,"age":1928,"ĠØ§ØµÙģÙĩ":1929,"ĠÙħØ¯ÛĮØ±ÛĮØª":1930,"ĠÙĨØ¸Ø±ÛĮÙĩ":1931,"ĠÙħØ±ØªØ¨":1932,"ĠØ¨Ø§Ø³ØªØ§ÙĨ":1933,"ĠØŃØªÛĮ":1934,"ĠØ¯Ø§Ùħ":1935,"ĠØŃØ³ÙĨ":1936,"ĠÚĨÙ¾":1937,"ĠØ´Ø±ÙĤ":1938,"ĠØ®Ø¨Ø±":1939,"ĠØŃÙĪØ²Ùĩ":1940,"Ú¯ÙĨ":1941,"ĠÚ©ÙħÛĮ":1942,"ĠØŃØ§ÙĦÛĮ":1943,"ĠØ§ÙĨØ±ÚĺÛĮ":1944,"st":1945,"ĠØŃØ±ÙģÙĩ":1946,"ĠØ§ØªØŃØ§Ø¯":1947,"ĠØ¨ÙĪØ¯ÙĨ":1948,"ĠÚ¯ÛĮØ§Ùĩ":1949,"ĠÙĩÙĨÚ¯Ø§Ùħ":1950,"Ø³Ú©Øª":1951,"ĠÙģÛĮØ²":1952,"Ø§Ø³Ø¨":1953,"ĠÙĩÙĦÙĨØ¯":1954,"ĠØ§ÙĦÙĦÙĩ":1955,"ab":1956,"ĠØ§Øº":1957,"ĠØºØ°":1958,"ĠÙ¾Ø§Ø¯Ø´Ø§Ùĩ":1959,"ĠØ§Ø±Ø²":1960,"Ġun":1961,"Ø¯Ø§Ø±Ø§ÙĨ":1962,"ĠØ§ÙĪÙĦÛĮÙĩ":1963,"ĠÙĤÙħ":1964,"ĠÙ¾Ø®Ø´":1965,"Ø´ÙĨØ§Ø³ÛĮ":1966,"ĠÙħØ§Ø¯Ùĩ":1967,"Ġth":1968,"Ø±Ø®Ùĩ":1969,"ĠØ¹Ùĩ":1970,"ĠØ®Ø§Ø±Ø¬":1971,"ĠÙĩÙħÚĨÙĪÙĨ":1972,"ĠÙħÛĮØ¯":1973,"ĠÙĪÛĮÚ©ÛĮ":1974,"ÛĮØªØ±":1975,"ĠØ³Ø±ÛĮØ§ÙĦ":1976,"ĠØ§ÙĦÛĮ":1977,"ÙĨØ´":1978,"Ø©":1979,"ĠÙħØŃÙħ":1980,"Ø§ÙģØ¹":1981,"ĠÙħÙĪØ¬":1982,"Ġim":1983,"ĠØªÙĤØ³ÛĮÙħ":1984,"ĠØ³Ø®":1985,"ĠÙħØ§ÙĩÛĮ":1986,"ĠØ¨Ø³Ú©Øª":1987,"ĠÙħÛĮØ±Ø§Ø«":1988,"ĠÙħÙĤØ§Ø¨ÙĦ":1989,"ĠÙĦÙĨØ¯ÙĨ":1990,"ĠØ¨Ø³Ú©ØªØ¨Ø§ÙĦ":1991,"ĠØ¢ÛĮØ¯":1992,"Ø¨Ø§Ùĩ":1993,"ĠØ³Ø§Ø¨ÙĤ":1994,"ĠÙħÙĤØ¯":1995,"ĠÙħØ«Ø§ÙĦ":1996,"ĠÙħÛĮØ¯Ø§ÙĨ":1997,"ĠØ§ÙĤØªØµØ§Ø¯ÛĮ":1998,"ĠÚ¯Ø±Ø¯Ø´Ú¯Ø±ÛĮ":1999,"ĠØ´ÙĩØ±Ú©":2000,"ĠØŃØ±Ú©Øª":2001,"ĠÙĨÚ¯Ùĩ":2002,"Ġfr":2003,"ÚĺØ§ÙĨØª":2004,"Ø¹ÙĦÛĮ":2005,"Ġre":2006,"ÙĪÛĮØ´":2007,"ĠÙģÙĤØ·":2008,"ĠÙĨÙģ":2009,"ĠÙĦÙĩØ³ØªØ§ÙĨ":2010,"ĠØ¢Ø²ÙħØ§ÛĮ":2011,"ĠØ±ÙĪØ§ÙĨ":2012,"Ø³ÙĪ":2013,"Ú¯Ø´Øª":2014,"Ø§Ø±Ø§":2015,"ĠØ§Ø³Ø±Ø§Ø¦ÛĮÙĦ":2016,"ĠØ¢Ø´":2017,"ĠØ§ÛĮÙĨØªØ±":2018,"ĠØ¢Ø±ÚĺØ§ÙĨØª":2019,"ĠØ³ÙĦØ·ÙĨ":2020,"ÙĦÛĮØª":2021,"ĠØ§Ø¬Ø±Ø§Ùħ":2022,"ĠØ¹ÙĤ":2023,"ĠØ§ÙħÚ©Ø§ÙĨ":2024,"ÙĪØ±ÛĮØª":2025,"Ø§Ø³Ø§":2026,"ak":2027,"Ø¨Ø§Ø¯":2028,"ĠÚĨÛĮ":2029,"ĠØ§Ø¬Ø±Ø§":2030,"Ġan":2031,"ĠØ®Ø±":2032,"ĠØªÙĦØ§Ø´":2033,"Ø§Ø´ÛĮ":2034,"ĠÙĪÛĮÚĺ":2035,"ĠØ§ÙĤØªØµØ§Ø¯":2036,"ĠØ¯Ø§Ø´ØªÙĨØ¯":2037,"ĠØªØ§ÛĮ":2038,"ĠØŃÙħØ§ÛĮ":2039,"Ú©Ø²":2040,"ĠÙħÙĪÙĦ":2041,"ĠØ§ÙħÛĮØ±":2042,"ĠØªÙĪØµÛĮ":2043,"ĠÙģØ±Ø§ÛĮ":2044,"ĠÙĪÛĮÙĦ":2045,"ĠØªØ±Ú©ÛĮØ¨":2046,"ĠØ¢ÙĤ":2047,"ĠØ³ÛĮÙħ":2048,"ĠÚ©ÙĪØ±":2049,"ĠØ¨ÛĮØ§ÙĨ":2050,"ĠÙħÙĪØ²Ùĩ":2051,"ĠØªÙ¾Ùĩ":2052,"ĠÙĩÙħÚ©Ø§Ø±ÛĮ":2053,"ĠØ¢Ú©":2054,"ĠÚĨÚ©":2055,"ĠØ´Ø±Ø§ÛĮ":2056,"Ú¯Ø§ÙĨÛĮ":2057,"ĠØŃÛĮ":2058,"ĠØ§ÙĨØªØ®Ø§Ø¨Ø§Øª":2059,"Ø§ÙĦØ¨":2060,"ĠØ²Ùħ":2061,"ĠØ¨ÙĨØ§Ø¨Ø±":2062,"ĠØ´ÙħØ§Ø±":2063,"ĠØ²ÛĮØ±Ø§":2064,"ĠÙĪÛĮÚĺÚ¯ÛĮ":2065,"ĠÙħÛĮÙĦØ§Ø¯":2066,"ĠÙħØŃÙĦÛĮ":2067,"ĠÚĨÙĩØ§Ø±Ùħ":2068,"ĠÙħÙĪØªÙĪØ±":2069,"ĠÙ¾Ø±ÙĨØ¯Ú¯Ø§ÙĨ":2070,"ĠÙģÙĨØ§":2071,"ian":2072,"ĠØ¨Ø±ÙĨØ²":2073,"ĠØŃÙħØ§ÛĮØª":2074,"ĠÙ¾Ùĩ":2075,"ce":2076,"ĠØ¬ÙĨØ³ÛĮ":2077,"ĠØ§ØŃØªÙħØ§ÙĦ":2078,"ĠØªÙĪØµÛĮÙģ":2079,"ov":2080,"ĠØ¢Ø¨ÛĮ":2081,"ĠÙĦØ§Øª":2082,"ĠØ¹ÙĦÛĮÙĩ":2083,"ĠÙĨØ¯Ø§Ø±Ø¯":2084,"ĠÙĨÛĮÙħÙĩ":2085,"ĠØ¹Ø´":2086,"ĠØ§Ú©ÙĨÙĪÙĨ":2087,"ÚĺÛĮÚ©":2088,"ĠÙĪØ¶":2089,"ĠØ®ÙĪØ§ÙĨÙĨØ¯Ùĩ":2090,"ĠØ§Ø¨ØªØ¯Ø§":2091,"ĠÙĨÙģØª":2092,"Ġq":2093,"ĠØ®ÛĮØ§Ø¨Ø§ÙĨ":2094,"ĠÙħØ¤Ø³":2095,"ĠÙħØ³Ø¬":2096,"ĠØ¢Ø®Ø±ÛĮÙĨ":2097,"ĠØ¯Ø³ØªÙĪØ±":2098,"ĠÙ¾Ø§ÛĮÛĮÙĨ":2099,"ĠØ¹ÙħÙĦÛĮØ§Øª":2100,"ĠØ³ÛĮØªÛĮ":2101,"ĠØ³ÛĮØ§Ø³ØªÙħØ¯":2102,"ĠØ¨Ø§Øº":2103,"ĠÙĩØ§Ùģ":2104,"ĠÙħÙĪØ§Ø±Ø¯":2105,"ĠÙģÙĨ":2106,"ĠØªØ±ØªÛĮ":2107,"ĠØ¯Ú©ØªØ±":2108,"Ġu":2109,"ĠØ®ÙĪÙĨ":2110,"ĠØ·ÙĦ":2111,"ĠØ³Ø±Ø²ÙħÛĮÙĨ":2112,"ĠÙ¾ÙĪØ±":2113,"ĠØ´Ø´":2114,"ĠØ§Ø´ØªØ¨Ø§Ùĩ":2115,"Ġcon":2116,"ĠØ³ÙĪØ¦Ø¯":2117,"ĠØ±ÙĤØ§Ø¨Øª":2118,"ĠÙĩÛĮØ¦Øª":2119,"ttp":2120,"ĠØ¯Ø§Ø¯ÙĨ":2121,"ĠÙģÙĨØ§ÙĪØ±ÛĮ":2122,"ĠÙ¾Ø±Ø¯Ø§Ø²":2123,"ÙĪÛĮÙĦ":2124,"ĠØ®Ø¯Ùħ":2125,"ĠÙħØ§ÙĨØ¯":2126,"ĠÚ©Ø´Ø§ÙĪØ±":2127,"Ġhttp":2128,"ĠØ®Ø§Ø±Ø¬ÛĮ":2129,"ĠØ±Ø§Ø¨Ø·Ùĩ":2130,"ĠÙħØ³ÛĮØ±":2131,"ĠØ¨Ø§ÙĨÚ©":2132,"ĠÙħÛĮÚ©":2133,"ĠØ³ÙģÛĮØ¯":2134,"ĠÙħÛĮÙĨ":2135,"Ø§Ø±ÙĩØ§":2136,"ĠØ±ÛĮØ§Ø³Øª":2137,"ĠÙĪØ±Ø²Ø´Ú¯Ø§Ùĩ":2138,"ĠØ³Ø±Ø®":2139,"ĠØ¨Ø§Ø²Ø§Ø±":2140,"ĠØ¯Ø§ÙĨØ´Ú©Ø¯Ùĩ":2141,"ĠØ±Ø§ÙĨ":2142,"ĠÙħÙĪØ¶ÙĪØ¹":2143,"ĠØ§Ø±ÙħÙĨÛĮ":2144,"ĠØ¶Ø¯":2145,"Ø¨ÛĮÙĨ":2146,"ĠØŃØ§Ø¶Ø±":2147,"ĠÙĨØ¬":2148,"Ø§ÙħØ§":2149,"ĠØµØ¯Ø§":2150,"ĠØ¨Øª":2151,"ĠØ¹ÙĦØ§ÙĪÙĩ":2152,"ĠØ§ÙĨÙĪØ§":2153,"ĠØ§ÙħØ§Ùħ":2154,"ĠØ§ØºÙĦØ¨":2155,"ĠØ§ØµÙģÙĩØ§ÙĨ":2156,"ĠØŃØ°":2157,"ĠÚ¯Ø°Ø§":2158,"ĠØ®Ø§Ø·Ø±":2159,"Ø³Ø§ÛĮ":2160,"Ø²Ø§Ø¯Ùĩ":2161,"ĠÙ¾Ø§Ù¾":2162,"ĠÙħÙģ":2163,"ĠÙ¾ÙĪ":2164,"ĠÙĩÙħØ³Ø±":2165,"Ø³ÛĮÙĦ":2166,"ĠØ¢Ø±ÚĺØ§ÙĨØªÛĮÙĨ":2167,"ÙĩÙħ":2168,"ĠÙħØ®Ø§ÙĦ":2169,"ĠÙħØŃÛĮØ·":2170,"ÙħÙĪÙĨ":2171,"ĠØ±Ø´Ø¯":2172,"ĠØ§ÙĪÚ©Ø±":2173,"ĠÙĪØ±Ø²Ø´ÛĮ":2174,"Ø³Ø§ÙĨÛĮ":2175,"ĠØ¹Ø§ÙĦÛĮ":2176,"ĠÚ©ÙĨÚ¯":2177,"ĠÙħØ±ØªØ¨Ø·":2178,"ĠØ§ÙĨÙĪØ§Ø¹":2179,"ĠØ¨Ø±Ø§Ø¯Ø±":2180,"ĠÙħØŃØ¯ÙĪØ¯":2181,"ĠÙĪØ§ÚĺÙĩ":2182,"ĠÙħØªÙĨ":2183,"ĠØ±Ø²":2184,"Ø±ÛĮØ¨":2185,"ĠØ³ÙĤ":2186,"ĠØªØµÙħÛĮÙħ":2187,"ĠÚ¯Ø±Ùħ":2188,"ĠØ¢Ø²Ø§Ø¯ÛĮ":2189,"ĠØ³ØªØ§Ø±Ùĩ":2190,"ĠØ§ÙħÙĨÛĮØª":2191,"ĠØ±ÙĪØ³ØªØ§ÛĮÛĮ":2192,"Ø§Ø¨Ø·":2193,"ĠÚ©Ø´Øª":2194,"ĠØ¯Ø§Ø±ÛĮ":2195,"ĠÚ©Ø±ÙħØ§ÙĨ":2196,"ĠØªÙĦÙĪÛĮØ²ÛĮÙĪÙĨ":2197,"ĠØ¨Ø§Ø²Ú¯Ø´Øª":2198,"ĠØ§ÙħÙĪØ±":2199,"ĠØªØ±ØªÛĮØ¨":2200,"ĠØ¯ÛĮØ¯Ùĩ":2201,"ĠÙģØ±Ø²ÙĨØ¯":2202,"ÙĩØ±Ùĩ":2203,"ĠØ§ÙĤØ¯Ø§Ùħ":2204,"ĠÙħØ°Ùĩ":2205,"ĠÙ¾Ø´Øª":2206,"ĠØ±Ø§Ø³Øª":2207,"ĠØ´ÙĩØ±Ø¯":2208,"ĠÙĨØ¨Ø±Ø¯":2209,"ĠØ¨ÙĦÙĨØ¯":2210,"ĠØ¢ÙĨØ¬":2211,"ĠÙħØ§Ø±Ú©":2212,"Ġwikip":2213,"ĠØ®ÙĪØ´":2214,"ÙħÙĪÚ©":2215,"Ġwikipedia":2216,"ĠØ§Ø³Ú©Ø§Øª":2217,"ĠÙħØ¹ÙħØ§Ø±ÛĮ":2218,"ĠÚ©Ø§Ø±Ø¨Ø±":2219,"ĠØ¨Ø§ÙĨ":2220,"ĠØ±Ø¯":2221,"ĠÙħØ¯Ø§ÙģØ¹":2222,"ĠØ§Ø±ØªÙģØ§Ø¹":2223,"ĠØ¸Ø§Ùĩ":2224,"av":2225,"ĠÛĮØ§Ø¨":2226,"ĠØ¬ÙħØ¹":2227,"ĠØ¬ØºØ±Ø§ÙģÛĮ":2228,"ĠÚ©Ø´ÛĮ":2229,"ÙģØ¸":2230,"ĠØ¯Ø§Ø¯ÙĨØ¯":2231,"ĠØ¹ÙĪ":2232,"ĠØ§Ø¬Ø±Ø§ÛĮ":2233,"ĠÙ¾ÙĪÙĦ":2234,"ĠØ¯ÙĪÙĦØªÛĮ":2235,"ĠØ§ÛĮØªØ§ÙĦÛĮØ§ÛĮÛĮ":2236,"ĠÙħÙĪÙĤØ¹ÛĮØª":2237,"ĠØ¨Ø§ÙĤÛĮ":2238,"ØªØ±ÛĮ":2239,"ĠØ¢ÙĪ":2240,"ĠØ¯ÙĪÙħÛĮÙĨ":2241,"ĠØ¢Ø²ÙħØ§ÛĮØ´":2242,"ĠØ§ÙģØªØ®":2243,"ØªØŃ":2244,"Ø§Ø¯ÛĮÙĩ":2245,"ĠÙ¾Ø±ÙĪÚĺÙĩ":2246,"ĠØ±Ø®":2247,"ĠÚ©Ø§Ø±Ø¨Ø±Ø¯":2248,"Ġle":2249,"ĠÙĨÙĩØ§ÛĮ":2250,"ØªÙĪØ±":2251,"Ú¯ÙĦ":2252,"ĠÙģØ§Øµ":2253,"ÙĪØ¯Ùĩ":2254,"ĠÙĩØ§ÙģØ¨Ú©":2255,"ĠØ¬Ø¯Ø§":2256,"ĠØªÙĪØ§ÙĨÙĨØ¯":2257,"ĠØ±ÙĪØ§Ø¨Ø·":2258,"ĠØ§ÙĨØªÙĤØ§ÙĦ":2259,"ĠØ§ÙĦÙĩ":2260,"ĠÙ¾Ø±ÙĪØª":2261,"ĠØ¢Ø±Ø§Ùħ":2262,"ĠØ±ÙĩØ¨Ø±":2263,"ĠÙħÛĮØ±Ø²":2264,"ĠØ³Ø±Ø¨":2265,"ĠØ²Ø¯Ø§ÛĮÛĮ":2266,"ĠÙ¾Ø§Ø¯Ø´Ø§ÙĩÛĮ":2267,"ĠÙĩØ§Ø±":2268,"ĠÙĩØ¬":2269,"ĠÙĨØ¸Ø§Ùħ":2270,"ĠÚ¯Ø§Ùĩ":2271,"ĠØ´Ø¹Ø±":2272,"ĠØ¯Ø±Ø®Øª":2273,"ĠØ§Ø³ØªØ§ÙĨØ¯":2274,"ÙħØ§ÛĮÙĩ":2275,"ÙĪÚ©Ø³":2276,"ĠÙ¾ÛĮØ´Ø±":2277,"ĠØ´Ø±Ø§ÛĮØ·":2278,"ĠØªØ±ÛĮ":2279,"Ø¦ÛĮÙĨ":2280,"Ú©Ø§":2281,"Ø§ÛĮÙĤ":2282,"ØºÙĪÙĦ":2283,"ĠØ§ÙģØ³":2284,"ĠÚ¯ÛĮÙĦ":2285,"ĠØ¬ÙħÙĩÙĪØ±":2286,"ard":2287,"ĠØ¯ÙħÙĪÚ©":2288,"ĠØ®Ø¯ÙħØ§Øª":2289,"ÙĦØ§ÙĦ":2290,"ĠÙĪØ§Ú©ÙĨ":2291,"ÙĪØ§ÙĦ":2292,"ĠØ¹ÙħØ±":2293,"ĠØ®Ø±Ø§":2294,"ĠÙħØµØ±Ùģ":2295,"ĠÙħØ±Ø¯Ø§ÙĨ":2296,"ĠÙĪØŃ":2297,"ĠÙĤØ¯ÛĮÙħÛĮ":2298,"ÙĦÛĮÙħ":2299,"Ø¹ØªÛĮ":2300,"ĠÙ¾ÚĺÙĪÙĩØ´":2301,"ĠÙħØªÙģØ§ÙĪØª":2302,"Ø³ÛĮØ¯":2303,"ĠØ¬ÙĦÙĪ":2304,"ĠØªØ³":2305,"ĠØ¬ÙĪØ§ÛĮØ²":2306,"Ø¸Øª":2307,"ib":2308,"ĠØ§ØªØŃØ§Ø¯ÛĮÙĩ":2309,"ÙĪÙĦÛĮÙĨ":2310,"ĠØ±Ø§Ø¯ÛĮ":2311,"ĠØªÙĤØ±ÛĮ":2312,"ĠÙħÛĮØ²Ø§ÙĨ":2313,"ĠØ¯Ø±ÙĪ":2314,"ĠÙħØ³Ø¬Ø¯":2315,"ĠØ¨Ø±ÛĮØªØ§ÙĨÛĮØ§ÛĮÛĮ":2316,"Ø¬Ø§ÙĨ":2317,"ill":2318,"ĠÙħØ´ØªØ±Ú©":2319,"Ú¯Ø§":2320,"ĠØ¢ÙĩÙĨ":2321,"ĠØ§ÛĮØ³ØªÚ¯Ø§Ùĩ":2322,"ĠØ®Ø¯Ø§":2323,"if":2324,"ĠØ¯ÙĪÚĨ":2325,"ĠØ§Ø¨Ùĩ":2326,"Ú¯Ø§Ø±":2327,"all":2328,"ĠØ¨ÙĨØ§":2329,"ĠÚ©Ø§Ø±ÛĮ":2330,"Ø¶Ùĩ":2331,"ĠÙģØ§ØµÙĦÙĩ":2332,"ĠØ§Ø³ØªÛĮ":2333,"ĠØ´Ø§ÙĨ":2334,"Ø¨ÛĮÙĩ":2335,"Ø¸ÛĮÙħ":2336,"ĠØ§Ø³ØªØ®":2337,"ĠÙħØ³ØªÙĤÙĦ":2338,"ÙĪØ§Ø±Ùĩ":2339,"Ø±ÛĮØ³":2340,"ĠØ¢ÙĨØ§ÙĨ":2341,"ĠÙĨÙĪØ§Ø²":2342,"ĠÚ¯Ø°Ø´ØªÙĩ":2343,"ĠÙħØ¬ÙĦÙĩ":2344,"ĠÙħØ´ØºÙĪÙĦ":2345,"ĠØ§Ø¯Ø§Ø±Ùĩ":2346,"Ø§ØªØ§":2347,"Ø²Ø§":2348,"ĠØ¨ÙĨØ§Ø¨Ø±Ø§ÛĮÙĨ":2349,"ĠÙ¾Ø§Ø±ÛĮ":2350,"Ø±ÛĮÙħ":2351,"ĠØ±Ø³Ø¯":2352,"ct":2353,"ĠØ´Ø®ØµÛĮ":2354,"ĠÚ¯Ø³ØªØ±Ø¯Ùĩ":2355,"Ø¦ÙĪ":2356,"ĠØ³Ùħ":2357,"ĠÙĪØ§Ø±":2358,"ĠÙħÛĮØ¯Ø§ÙĨÛĮ":2359,"ĠØªØ¹Ø±ÛĮÙģ":2360,"ĠØ§ØµØ·":2361,"Ġto":2362,"Ø³Ú©ÛĮ":2363,"ĠØ¯Ø±ÙħØ§ÙĨ":2364,"ĠØ§Ø¨ÙĩØ§Ùħ":2365,"ĠØ¬Ø±":2366,"ĠØ§Ø¨ÙĪ":2367,"Ø³ØªÚ¯ÛĮ":2368,"Ġx":2369,"ĠØ·Ø¨ÙĤ":2370,"Ø²Ø¯ÙĩÙħ":2371,"ĠØ¯ÙĪÚĨØ±Ø®Ùĩ":2372,"ĠÙħÙĪÙĨ":2373,"ĠÙħÙĩÙĨØ¯Ø³ÛĮ":2374,"ĠÚ©Ø±ÙĪ":2375,"ØµÙĩ":2376,"ĠÙĪØ§Ú©ÙĨØ´":2377,"ĠØ¯Ø±Ø¢ÙħØ¯":2378,"ĠØ®ÙĦÛĮ":2379,"ĠØ³Ù¾Ø§Ùĩ":2380,"Ġsh":2381,"Ġph":2382,"ĠÙĦØ§":2383,"Ø§Ø¯ÙĦ":2384,"ĠÙħÙĦØª":2385,"ĠØ¨Ø³ØªÙĩ":2386,"ine":2387,"ÛĮÚ©Ø§":2388,"ĠØ¯ÙĦØ§Ø±":2389,"ĠØ®Ø±Ø¯":2390,"ĠØ§Ø³ØªÙĤÙĦ":2391,"ÙĦØ§ÙĤ":2392,"ÙħØ§ÙĦ":2393,"ĠØªØ§Ø¬":2394,"Ø¨Ø´":2395,"ĠØ¯Ø§Ø®ÙĦ":2396,"ĠØ§Ø³ØªÙĤÙĦØ§ÙĦ":2397,"ĠÙĨÙĩØ§ÛĮÛĮ":2398,"ĠØ³Ø±ÙħØ§ÛĮÙĩ":2399,"ĠÙĪÛĮÙĦÛĮ":2400,"ĠÙħØ¯Ø§Ø±":2401,"ĠÙħÙĨØ¬Ø±":2402,"Ø´Ø¯Ùĩ":2403,"ĠÙĪØ³ÛĮÙĦÙĩ":2404,"Ġpr":2405,"ĠØ¨Ø¹Ø¯ÛĮ":2406,"ĠÙħØ³ÙĦÙħØ§ÙĨ":2407,"ĠØ³ÛĮÙĨÙħØ§":2408,"eb":2409,"ĠØªØ§ÙĦ":2410,"Ø±Ø§Ø¬":2411,"ĠÙĤØ·Ø¹":2412,"ĠÙħØ§Ø´":2413,"ĠÙĩÙĨØ±ÙħÙĨØ¯Ø§ÙĨ":2414,"ĠÙħØ«ÙĦ":2415,"ĠØ³ÛĮÙĦ":2416,"ĠÙħØ¨":2417,"Ú©Ø´":2418,"ĠØ¨Ø¯ÙĨ":2419,"ĠØ³Ø§ÛĮØª":2420,"Ú¯Ø°Ø§Ø±ÛĮ":2421,"ĠØ§ÙĦÚ©ØªØ±ÙĪÙĨ":2422,"ĠØ¨Ø±Ø®ÙĪØ±Ø¯":2423,"ĠÙĪÛĮÙĨ":2424,"ĠØ¢ÙħØ§Ø±":2425,"ĠØªØ¹ÛĮ":2426,"ĠØ³Ø§ÙĦÚ¯ÛĮ":2427,"Ġon":2428,"ĠÙħÙĩØ§Ø¬Ø±Øª":2429,"ĠØ¯ÙĪØ³Øª":2430,"Ú¯Ø§ÙĩÛĮ":2431,"ÙĪØ§Ø±Ø¯":2432,"ÙĪÚĨ":2433,"ÙĤÛĮÙħ":2434,"ĠØªØ¹ÛĮÛĮÙĨ":2435,"ĠØ§ÙĪÚ©Ø±Ø§ÛĮÙĨ":2436,"ĠØ±Ø³Ø§ÙĨÙĩ":2437,"ĠÙĤØ§Ø¬":2438,"ĠØªÙĪØ§ÙĨØ³Øª":2439,"Ġfor":2440,"Ġsp":2441,"Ġco":2442,"ĠÙĩÙĨØ¯ÛĮ":2443,"Ġis":2444,"ĠÚ¯Ø³ØªØ±Ø´":2445,"ĠÙģÙĪÙĦ":2446,"ĠØ¨ÙĩØ±Ùĩ":2447,"ĠØªÙĪÙħ":2448,"ĠØŃØ§Ú©":2449,"ĠÙģØ§Ø±Ø³":2450,"ĠÙĨÚĺ":2451,"ĠØ³Ø§ÙĦÙĩ":2452,"Ø¨ÙĪØ±Ú¯":2453,"ĠÙĨØ±ÙĪ":2454,"Ø¨Ø±Ú¯":2455,"ĠØ§ÙĦÚ¯":2456,"ĠØ¹ÙĩØ¯Ùĩ":2457,"ĠÚ©Ø´Ø§ÙĪØ±Ø²ÛĮ":2458,"ĠØ¢ÙĩÙĨÚ¯Ø³":2459,"Ø§Ø²Ùħ":2460,"ĠÙħÙĨØµ":2461,"ĠÙ¾ÛĮØ´ÙĨÙĩ":2462,"Ġpro":2463,"ĠÙĪØ¶Ø¹ÛĮØª":2464,"Ø§ÙĩÛĮÙħ":2465,"ĠÙħØ¹ÙĨÛĮ":2466,"ĠÙ¾Ø¯ÛĮ":2467,"ĠØ¬Ø§ÛĮÚ¯Ø²":2468,"ĠÛĮÙĪÙĨØ§ÙĨ":2469,"ĠØ¹ÙĦÙħ":2470,"ĠØ®ÙĪØ±":2471,"Ø±Ø³":2472,"ĠØ¯ÙĪØ¨Ø§Ø±Ùĩ":2473,"ĠØ¯ÙĨÛĮ":2474,"ĠÚĨØ§Ø±":2475,"ĠÙĦØ§ØªÛĮÙĨ":2476,"ĠÚ©ÙĪØ¯Ú©Ø§ÙĨ":2477,"Ø³ØªÙĪÙĨ":2478,"ĠÙĨÙĤØ·Ùĩ":2479,"ĠÙ¾Ø±ÙĪØ§Ø²":2480,"ĠÙħØ£":2481,"ĠÙĩØ³ØªÙĩ":2482,"ĠØ§ÙĨØªØ´Ø§Ø±Ø§Øª":2483,"ud":2484,"ub":2485,"Ġorg":2486,"ĠÙħØŃÙĦÙĩ":2487,"ĠØªØ§Ø¨Ø¹":2488,"Ø§Ø®Ø±":2489,"ĠØ³Ø§Ø®ØªØ§Ø±":2490,"ĠØªØ¬Ø±":2491,"ĠØ®Ø¯ÙħØª":2492,"ĠØªØ¬Ø§Ø±ÛĮ":2493,"ĠØ³Ø¨Ø²":2494,"Ġne":2495,"ĠØ§Ø´Ú©":2496,"ĠÙħÙĨØ¨Ø¹":2497,"ĠÙĨÙħØ§ÛĮÙĨØ¯Ùĩ":2498,"ĠØ±ÛĮØ§Ø¶ÛĮ":2499,"ĠÙĪØ§ÙĦÛĮ":2500,"ĠÙģØ±ÙĪ":2501,"ĠØ²Ø±":2502,"ĠÙħØªØ¹":2503,"ĠÙĦÛĮÙĨ":2504,"ĠÚ¯Ø§Ø²":2505,"Ø±Ø¶Ø§":2506,"ÙĪØ§ÙĨÛĮ":2507,"ĠÙĤØªÙĦ":2508,"ÙĤÛĮØ§ÙĨ":2509,"ĠÙ¾Ø§ÙĦ":2510,"ĠÙģØ±Ùħ":2511,"ÙĦØ²":2512,"ĠØ§Ø¶Ø§":2513,"ÛĮØ§Ø±":2514,"ĠØªÙĤØ±ÛĮØ¨Ø§":2515,"ĠØ¨Ø§ÙĨØ¯":2516,"ĠØ¯Ø±ÙĪÙĨ":2517,"ĠÙħØ³Ø§":2518,"ĠØ±ÙĪØ³ØªØ§ÙĩØ§ÛĮ":2519,"ĠÙ¾Ø§Ø±ÛĮØ³":2520,"ĠØ¶Ø±":2521,"ĠØ·Ø¨ÙĤÙĩ":2522,"ĠÙĨØ¨":2523,"ĠØ¯Ø¨ÛĮØ±":2524,"ĠÙħØ¨Ø§Ø±":2525,"ÛĮØ¯ÙĨ":2526,"ĠÙħØªÙĪÙĦØ¯":2527,"ĠÙĩÙĦ":2528,"ÙģØªØ±":2529,"ĠÙħØ±Ø²":2530,"ĠØ±Ú©ÙĪØ±Ø¯":2531,"ĠÙħØ±Ø§Ø³Ùħ":2532,"ĠÚ¯ÙĪÛĮØ¯":2533,"ity":2534,"ĠÙħÛĮØ±Ø²Ø§":2535,"ĠÙħÙĪØ³":2536,"ĠÙħØ´ÙĩÙĪØ±":2537,"ÙĪØªØ±":2538,"Ø§ÙĩÙħ":2539,"ĠØ¯ÙĤÛĮ":2540,"Ø¨ÙĨ":2541,"ĠØ±ÙĪØ¯Ø®Ø§ÙĨÙĩ":2542,"ĠÙĪÙĤØªÛĮ":2543,"Ø±Ø§Ø¶":2544,"ĠÙħÙĤØ§":2545,"ĠØ³ÙĪØ¦ÛĮØ³":2546,"ÙħØ¹":2547,"ĠÙĪØ§ØŃØ¯":2548,"ĠØ¬ÙĪØ§ÙĨØ§ÙĨ":2549,"ĠØ¬ÛĮÙħ":2550,"ĠØ¹Ø§ÙħÙĦ":2551,"ĠÙĩØ²ÛĮÙĨÙĩ":2552,"ĠØ§ØªØ±ÛĮØ´":2553,"ĠÙĦÙĪØ¦":2554,"Ġat":2555,"ĠØ³Ú©ÙĪÙĨØª":2556,"ÙĨÙĪØ²":2557,"ĠØ±Ø¶Ø§":2558,"ĠØ¹Ø±Ø¨Ø³ØªØ§ÙĨ":2559,"ĠÙĨÙĤØ§Ø´ÛĮ":2560,"ĠÙ¾Ø§":2561,"ĠÙĨÙĩØ§ÛĮØª":2562,"ĠØ¯Ùħ":2563,"Ø³Ú©ÙĪ":2564,"Ø´Ø§Ùĩ":2565,"ĠÙħØ¤Ø³Ø³Ùĩ":2566,"ÛĮØ´Ùĩ":2567,"Ġmar":2568,"ĠØ§Ø±ÙĪÙ¾":2569,"ĠÙĨÙĤÙĦ":2570,"Ø´ÛĮØ±":2571,"ÙĪØ±Ø§":2572,"ĠÙĪÛĮØª":2573,"ĠÙħÚ©Ø²ÛĮÚ©":2574,"ĠØ¯ÙĩÙĨØ¯Ùĩ":2575,"ĠØªÚ¯Ø²":2576,"ĠÙĦØŃ":2577,"ÙģÙĪØ±Ø¯":2578,"ĠØµÙĨØ¹Øª":2579,"ĠØ¹Ø´ÙĤ":2580,"ĠØ´ÛĮÙħÛĮØ§ÛĮÛĮ":2581,"ĠØ®ÙĪØ±Ø¯":2582,"ÙĨÚ¯ÛĮ":2583,"ĠÙĪØ²ÙĨ":2584,"Ø¨ÙĨØ¯":2585,"Ø§ÙĨÛĮÙĩ":2586,"ĠØªÚ¯Ø²Ø§Ø³":2587,"ĠØ¯ÙģØ§Ø¹":2588,"ĠØ§ÙĪØ§ÛĮÙĦ":2589,"ĠØ¬Ø§Ø¯Ùĩ":2590,"ell":2591,"Ø§Ø¦ÙĪ":2592,"ĠØ¢ÙģØ±ÛĮÙĤØ§":2593,"ĠØ§Ø«":2594,"ĠØ®ÙĪØ¯Ø±ÙĪÙĩØ§ÛĮ":2595,"ĠÙ¾ÛĮØ´ÛĮÙĨ":2596,"ĠØ±Ø§ÛĮØ§ÙĨÙĩ":2597,"ĠØ´ÙĩØ±Ø¯Ø§Ø±ÛĮ":2598,"ĠØ¨Ø§Ø³ØªØ§ÙĨÛĮ":2599,"ĠÙ¾Ø§ÛĮÚ¯Ø§Ùĩ":2600,"ĠØ§Ø¬Ø§Ø²Ùĩ":2601,"ĠØ³ÙĪØ±ÛĮÙĩ":2602,"ĠØ¬ÙĪØ±":2603,"ĠÙħØ³ØªÙĤÛĮÙħ":2604,"ĠØ±Ùħ":2605,"ĠØ§ØµÙĦØ§ØŃ":2606,"Ø³ÙĪØ¨":2607,"ÙģØ§ÙĤ":2608,"ĠÙĤØ²":2609,"ĠÙ¾Ø§Ø³Ø®":2610,"ĠÙħØ·Ø§ÙĦØ¹Ùĩ":2611,"ĠØ¨Ø§Ø¨":2612,"ĠÙħÙĤØ¯Ø§Ø±":2613,"ĠÙģØ´Ø§Ø±":2614,"Ø¢ÙĨ":2615,"Ù¾ÛĮØ´Ùĩ":2616,"ĠÙĩÙĨÚ¯Ø§ÙħÛĮ":2617,"ĠÙĦØ±":2618,"ĠØ¨ÛĮØ³Øª":2619,"ĠÚ¯ÙĨ":2620,"Ġte":2621,"Ġz":2622,"Ġimage":2623,"ĠØ³Ø§Ø³":2624,"ĠÙĩÙģØªÙĩ":2625,"ĠÙģÛĮÙĦÙħÛĮ":2626,"ĠÚ¯ÙĪØ±":2627,"ĠØ¯Ø±Ø®":2628,"ĠÙħØ¨Øª":2629,"ĠÙ¾Ø´ØªÛĮ":2630,"ĠÙĩÙĨÙĪØ²":2631,"ÙģÙĨ":2632,"ĠÚ©ÙħØªØ±":2633,"ĠØ³ÙĦÙĪÙĦ":2634,"ĠÙĪÛĮÙĦÛĮØ§Ùħ":2635,"ĠÙģÙĦØ³ÙģÙĩ":2636,"ĠÚ¯Ø°Ø±":2637,"ĠÙģÛĮØ²ÛĮÚ©":2638,"ĠØªØ§Ø±":2639,"ĠÙħØ³ÛĮØŃÛĮ":2640,"Ø´Ø§":2641,"ĠÚ©Ø´ÙĪØ±ÛĮ":2642,"ĠÙ¾ÛĮØ§":2643,"ĠØ±ÙĪÛĮØ¯":2644,"ĠÛĮØ§Ø¨Ø¯":2645,"ĠØªØ¨Ø±ÛĮ":2646,"ĠØªØ§Ú©ÙĨ":2647,"ph":2648,"ĠÙħÙĨØªÙĤ":2649,"Ø³Ù¾":2650,"ĠÚ©ÙĪÙħ":2651,"ĠØªØ§Ú©ÙĨÙĪÙĨ":2652,"ĠÙħÙĨØ¸ÙĪØ±":2653,"ran":2654,"ĠØ¬Ø¯ÙĪÙĦ":2655,"ĠØ§ØµØ·ÙĦØ§ØŃ":2656,"ĠÙĨÚ¯Ø§Ø±Ø®Ø§ÙĨÙĩ":2657,"ĠØ´Ø±ØŃ":2658,"ĠØ±Ø¶":2659,"Ú¯ÙĪÙĨÙĩ":2660,"ĠØ¹Ø«":2661,"ĠÙĨÛĮÙĪ":2662,"ÙĪÙĦÙĪÚĺÛĮ":2663,"ĠØ¬ÙĨØ¨Ø´":2664,"ĠØ§ÙĪØ§Ø®Ø±":2665,"Ø±ÛĮØª":2666,"ĠÙħØ§Ø´ÛĮÙĨ":2667,"ĠØ¨Ø±Ø¬Ø³ØªÙĩ":2668,"ĠÙĪØ¨Ú¯Ø§Ùĩ":2669,"ÙĪØ²Ùĩ":2670,"ĠØ¹ÙħÙĦÚ©Ø±Ø¯":2671,"ĠØ±Ø³Ø§ÙĨØ¯":2672,"Ø²ÙĨ":2673,"ĠÚĨØ±Ø§":2674,"ĠØ±ÙĩØ¨Ø±ÛĮ":2675,"ĠÙħÙĩØ¯ÛĮ":2676,"Ø¹ÙĪØ¯":2677,"ĠØ¯ÙģØªØ±":2678,"ĠØ¨ÙĦÚĺÛĮÚ©":2679,"ĠØ³Ø®Øª":2680,"ĠØ´Ø§Ø®":2681,"ber":2682,"ĠÙģØ±Ø³Øª":2683,"ĠØ±Ø§Ú©":2684,"ÙħÛĮØ±":2685,"ÙĪØªØ§":2686,"ĠØ¹Ø¶":2687,"ĠÙħØ¹ÙĨØ§ÛĮ":2688,"ĠØ®Ø±ÙĪ":2689,"Ú¯ÛĮÙĨ":2690,"ĠÚ¯ÙĪÙĨ":2691,"th":2692,"ĠØ¯ÙħÙĪÚ©Ø±Ø§Øª":2693,"ĠØ¯ÙĤÛĮÙĤÙĩ":2694,"Ø§ÙĦØ¯":2695,"Ø¬Ø§Ùħ":2696,"ĠØ§ØªÙģØ§ÙĤ":2697,"ĠØ³Ø§Ø²Ùĩ":2698,"ĠÙĨØ¨ÙĪØ¯":2699,"ÙĤØ§ÙĨ":2700,"ĠØŃÙģØ¸":2701,"ĠÚĺØ§Ù¾ÙĨÛĮ":2702,"ĠÙģØ±Ø§ÛĮÙĨØ¯":2703,"ĠÙĪÙĤØª":2704,"ĠØ²ÙĨØ¯Ø§ÙĨ":2705,"ĠØ±ÙģØªÙĩ":2706,"ĠÚ©Ø§Ø±Ø¢":2707,"ĠØŃØ§Ùģ":2708,"ĠÙ¾ÛĮØ±ÙĪØ²ÛĮ":2709,"ĠØ´ÙĩØ±ÙĩØ§":2710,"ĠÙĦØ¨":2711,"ĠØ¬Ø¹":2712,"ĠØ¢ÙħØ±ÛĮÚ©Ø§ÛĮ":2713,"ĠØ³ÛĮØ§Ø³ØªÙħØ¯Ø§Ø±Ø§ÙĨ":2714,"ĠÙħØ£Ùħ":2715,"ĠÚ©Ø±ÛĮØ³Øª":2716,"ĠØ¬Ø§ÛĮÛĮ":2717,"Ã©":2718,"ÛĮØªÙĩ":2719,"Ø¢Ø¨Ø§Ø¯":2720,"ĠÙħØ³ØªÙĨØ¯":2721,"ÙĦØ§ÙĨØ¯":2722,"Ø§ÙĨØªØ²":2723,"ĠÙ¾ÙĩÙĦ":2724,"ĠÙĨØµ":2725,"ĠØ§Ø³Ø§Ø³ÛĮ":2726,"ĠØ®ÙĪØ±Ø´ÛĮØ¯ÛĮ":2727,"ĠÙ¾Ø§Ú©Ø³ØªØ§ÙĨ":2728,"Ø§ÛĮØªØ¯":2729,"ĠÚ©ÙħØ±":2730,"ĠØ³Ø±ÙĪ":2731,"ÙĪÛĮØ²":2732,"ĠÚ©ÙĪØ¯Ú©":2733,"ĠÚ¯Ø±ÙĪÙĩÛĮ":2734,"Ø¬ÙħØ§ÙĨ":2735,"ĠØªØ§Ø±ÛĮØ®ÚĨÙĩ":2736,"ÙĪØ±ÙĪ":2737,"ĠÙĤØ±Ø§Ø±Ø¯":2738,"Ø§ÙģÙĤ":2739,"ah":2740,"ĠØ®ÙĪØ±Ø´ÛĮØ¯":2741,"ĠÚ©Ø§Ù¾":2742,"ĠÙĦØ³":2743,"Ø¨ÛĮÙĦ":2744,"ÛĮÙĨØ¯Ùĩ":2745,"Ø¯ÛĮÚ¯Ø±":2746,"ĠÙĤÙĦÙħØ±":2747,"ÙĪØ¬":2748,"ÙĪÙħØªØ±ÛĮ":2749,"ÙĪÛĮØ³ÛĮ":2750,"ĠØµÙĨØ¹ØªÛĮ":2751,"ĠØ³Ø§Ø¯Ùĩ":2752,"ĠØ§Ù¾":2753,"ĠØ³ÛĮØ±":2754,"ØŃØ§Øª":2755,"ĠÛĮÙĪÙĨØ§ÛĮØªØ¯":2756,"ĠÙħÙĪÙĨØª":2757,"ĠØ®Ø±ÛĮØ¯":2758,"ĠØ®ÙĦÙĤ":2759,"ĠÚ©ÙĦÛĮØ³Ø§ÛĮ":2760,"ÙĪØ±ÙĩØ§ÛĮ":2761,"ĠÙĪØ§Ø´":2762,"ĠÙ¾Ø±Ø§ÙĨØªØ²":2763,"ĠØªÙĪØ¶ÛĮ":2764,"Ġse":2765,"ĠÚ©ÙĦÙħØ¨":2766,"ĠÙħØ²":2767,"ÙĦÙħ":2768,"ĠÙģØ¶Ø§ÛĮ":2769,"ĠÙħØ¯Ø§ÙģØ¹Ø§ÙĨ":2770,"ĠÛĮÙĩÙĪØ¯ÛĮØ§ÙĨ":2771,"ĠØ³Ø±Ø§ÙĨ":2772,"ĠØ§Ø®ØªØµ":2773,"ĠØµØŃÙĨÙĩ":2774,"ĠÙĨØ±ÙĪÚĺ":2775,"ĠÚ¯ÛĮØª":2776,"ĠØ¹Ø¯Ùħ":2777,"ĠØªØ±Ø§":2778,"ĠØ¢ÙģØ±ÛĮÙĤØ§ÛĮÛĮ":2779,"ĠØªÚ©ÙĨ":2780,"ĠÚ©ØªØ§Ø¨Ø®Ø§ÙĨÙĩ":2781,"ĠÚ©Ø§ÙħØ§":2782,"ØªØ¨Ø§Ø³":2783,"Ø§Ø¯ÙĪ":2784,"ĠÙħØªØŃØ¯":2785,"Ú¯Ø§ÙĨÙĩ":2786,"ĠØ¢ÙħÛĮ":2787,"ĠÚ©Ø§ÙĦØ¬":2788,"ĠÙģÛĮÙĦÛĮ":2789,"ĠÙħØ´Ø§Ø¨Ùĩ":2790,"ĠØ¹ØµØ±":2791,"ĠØ¢Ø³ÛĮØ¨":2792,"ĠØ¬Ø§ÛĮÚ¯Ø²ÛĮÙĨ":2793,"ĠØªØŃÙĤÛĮÙĤØ§Øª":2794,"ĠØ²ÛĮØ§Ø¯":2795,"ĠØ®ÙĪØ¯Ø´":2796,"ĠÙĨØ§Ù¾":2797,"ĠØ®ÙĦØ§":2798,"ĠÙ¾Ø³Øª":2799,"ĠØ±ÙĪØ´ÙĨ":2800,"Ø§Ø¦ÙĦ":2801,"ĠØ§Ø·Ø±Ø§Ùģ":2802,"ĠØ§ÙĦØ¹":2803,"ĠÙħØ¬Ø¯":2804,"ĠØ§ÙĤØªØ¨Ø§Ø³":2805,"ĠØ®ÙĦ":2806,"ĠÚ©Ø§Ø±Ú¯Ø±Ø¯Ø§ÙĨØ§ÙĨ":2807,"Ġas":2808,"ĠÙģÙĦÙĪØ±":2809,"ÙĩØ§ÛĮÛĮ":2810,"ĠØ³ÙĨØªÛĮ":2811,"ĠØªØ§Ùħ":2812,"ĠØ§ÙħØªÛĮØ§Ø²":2813,"ĠØ¬Ø²Ø¦ÛĮ":2814,"ĠÙĤØ§":2815,"ĠØªÙĨØ¸ÛĮÙħ":2816,"ld":2817,"ĠÙĨØ§ÙħÛĮØ¯Ùĩ":2818,"ĠÙħØ§ÙĨØ¯Ùĩ":2819,"ĠØ¢ÙĦÛĮ":2820,"ĠØ¹Øµ":2821,"ĠÙĨÙĤØ´Ùĩ":2822,"Ø§Ú©Ø³":2823,"ĠÙĨØ²Ø¯ÛĮÚ©ÛĮ":2824,"ÙĪØ§Ø³Øª":2825,"ĠÙĪØ§ÙĤØ¹ÛĮ":2826,"ĠØ®Ø·Ø±":2827,"ĠØ±ÛĮØ´Ùĩ":2828,"ĠÙ¾ÛĮØ´ÙĨÙĩØ§Ø¯":2829,"ÙħØ§Ø±Ú©":2830,"ĠÙħØŃÚ©":2831,"ĠÙħØ°ÙĩØ¨ÛĮ":2832,"ĠØ§ÚĨ":2833,"ĠÙ¾Ø±ØªØºØ§ÙĦ":2834,"ÙħØ§Øª":2835,"ge":2836,"ĠØ¨Ø±Ø¯Ùĩ":2837,"ÛĮÙĨÙĪ":2838,"ĠÚ©Ø³ÛĮ":2839,"ĠÙĨØ§ÙħØ²Ø¯":2840,"ĠØ¨ÙĨØ¯":2841,"ht":2842,"ĠÙ¾Ø¯Ø±Ø´":2843,"ĠØ¨ÙĪÙħÛĮ":2844,"Ø®Ø§ÙĨ":2845,"ĠÙħØ®ØªÙĦ":2846,"ĠÙĨØ§Ø¨":2847,"ĠÙħØ´Ø§ÙĩØ¯Ùĩ":2848,"ĠØŃÙĦÙĤÙĩ":2849,"ĠØ§ÙĤÛĮØ§ÙĨ":2850,"Ø§ØµÙĦ":2851,"ÛĮÙĨØ²":2852,"ĠØ®ÙĪØ§Ø³Øª":2853,"ĠÙ¾ÙĦÛĮØ³":2854,"ĠÙ¾ÛĮÚ©Ø³ÙĦ":2855,"ÙĪØ§ÙĨØ¯":2856,"ĠØªÙĪØ§Ø¨Ø¹":2857,"ĠØªÙĪÙ¾":2858,"ĠÙģÛĮÙĨ":2859,"ĠØ§ÙģØ²Ø§Ø±":2860,"ĠØ§ÙĦØ¯ÛĮÙĨ":2861,"ĠØªØ´Ø®ÛĮ":2862,"ue":2863,"ĠØ¨Ø§Ø¯":2864,"Ø§Ø¨Ø±ÛĮ":2865,"ĠØ³ÙĦØ·ÙĨØªÛĮ":2866,"Ø±Ø§Ø±":2867,"ĠÙĨÙĪØ¹ÛĮ":2868,"ĠØ¹Ø¨Ø§Ø³":2869,"ĠÙĤÙĪØ§ÙĨ":2870,"ĠÙħÙĦÙĦ":2871,"ÛĮÙĦÙĨØ¯":2872,"ÛĢ":2873,"ĠØ¨Ú¯ÛĮØ±":2874,"ĠØ³ÙĪØ³ÛĮ":2875,"ĠØ´ÛĮØ®":2876,"ĠØµØ§Ø¯":2877,"ĠØ§Ø³ØªÙĪØ¯ÛĮ":2878,"ĠÙ¾ÛĮØ§Ùħ":2879,"Ø¯Ø±Ø§":2880,"ĠØ¬Ø°":2881,"ĠÚ¯Ø±ÙģØªÙĨ":2882,"ĠÙģØ±Ø§ÙĨÚ©":2883,"ĠÙĤØ§Ø¨":2884,"ĠØ´Ø¨ÛĮÙĩ":2885,"ĠØ§Ø³Ùģ":2886,"Ú¯Ø°Ø§Ø±":2887,"ĠØ¨ÛĮÙĦ":2888,"Ø³Ø¯":2889,"Ø§Ø¦ÛĮ":2890,"ĠØ¢ÙĨØª":2891,"ÙĪÚ¯":2892,"ĠÙĦÙĪÚ©":2893,"ĠØ§ØµÙĦ":2894,"ĠÙħØŃØ³ÙĪØ¨":2895,"ĠÚ©ÛĮÙĦÙĪÙħØªØ±ÛĮ":2896,"ĠÚ©ÙĦØ§Ø³ÛĮÚ©":2897,"ĠÙħØŃØ§Ùģ":2898,"Ø§Ø¯Ø«":2899,"ĠØ²ÛĮØ¨":2900,"ĠØ®Ø±Ø§Ø³Ø§ÙĨ":2901,"ĠØ³ÙĪØ¯":2902,"ĠÙħØªØ±ÛĮ":2903,"ĠÙĤØ§ÛĮÙĤ":2904,"ĠÙĨÚĺØ§Ø¯":2905,"tr":2906,"Ø®ÛĮÙĦÛĮ":2907,"ĠÙ¾ÛĮÙĪØ³Øª":2908,"ĠØ§Ø³Ú©Ø§Ø±":2909,"ĠÙĪØ±ÙĪØ¯":2910,"ĠØ§Ø·ÙĦØ§Ø¹":2911,"Ø§ÙĩØ¯":2912,"ĠØ§Ø¯Ø¹":2913,"ĠÙĨØ§Øª":2914,"ĠØ§Ø±Ø²Ø´":2915,"ĠÙĨØ¯Ø§Ø´Øª":2916,"ĠØ§Ø±Ø´Ø¯":2917,"ĠØ²Ø§":2918,"ĠØªØ®ÛĮÙĦÛĮ":2919,"Ø²ÛĮØ¯Ùĩ":2920,"ĠÙĪØ§ÙĦÛĮØ¨Ø§ÙĦ":2921,"Õ¡":2922,"ĠÚ©ÙĦÙħØ¨ÛĮØ§":2923,"ĠÚ¯Ø§ÙĩÛĮ":2924,"Ġam":2925,"ĠÙħØ¹Ø§ÙĩØ¯Ùĩ":2926,"Ġpar":2927,"ĠØ¢ÙħÙĪØ²Ø´ÛĮ":2928,"ĠÙħØ³Ø¦ÙĦÙĩ":2929,"ĠÙĩÙĨØ±Ù¾ÛĮØ´Ùĩ":2930,"ĠØ®Ø´Ú©":2931,"ĠØ°Ø®":2932,"ĠØ¯Ø§ÙĨØ´Ø¬":2933,"ĠÙħØ§Ø±Øª":2934,"ĠØ¯Ø§Ø¯Ú¯Ø§Ùĩ":2935,"ĠØ³Ø§ÙħØ§ÙĨÙĩ":2936,"ĠÙĤÛĮÙħ":2937,"ĠØ§Ú¯Ø±ÚĨÙĩ":2938,"ĠØ§ÙĨØ³Ø§ÙĨÛĮ":2939,"ĠÙĦØ´Ú©":2940,"ĠÙħØ¯Ø±ÙĨ":2941,"ĠØ¨Ø¹Ø¶ÛĮ":2942,"ĠÙħÙĨØ§Ø³Ø¨":2943,"ĠØªÙĪØ²ÛĮ":2944,"Ø²ÙĪ":2945,"ØªØ³":2946,"ĠØ¹Ø§Ø´":2947,"ĠØ³Ø±Ø§Ø³Ø±":2948,"Ġair":2949,"ÛĮÙĨÚ¯ØªÙĨ":2950,"ĠØ§Ø¹ØªØ±Ø§Ø¶":2951,"ÙģØ¹":2952,"ĠÙ¾ÙĪØ´Ø´":2953,"Ø§Ø¯Ø§Ø±":2954,"ĠØ±ÙĪÙĨØ¯":2955,"ĠØªØ£ÛĮ":2956,"ÙħÛĮÙĨÛĮ":2957,"ĠØªÙĪÙĦØ¯":2958,"ĠÙĪÛĮØ±Ø¬":2959,"ĠÛĮØ®":2960,"Ø¸Ùħ":2961,"ate":2962,"ĠÙħØ§Ø²":2963,"ĠØ¨Ø±ÙĤ":2964,"ĠÛĮÙĪÙĨØ§ÙĨÛĮ":2965,"ĠÙħÙĪØ¬Ø¨":2966,"ĠØ¢ÙĨØ¬ÙĦØ³":2967,"ĠÙģØ±Ø§ÙĩÙħ":2968,"ĠØ³Ø§ÛĮ":2969,"ĠÙħØŃÙħÙĪØ¯":2970,"Ø§ÙĨØ¯Ø±":2971,"ĠÙħØ®Ø§ÙĦÙģ":2972,"ĠÛĮÚ©Ø¯ÛĮÚ¯Ø±":2973,"ĠÙħÙģÙĩ":2974,"ĠØ§Ú©Ø´ÙĨ":2975,"ĠÙħØŃØµÙĪÙĦØ§Øª":2976,"ĠÙħÙĤØ§ÙĪÙħØª":2977,"ĠØ³ÙĦØ·Ø§ÙĨ":2978,"ĠØ¨ÛĮØ´ØªØ±ÛĮ":2979,"ĠÙħÙĤØ¯Ø³":2980,"ĠÙĨØ§Ø´":2981,"ĠØªØŃÙĦÛĮÙĦ":2982,"ĠÙĨØ³ÙĦ":2983,"ĠÙĨØ´Ø±":2984,"ĠØ¨Ø±Ø§Ø³":2985,"Ø´ÙĨØ§Ø³":2986,"ĠØ¢Ø°Ø±":2987,"ĠØªÙĨÛĮ":2988,"ĠÙĦØ¨Ø§Ø³":2989,"Ø´ÛĮÙĨ":2990,"ĠØªØ´Ø®ÛĮØµ":2991,"ĠØ¢ÛĮÙĨØ¯Ùĩ":2992,"ÙģØ±ÛĮÙĨ":2993,"ĠØ«Ø§Ø¨Øª":2994,"ĠØ¯Ø±ÙĪØ§Ø²Ùĩ":2995,"ĠØ¯Ø§ÙĨÙħØ§Ø±Ú©":2996,"ĠØ¯Ø±ÛĮØ§ÛĮ":2997,"ect":2998,"ÙħØ±Ú©Ø²":2999,"ĠØ¯ÛĮÙĪÛĮØ¯":3000,"ĠØªØ£ÛĮÛĮØ¯":3001,"ĠØªÙĪØ²ÛĮØ¹":3002,"ĠØ¬ÛĮÙħØ²":3003,"ĠÙĤØ·Ø¹Ùĩ":3004,"ĠØŃØ³Ø§Ø¨":3005,"ÙĪÛĮÚĨ":3006,"Ø¨ØªÙĩ":3007,"ĠÛĮÚ©Ùħ":3008,"ĠÙĪØ§Ø´ÛĮÙĨÚ¯ØªÙĨ":3009,"ok":3010,"ĠÚ¯ÙĪÛĮÙĨØ¯":3011,"ÛĮÙĦØ¯":3012,"ĠÙĩÙĪØ´":3013,"Ø¯Ø±Ø§Ø³ÛĮÙĪÙĨ":3014,"ĠØ¯Ø§Ø³ØªØ§ÙĨÛĮ":3015,"ĠÙĤÙĪØ§ÙĨÛĮÙĨ":3016,"de":3017,"ĠØ¢ÙĨØ¯":3018,"ĠØ§Ø¶Ø§ÙģÙĩ":3019,"ĠØ¢Ú©Ø§Ø¯":3020,"ĠØ¨Ø§ÙĦØ§ÛĮ":3021,"ĠÙĩÛĮØ¯":3022,"ĠØ¹Ø«ÙħØ§ÙĨÛĮ":3023,"ĠØ§ÙĩØ¯Ø§":3024,"ĠÚĨÛĮÙĨÛĮ":3025,"ĠØ§ÙĦØ¨ØªÙĩ":3026,"ÙģÙĦ":3027,"ĠÙħØ§Ø±ÛĮ":3028,"io":3029,"ĠØ¹ÙĦØ§ÙĤÙĩ":3030,"ĠØ¨ÛĮÙħØ§Ø±Ø³ØªØ§ÙĨ":3031,"ĠØ¬Ø§ÛĮÚ¯Ø§Ùĩ":3032,"ĠØ¨Ø±Ø§Ø³Ø§Ø³":3033,"ial":3034,"Ø´ÛĮØ¯":3035,"ĠÙģÛĮÙĦÛĮÙ¾":3036,"ĠØ³ÙĪØ±":3037,"ĠØªØ¨Ø±ÛĮØ²":3038,"ĠØ²Ø¯Ùĩ":3039,"ĠØŃØ§ØµÙĦ":3040,"ÙĨÙĪØ¹":3041,"Ø³ÙĪÙģ":3042,"ĠÚ©ÛĮÙĦÙĪ":3043,"ĠØ¬Ø±Ùħ":3044,"ĠØªØ£ÙħÛĮÙĨ":3045,"ĠÙ¾ÙĩÙĦÙĪÛĮ":3046,"ĠØ¨ÙĦÚ©Ùĩ":3047,"ĠÙĨØ§Ø±":3048,"ĠØ¯Ø´":3049,"Ø·Ø±":3050,"ĠØ¯Ø±Ú¯Ø°Ø´ØªÙĩ":3051,"ith":3052,"ĠÙĤÙħØ±ÛĮ":3053,"Ø§ÙħÛĮÙĨ":3054,"ÙĪÛĮØ§":3055,"ĠÙħÛĮØ±":3056,"Ø¬Ø²":3057,"ĠÙħØ·Ø§ÙĦØ¹Ø§Øª":3058,"ÙħØ§Ø¹":3059,"ĠÙĦØ§ÛĮÙĩ":3060,"ĠØ³Ø±Ø·Ø§ÙĨ":3061,"ĠØ§ÙħØ±ÙĪØ²Ùĩ":3062,"ĠØ§ÛĮØ±ÙĦÙĨØ¯":3063,"ĠÙģØ±ÛĮ":3064,"ÙĪÛĮØ¨":3065,"Ø§ÙĨØ¯Ø§ÙĨ":3066,"ĠØ±ÛĮØ²":3067,"ĠÙħØ¬Ø§Ø±Ø³ØªØ§ÙĨ":3068,"ĠØ±ÙĤØµ":3069,"ĠØ§Ø³Ú©Ø§ØªÙĦÙĨØ¯":3070,"ĠØ±ØŃ":3071,"ĠØ¨ÛĮØª":3072,"ĠØ´ÙĨØ§Ú¯Ø±Ø§ÙĨ":3073,"ĠÙĪÙĨ":3074,"ĠÚ©Ø§ÙħÙĦØ§":3075,"uc":3076,"ÙĪÙĦÛĮÚ©":3077,"ĠÙĪØ¸":3078,"ÙĪØ§ÙĨÙĩ":3079,"ĠØ·ÙĪÙĦØ§ÙĨÛĮ":3080,"ĠÙħÙĪØ²ÛĮÚ©":3081,"ĠÙ¾ÙĨØ¬Ùħ":3082,"ĠØ§Ø¨ÙĨ":3083,"ĠÙ¾ÛĮØ§Ø¯Ùĩ":3084,"ĠØ¨Ø±Ø§Ø¯":3085,"ĠÚ¯Ø´Øª":3086,"ĠØ¬ÙĦÙĪÚ¯ÛĮØ±ÛĮ":3087,"ĠØ´Ø¯Øª":3088,"ĠØ®ØµÙĪØµ":3089,"ĠØ³Ø§ÙĨØª":3090,"ĠØµÙĦÛĮ":3091,"ĠØ¬ÙĪØ±Ø¬":3092,"ĠØ¨Ø¹Ø¯ÙĩØ§":3093,"ĠÚ¯Ø±Ø§ÙĨ":3094,"ĠÚ¯ÛĮØ±ÙĨØ¯":3095,"ĠØ¸Ø§ÙĩØ±":3096,"ant":3097,"ĠÙģØ±ÙĪØ¯Ú¯Ø§ÙĩÛĮ":3098,"Ġac":3099,"ug":3100,"ĠÙħÙĪÙģÙĤÛĮØª":3101,"ÚĨØ§Ø±":3102,"ĠØ¨ÛĮÙĨÛĮ":3103,"ĠØ¯ÙĪØ¯":3104,"ang":3105,"ĠØ§Ø³Ø¨":3106,"ĠØ¯Ø¹":3107,"ĠØ³Ú¯":3108,"ĠÚ©Ø§Ø±ÙĦ":3109,"Ø§Ø¸":3110,"ĠØ¯ÙĤÛĮÙĤ":3111,"ĠØµØ§ØŃ":3112,"ĠØ¯Ø±Ú¯ÛĮØ±ÛĮ":3113,"ĠÙĪÙĦØ§ÛĮØª":3114,"ĠØ¨Ø§ÛĮ":3115,"ĠØ¢Ø¯":3116,"ĠØªÙħØ§ÙħÛĮ":3117,"ĠÙĦØº":3118,"ĠÚ©ÛĮÙģ":3119,"Ø¨ÛĮØª":3120,"Ø§Ø¯Ú¯ÛĮ":3121,"ain":3122,"Ú¯Ø±Ùħ":3123,"ĠØ§ØŃØ³":3124,"ĠÙ¾Ø´ØªÛĮØ¨Ø§ÙĨÛĮ":3125,"ĠØ®ÙĦÛĮØ¬":3126,"Ø¨Ø±Ø¯Ø§Ø±ÛĮ":3127,"ĠØ§Ø³ØªØ§ÙĨØ¯Ø§Ø±Ø¯":3128,"ĠÙħØ§ÛĮÚ©ÙĦ":3129,"Ø¦ÙĪÙĨ":3130,"ÙĨØ¬ÛĮ":3131,"Ø²ÙĦ":3132,"ĠØ§Ø±ÙĪÙ¾Ø§ÛĮÛĮ":3133,"ĠØ´Ø§Ø¹Ø±Ø§ÙĨ":3134,"ĠØ¹Ø±ÙĪ":3135,"ĠØ®Ø§ÙĨØ¯Ø§ÙĨ":3136,"ĠØªØµÙĪÛĮØ¨":3137,"ĠØµÙĦ":3138,"ĠØªÙĪÙĨ":3139,"ĠÙĪÛĮÚ©":3140,"ĠØ°Ú©Ø±":3141,"ĠØ±Ø§Ø¨Ø±":3142,"Ġsc":3143,"ĠÙ¾Øª":3144,"ĠØ±ÙĪÙħÛĮ":3145,"ĠÚ©ÙĨÛĮÙħ":3146,"ĠÙħÛĮØ§ÙĨÙĩ":3147,"ĠÚ¯ÛĮØ§ÙĩØ§ÙĨ":3148,"ĠÙĩÙħØ³":3149,"ĠÚ¯Ø°Ø§Ø´Øª":3150,"Ġed":3151,"ĠØ¹Ø¯Ø¯":3152,"ĠÚ©ÙħÛĮØªÙĩ":3153,"ĠÚ¯ÙĪØ´":3154,"ĠØ¯ÙĪÙĨ":3155,"ĠØ±ÛĮÚĨ":3156,"ĠØ³Ú©ÙĪÙĨØªÚ¯Ø§Ùĩ":3157,"ĠÙĨÛĮØ±ÙĪ":3158,"ĠØ¯Ø§ÛĮ":3159,"ĠØ±ÛĮØ²ÛĮ":3160,"ĠØ´Ø§Ø®Ùĩ":3161,"ĠÙħÙĤØ¯Ùħ":3162,"ĠÚ©ÙħÙ¾":3163,"port":3164,"ĠÚ©ÙĨÛĮØ¯":3165,"ĠÙģÛĮÙĦØ³ÙĪÙģ":3166,"ĠØ³ÛĮÙĨÙħØ§ÛĮÛĮ":3167,"ĠØ¨Ø´Ø±":3168,"Ú¯ÙĪÙĨ":3169,"ĠÙģØ±Ø§":3170,"Ú¯Ø³":3171,"ĠØ§ÙĩÙħÛĮØª":3172,"ĠÙģÙĨÛĮ":3173,"ĠÙħØªÙĪØ³":3174,"ĠØ§ØªØ§ÙĤ":3175,"ĠØ¬ÙĨÚ¯ÛĮ":3176,"ĠØ§Ø³Ù¾Ø§ÙĨÛĮØ§ÛĮÛĮ":3177,"ĠØ§Ø¹Ø¯Ø§Ùħ":3178,"ĠÙĪØ§ÛĮ":3179,"ĠØ¨ÙĩÙħÙĨ":3180,"Ø¨Ø±Øª":3181,"ĠØªÙģØ§ÙĪØª":3182,"ĠØ¬ØºØ±Ø§ÙģÛĮØ§ÛĮÛĮ":3183,"ÙĪÙĨÛĮØ³Øª":3184,"ĠØ³Ø¨Ø¨":3185,"Ġby":3186,"Ø³ØªØ±ÛĮ":3187,"ĠØ¬ÙĨÚ¯ÙĦ":3188,"ĠÙĤØ·Ø±":3189,"Ø²Ø§Ø±ÛĮ":3190,"ĠØ³ÙĪÙ¾Ø±":3191,"ĠØ¨ÙħØ¨":3192,"Ġro":3193,"ĠÙħØ¹ØªÙĤ":3194,"ĠÙĨÙĤØ§Ø´":3195,"ÙĪÙĦÛĮØª":3196,"ĠØ³Ø±ÛĮØ¹":3197,"ĠØ²ÙħØ³ØªØ§ÙĨÛĮ":3198,"ĠØ§Ø³ØªØ§Ø¯Ø§ÙĨ":3199,"ĠÙħØªÙĪ":3200,"ĠÙĨÙħÙĪ":3201,"Ø§ÙĤÙĦ":3202,"ÙĩÛĮ":3203,"ĠØŃØ°Ùģ":3204,"ØºØ°":3205,"ast":3206,"ĠØ¯Ø³ØªØ±Ø³ÛĮ":3207,"ĠØ¯Ø±ÛĮØ§ÚĨÙĩ":3208,"ĠØ´ÛĮØ±Ø§Ø²":3209,"ĠØ§Ø¨Ø±Ø§ÙĩÛĮÙħ":3210,"ÙĩØ§Ùħ":3211,"ĠÙĩØ¬Ø±ÛĮ":3212,"ĠÙĨØ§ÛĮ":3213,"ĠØ®ØµÙĪØµÛĮØ§Øª":3214,"ĠØ³Ø¹ÙĪØ¯ÛĮ":3215,"Ġbr":3216,"ÙģØ§ÛĮ":3217,"ĠØ¨Ø±ÛĮ":3218,"ĠØ´ÙħØ§":3219,"ĠØ³Ø§Ú©":3220,"ĠÙĦØ§Ø²Ùħ":3221,"Ø¬ÙĪØ§ÙĨ":3222,"Ø§ÙĦØ¯ÛĮÙĨ":3223,"Ø§ÛĮØ³Ùĩ":3224,"ĠÙĨÚ¯Ø±":3225,"cl":3226,"iz":3227,"ĠØºØ±":3228,"ĠØ§Ø¨ØªØ¯":3229,"ĠØªØ¬Ø±Ø¨Ùĩ":3230,"ĠØ¢Ø±ÛĮ":3231,"ĠÙĪØ±ÙĪØ¯ÛĮ":3232,"ĠÙħÙĤØ§ÛĮØ³Ùĩ":3233,"ĠØ´Ø§Ø±":3234,"ĠÙĦÛĮÚ¯Ø§":3235,"ĠØ³Ø±Ø§ÙĨØ¬Ø§Ùħ":3236,"ĠÙħØ¯ØªÛĮ":3237,"ĠØŃÙģØ§":3238,"ĠØªÙĪØ§ÙĨØ§ÛĮÛĮ":3239,"ĠÙĨØ§Ø´ÛĮ":3240,"ĠÚ¯Ø±Ø§ÛĮÛĮ":3241,"Ø¯ÙĩÙħ":3242,"ĠØŃÙħÙĦ":3243,"ĠØ¢Ú¯":3244,"ĠÙħØŃØ¨":3245,"ĠØ¨Ø³":3246,"ĠÙħØªØ¹Ø¯":3247,"ĠÚ¯Ø²":3248,"ĠÙ¾ÙĪØ³Øª":3249,"ĠØ°Ø®ÛĮØ±Ùĩ":3250,"ØªØ®Øª":3251,"ĠÙĨÙħØ§ÛĮØ´ÙĨØ§ÙħÙĩ":3252,"ĠØªØ§Ú©":3253,"ĠØ¯Ø±Ø®ÙĪØ§Ø³Øª":3254,"Ø³Ø¨":3255,"ĠØ±ÙĪÛĮØ¯Ø§Ø¯ÙĩØ§ÛĮ":3256,"ĠÙģØ¶Ø§ÛĮÛĮ":3257,"ĠÙĨÛĮØ§":3258,"ĠØ§Ø®ØªØµØ§Øµ":3259,"ĠÙĩØ³Øª":3260,"Ġpl":3261,"ĠØ¹Ú©Ø³":3262,"ĠØ±ÙģØªØ§Ø±":3263,"ĠÙħØ¨Ø§Ø±Ø²Ùĩ":3264,"ĠØªÙĨÛĮØ³":3265,"ĠØªØ§ÙĪÙĨ":3266,"ĠÙ¾ÙĪÛĮØ§ÙĨ":3267,"ØªÙĩ":3268,"ĠØ´Ø§Ø¹Ø±":3269,"ĠÙĨÙĪØ±ÛĮ":3270,"ĠÙħÙĩØ§Ø¬ÙħØ§ÙĨ":3271,"ĠÙħÙĨØªÙĤÙĦ":3272,"ÙĨØ§Ø³Øª":3273,"ĠÙ¾Ø±ÛĮ":3274,"Ø®ÙĪ":3275,"ĠØ´ÙĨØ§Ø³Ø§ÛĮÛĮ":3276,"ĠØµÙĦØŃ":3277,"ĠØ²ÙħÛĮÙĨÛĮ":3278,"ĠØ¯Ø±Ùĩ":3279,"ÙĪØ±ØªÛĮ":3280,"ĠÙħØ¹ØªÙĤØ¯":3281,"ĠÙĤØ±ÙħØ²":3282,"ĠÙħØ·ÙĦÙĤ":3283,"ÙĤÛĮÙĩ":3284,"ĠØ¸Ø±Ùģ":3285,"up":3286,"ĠØ´ÛĮÙĪÙĩ":3287,"Ġcl":3288,"ĠØ³ÙĨØ¯":3289,"ĠÙĪÚ©":3290,"ĠÙħØ·Ø±ØŃ":3291,"Ø§ØªÙĪØ±":3292,"ĠÙħØ´Ú©ÙĦ":3293,"ÙĪÙħØ§":3294,"ĠØ¨Ø§ÙģØª":3295,"ÙĪÙħÙĩ":3296,"ĠÙģØ±Ø§ÙĨ":3297,"ĠØ§Ø¹ÙħØ§ÙĦ":3298,"Ø§Ø±Ùģ":3299,"ĠÙģØ±Ø§Ø±":3300,"ĠØ´Ø¨Ùĩ":3301,"ĠÙħØ±Øª":3302,"ĠÙĩØ¯Ø§ÛĮØª":3303,"ĠØ³Ø¯":3304,"ĠØªØ§Ø²Ùĩ":3305,"ĠØ±Ø£":3306,"ĠÚ¯Ø±Ø§Ùģ":3307,"ĠÚĨÙĩØ±Ùĩ":3308,"ĠØ±Ø§Ø¨Ø±Øª":3309,"ĠØ¢Ù¾":3310,"ÛĮØ§Ø³":3311,"ĠØ¨ÙĨÛĮØ§Ø¯":3312,"ĠÙģÙĪÙĤ":3313,"ĠØ®Ø§Ùħ":3314,"ĠÙĤÛĮÙħØª":3315,"ĠÙ¾ÙĪØ±Øª":3316,"ĠØ¹Ø±Ø¶Ùĩ":3317,"ĠØ¬ÙĦØ¯":3318,"ĠØ§ØŃØ³Ø§Ø³":3319,"ĠØ±ÙĪÙĨ":3320,"ĠÙĤÙĩØ±ÙħØ§ÙĨØ§ÙĨ":3321,"ĠÙĤØ§Ø¬Ø§Ø±":3322,"ĠØªØ¹Ø¯Ø§Ø¯ÛĮ":3323,"ĠÙħØŃØ§Ø³":3324,"ĠØ§Ø®ØªÛĮØ§Ø±":3325,"ĠÙħØŃÚ©ÙĪÙħ":3326,"ĠÙģÙĨÙĦØ§ÙĨØ¯":3327,"ĠÙħØ§Øª":3328,"ĠØ¢Ø³ÙħØ§ÙĨÛĮ":3329,"ĠÚĨÛĮØ²ÛĮ":3330,"ĠØ¨Ø§ÙĪØ±":3331,"ĠØ¹ÙĤØ¨":3332,"ĠØ¨ØŃØ«":3333,"ĠÙĩÙĨØ±ÙĩØ§ÛĮ":3334,"ĠØ´ÛĮØ¹Ùĩ":3335,"ĠØ¹ÙĨØ§":3336,"ĠØŃÚ©Ùħ":3337,"ĠÙĤØ§ÙĦØ¨":3338,"ĠØ¢Ú©Ø§Ø¯ÙħÛĮ":3339,"ĠÙĨÙħØ§ÛĮØ¯":3340,"ĠÐ":3341,"ĠÙħØ³ÛĮØŃ":3342,"ĠÙ¾Ø³ØªØ§ÙĨ":3343,"ĠÚ©ÙħØ±Ø¨ÙĨØ¯":3344,"ĠØªØŃØµÛĮÙĦØ§Øª":3345,"ĠÙħØªØ¹ÙĦÙĤ":3346,"ĠÙħØ§ÙĦÚ©":3347,"ÙĪØ°":3348,"ĠÙĨØ§Ø³Ø§":3349,"ĠØªØ¬Ø§Ø±Øª":3350,"ĠØ±ÙĪØ³":3351,"ĠÙ¾Ø±ÚĨ":3352,"ÙħØ¯ÛĮ":3353,"ĠØ´ÙĨØ§Ø³Ø§ÙĨ":3354,"Ø¨Ø·":3355,"ĠÙĤØ¶":3356,"Ø²ÙħØ§ÙĨ":3357,"ĠØ³Ø±Ú©":3358,"ĠÙĨØ§ÙĨ":3359,"ĠØ´Ø¯ÛĮØ¯":3360,"ĠØ¶Ø±Ø¨":3361,"ÙĨØ§Ø¯":3362,"ĠØ§Ø®ÛĮØ±":3363,"ĠÙģØ¯Ø±":3364,"Ø§ÙĩÛĮØ±":3365,"ord":3366,"ĠØ¨Ø²Ø±Ú¯ÛĮ":3367,"ight":3368,"ies":3369,"ÙĪÚ©ÛĮ":3370,"ĠÚ©ÙĨØª":3371,"ĠÙħÙĨØªÙĤØ¯Ø§ÙĨ":3372,"Ġla":3373,"Ø§ÙĦÙĦÙĩ":3374,"ĠÙħØ¹Ø§ØµØ±":3375,"ĠØªØºÛĮÛĮØ±Ø§Øª":3376,"Ġbe":3377,"ÙĪØ¦Ùĩ":3378,"ĠØ¯Ø§Ø´ØªÙĨ":3379,"ĠØ¨Ø§Ø²Ø§ÙĨ":3380,"ĠÚ¯Ø±ÙģØªÙĨØ¯":3381,"ary":3382,"ĠØ±ÙĪÙħØ§ÙĨÛĮ":3383,"ĠÚ¯ÙĪÙĨØ§Ú¯":3384,"ive":3385,"ĠØ¹Ø¨Ø§Ø±ØªÙĨØ¯":3386,"ĠØ¯Ø§ÙĨØ³Øª":3387,"Ø±ÛĮÚ©":3388,"ĠÙħØ´Ú©ÙĦØ§Øª":3389,"ĠØ§Ø®ØªÙĦØ§Ùģ":3390,"Ø²ÛĮÙĩ":3391,"ĠØ§ÙĤÛĮØ§ÙĨÙĪØ³":3392,"ĠØ¨ÙĩØ¨ÙĪØ¯":3393,"ĠØ±Ø§ÛĮØ¬":3394,"ĠØ¬Ø´ÙĨ":3395,"Ø´ÙĩØ±":3396,"Ø§ÙĦØªÛĮ":3397,"ĠØ±ÙĪØŃØ§ÙĨÛĮ":3398,"ational":3399,"ass":3400,"ĠØ®ÙĪØ¨ÛĮ":3401,"ĠÛĮØ§ØªØ§":3402,"Ú¯Ø±Ø¯Ø§ÙĨ":3403,"ĠØ¯ÙĪØ³ØªØ§ÙĨ":3404,"ĠÙĨØ´Ø¯":3405,"ĠÚ©Ø§Ø±ÙĩØ§ÛĮ":3406,"ÙĪØ±Ø¯ÛĮ":3407,"ĠØ§ÙĨØªØ¸":3408,"ĠÚ©Ø§Ø®":3409,"ĠÙ¾Ø§ÛĮØªØ®Øª":3410,"ĠÙħØŃØ¨ÙĪØ¨":3411,"ĠØ¹Ø§Ø´ÙĤ":3412,"Ø³ÛĮØ±":3413,"ĠÙĩØ§Ú©ÛĮ":3414,"ĠØ§ÛĮØ¯Ùĩ":3415,"ĠÙħØ¹Ø§ÙĪÙĨ":3416,"ÙģØ§Øª":3417,"ĠØŃØ¯Ø§ÙĤÙĦ":3418,"ĠØ±ÙĪØ§ÛĮØª":3419,"ĠØ¹Ø¨ÙĪØ±":3420,"ÙĪØ¹":3421,"ÙĪÙĪØ¯":3422,"ĠØ¯Ø±Ø³Øª":3423,"ĠØ³ÙĪØ³ÛĮØ§ÙĦÛĮ":3424,"ĠØ´ÙĩØ±ÙĪÙĨØ¯":3425,"ĠØªØ¨ÙĦÛĮ":3426,"ĠÙħØ®ØªÙĦÙģÛĮ":3427,"ĠÙħØ´Ø§Ø±Ú©":3428,"Ø²Ø§Ø¯":3429,"ĠØ¢ÙĨÚĨÙĩ":3430,"ØºÛĮØ±":3431,"ĠÙģØªØŃ":3432,"ĠØ®Ø´":3433,"ĠØ§ØªÙħ":3434,"Ø§ÙĦØŃ":3435,"Ġso":3436,"ĠÙĨÚ¯Ø§Ø±Ø§ÙĨ":3437,"ĠØµØ§ØŃØ¨":3438,"ĠÙĨØ§Ø¯Ø±":3439,"ĠÙ¾ÙĪÛĮØ§ÙĨÙħØ§ÛĮÛĮ":3440,"ĠØ³ÙĦÛĮ":3441,"ĠÙĨØªØ§ÛĮØ¬":3442,"ÛĮÙħÙĨØ§Ø³Øª":3443,"ĠØ§ÙĦÙģ":3444,"ĠØ§ØµÙĪÙĦ":3445,"ĠÙħÙģÙĩÙĪÙħ":3446,"ĠÙĨØ±":3447,"ĠØ¢ÙĪØ§Ø²":3448,"ĠØ®Ø§ÙĨÙĪØ§Ø±":3449,"ĠØªØ®Øª":3450,"ĠØŃÙģØ§Ø¸Øª":3451,"Õ¡Õ":3452,"ĠØ§ÙĦØŃ":3453,"ĠØ¢Øª":3454,"ĠØ¢Ùĩ":3455,"Ġbl":3456,"ĠØ¢ÙĩÙĨÚ¯Ø³Ø§Ø²Ø§ÙĨ":3457,"ĠÙĨØŃ":3458,"ĠØ¨ÙĪØª":3459,"ØºÙĩ":3460,"ĠØªØ®Øµ":3461,"ĠØ¯ÛĮØ¯Ú¯Ø§Ùĩ":3462,"ÙģØ³":3463,"ĠØµØ±Ø¨":3464,"ĠÙħÙĪØ´Ú©":3465,"ĠØ¯Ø§ÙĨØ´ÙħÙĨØ¯Ø§ÙĨ":3466,"ĠÙĨÙĪØ¬ÙĪØ§ÙĨ":3467,"ĠÙħØ´ÙĩØ¯":3468,"ĠÚ©Ø§ØªÙĪÙĦÛĮÚ©":3469,"ĠÚ©Ø§Ø¨":3470,"ĠÚ¯Ø±Ø§":3471,"ĠØ¯ÛĮØ±":3472,"ĠØ§ÙĦÚ©Ø³":3473,"ĠØ¹ÙħØ¯Ùĩ":3474,"ĠÙģØ±Ø¯ÛĮ":3475,"ĠØ¹Ø¨Ø¯Ø§ÙĦÙĦÙĩ":3476,"ĠØŃØ¬":3477,"ĠÙħØ§Ø³":3478,"ĠØµØ¯Ø§ÛĮ":3479,"ĠÙĦØ¨ÙĨØ§ÙĨ":3480,"ĠÙĩÙĨØ±ÙħÙĨØ¯":3481,"ens":3482,"ĠØ¢ÙĪØ±Ø¯Ùĩ":3483,"Ú©Ø´ÛĮ":3484,"ĠØ§Ø³ØªØ¹":3485,"Ø¨Ø±ÙĪ":3486,"ich":3487,"ĠØ¨Ø¯ÛĮÙĨ":3488,"ĠØ§ÛĮÚ©Ø³":3489,"ĠÙĨÚ¯ÙĩØ¯Ø§Ø±ÛĮ":3490,"ĠÙģØ±ÙħØ§ÙĨØ¯ÙĩÛĮ":3491,"ĠØ§Ø¬Ø±Ø§ÛĮÛĮ":3492,"Ġtr":3493,"ĠÙĨÙĪØ§Ø²ÙĨØ¯Ú¯Ø§ÙĨ":3494,"ĠØ®Ø³":3495,"ĠÙĨÙĤØ§Ø·":3496,"ite":3497,"ÙĪØ¨ÛĮ":3498,"ĠØªÛĮØ±Ø§ÙĨØ¯":3499,"ĠØ§ØªÙĪÙħ":3500,"ĠØ²Ø±Ø¯":3501,"Ġbo":3502,"ĠÙĤØ§Ø¨ÙĦÛĮØª":3503,"ĠØ¨Ø±Ø¢":3504,"ĠØ¨ÙĦØ§":3505,"ĠÙĨÙģÙĪØ°":3506,"ĠÚ©Ø§Ø±ÙĪÙĦÛĮÙĨ":3507,"ng":3508,"ĠØ¹ÙĪØ§ÙħÙĦ":3509,"ĠØ¯ÙĪØ§Ø²":3510,"man":3511,"ory":3512,"ĠØ¨ÙĨØ¯Ø±":3513,"ĠØ§ÙĦØ¬Ø²":3514,"ĠØ§ØŃØªÙħØ§ÙĦØ§":3515,"ĠÚĺÛĮÙħÙĨØ§Ø³Øª":3516,"ÙĦØ§ÙĨ":3517,"ĠØ±Ø§Ø¯ÛĮÙĪ":3518,"ĠÙĤØ¨Ø±":3519,"ĠØ¹Ú©":3520,"Ú©ØªØ±ÛĮ":3521,"Ø§Ø³Ùħ":3522,"ĠØ§ÙĦÚ¯ÙĪØ±ÛĮØª":3523,"ĠØªØ¨ÙĦÛĮØº":3524,"ii":3525,"ÙħØ§Ø±":3526,"Ġnew":3527,"ĠØ®ÙĪØ¨":3528,"ĠÙĤØ§ÙĨÙĪÙĨÛĮ":3529,"ĠÙ¾ÙĨØ§Ùĩ":3530,"ĠÙĨØ§ØµØ±":3531,"ĠÚ¯Ø§ÙĦ":3532,"ĠØ³ÙĤÙĪØ·":3533,"ĠÙħØ³Ø¦ÙĪÙĦ":3534,"ĠÛĮÙĪÙĨÛĮ":3535,"ĠÙĨÛĮÙĪØ²":3536,"ĠØŃØ§Ú©Ùħ":3537,"Ð°":3538,"Ø³ØªØ§":3539,"Ø¨ÙĪÙĦ":3540,"ĠÙĨÙĪÛĮØ³ÛĮ":3541,"ĠÙģØ±ÛĮØ¯":3542,"ne":3543,"ĠÚ¯ÛĮØªØ§Ø±":3544,"Ø²Ø¯ÛĮ":3545,"ĠÚ©Ø§Ø±Ø´ÙĨØ§Ø³ÛĮ":3546,"ĠØ³ÙĪÙħÛĮÙĨ":3547,"ĠØ´ÙĩØ±Øª":3548,"ĠÙĤØ±Ø¢ÙĨ":3549,"ĠØ¢ÙģØ±ÛĮÙĤØ§ÛĮ":3550,"Ġjo":3551,"ĠØ§ÙħÙ¾Ø±Ø§ØªÙĪØ±":3552,"sh":3553,"ĠÙħØ±ÛĮ":3554,"ĠÙħÙĨØŃÙĦ":3555,"ĠØ±Ø³ÛĮØ¯ÙĨ":3556,"ÛĮØ³ÛĮ":3557,"ĠØ³ÙĪØ§Ø±Ø§ÙĨ":3558,"ĠØ³ÙĪØ²":3559,"ĠÙģÙĦØ³Ø·":3560,"ÙĪØ¦ÙĦ":3561,"ĠÙģØ±Ø¶":3562,"Ø§Ø¡":3563,"Ġfl":3564,"ĠØ¬Ø±Ø§":3565,"ĠÚĨØ±Ø®":3566,"ÙħÛĮÙĦ":3567,"ĠØ´Ø´Ùħ":3568,"ĠÙĩÙħÚĨÙĨØ§ÙĨ":3569,"ĠØ¨Ø´":3570,"ĠÙĩØ§ÙĦ":3571,"Ø¹Ø§Ø±":3572,"ĠØ¨Ø¹Ø¯Ø§":3573,"ĠØ¬Ø²Ø§ÛĮØ±":3574,"ĠÚ©Ø§Ø±Ø®Ø§ÙĨÙĩ":3575,"ĠØ³Ø¹ÛĮØ¯":3576,"ĠÙĩÙĪØ§Ú¯Ø±":3577,"ĠÙħØ´Ø§Ø±Ú©Øª":3578,"ĠÚĨØ±":3579,"ĠÙħØ³ÙĦÙħØ§ÙĨØ§ÙĨ":3580,"ĠØ§ÙĨØ¯Ø§Ø²ÛĮ":3581,"ĠÙħÙĪØ§":3582,"Ø¯ÙĩÛĮ":3583,"ĠÙ¾ÛĮÙħØ§ÙĨ":3584,"ĠÙ¾Ø±ÚĨÙħ":3585,"ĠÙĩÙħÛĮØ´Ùĩ":3586,"Ġfrom":3587,"ĠÚ©ÛĮÙĦÙĪÚ¯Ø±Ùħ":3588,"ĠÙħÛĮÙĦÛĮØ§Ø±Ø¯":3589,"ish":3590,"ĠÙ¾ÛĮØ´Ø±ÙģØª":3591,"ĠÙģÙĦÙĪØ±ÛĮØ¯Ø§":3592,"ÛĮÙĦÙĩ":3593,"ĠÙħØŃÙħØ¯Ø±Ø¶Ø§":3594,"ĠÙĨØ´Ø§ÙĨÙĩ":3595,"ØµØ±Ùĩ":3596,"ĠØ±Ø§Ùħ":3597,"ĠØ¢ÙĪØ±ÛĮ":3598,"ÙĪØ³Ùģ":3599,"ĠØ®Ø·ÛĮ":3600,"ĠÚ©ÛĮÙħ":3601,"ĠØ³ÛĮÙĨÙħØ§ÛĮ":3602,"ĠØ§ÙħØ±ÛĮÚ©":3603,"Ø¬ÛĮØª":3604,"Ù¾ÙĪØ±":3605,"ĠÙĤÙĨ":3606,"ĠÙĦØ§ÛĮ":3607,"ĠØ·ÙĦØ§ÛĮÛĮ":3608,"ĠØ¬Ø§ÙħØ¹":3609,"ĠÙĨÙħØ§Ø¯":3610,"ĠØ§Ú©Ø«Ø±":3611,"ĠÙħÙĨØŃ":3612,"ĠØ³Ø§Ø¨ÙĤÙĩ":3613,"Ø¬ÙĨØ³":3614,"ĠØªØ¬Ùĩ":3615,"Ġww":3616,"ĠÙħØ´Ø§ÙĪØ±":3617,"Ġad":3618,"ĠØ¹ÙħØ¯":3619,"te":3620,"ĠÙ¾Ø¯ÛĮØ§ÛĮ":3621,"ÙħØ±Ø¨Ø¹":3622,"ĠØ§ÙģØ³Ø§ÙĨÙĩ":3623,"ĠØ¯Ø§Ø±ÙĪ":3624,"ĠØ³Ø§Ø±":3625,"ĠÚ©Ùģ":3626,"ors":3627,"na":3628,"ĠÚ©Ø±ÙħØ§ÙĨØ´Ø§Ùĩ":3629,"ĠØ¯ÛĮÙ¾ÙĦ":3630,"ĠØ¶Ø¨Ø·":3631,"ĠØ¯ÚĨØ§Ø±":3632,"ĠØ³Ø±Ø¯Ùĩ":3633,"ĠÚ¯ÙĨØ¬":3634,"ÙĤØ¨":3635,"Ø´ÙĪ":3636,"ÙģÛĮÙĦØ¯":3637,"ĠØ¨Ø§Ø²Ø±":3638,"ÙħØ±Ùĩ":3639,"ĠØªØ¬ÙĩÛĮØ²":3640,"ĠØ¨Ø¯Ø³Øª":3641,"ĠØ¯ÙĨÛĮØ§ÛĮ":3642,"ack":3643,"ĠÙĤÛĮ":3644,"ĠØ§ÙĦÚ¯ÙĪØ±ÛĮØªÙħ":3645,"ĠÙĪØ§Ø³":3646,"ĠÙ¾Ø±ÙĪØ±Ø´":3647,"ĠØ®Ø§ÙĦ":3648,"ÛĮÙĨØª":3649,"ĠØ¨Ø§Ø®Øª":3650,"ĠØ¨Ø§Ø²Ø¯Ø§Ø´Øª":3651,"Ø²Ø§Ø³":3652,"ĠÙħØ³Ø§ÙģØ±":3653,"ĠØ´ÙĨØ§Ø®ØªÛĮ":3654,"ĠØ§ÙĦÚ©ØªØ±ÛĮÚ©ÛĮ":3655,"ĠÚ©Ø§Ø´":3656,"ĠØ§Ø³Ùħ":3657,"ĠØ®Ø§ÙĪØ±":3658,"Ú©ÛĮÙĪ":3659,"ĠÚĺÙĨ":3660,"und":3661,"ĠÙĨÙħÙĪØ¯Ùĩ":3662,"az":3663,"ĠÙ¾Ø±ØªØ§Ø¨":3664,"ĠØ¯ÛĮÙĪ":3665,"ÛĮÙĨÙĪÛĮ":3666,"ĠØªØ±Ø³ÙĨ":3667,"ĠÚ¯ÙĪÛĮØ´":3668,"ĠÙħØŃÙĪØ±":3669,"ĠÙĨÚ¯Ø§Ùĩ":3670,"ØºÙĦ":3671,"ĠÙħØ§Ø³Ø§":3672,"ĠÙĪØ§ÙĨ":3673,"ĠØ§ÙħØ±ÙĪØ²":3674,"ĠØ±Ø¨Ø§Øª":3675,"ĠØ¯Ø¨":3676,"ĠØ§Ú©Ø¨Ø±":3677,"ÙĨØ§Ùħ":3678,"ÙĤØ±Ø§Ø±":3679,"ĠØ®ÛĮÙĦÛĮ":3680,"ĠÙĨØ¬Ø§Øª":3681,"ĠÙģØ§Ø±Øº":3682,"ĠØªØ±Ø³ÙĨØ§Ú©":3683,"ÛĮÚ©ÙĪ":3684,"ĠÙĪØ³Øª":3685,"ĠØ¬Ø°Ø¨":3686,"ĠØ®ÛĮØ±":3687,"ĠØ³ÙĦØ³":3688,"ĠÚĨØ´ÙħÙĩ":3689,"ree":3690,"ĠØ²ÙĨØ¬":3691,"Ġex":3692,"ĠØ±Ø¯ÛĮ":3693,"ĠØ¨ÛĮØ´ØªØ±ÛĮÙĨ":3694,"ĠØ§ØªØµ":3695,"ĠØ§ÙħÛĮØ¯":3696,"Ġap":3697,"ĠØ¢ÙĤØ§ÛĮ":3698,"ĠØ´ÙĩÛĮØ¯":3699,"ĠØ¨Ø±ÙĦÛĮÙĨ":3700,"Ú¯Ø§Ø±ÛĮ":3701,"ĠØ¨Ø²Ø±Ú¯ØªØ±ÛĮÙĨ":3702,"ĠØ¢ÙĨÚ©Ùĩ":3703,"ĠÙħØ§Ú©":3704,"ure":3705,"ĠÙĤÙĪÛĮ":3706,"ĠØ®Ø§ØµÛĮ":3707,"ĠØ±ÙħØ²":3708,"Ø§Ù¾ÙĪØ±":3709,"ĠØ±ÛĮÚĨØ§Ø±Ø¯":3710,"ĠÙħÛĮØ´":3711,"ĠÙĤØ±Ø§Ø±Ø¯Ø§Ø¯":3712,"Ġab":3713,"ĠØ´Ú©Ø§Ø±":3714,"Ø¨Ø§Ø³ÛĮ":3715,"ĠÙħØŃÙĤ":3716,"ĠÚ©Ø´ÛĮØ¯Ùĩ":3717,"ÙĪØ·Ùĩ":3718,"ĠÙħØ´Ø±ÙĪ":3719,"ĠÙħØ³Ø§Ø¦ÙĦ":3720,"Ø¢ÙĪØ±ÛĮ":3721,"ĠÙħØ¹Ø§Ø¯":3722,"ĠØªØ±Ú©ÛĮØ¨ÛĮ":3723,"ĠØ¨ÙĪÚ©Ø³":3724,"ĠØ¬Ø¨Ùĩ":3725,"ĠÙĩÛĮÙĦ":3726,"ĠÙĨØ´ÛĮÙĨ":3727,"ĠÙģØ¯Ø±Ø§Ø³ÛĮÙĪÙĨ":3728,"ĠØ§ÙĪÙĩØ§ÛĮ":3729,"ĠØ®ÙĪØ§ÙĩØ±":3730,"ĠÙĦØ´Ú©Ø±":3731,"ĠÙħØªØµÙĦ":3732,"ĠÙĤØ·Ø¹ÙĨØ§ÙħÙĩ":3733,"ĠÙĦØŃØ§Ø¸":3734,"ÙĨØ±Ø§ÙĦ":3735,"ĠØºØ°Ø§ÛĮÛĮ":3736,"ĠØ§Ø¸Ùĩ":3737,"ĠØ¨Ø§Ø²Ø³Ø§Ø²ÛĮ":3738,"ĠÚ©Ø§Ø±ÙĪÙĦÛĮÙĨØ§ÛĮ":3739,"ĠØ¢ÙħØ§Ø¯Ùĩ":3740,"ĠØ®ÙĪØ§Ø¨":3741,"Ø¸Ø±":3742,"ØªÛĮÙĨ":3743,"ĠÙĨÙĩØ§Ø¯":3744,"ĠÙģØ±ÙħÙĪÙĦ":3745,"ĠØ§ÙĪÙĩØ§ÛĮÙĪ":3746,"Ø«ÛĮ":3747,"ĠÚĨÛĮØ²":3748,"ĠÚ©Ø´ÙĪØ±ÙĩØ§":3749,"ĠÙĤØµØ¯":3750,"ĠÚ¯Ø°Ø§Ø±":3751,"ĠÚ©Ø§ÙħÙ¾ÛĮ":3752,"ĠØ¯ÙĨØ¨Ø§ÙĦÙĩ":3753,"ĠØ§Ú©Ø³":3754,"ĠÙĨØ§Ú¯":3755,"ĠØ§Ø³ÙĦÙĪ":3756,"ÙĪØ§ÛĮ":3757,"Ġus":3758,"ĠØ¨ÙĪÙĦ":3759,"ĠÚ©ÙĦÙħÙĩ":3760,"ts":3761,"ĠÚ©Ø§ÙģÛĮ":3762,"ly":3763,"ĠØ§ÛĮÙĦÛĮÙĨÙĪÛĮ":3764,"ÙĤØ§":3765,"ĠØ¬ÙĨØ§ÛĮÛĮ":3766,"ĠØ¢Ø±Ø§":3767,"ĠØ§ÛĮÙĨØªØ±ÙĨØª":3768,"ĠØ¯Ø§Ø¦":3769,"ĠÙ¾Ø±Ø³Øª":3770,"ĠÙĤØ±Ø¨Ø§ÙĨÛĮ":3771,"ĠØ³Ø§ØŃÙĦ":3772,"ĠØ¬ÙĪÙĨ":3773,"ĠØªÙĪÚ©ÛĮÙĪ":3774,"Ø¬Ø¹":3775,"ĠÚ©ÙĨÙĪÙĨÛĮ":3776,"ĠØŃØ°ÙģÛĮ":3777,"ĠØ³ÙĦØ³ÙĦÙĩ":3778,"ry":3779,"ĠØ§Ø³Ú©ÛĮ":3780,"ÙĪØªÙĪ":3781,"ĠØ§ÛĮÚ©":3782,"Ø§Ø±ÛĮØ§ÙĨ":3783,"ĠØ¯ÙħØ§ÛĮ":3784,"ĠÙħÙĤØ±":3785,"ĠØªÙħØ§ÛĮ":3786,"ĠØ³Ø§Ú©ÙĨ":3787,"ØµØª":3788,"ĠØ´ÛĮÙĦÛĮ":3789,"ÙĦØ±":3790,"ĠÙĩØ§ÛĮØ´":3791,"ĠØ¨ÙĪÙĨØ¯":3792,"ĠØ§ÙĦØªØŃ":3793,"ĠÙ¾Ø¯ÛĮØ¯":3794,"ĠÙħØªÙĪØ³Ø·":3795,"ĠØ¬Ø¨ÙĩÙĩ":3796,"ĠØªØ²":3797,"ĠØ¨ÛĮØ³ØªÙħ":3798,"ĠØ®Ø±Ø¯Ø§Ø¯":3799,"ĠØ¨ÙĪØ´":3800,"Ġcol":3801,"ĠÛĮØ§Ø¯Ø¯Ø§Ø´Øª":3802,"ÛĮÙĨÛĮØ§":3803,"ĠÙģÙĪØ±":3804,"ÙĤØª":3805,"ĠØ§Ø±Ú©":3806,"ical":3807,"ĠÚ©Ø§ÙĨØ§ÙĦ":3808,"ĠØ¯ÛĮÙĨÛĮ":3809,"ĠØ¯ÛĮØ¯Ø§Ø±":3810,"ĠÚ©ÙĪÙĦ":3811,"ĠØ¬ÛĮÙĨ":3812,"ÙħÙ¾":3813,"ĠÙħØ¬Ø¨ÙĪØ±":3814,"Ú©Ø§Ùħ":3815,"ĠÙĤØ§Ø¯Ø±":3816,"ĠØ´ÙħØ´ÛĮØ±":3817,"ĠØ³Ø®ÙĨ":3818,"ĠÙĤØ§ÛĮÙĤØ±Ø§ÙĨ":3819,"ĠØªØ¬Ø²ÛĮÙĩ":3820,"ÙĪÙĪØ§":3821,"ĠØ¨Ø±Ú¯Ø²ÛĮØ¯Ùĩ":3822,"ĠØ¹ÙĦÛĮØ±":3823,"ĠØ®Ø·ÙĪØ·":3824,"ĠØ§ÛĮÙģØ§ÛĮ":3825,"ĠØªØ§Ø¨Ø³ØªØ§ÙĨ":3826,"ĠÛĮØ²Ø¯":3827,"ÛĮØ±ÙĪ":3828,"ĠØ³ÙĦØ·ÙĨØª":3829,"ĠÙĩÙĪØ§Ù¾ÛĮÙħØ§ÛĮÛĮ":3830,"ĠÚ¯Ø°Ø§Ø´ØªÙĩ":3831,"ĠØ¯Ø§ÙĨØ¯":3832,"ĠØ³Ø§ÙĦÙĨ":3833,"ĠÙħÙĪÙĦÚ©":3834,"Ġhttps":3835,"ĠÙħØ³Ú©ÙĪ":3836,"ĠÙ¾Ø¯":3837,"ĠÙĨØ¸ÛĮØ±":3838,"ĠØªÙĪØ¶ÛĮØŃ":3839,"ĠØ´ÙĩØ±ÛĮÙĪØ±":3840,"Ġwith":3841,"ĠØ´ÙĦ":3842,"ÙĦÙĨØ¯ÛĮ":3843,"ĠØ·Ø¨ÛĮØ¹Øª":3844,"ĠØ³ÙĪØ®Øª":3845,"ĠØ®ÙĦØ§ØµÙĩ":3846,"Ø²ÙĨÛĮ":3847,"Ø²Ø§ÙĨ":3848,"ĠØ®ÙĪÛĮØ´":3849,"Ø±Øª":3850,"Ġweb":3851,"ĠÙħÙĦÚ©":3852,"ĠÙĤØ§Ø±Ùĩ":3853,"Ú©ÙĨÙĨØ¯Ùĩ":3854,"ĠÙħØ±Ø§Ú©Ø²":3855,"ĠÙħÛĮØ²Ø¨Ø§ÙĨ":3856,"ĠÙ¾ÛĮÙĪ":3857,"ĠØ¨ÙĩØ§Ø±":3858,"ĠÙ¾ÛĮÚĨ":3859,"ØŃØ³ÛĮÙĨ":3860,"ĠØ´ÙĪØ±Ø´":3861,"ĠÙ¾ÛĮØªØ±":3862,"ĠØ®ÙĪØ§ÙĨØ¯":3863,"ĠÚ©ÙĨÚ¯Ø±Ùĩ":3864,"ĠØ¯Ø±Ú©":3865,"ĠÙĨÙĤØ¯":3866,"ĠØ·Ø±":3867,"ĠÙĤÙĦØ¨":3868,"ĠØ·Ø±Ø§ØŃ":3869,"ÙĪÙĦÛĮØ³":3870,"ĠØ¨Ø³Øª":3871,"ĠØ§Ø³ÙģÙĨØ¯":3872,"ĠÙħØ±Øº":3873,"ĠÚ©Ø³Ø§ÙĨÛĮ":3874,"ĠØ¬ÙĦØ³":3875,"Ø²Ø§ÛĮ":3876,"Ø§ÙĦÙħ":3877,"ĠØ±Ø£ÛĮ":3878,"Ø®ØµÙĪ":3879,"ĠØ³ØªØ§Ø±":3880,"qu":3881,"ÛĮØ§Ú¯Ø§ÙĨ":3882,"ĠØ¯ÛĮØ¬ÛĮØª":3883,"ĠÙ¾Ø±ÙĪØªØ¦ÛĮÙĨ":3884,"ĠÙĤØ¨ÙĦÛĮ":3885,"ĠÙħØ§Ø¯Ø±ÛĮØ¯":3886,"ĠØ¯Ø´Øª":3887,"ĠØ§Ø¯ÙĪØ§Ø±Ø¯":3888,"ĠÙĪØ§Ú©":3889,"ĠØŃØ§ÙģØ¸Ùĩ":3890,"ĠØ¨Ú©":3891,"ĠÙħØ¯ÙĨÛĮ":3892,"ĠÙĩÙģØªÙħ":3893,"ĠØµØ±Ø¨Ø³ØªØ§ÙĨ":3894,"Ø§ØŃÛĮ":3895,"ÙħØ§Ø¹ÛĮÙĦ":3896,"Ø§ÙĨØ¯ÙĨ":3897,"ĠÚ¯ÛĮÙĦØ§ÙĨ":3898,"ĠÙģØ¯Ø±Ø§ÙĦ":3899,"ĠØ¹ÙħØ¯ØªØ§":3900,"Ø§ÙħÙ¾":3901,"ÙĪØ§ÙĨÛĮØ§":3902,"ÚĨØ³ØªØ±":3903,"ĠÚ©ÛĮÙĦÙĪÙħØªØ±ÙħØ±Ø¨Ø¹":3904,"Ġwww":3905,"ĠØ¨ÙĩØªØ±":3906,"ĠØ¢Ø¨Ø§ÙĨ":3907,"Ø§Ú¯ÙĪ":3908,"ĠÚ©ÛĮÙģÛĮØª":3909,"ØµØ±Ùģ":3910,"ĠØ§Ø¯ÛĮ":3911,"ĠÚ©Ø±Ø¨ÙĨ":3912,"ĠÙħØ§Ø³Ø§ÚĨ":3913,"Ø¨Ø§Ø¨":3914,"ĠØ³ÙĪÙĨ":3915,"ĠØ´Ø§ÛĮ":3916,"ÛĮÙĦÛĮ":3917,"Ø²Ùħ":3918,"ĠØ¯Ø§Ø¯Ú¯Ø§ÙĨ":3919,"ĠÙħÚ©Ø§ÙĨÛĮ":3920,"ĠÙĩÙĪØ±":3921,"ĠÙģÛĮÙĨØ§ÙĦ":3922,"ĠÙħØªØºÛĮØ±":3923,"ĠÚ©Ø§Ø±Øª":3924,"ĠØ±ÙĪØ¦":3925,"ĠÙħØ§Ø³Ø§ÚĨÙĪØ³Øª":3926,"ĠØ«Ø§ÙĨÛĮÙĩ":3927,"ĠÙĨØ¸Ø§Ø±Øª":3928,"ĠØ±Ø¦Ø§ÙĦ":3929,"ĠØŃÛĮÙĪØ§ÙĨ":3930,"ĠÙģÛĮÙĦÙħØ¨Ø±Ø¯Ø§Ø±ÛĮ":3931,"ĠØ§ÙģØªØ®Ø§Ø±":3932,"ÙħØ§ÙĨØ¯":3933,"Ø¹ÙĦ":3934,"ĠØ¨ÙĪØ±Ø³":3935,"ĠØªØ¬ÙĩÛĮØ²Ø§Øª":3936,"ĠØ¨Ø±ÙĨØ¯":3937,"ĠÙħØ¯Ø±Ú©":3938,"ĠØ³Ø§ÙĨØªÛĮ":3939,"ĠØ§ÙģØªØ§Ø¯":3940,"ĠÙ¾Ø³ØªØ§ÙĨØ¯Ø§Ø±Ø§ÙĨ":3941,"ĠÙģÙĦØ²":3942,"ĠØ®ÙĪØ§ÙĨØ¯Ùĩ":3943,"ĠÙħØ§Ø¬":3944,"ĠØªÙĨØ¯":3945,"ĠØ¨Ø±Ø§Ø¯Ø±Ø§ÙĨ":3946,"ĠÙħØ¹ÙħÙĪÙĦ":3947,"ÙĨÙĪØ¹ÛĮ":3948,"Ø§ØªÛĮÚ©":3949,"Ø³ÛĮÙĦÙĪØ§ÙĨÛĮØ§":3950,"ĠØ±ÙħØ§ÙĨØªÛĮÚ©":3951,"ĠØ®Ø§ÙĨÚ¯ÛĮ":3952,"ĠØµØŃØ¨Øª":3953,"ÙĦÙħØ§ÙĨ":3954,"ĠØ¨Ø±ÙĨ":3955,"ĠØ®Ø§Ø±Ø¬Ùĩ":3956,"ĠØªÛĮØ±Ùĩ":3957,"ĠÚ©Ø§Ø±Ø¢ÙģØ±ÛĮÙĨ":3958,"Ø´ÙĨØ¨Ùĩ":3959,"ĠØ¨ÙĦØº":3960,"ĠØ¯ÛĮÙĪØ§ÙĨ":3961,"ĠÙħØ§ÛĮÚ©":3962,"ĠØ³ÙĪÙĦ":3963,"ĠØ³Ø§ØŃ":3964,"ĠØ´Ø§ÙĩØ²Ø§Ø¯Ùĩ":3965,"Ø³ÛĮØ§":3966,"ĠÙĨÛĮÙĪØ¬Ø±":3967,"ĠÙħØºØ²":3968,"ĠØ¨Ø±Ø®ÙĪØ±Ø¯Ø§Ø±":3969,"ĠØ§Ø³ÙħØ§Ø¹ÛĮÙĦ":3970,"ĠÙĩÛĮØ¯Ø±ÙĪ":3971,"ĠØªÙĪØ¬ÙĩÛĮ":3972,"Ġhe":3973,"ĠØªÙĦÙģÙĨ":3974,"Ú¯Ùĩ":3975,"ĠÙĦÙĪÙĦÙĩ":3976,"ĠØ²ÙĨÛĮ":3977,"ĠÙĨÛĮÙĪØ¬Ø±Ø³ÛĮ":3978,"Ø®ÛĮØ±":3979,"Ø³ØªÛĮÙĨ":3980,"ĠÙĨÙħØ§ÛĮØ´Ú¯Ø§Ùĩ":3981,"ĠÙħØ³Ø¹ÙĪØ¯":3982,"ÙĪÙĨØ²ÛĮ":3983,"ĠØ§Ø±Ø²ÛĮ":3984,"ĠÙĨØ§Ø®":3985,"Ġme":3986,"ĠØ³Ø±ÙĪÛĮØ³":3987,"ĠØ³ÙģØ§Ø±Øª":3988,"ĠÙħØ§Ø±ØªÛĮÙĨ":3989,"Ġinter":3990,"ĠÙħØŃØ¯ÙĪØ¯Ùĩ":3991,"Ø²Ø§Ùħ":3992,"ĠØ¬Ø§Ø°":3993,"ĠØµØ¨":3994,"ĠØ³Ø®ÙĨØ±":3995,"ĠÙĩØ§ÙĨ":3996,"ĠÙģÛĮØ±":3997,"Ø¨Ø§Ø±ÛĮ":3998,"ĠÙĩÙħØ²ÙħØ§ÙĨ":3999,"ĠØ§ÙģØ±Ø§Ø¯ÛĮ":4000,"ĠÚĨØ§ÙĦ":4001,"ĠÙħØ¬Ø¯Ø¯":4002,"ĠÙħØŃÙĪØ·Ùĩ":4003,"Ø±Ø§Ùħ":4004,"ĠÕ":4005,"ĠÙģØ³":4006,"ĠÙ¾Ø±Ø¯Ø§Ø²Ø§ÙĨ":4007,"ĠØ³ÛĮØ§Ø±Ùĩ":4008,"ond":4009,"ĠØ§ÙĩØ¯Ø§Ùģ":4010,"Ġma":4011,"ĠÙģÛĮÙĦØ³ÙĪÙģØ§ÙĨ":4012,"ĠÚ©Ø§ÙĨØª":4013,"Ð¾":4014,"ĠÙħØ®ØµÙĪ":4015,"ÙĨØ¯Ø±Ø§ÙĨ":4016,"ĠØ§Ø³ØªÙĪÙĨÛĮ":4017,"ĠÙĤØ¯ÛĮÙħ":4018,"ĠØ¹ÙĨØ§ØµØ±":4019,"ĠØ¯Ø§ÙħÙĨÙĩ":4020,"Ø´ÙħÛĮ":4021,"ĠÙĤÙĦÙħØ±ÙĪ":4022,"ĠÙħØ¬Ø§Ø²":4023,"ĠØªØ±ÙĪØ±ÛĮ":4024,"ĠØ´ÛĮÚ©":4025,"ĠØ³ÙĦØ§ØŃ":4026,"ĠØ§ÙħÙĨÛĮØªÛĮ":4027,"ĠØ§ÙĨÚ¯ÙĦÛĮØ³":4028,"Ø§ÙĪÛĮØ±":4029,"ĠÙĦØ±Ø²Ùĩ":4030,"ĠÚ©Ø§ÙħÙ¾":4031,"ĠØµÙģØ±":4032,"ĠÙĪÛĮÙĨØ¯":4033,"ĠÙ¾ÙĨØ³ÛĮÙĦÙĪØ§ÙĨÛĮØ§":4034,"Ø§Ø±ÙĨ":4035,"ĠÚĺØ§ÙĨØ±":4036,"ĠØºÙĦ":4037,"ĠØªÙĨÚ¯":4038,"ĠØµÙĨØ¯":4039,"ĠØ§Ø³ÛĮØ¯":4040,"ĠÙħØ§Ø²ÙĨØ¯Ø±Ø§ÙĨ":4041,"cy":4042,"ĠÙĪØ²ÛĮØ±Ø§ÙĨ":4043,"ĠØ®Ø§ÙĨÙħ":4044,"ĠØŃØ§Ø¯Ø«":4045,"ĠØ²ÛĮØ¨Ø§":4046,"ĠØ¬Ø¯ÛĮØ¯ÛĮ":4047,"ĠØ¨ÛĮÙħØ§Ø±":4048,"ĠÙĨØ§ÙĪ":4049,"ĠØ¢Ø³ÙħØ§ÙĨ":4050,"Ø¬Ø³ØªØ§ÙĨ":4051,"Ø°ÛĮØ±ÛĮ":4052,"Ġsv":4053,"ĠØ¸Ø±ÙģÛĮØª":4054,"Ø§Ø®ØªÙĩ":4055,"ĠÙħØŃØ³ÙĨ":4056,"ĠÙ¾ÙĦØ§":4057,"ĠÚ©Ø±ÙĪØ§Ø³ÛĮ":4058,"ĠØ§ÙĨØªÙĤØ§Ø¯":4059,"ĠØ®Ø´ÙĪÙĨØª":4060,"ĠØ±ÙĩØ¨Ø±Ø§ÙĨ":4061,"Ø§Úĺ":4062,"ØŃÛĮØŃ":4063,"ĠØ§Ø¹ØªÙĤ":4064,"ĠØ¢ÙħÛĮØ²":4065,"ÚĨÛĮØ¯Ùĩ":4066,"Ø¯Ø§Ø´ØªÙĩ":4067,"ÛĮÚ©Ùĩ":4068,"ĠÙħÙĨØµÙĪØ¨":4069,"ĠØªØ¯Ø±ÛĮØ³":4070,"end":4071,"ĠÙģÛĮØ²ÛĮÚ©ÛĮ":4072,"ĠØ¹Ø§Ùħ":4073,"ĠØ¯Ø§ÙĨØ´Ø¬ÙĪÛĮØ§ÙĨ":4074,"ĠØ§ÙħØ±ÛĮÚ©ÙĨ":4075,"Ú©Ø±ÛĮ":4076,"ĠØªØµØ§Ø¯":4077,"ĠÙĩÙħØ§ÙĨÙĨØ¯":4078,"ĠØ³ÙĨÚ¯ÛĮÙĨ":4079,"ty":4080,"ĠÙĦØ§Ú©":4081,"ĠØ¯ÛĮÚ¯Ø±Ø§ÙĨ":4082,"ĠØ¨ÙĪØ³":4083,"ĠØ¨ÙĪÙĨØ¯Ø³":4084,"land":4085,"ton":4086,"ĠÙħÙĨØ§Ø³":4087,"ĠØŃØ§Ø¯Ø«Ùĩ":4088,"ĠØ¨ØŃØ±":4089,"ĠÙģØ±Ø²ÙĨØ¯Ø§ÙĨ":4090,"ĠØ±Ø¬":4091,"ĠÙĪØ±Ø²Ø´Ú©Ø§Ø±":4092,"ĠØ¯Ø±Ø¯":4093,"ff":4094,"ĠÙĨØ§ÛĮØ¨":4095,"ĠÙħÙĨØ´":4096,"Ú©ØªÙĩ":4097,"ĠØ±ÙĪØ¦ÛĮÙĨÚ¯":4098,"ĠÙĪØ²ÙĨÙĩ":4099,"ong":4100,"ĠØ¹Ùģ":4101,"ob":4102,"ØºØ§Ùħ":4103,"ĠÙĪÚ©ÛĮÙĦ":4104,"ĠÙĩÙĪØ§ÛĮ":4105,"ÛĮÙģÙĩ":4106,"ÙħÙĨØª":4107,"ĠØ±Ú©ÙĪØ±Ø¯Ø²":4108,"ĠÚ©ÙĨÙģØ±":4109,"ĠÙ¾Ø±Ø§Ú©":4110,"ĠØ´ÛĮØ´Ùĩ":4111,"Ġfo":4112,"ĠÚ©Ø¯Ø§Ùħ":4113,"ĠØ¯Ø¨ÛĮØ±Ø³ØªØ§ÙĨ":4114,"ÛĮÙĦØ§":4115,"Ġairport":4116,"Ø³ÙħÙĩ":4117,"ĠÙ¾Ø±Ø§":4118,"ÙĪÙĤÛĮ":4119,"ÙĦØ§ÙĪÛĮ":4120,"Ø³Ú©Ø§":4121,"ĠØ®ÙĪØ¯Ú©Ø´ÛĮ":4122,"Ø±ÙĪØ²":4123,"Ġpng":4124,"ĠÙĨØµØ¨":4125,"ĠØ®ÙĪØ§ÙĩÙĨØ¯":4126,"ÙĪØ§ÛĮÛĮ":4127,"ÙĪØ§Ùħ":4128,"ĠÙħØ§Ø¯Ø±Ø´":4129,"Ú©ÛĮØ¯":4130,"ĠÙħÙĨÙģÛĮ":4131,"ĠØ§ÙĦØ¬Ø²Ø§ÛĮØ±":4132,"Ø§Ø±ØªÛĮ":4133,"ĠÙħØµØ§ØŃ":4134,"ÙĪÙĪ":4135,"ĠÙĨØ±Ø®":4136,"ĠØ§ÙħØ§Ø±Ø§Øª":4137,"ĠÙħÙĦÚ©Ùĩ":4138,"ĠØªÙħØ¯":4139,"ĠÙħÛĮÚ©Ø±ÙĪ":4140,"ĠØ§Ø¨Ø²Ø§Ø±":4141,"ÙĦÛĮÙģ":4142,"Ø±Ø§Ø¹":4143,"ĠÙĩØ´ØªÙħ":4144,"ĠÙĪØ¸ÛĮÙģÙĩ":4145,"ĠÙħÙĩÙħÛĮ":4146,"ĠÙħÛĮÙĦØ§ÙĨ":4147,"ĠØ§Ø±Ø¯ÛĮ":4148,"ĠØ±Ø§Ø¯":4149,"ĠØ³Ø¹ÛĮ":4150,"ĠÙħÙĤØ§ÙħØ§Øª":4151,"ĠØ¬Ø§Ø°Ø¨Ùĩ":4152,"ĠÙĪÙĦØ²":4153,"ĠØ¹Ø¶ÙĪÛĮØª":4154,"ĠØ³Ø§ØŃÙĦÛĮ":4155,"Ø§ÙħÙĪÙĨ":4156,"ĠØŃÙĤÛĮÙĤ":4157,"ĠÙħÛĮØ´ÛĮ":4158,"ĠØ¯Ø§ÙĨØ´Ú¯Ø§ÙĩÛĮ":4159,"ĠÚ©ÙħÙĪÙĨÛĮØ³Øª":4160,"ĠØ¨Ø±Ú¯Ø²Ø§Ø±ÛĮ":4161,"ĠÙĨÙģØ±Ùĩ":4162,"ĠÙħØ¬Ø³ÙħÙĩ":4163,"ĠÙĪÛĮØ±Ø¬ÛĮÙĨÛĮØ§":4164,"ĠØ§ÛĮØ´Ø§ÙĨ":4165,"ĠØ¨Ø§ÛĮØ±":4166,"ou":4167,"ĠØ³Ø±Ø¨Ø§Ø²Ø§ÙĨ":4168,"ĠØŃØ±Ùģ":4169,"ĠÙħØ±Ø¯Ø§Ø¯":4170,"Ø±ÙĪØ´":4171,"ĠÙĨØ¸Ø§ÙħÛĮØ§ÙĨ":4172,"ÙĪØ§ÙĨØ¯Ùĩ":4173,"ĠØ¯Ø§ÙĦ":4174,"ĠÙħÙĪØ§Ø¬Ùĩ":4175,"Ø§ÙħÙĨ":4176,"ĠÚĨÙĪØ¨":4177,"ĠØŃØ§ÙĪÛĮ":4178,"ĠÙ¾Ø±ÙĨØ¯Ùĩ":4179,"ÙĤÛĮØ¨":4180,"ĠØªÙĩØ¯ÛĮØ¯":4181,"ide":4182,"ÙģØ±ÛĮ":4183,"ĠÚ©ÙĨØ³Ø±":4184,"ĠØ¯Ø§ÙĨÙĨØ¯":4185,"ĠØ¯Ø¹ÙĪØª":4186,"ØµØ§Ø¨":4187,"ĠØ¨Øº":4188,"ĠÙħØ¨ØªÙĨÛĮ":4189,"ĠØªØ®Ø±ÛĮØ¨":4190,"ĠØªØ±Ø§Ø¨Ø±ÛĮ":4191,"ĠØ·ÙĪØ±ÛĮ":4192,"ĠØŃØ¯ÛĮ":4193,"Ø¶ÙĦ":4194,"ĠÙģØ¹Ø§ÙĦØ§ÙĨ":4195,"ĠÙħÛĮØ´ÛĮÚ¯Ø§ÙĨ":4196,"ĠØªÚ©ÙĨÛĮÚ©":4197,"ĠÙħØ³ÙĦØŃ":4198,"ĠÙ¾ÛĮÚĨÛĮØ¯Ùĩ":4199,"ĠØ®Ø²":4200,"ĠÙħØ£ÙħÙĪØ±ÛĮØª":4201,"ĠÙħØ®ØµÙĪØµ":4202,"ĠØªØ§ÙĦØ§Ø±":4203,"ĠØ³ÙĨØ§ÛĮ":4204,"ĠÙģÙĪÙĦØ§Ø¯":4205,"ĠÚ©ÙĨÙģØ±Ø§ÙĨØ³":4206,"ĠÙħÙĨØ¯":4207,"Ø¨ÙĩØ´Øª":4208,"ĠÙħØŃØ§Ø³Ø¨Ùĩ":4209,"ĠØ±ÙģØªÙĨ":4210,"ĠØªØ¯ÙĪÛĮÙĨ":4211,"ĠØ§ÛĮÙĨØ¯ÛĮ":4212,"Ø¹ÛĮÙģ":4213,"ĠÚĨÙĨØ§ÙĨ":4214,"ĠØªÙģØ³ÛĮØ±":4215,"Ø¬Ø±Ùĩ":4216,"Ø§Ú©Ø§":4217,"ĠÚ©Ø±Ø¯Ø³ØªØ§ÙĨ":4218,"ĠØ¨ÙĩØ¯Ø§Ø´Øª":4219,"ĠØ¦":4220,"art":4221,"Ġinde":4222,"ĠØªÙĪÙħØ§Ø³":4223,"Ø§ÙĤØ¯":4224,"ĠÙħØºÙĪÙĦ":4225,"ĠØ§Ø±Ø¯ÛĮØ¨ÙĩØ´Øª":4226,"ĠØ§ØªØµØ§ÙĦ":4227,"Ġwh":4228,"ĠÙĨØ¯Ø§Ø±":4229,"ĠØ³ÙĪØ§Ø±":4230,"ÙĨÚ©":4231,"ĠØ±Ø§ÙĩÙĨ":4232,"ĠØ¬Ø§ÙĨÙĪØ±Ø§ÙĨ":4233,"Ø±ÙĪØª":4234,"own":4235,"Ø§ØµØ±Ùĩ":4236,"ÛĮÙħØ§":4237,"ĠØ§Ø±Ø¯ÙĪ":4238,"ĠØªÙħØ§":4239,"ĠÚ¯Ø§Ùħ":4240,"ĠØµÙĪØ±ØªÛĮ":4241,"ĠÙħØ®Ø§ÙĦÙģØª":4242,"ĠØªÙħØ§Ø³":4243,"Ġwor":4244,"ĠÙħØµØ§ØŃØ¨Ùĩ":4245,"ĠØ¸Ùĩ":4246,"ĠÙħÚ©ÙħÙĦ":4247,"ĠÙ¾Ø¯ÛĮØ¯Ùĩ":4248,"ĠØ¢Ø¯Ùħ":4249,"ØŃØª":4250,"ĠØ§Ø±ØªØ¨Ø§Ø·Ø§Øª":4251,"ĠØ¨ÚĨÙĩ":4252,"ĠÙĨØ´Ø³Øª":4253,"ÙĦØ§ÛĮÙĨ":4254,"ÙĦÛĮÙĪ":4255,"ĠØºÙĦØ§Ùħ":4256,"ĠØ¨ÙĨÚ¯":4257,"Ø¹Ø¯Ùĩ":4258,"ĠØ§Ø¯Ø¹Ø§":4259,"ĠÙħÙĪØ§ÙģÙĤ":4260,"ĠÙ¾Ø§Ø¦":4261,"ÙħÙĪÙĦÛĮ":4262,"ĠÙĤØ·Ø¹Ø§Øª":4263,"ĠØ´ÛĮØ±ÛĮÙĨ":4264,"ĠØ³Ø±Ø¨Ø§Ø²":4265,"Ø·ÙģÛĮ":4266,"ĠØ³ØªÙĪÙĨ":4267,"ĠØ¯ÙħØ§":4268,"ĠÙħÛĮØª":4269,"ĠÙħØ«Ø¨Øª":4270,"ĠÙĩÙĪÙĦ":4271,"ĠÙħØ³Ø¦ÙĪÙĦÛĮØª":4272,"ĠØ§ØªÙĪÙħØ¨ÛĮÙĦ":4273,"ĠØ¨ÙĤ":4274,"ĠÙĤÙĩ":4275,"ĠÚ©Ø§ÙĨØ§Ø¯":4276,"ĠØ§ÙĦØªØŃØµÛĮÙĦ":4277,"ĠØ±ÙĪÛĮØ¯Ø§Ø¯":4278,"ĠÙĪÛĮÚ©ØªÙĪØ±":4279,"ĠÙĩÙĪØ§Ù¾ÛĮÙħØ§":4280,"Ú¯Ø±ÙģØª":4281,"ĠØ¨Ø±Ø§ÙĨ":4282,"ĠÙĦÙĪØ¦ÛĮ":4283,"Ø§ÙĦÛĮÙĩ":4284,"ĠÚ©Ø§Ø¨ÙĦ":4285,"ĠØ¢ÙĨØªÙĪÙĨÛĮ":4286,"ÛĮØªØ§":4287,"ĠØ¯Ø³ØªØ±Ø³":4288,"ĠØŃÙĤÛĮÙĤØª":4289,"ĠÙħØŃØ§ØµØ±Ùĩ":4290,"ĠØ³ÙĨØ¬":4291,"ĠØ§ÛĮØ²":4292,"ĠÚ©Ø§Ø³":4293,"ĠØ¹ØµØ¨ÛĮ":4294,"Ø§ÙĨØ¯Ùĩ":4295,"ĠØ§Ø¹ØªÙħ":4296,"ĠÙĨØ§Ø²":4297,"ĠØ¯ÙĪØ¯ÙħØ§ÙĨ":4298,"ĠÚĺÙĨØ±Ø§ÙĦ":4299,"ĠØ±ÛĮØ³":4300,"ÙĨØªÛĮ":4301,"ĠÙ¾Ø±Ø¯Ø§Ø²Ø¯":4302,"ĠØ²Ø¯ÙĨ":4303,"ĠØ¹ÙĦÛĮØ±Ø¶Ø§":4304,"ÙĦÛĮØ³":4305,"ĠØ³Ø®ÙĨØ±Ø§ÙĨÛĮ":4306,"ĠÙĪÛĮÙĨØ¯ÙĪØ²":4307,"ĠØ¯Ø±ÙħØ§ÙĨÛĮ":4308,"Ġold":4309,"ĠÙĩØ²Ø§Ø±Ùĩ":4310,"ĠØ¬ÙħØ¹ÛĮ":4311,"ĠÚ¯ÙĪÙĨØ§Ú¯ÙĪÙĨ":4312,"ĠØ§ÙĪØ§Ø³":4313,"ÙĤØ§Ø¨ÙĦ":4314,"ĠØ¢Ø´Ú©":4315,"ĠÙģØ§ÙĤØ¯":4316,"ĠØ®ÙĪØ²":4317,"Ġsy":4318,"ĠØ§ÙĨØ¯Ø±":4319,"ÙĪØ±Ø¯ÛĮÙĨ":4320,"ĠØ¨Ú¯ÛĮØ±Ø¯":4321,"ĠÙĩØ±Ú¯Ø²":4322,"ern":4323,"ĠÙĦÛĮØ³Øª":4324,"ĠÙĤÙĪÙħ":4325,"ĠØŃÙħÙĦØ§Øª":4326,"ĠØ§Ø³ØªØ®ÙĪØ§ÙĨ":4327,"ĠØ§ÛĮÙĪØ§ÙĨ":4328,"ĠØ¨ÛĮØ¯":4329,"ĠÙħØ¹Ø¯":4330,"ĠØ§Ø®ØªÙĦØ§ÙĦ":4331,"ĠØ¢ÛĮÛĮÙĨ":4332,"ĠØ¨Ø®Ø§Ø±":4333,"ĠØ§Ú©Ø³ÛĮ":4334,"ĠØ§Ø¯Ø§Ø±ÛĮ":4335,"Ø³ÙĪÙĦ":4336,"ÚĨØ±Ø²":4337,"ĠÙħØ¬ÙħØ¹":4338,"ĠØªØ£Ú©ÛĮØ¯":4339,"ĠØªÙĤÙĪÛĮØª":4340,"ĠØ¯Ø³ØªÚ¯ÛĮØ±":4341,"ĠØ²ÙħØ³ØªØ§ÙĨ":4342,"Ã¼":4343,"ĠØ²Ø®":4344,"ĠØªØ¶":4345,"ĠÚĨØ§Ø±ÙĦØ²":4346,"ĠÙħÙĦØ§ÙĤ":4347,"ĠØ§Ø¹ØªÙĤØ§Ø¯":4348,"ice":4349,"ĠØŃÙħÛĮØ¯":4350,"Ù¾Ø²ÛĮ":4351,"ÙģÙĪÙĨ":4352,"Ġge":4353,"ĠØªØµØ±Ùģ":4354,"Ø±Ø§Ø³":4355,"Ġcar":4356,"ĠØ®ÙĪØ§Ø±":4357,"ĠØ²Ø§Ø¯":4358,"ae":4359,"ĠØªÙĪØ§ÙģÙĤ":4360,"ĠÙĪØ§Úĺ":4361,"ĠÚ©Ø§Ø±Ø¨Ø±Ø¯ÛĮ":4362,"ĠØ´ÙĨØ§Ø®Øª":4363,"ĠØ´Ø§ÙĩØ¯":4364,"Ú©ÙĪØ±":4365,"ĠØ¬ØºØ±Ø§ÙģÛĮØ§ÛĮ":4366,"ĠØ®ÙħÛĮÙĨÛĮ":4367,"ivers":4368,"ĠÙĩÙħØ¬ÙĨØ³":4369,"ĠÙĨÙĪØ§ØŃÛĮ":4370,"ÛĮÙħÙĩ":4371,"use":4372,"ĠÙĨÙĪØ´ØªÙĨ":4373,"ĠØ¢Úĺ":4374,"ĠØ¬Ø±Ø¬":4375,"ĠØ¢ÙĩÙĨÚ¯Ø³Ø§Ø²":4376,"ĠØ¨Ø±Ø¯Ø§Ø´Øª":4377,"ĠÚ©Ø§ÙĨØ§Ø¯Ø§ÛĮÛĮ":4378,"ĠØ¨Ø¯Ùĩ":4379,"ĠØ®Ø§Øª":4380,"ĠØ¯ÛĮÙĪØ§Ø±":4381,"ĠØ§Ø±Ø²ÛĮØ§Ø¨ÛĮ":4382,"ĠØ¯Ø±Ø®ØªØ§ÙĨ":4383,"ĠØ²ÛĮØ¨Ø§ÛĮÛĮ":4384,"ĠØ¨ÙĪØ¦":4385,"Ġman":4386,"ĠÚ¯Ø±Ùĩ":4387,"ĠÙ¾ÙĨÙĩ":4388,"ĠÙģÚ©Ø±":4389,"ĠØ´Ø§Ø®Øµ":4390,"ver":4391,"Ġbar":4392,"ey":4393,"per":4394,"ĠØ¹ÛĮÙĨ":4395,"ĠÚ¯Ø±ÛĮÙĨ":4396,"ĠØ¨ÙĪÚ©":4397,"ĠØºØ°Ø§":4398,"ĠÙħØŃÛĮØ·ÛĮ":4399,"ĠÚ©ÙĪÙħÙĪÙĨÙĩ":4400,"ĠØªÙħØ±Ú©Ø²":4401,"ĠÙĩÙħØ³Ø±Ø´":4402,"ĠÙĩØªÙĦ":4403,"ĠÙħØ¹Ø§Ø¯ÙĦ":4404,"ĠØ·Ø§ÙĦ":4405,"ĠØ§Ø´Ø¹Ø§Ø±":4406,"Ġcr":4407,"ĠØ¨Ø±Ø§":4408,"ĠÙĨÚ©Ø±Ø¯":4409,"ĠÙģØ§":4410,"ĠÙħØ®ÙģÛĮ":4411,"ĠØ§Ø±Ø³Ø§ÙĦ":4412,"ÙģØ§Ø¹ÛĮ":4413,"ĠØ³ØªØ§Ø±Ú¯Ø§ÙĨ":4414,"Ġmo":4415,"ĠØ§ÙħØ±ÙĪØ²ÛĮ":4416,"ĠØ§ÙĨØ¯ÙĪÙĨØ²ÛĮ":4417,"ĠÙ¾ÛĮØª":4418,"ĠØ¬Ø§ÙĨØ´ÛĮÙĨ":4419,"ÙģØ±Ø¯":4420,"ĠØ§Ú©Ø±Ø§ÙĨ":4421,"Ù¾ÙĨ":4422,"Ø¬ÙĪÛĮ":4423,"ĠØ§Ø³ÙĨØ§Ø¯":4424,"ĠÙģÙĦØ²ÛĮ":4425,"ĠÚĨÙĩÙĦ":4426,"ĠÚ©ÙĦØ§":4427,"ĠØ§Ø´ØºØ§ÙĦ":4428,"ĠÙħØ§Ø¬Ø±":4429,"pt":4430,"ĠØ§Ø¸ÙĩØ§Ø±":4431,"ĠØ®ÙĪØ²Ø³ØªØ§ÙĨ":4432,"ĠÙģÛĮÙĦÙħÙĨØ§ÙħÙĩ":4433,"ĠØ§ØªÙĦ":4434,"Ø§ØªÙĦ":4435,"Ù¾ÙĪÙĦ":4436,"ĠØ§ÙĦÙĩÛĮ":4437,"Ø§ÛĮØ§":4438,"ĠØ§ÛĮØ§ÙĦØªÛĮ":4439,"ĠÙĤØ±ÙĪÙĨ":4440,"ĠØ§Ø³ØªØ±Ø§Øª":4441,"ict":4442,"ĠÙħØŃØ±":4443,"ĠÙģØ¹ÙĦÛĮ":4444,"ĠÚ©ÙĪÙĨ":4445,"ĠÚ©ÙĦØ±":4446,"ĠØµØ§Ø¯Ø±":4447,"ĠØ¨ÙĦØºØ§Ø±Ø³ØªØ§ÙĨ":4448,"ica":4449,"ĠØ§ÙģØªØª":4450,"ĠÙĦÙĪØ¦ÛĮØ³":4451,"ĠÙĨÚ©":4452,"ĠØ§Ø¯ØºØ§Ùħ":4453,"ÙĨØªÙĪ":4454,"ĠÙħØµÙĨÙĪØ¹ÛĮ":4455,"ĠÙģØ±ÙĪØ±Ø¯ÛĮÙĨ":4456,"Ġtit":4457,"ĠÚ©Ø§Ø³Øª":4458,"ĠØ§ÛĮØ¯":4459,"ĠØªØµØ§ÙĪÛĮØ±":4460,"ĠØµØ§Ø¯ÙĤ":4461,"ĠØ³Ø±Ù¾Ø±":4462,"ĠÙħØ¤Ø«Ø±":4463,"Ġphp":4464,"ĠØ§Ø·ÙĦØ§Ø¹Ø§ØªÛĮ":4465,"ĠØ¬Ø±Ø§ØŃÛĮ":4466,"ÙĤÙģ":4467,"ĠÚ¯ÙĪØ¯":4468,"ĠÚ©ÙĪØ¯Ú©ÛĮ":4469,"ĠØ¨Ø±ÙħÛĮ":4470,"ĠÙħØªÙĪØ¬Ùĩ":4471,"ĠÙ¾Ø±Ø³":4472,"ĠØ³Ø§ÙĦØ§ÙĨÙĩ":4473,"ÙĪØ±ÙĨ":4474,"ĠØ±Ø¨Ø§ØªÛĮÚ©":4475,"Ø§Ú©ÙĪ":4476,"ĠÚ©ÙħØ¯":4477,"ĠÚ¯Ø±Ø¬Ø³ØªØ§ÙĨ":4478,"pl":4479,"ĠØ¨Ø§ÙĦØ§ÛĮÛĮ":4480,"ĠØ§ÛĮØ±Ø§ÙĨÛĮØ§ÙĨ":4481,"ĠØ¯ÛĮØ¬ÛĮØªØ§ÙĦ":4482,"ĠÙħØªØ±ÙĪ":4483,"ĠÙħØ¹ÙħÙĪÙĦÛĮ":4484,"ĠØ§ÙĤØ¯Ø§ÙħØ§Øª":4485,"Ø±ÙĪÙĨ":4486,"ĠØªÙĤØ¯":4487,"ĠØ±Ø³Øª":4488,"ĠÚ©ÙħÛĮØ³ÛĮÙĪÙĨ":4489,"Ġindex":4490,"ĠØŃØ¬Ùħ":4491,"ĠÙħØ³ØªÙĤØ±":4492,"ÙĦØª":4493,"ĠÙĨÛĮØ´":4494,"ĠØ³ÙĩØ§Ùħ":4495,"aw":4496,"ĠÙħÙĤÛĮØ§Ø³":4497,"ĠØ§ÙĦÙĨ":4498,"ĠÙ¾ÛĮÚ©ÚĨØ±Ø²":4499,"ĠØ¹Ø±Ø¶":4500,"ĠØ§ÙĨØŃ":4501,"ĠÚ¯Ø°Ø´Øª":4502,"ĠØ¬ÙĨØ³":4503,"ĠØ§ÙĦÚ©ØªØ±ÙĪÙĨÛĮÚ©":4504,"ĠØ§ÙħØ¶Ø§":4505,"ĠØ¨ÙĪÙħ":4506,"ore":4507,"Ø§Ø¯Øª":4508,"Ø§Ø¯ÙĩØ§":4509,"ĠØ±ÙĪØº":4510,"ÛĮØ±Ø§ÙĨ":4511,"ÙĦØ§ÙĤÛĮ":4512,"ĠØ¢Ø±Ø§ÙħÚ¯Ø§Ùĩ":4513,"ĠÙĨÛĮØ³ØªÙĨØ¯":4514,"Ġgr":4515,"ĠÙĨÛĮÙĦ":4516,"ĠØ«Ø±ÙĪØª":4517,"ĠØ¯Ø´ÙħÙĨ":4518,"ĠÚ©Øª":4519,"ĠØ§ÙģØ²Ø§Ø±ÙĩØ§ÛĮ":4520,"ĠÙħØ¯ÛĮØ±Ø§ÙĨ":4521,"Ø§ÛĮØ§ÛĮ":4522,"ĠÙĨØ¯Ø§Ø±ÙĨØ¯":4523,"ĠÙħÙĦØ§ÙĤØ§Øª":4524,"ÙĪØ¯Ø§":4525,"ĠÙģÙĦØ³Ø·ÛĮÙĨ":4526,"Ù¾Ø±Ø¯":4527,"ĠØ¨Ø®ØªÛĮ":4528,"ĠØ´ÙĪØ§ÙĦÛĮÙĩ":4529,"ĠÙĤØ§ÛĮÙĤØ±Ø§ÙĨØ§ÙĨ":4530,"ĠØ³ÙĪØ§Ø±ÛĮ":4531,"ment":4532,"ĠØ´ÛĮÚ©Ø§Ú¯ÙĪ":4533,"ĠØ®Ø±ÙĪØ¬ÛĮ":4534,"ĠÙģØ±Ø§Ùħ":4535,"ĠØ§ÙĨØ¯Ø§Ø²":4536,"ÙĪØ²Ùģ":4537,"Ġem":4538,"ĠØ¯ÙĪØ§Ø²Ø¯Ùĩ":4539,"ĠÙĩØ±ÛĮ":4540,"ĠØŃÙĤÙĪÙĤÛĮ":4541,"ĠØ¬Ú©":4542,"ĠÚ¯ÛĮØ±ÙĨØ¯Ùĩ":4543,"ĠØ¨ÛĮÚ©":4544,"ĠØ®Ø±Ùħ":4545,"ĠØŃÛĮØ¯":4546,"ĠÚ¯ÛĮØ±Ø§ÙĨ":4547,"ĠÚ©ÙĦØ§ÙĨ":4548,"ĠÛĮÙĪÚ¯Ø³":4549,"ĠÙħØ«ÙĦØ§":4550,"ĠØ³Ú©Ùĩ":4551,"ĠÚ©ÙĩÙĨ":4552,"ĠÙĨØ§Ø²ÛĮ":4553,"ĠØ§Ø¨ÛĮ":4554,"ĠØ§ÙħÛĮÙĨ":4555,"ĠØ§ÙĦÙĤ":4556,"ath":4557,"ĠØŃÛĮØ§Øª":4558,"ĠØ§ØªÙĩØ§Ùħ":4559,"ĠÙħÛĮØ§ÙĨÚ¯ÛĮÙĨ":4560,"ĠØ§Ø³Ø·":4561,"ØºØ±":4562,"Ø§ÛĮÙģ":4563,"ĠÙħÙĪØ±ÛĮ":4564,"ĠÙĨÙĪÛĮØ³ÙĨØ¯Ú¯ÛĮ":4565,"ĠØ¢Ø±Ú©":4566,"ĠÙĤØ§Ø¶ÛĮ":4567,"Ù¾Øª":4568,"ĠÚ¯ÛĮØ§Ú¯Ø§ÙĨ":4569,"ĠÛĮÙĪØ±ÙĪ":4570,"ĠØ§Ø³ØªÙĤ":4571,"Ø´ÛĮÙĩ":4572,"ĠÙĨÙĤØ§Ø´Ø§ÙĨ":4573,"ĠÙĩÙħÚ¯Ø§ÙĨÛĮ":4574,"ÙģÛĮØ¯":4575,"ĠØ¢ÛĮØ§":4576,"der":4577,"Ġmon":4578,"ĠØ§ÙĪØ¬":4579,"ĠÙģØ§Ø²":4580,"ÙĨØ§Ø·ÛĮ":4581,"ĠÙĩÙĪØ§Ú¯Ø±Ø¯ÙĩØ§ÛĮ":4582,"ier":4583,"ĠØŃØ¯Ø§Ú©":4584,"ĠØ§ÛĮÚ©Ø§Ø¦ÙĪ":4585,"ĠÙĩÙħØ§Ùĩ":4586,"ĠÚ©Ø§Ø±Ø¨Ø±Ø§ÙĨ":4587,"ence":4588,"ĠÙģØ±ÙĩÙĨÚ¯Ø³ØªØ§ÙĨ":4589,"ÙĦÛĮØ§":4590,"ĠØ§Ø¹ØªÙħØ§Ø¯":4591,"ĠØ§Ø¨ÙĪØ§ÙĦ":4592,"ys":4593,"ĠÙĦØ§Ø±":4594,"ĠØ§ÙĨØ¯ÛĮØ´Ùĩ":4595,"ĠØ±ÙĪØ²ÙĩØ§ÛĮ":4596,"ĠØ¨ÛĮÚ¯":4597,"ĠÙħÙĤØ¯ÙħØ§ØªÛĮ":4598,"ĠÙħØ¸":4599,"ĠØ§ØŃÙħØ¯ÛĮ":4600,"ĠØ³ÙĨÚ¯ÛĮ":4601,"ÙĨØ§Ø·ÛĮØ³ÛĮ":4602,"ft":4603,"ĠÙħØ·ÙĦ":4604,"ĠÙĩÙĨØ¯ÙĪ":4605,"ĠÚĨÙħÙĨ":4606,"ĠÙģØ±Ø³ØªØ§Ø¯":4607,"ĠØ§ÙĦÙĩØ§Ùħ":4608,"ĠØ§ÙĪÙĨ":4609,"ĠØ®Ø¯Ø§ÛĮØ§ÙĨ":4610,"Ġel":4611,"Ø±Ø§Ø³ÛĮ":4612,"ĠØ¯Ø§ÙĨÙĩ":4613,"ĠÙĨØ´Ø±ÛĮÙĩ":4614,"ĠÙħÙĤØ§ÙĦØ§Øª":4615,"ace":4616,"ĠØ¯ÙĪØ±Ø¨ÛĮÙĨ":4617,"à¤":4618,"ÛĮØ¯ÙĨØ¯":4619,"ĠÙĤØ²ÙĪÛĮÙĨ":4620,"ÙĪØ±Ú¯":4621,"ĠØ¯ÙĩÙħ":4622,"Ð¸":4623,"ĠÚ¯Ùħ":4624,"ĠÙħÙĨÚĨØ³ØªØ±":4625,"Ø§Ø±Ø´":4626,"ĠØªØµÙĪ":4627,"ĠØ¬ÙħØ§ÙĩÛĮØ±":4628,"ĠØ¨Ø§Ø±Ø³ÙĦ":4629,"ÙĪØŃ":4630,"ĠÚ©Ø§ÙħÙ¾ÛĮÙĪØªØ±":4631,"ĠØ¯ÛĮÚ©":4632,"ĠÙħÛĮÙĨÙĩ":4633,"ĠØ§Ø³ØªÛĮØ´ÙĨ":4634,"ĠØ®Ø³Ø±ÙĪ":4635,"Ú¯Ø±ÙģØªÙĩ":4636,"ĠØµØ±":4637,"ĠØ§Ø³ØªØ¯":4638,"ĠÚ¯ÛĮØ§ÙĩÛĮ":4639,"ĠÙĩÙħØ¯Ø§ÙĨ":4640,"Ġunivers":4641,"Ġnational":4642,"ĠÙģØ±ÙħØ§ÙĨØ±ÙĪ":4643,"ĠØ³Ø§Ø²Ø¯":4644,"ÙĤØ§Øª":4645,"ĠÛĮÙĪÚ¯Ø³ÙĦØ§ÙĪÛĮ":4646,"ĠÚ©ÙĦÛĮØ¯":4647,"ĠØºØ±ÙĤ":4648,"ĠØ³ÛĮÙĨÙĩ":4649,"ĠØ¯Ø§Ø±ÙĪÙĩØ§ÛĮ":4650,"ĠØŃØ§ÙģØ¸":4651,"ÙĪÛĮÚĺÙĨ":4652,"ĠÙĦÛĮØ¨Ø±":4653,"ĠØ§Ø³Ø·ÙĪØ±Ùĩ":4654,"ĠØ§Ú©Ø«":4655,"ĠØ§ÛĮÙħÙĨÛĮ":4656,"Ø¬Ø§Ø±":4657,"ĠÚ©Ø§Ø±Ú¯Ø±Ø§ÙĨ":4658,"ĠÙħØ±Ø§Ú©Ø´":4659,"ĠÙĪÛĮØ±ÙĪØ³":4660,"ĠÙĤØ·Ø¨":4661,"Ġcent":4662,"ĠÙħØ·Ø§Ø¨ÙĤ":4663,"ĠØ¯Ø§ÙĨØ³ØªÙĩ":4664,"ĠØ¬ÙĪØ§ÙĨÛĮ":4665,"ĠÙģØ§Ø·":4666,"ust":4667,"Ø´ØªØ±":4668,"ĠÚ¯ÙĪØ±Ø³ØªØ§ÙĨ":4669,"ĠØŃØ¯Ø§Ú©Ø«Ø±":4670,"ĠØ¢ÙĦÙĨ":4671,"ĠØ§ÙĦÚ©Ø³Ø§ÙĨØ¯Ø±":4672,"ĠØªÚ©Ø±Ø§Ø±":4673,"ĠØ§ØªÙĦØªÛĮÚ©":4674,"Ù¾Ø§Ø±":4675,"Ġtitle":4676,"ĠØ¨Ø§Ø²Ø¯ÛĮØ¯":4677,"ĠØŃØ§Ø¬":4678,"ĠØ¨ÙĦÙĪ":4679,"Ø§Ø¯ÙĪØ±":4680,"Ġsvg":4681,"ach":4682,"Ø¨Ø³":4683,"ics":4684,"ĠÙĨÙĩÙħ":4685,"ĠÙĨÚ¯Ø§Ø±ÛĮ":4686,"ĠÛĮÙħ":4687,"ĠØµÙĦÛĮØ¨":4688,"ĠÙĩØ±ÚĨ":4689,"ĠØ°ÙĩÙĨ":4690,"ĠØ·ÛĮÙģ":4691,"ÙĪÛĮÙħ":4692,"gr":4693,"ÙĪÚ©Ø§":4694,"ĠÙħØ®ØªØµ":4695,"ÛĮØ´":4696,"ĠØ³ÙĪØªØ§":4697,"ĠÙħØªØ¹Ø¯Ø¯ÛĮ":4698,"ĠØ§ÙĨØªØ¸Ø§Ø±":4699,"ĠØ¨ÙĦÙĪÚĨ":4700,"ĠÙ¾ÛĮÙĪØ³ØªÙĩ":4701,"ĠØ¢ÙĨØªÛĮ":4702,"ĠØ¨Ø§Ø²ÙĨØ´":4703,"ĠÙħØ¨ØªÙĦØ§":4704,"ĠØ²ÙĨØ¯Ø§ÙĨÛĮ":4705,"ĠØ§Ø±Ú©Ø³ØªØ±":4706,"ĠØ¹Ø·":4707,"ĠÚ¯Ø±Ú¯":4708,"ĠØ®Ø§ÙĨÙĪØ§Ø¯Ú¯ÛĮ":4709,"ĠØµØ¨ØŃ":4710,"Ø§Ø´Ø¯":4711,"ĠØ´Ø§ÛĮØ¯":4712,"ÙĪØ¦ÛĮ":4713,"ĠØ§ÙĪØ±Ø§ÙĤ":4714,"ĠÚ¯ÙĪØ´Øª":4715,"Ú©ÙĦÛĮ":4716,"ĠØ¯Ø§Ø±Ø§ÛĮÛĮ":4717,"Ø§Ú¯Ø§":4718,"ĠØµØ¯Ø±":4719,"ĠØªØ®Ùħ":4720,"ĠØ±Úĺ":4721,"ĠÙħØªÙĪÙĤ":4722,"ĠØ¯Ø±Ú¯ÛĮØ±":4723,"ĠØªØµÙĪÛĮØ±ÛĮ":4724,"ĠØ¯Ø±Ø¨Ø§Ø±":4725,"ĠØ³ÛĮØ§Ø³ØªÙħØ¯Ø§Ø±":4726,"ĠØ³Ø§Ø³Ø§ÙĨÛĮ":4727,"ÑĢ":4728,"Ġit":4729,"se":4730,"ĠÙĩÙĪÛĮØª":4731,"ĠÙĦÛĮÚ©":4732,"ĠÚ©ÛĮÙĨ":4733,"ĠØ³ÛĮÚ¯ÙĨ":4734,"ĠÙħØªÙĪÙĤÙģ":4735,"Ø§Ø±ÛĮÙĪ":4736,"ĠØ³Ø§ÙĦÛĮ":4737,"ĠÙ¾ÛĮÙĨ":4738,"ĠØ³Ø±ÙĪØ¯Ùĩ":4739,"ĠÙ¾Ø±Ø³Ù¾":4740,"ĠØ§ÙĪØ³Øª":4741,"ĠÙħØŃØ¯ÙĪØ¯ÛĮØª":4742,"ĠØ±Ø²ÙħÛĮ":4743,"ĠÙħØ§ÙĦØ²ÛĮ":4744,"Ġart":4745,"ĠØ³ÙĦØ§ÙħØª":4746,"ĠØ´Ø¯Ú¯Ø§ÙĨ":4747,"ĠØ³Ù¾Ø±":4748,"ĠØ¬Ø§Ø³":4749,"ĠØ¸ÙĩÙĪØ±":4750,"Ø´Ú©ÙĦ":4751,"Ù¾ÛĮØ´":4752,"Ðµ":4753,"ĠØ±Ø§ÙĩÛĮ":4754,"ĠØ§ÙĨÛĮÙħÛĮ":4755,"ÙĪÙĦØª":4756,"ĠØ¯ÙĩÛĮ":4757,"cycl":4758,"ĠØ¬Ú©Ø³":4759,"ĠÙģØ±Ø§ÙĪ":4760,"ĠØ¨Ø±Ùĩ":4761,"Ġmin":4762,"ĠØ²ÙĪØ¬":4763,"ĠÙĦØ°":4764,"ĠØ¨Ø±ÙĪÚ©":4765,"ÙģÙĪØ±":4766,"Ġcoun":4767,"ĠÙģØ±Ùĩ":4768,"ĠÚ©ÙħØ¯ÛĮÙĨ":4769,"ĠÙħØ§ÛĮÙĦ":4770,"Ø§ØªÙĪ":4771,"ĠØ²Ø±Øª":4772,"ĠØ¢Ø´ÙĨØ§":4773,"cess":4774,"Ġgo":4775,"ĠÙĨÛĮØª":4776,"ĠÙħÙĪÙĨÛĮ":4777,"ĠØ¨Ø²Ø±Ú¯ØªØ±":4778,"ĠÙĨØ§ÙħØ´":4779,"Ø§ÙĨÚ©Ø§":4780,"ĠÙ¾Ø±ÙĪØ§ÙĨÙĩ":4781,"ĠÙ¾ÛĮØ±Ø§ÙħÙĪÙĨ":4782,"raph":4783,"ĠØ¯ÙĪÚ©":4784,"ĠÙħÛĮÙĪÙĩ":4785,"ØŃØ§ÙĦ":4786,"Ø±Ø§ÛĮ":4787,"ĠÚ©ÛĮØª":4788,"Ø±ÛĮØ§":4789,"ĠÙ¾ÛĮØ´ÛĮÙĨÙĩ":4790,"cyclop":4791,"ĠØ¨Ø§Ø±Ø§ÙĨ":4792,"ĠØ§Ø³ØªÙĨ":4793,"Ġno":4794,"ĠØµÙģÙĪÛĮ":4795,"ĠÚ©ÛĮÙĨÚ¯":4796,"ĠØ§ÛĮØ³":4797,"ĠÙĪØ³Ø§ÛĮÙĦ":4798,"ĠØ¨Ø±ÙĪÙĨ":4799,"ĠÙĨÙħØ§ÛĮÙĨØ¯Ú¯ÛĮ":4800,"Ġencyclop":4801,"ĠÚ©ÙĨÙĨØ¯Ú¯ÛĮ":4802,"ction":4803,"ĠÙĤÙĩÙĪÙĩ":4804,"ĠØªÙĪÙĦÛĮ":4805,"ĠØ¨Ø±Ø®ÙĦØ§Ùģ":4806,"ĠÛĮØ§Ø¯Ú¯ÛĮØ±ÛĮ":4807,"Ø¹ÙĩØ¯":4808,"ĠØ¯Ø®":4809,"ĠØ´Ú©ÙĨ":4810,"ÙĪÙĨØ¯Ø§":4811,"ĠØ±Ø³Ø§ÙĨÛĮ":4812,"ØºØ°ÛĮÙĩ":4813,"Ø§ØªÙĩ":4814,"Ø´Ø§Ø¯":4815,"ĠÚĨÙĩØ§Ø±ÙħÛĮÙĨ":4816,"ĠØ§ÙģØªØ®Ø§Ø±Ø§Øª":4817,"ĠÙħØ°ÙĩØ¨":4818,"ĠØªÙĩØ§":4819,"Ġcomp":4820,"son":4821,"ĠØ¢ÛĮÙĪÙĪØ§":4822,"ĠØ§ÙĤØ§ÙħØª":4823,"ÙĪØ§Ø²":4824,"ĠØ¯ÙĨØ¯Ø§ÙĨ":4825,"ĠÙ¾Ø±ÙĪÛĮØ²":4826,"ĠØ¹ÙħÛĮ":4827,"Ø±ÙĪØ¯":4828,"ĠØŃØ§Ø´ÛĮÙĩ":4829,"ĠØ®ÙĪØ§ÙĩØ§ÙĨ":4830,"ĠØªØ§Ø¬ÛĮÚ©":4831,"ĠØ¬Ø¯ÛĮ":4832,"ĠØ²ÙĨØ¬ÛĮØ±Ùĩ":4833,"ĠÙħØ§ÛĮØ¹":4834,"ĠÙĨØ¸Ø±ÛĮ":4835,"ĠÚĨÚ¯ÙĪÙĨÙĩ":4836,"ÙģØ±Ùĩ":4837,"ĠØªØ®ØµØµÛĮ":4838,"ĠÙħØŃØ§ÙģØ¸Øª":4839,"ĠÙħÚ©ØªØ¨":4840,"ÛĮØ³Ùħ":4841,"ĠØ¯Ø®ØªØ±Ø§ÙĨ":4842,"ĠÙĪÛĮØ¯Ø¦ÙĪ":4843,"ĠØ§Ú©Ø³ÛĮØ¯":4844,"ĠØ¨Ø±ÙĪØ²":4845,"ĠÙĪØ§ØªØ±":4846,"ĠÚ¯Ø§ÙĨÙĩ":4847,"ĠØ§ÛĮÙĨØ¬Ø§":4848,"ĠØ§Ø¹Ø·":4849,"ĠÙħØ¨ÙĦ":4850,"ĠØ¨Ø§Ø²ÛĮÚ¯Ø±ÛĮ":4851,"ĠÙħØŃÙħØ¯Ø¹ÙĦÛĮ":4852,"ĠØ¨ØŃØ±Ø§ÙĨ":4853,"ĠØ§ÙĦÚ©ØªØ±ÙĪÙĨÛĮÚ©ÛĮ":4854,"ĠØ¢ÙģØª":4855,"ĠÙħØ¯ÛĮØªØ±":4856,"ĠØ§Ø¨Ø²":4857,"ĠÙĨØ³Ø¨ØªØ§":4858,"ĠÙĩØ±ÚĨÙĨØ¯":4859,"Ù¾ÙĪ":4860,"ĠÚ©Ø§Ø±Ú©":4861,"ĠÙħØ±Ø¯ÛĮ":4862,"ĠÙħØ¯ÛĮØªØ±Ø§ÙĨÙĩ":4863,"ĠØ¨Ø±ÙĤØ±Ø§Ø±":4864,"ĠØ¯ÙĦÙĩØ±Ùĩ":4865,"Ø§Ø±Ø¯ÛĮ":4866,"ĠÙ¾Ø§ÛĮØ§ÙĨÛĮ":4867,"ĠØ¶Ø±Ø¨Ùĩ":4868,"ØºÙħ":4869,"ĠÚ©ÙĦØ§Ùĩ":4870,"Ø¬ÛĮØ¨":4871,"ÙĪÙħÙĨ":4872,"ĠØ¢ÙĦØ§Ø¨":4873,"ĠØ¨ÙĪØ¯Ø¬Ùĩ":4874,"ĠÙ¾Ø§ÛĮØ¯Ø§Ø±":4875,"ĠØ¢Ø´Ú©Ø§Ø±":4876,"ĠÙħØªØ®Øµ":4877,"ĠÙħØ§Ùħ":4878,"ĠØµØ¹ÙĪØ¯":4879,"ina":4880,"ĠÙħØ±Ø§ØŃÙĦ":4881,"ĠØ´ÙĩØ±ÙĪÙĨØ¯Ø§ÙĨ":4882,"ĠØ¬ÙĦØ³Ùĩ":4883,"ĠÚ©ÙĪØ§ÙĨ":4884,"ĠØ¯Ø±Ø³":4885,"ĠÙħØ³ÛĮØŃÛĮØ§ÙĨ":4886,"ĠØ¬Ø³":4887,"ÙĪØ±Ø¯Ùĩ":4888,"ĠØ±ÙĪØºÙĨ":4889,"ĠØ§Ø¹Ø¯Ø§Ø¯":4890,"ĠØ§Ø±ØªÙĤ":4891,"ĠØ±ÙĩØ§":4892,"Ø¹ÙĩØ¯Ùĩ":4893,"ĠÙ¾Ø§Ø±Ø³ÛĮ":4894,"ĠØªØµÙĪØ±":4895,"ĠØ±Ø§Ø³":4896,"ĠØ°Ø±Ø§Øª":4897,"ĠÙ¾Ø§Ø±ÙĦÙħØ§ÙĨ":4898,"ĠÚ¯Ø±Ø§ÛĮ":4899,"ĠØ§Ø¹ØªØ¨Ø§Ø±":4900,"ĠÙĦÙĩØ³ØªØ§ÙĨÛĮ":4901,"ĠØ®Ø±ÙĪØ¬":4902,"Ġir":4903,"ĠÚĺÙĨØª":4904,"ĠØ§Ø¹ØªØ±Ø§Ø¶Ø§Øª":4905,"ĠØªØ¨Ø¹":4906,"ĠØ§Ø®ØªØ±Ø§Ø¹":4907,"ĠØ®ÙĪØ¯Ø±":4908,"ĠØ§Ø¨ØªØ¯Ø§ÛĮÛĮ":4909,"ĠÙĨÛĮÙĪØ²ÛĮÙĦÙĨØ¯":4910,"ĠÙĨÙĪÛĮØ³Ø¯":4911,"ĠÚ©Ø§Ø²":4912,"ĠØ§Ø³ØªØ¯ÙĦØ§ÙĦ":4913,"ĠØ³ÛĮÚ¯ÙĨØ§ÙĦ":4914,"ĠÙħØªØ®ØµØµ":4915,"ick":4916,"ĠØ§ÙĦÙħÙĦÙĦ":4917,"ĠØ±ÙĪØ³ØªØ§ÙĩØ§":4918,"ĠØªØºØ°ÛĮÙĩ":4919,"ĠÙĨÙĪÚ©":4920,"ĠÚ©ÙĨØ³Ø±Øª":4921,"ĠÙĤØ±Ùĩ":4922,"Ø¨Ø§ÛĮ":4923,"ĠÙ¾Ø±Ø³Ù¾ÙĪÙĦÛĮØ³":4924,"ĠØ´Ø±ÛĮ":4925,"ai":4926,"ĠÙĤØ¨ÙĦØ§":4927,"Ù¾Ø³":4928,"ĠØ¢Ø³ÛĮØ§ÛĮ":4929,"ĠÙĪØ¬Ùĩ":4930,"Ġser":4931,"amp":4932,"Ġfree":4933,"ĠØ¹Ø¨Ø§Ø³ÛĮ":4934,"ĠØ¬ÙģØª":4935,"ĠØŃØ´":4936,"Ø§ÙħØ¹":4937,"ĠØ¨ÙĦÚ©":4938,"ÛĮØ±Ø§":4939,"Ø·ÛĮÙĦ":4940,"Ø§ÛĮÙħ":4941,"ĠØ¯ÙĦØ§ÛĮÙĦ":4942,"ĠÙħØ§ÙĦÛĮØ§Øª":4943,"ĠØ¯Ø§Ø±ÛĮÙĪØ´":4944,"ĠØŃÙħØ§Ùħ":4945,"Ø´ÙĨØ§Ø³Ø§ÙĨ":4946,"Ú¯Ø²Ø§Ø±ÛĮ":4947,"Ú©ØªÙĪØ±":4948,"ĠØµÙĦÛĮØ¨ÛĮ":4949,"ĠØ¨ÛĮØ³":4950,"ĠØ¢Ø±Ø§ÛĮÙĩ":4951,"ĠÚ©Ø§Ù¾ÛĮØª":4952,"Ø§ÙĩØ±":4953,"ĠÛĮÙĪØ³Ùģ":4954,"ĠØ¯ÛĮÙ¾ÙĦÙħØ§Øª":4955,"ĠØ¬Ø¹ÙģØ±":4956,"ĠÙģØ¶Ø§":4957,"ĠÛĮØ§ÙģØªÙĨ":4958,"ĠÙ¾Ø§Ø´":4959,"Ø§Ø³ÛĮÙĪÙĨ":4960,"ĠØ§Ø®ÙĦØ§ÙĤÛĮ":4961,"ĠØªÛĮØ±Ø§ÙĨØ¯Ø§Ø²ÛĮ":4962,"ĠÙħÙĪØ²ÛĮÚ©Ø§ÙĦ":4963,"Ð½":4964,"ĠØ§ÙĨÙĤÙĦØ§Ø¨ÛĮ":4965,"ium":4966,"han":4967,"ÙĪØ¢":4968,"ĠØ³Ø±Ú©ÙĪØ¨":4969,"ĠÙĩÙĪØ§Ú¯Ø±Ø¯":4970,"ĠÚ©Ø§Ø±Ø¢ÙģØ±ÛĮÙĨØ§ÙĨ":4971,"ĠØ§ÙĦØ¯":4972,"ĠÙħÙĩØ§Ø¬Ùħ":4973,"Ø±ÛĮØŃ":4974,"ÙħÛĮØ§ÙĨÙĩ":4975,"ĠÙĪØ³Ø·":4976,"Ø·Ø¨ÛĮ":4977,"Ø§ÙĦØ§":4978,"ĠÙ¾ÛĮØ§ÙĨÙĪ":4979,"ĠØ³ÛĮØ³ØªØ§ÙĨ":4980,"ĠÙĨÙħØ§ÛĮÛĮ":4981,"Ã¡":4982,"ĠØ¨ØºØ¯Ø§Ø¯":4983,"ĠØªÙħØ¯ÙĨ":4984,"ĠØ§ÙĨÛĮÙħÛĮØ´ÙĨ":4985,"Ġqu":4986,"ĠÙĩØ§ÙĦÛĮ":4987,"ĠÚ©Ø§Ø±ÙĪØ§ÙĨ":4988,"ĠØ§Ø±Ø§":4989,"Ø²ÙĦÛĮ":4990,"ĠÙģØ±Ø§ÙĪØ§ÙĨÛĮ":4991,"hn":4992,"ĠØ¬ÙĪØ±Ø¬ÛĮØ§":4993,"ĠØºÛĮØ±Ùĩ":4994,"ÙĦØ§Ø³":4995,"ĠØªÙĪÛĮ":4996,"ĠÙ¾ÚĺÙĪÙĩØ´ÛĮ":4997,"ĠÙĥ":4998,"ĠÙħØ®Ø§Ø·":4999,"ÙĢ":5000,"ĠØ±ÚĺÛĮÙħ":5001,"ĠØ®Ø§ÙĪØ±ÙħÛĮØ§ÙĨÙĩ":5002,"ĠÙĨØŃÙĪÙĩ":5003,"Ø¨Ø§ÛĮÛĮ":5004,"ĠØ²ÛĮÙĨ":5005,"ĠÙĨÙĪØ¨ÙĦ":5006,"ĠØ¨ÙĩØ±Ø§Ùħ":5007,"ĠÙĤØ³Ùħ":5008,"ĠØ§ÙĨÙģ":5009,"ĠÚ©ØªØ§Ø¨ÛĮ":5010,"ost":5011,"ÙĨØ¯ÙĩØ§ÛĮ":5012,"ĠÚ¯Ø±Ø¯ÛĮØ¯Ùĩ":5013,"ĠÙħÙĩÙħØ§ÙĨ":5014,"ĠÙħØ³ÛĮØŃÛĮØª":5015,"Ø¹ÛĮØ§ÙĨ":5016,"ĠØ³Ø§ÛĮÙĩ":5017,"ĠØ¢ÙĦØ§Ø¨Ø§ÙħØ§":5018,"ĠØ¨ØªÙĪØ§ÙĨØ¯":5019,"ĠØ¹ÛĮØ³ÛĮ":5020,"ĠØ·ÙĦØ§ÛĮ":5021,"ĠØ¬Ú©Ø³ÙĪÙĨ":5022,"ĠØŃÛĮÙĪØ§ÙĨØ§Øª":5023,"ĠØ¢ÙĪØ±Ø¯ÙĨ":5024,"ĠØ²Ø§ÙĪÛĮÙĩ":5025,"ĠØ¶Ø¹ÛĮÙģ":5026,"ĠØ¨Ø±Ø¹ÙĩØ¯Ùĩ":5027,"ĠÙĨØ¹":5028,"ÙĪÙĦÙģ":5029,"ĠØ¹ÙĩØ¯":5030,"ĠÚ¯Ø±Ø§ÛĮØ´":5031,"olog":5032,"Ġwin":5033,"Ġoldid":5034,"ĠØ®ÙĪØ±Ø¯Ùĩ":5035,"ĠØ§ÙĨÚ¯ÛĮØ²":5036,"Ø¦Ùĩ":5037,"ĠÙħÙĨØ¹":5038,"ĠØ¹ÙĨØµØ±":5039,"ĠÙħØªÙĩÙħ":5040,"ĠØªÚ©ÙħÛĮÙĦ":5041,"Ø®ÙĦ":5042,"ĠÚ©ØªÛĮ":5043,"one":5044,"ĠÙĪØ§ÙĤØ¹ÛĮØª":5045,"ĠØ²ÛĮØ³ØªÛĮ":5046,"ĠØ±ÙĪÛĮÚ©":5047,"ĠØ¨Ø²":5048,"ata":5049,"ĠÙ¾Ø°ÛĮØ±ÙģØªÙĩ":5050,"ĠØ¶ÙħÙĨ":5051,"ĠØ®Ø§ÙĦÛĮ":5052,"ÛĮÙĪ":5053,"ĠÚ©Ø±ÛĮÙħ":5054,"ĠÙħØŃÙħØ¯ÛĮ":5055,"ĠÙģÙĪÙĨ":5056,"Ġoff":5057,"ĠÙĩÙħÙĪØ§Ø±Ùĩ":5058,"ĠÙĤØ¨ÛĮÙĦÙĩ":5059,"ĠÙ¾Ø§Ø±Ø§Ùħ":5060,"Ø§ÙĪØ²":5061,"Ø¨ÙĪØ±Ø¯":5062,"ĠØ²Ø±Ùĩ":5063,"Ø§ÛĮØ²ÛĮ":5064,"Ú¯Ø±Ø§Ø¯":5065,"ĠÚ©ÙĪÛĮØª":5066,"ĠØªØ§ÛĮÙĦÙĨØ¯":5067,"ĠÙ¾Ø±Ø¯Ø§Ø²Ø´":5068,"ĠÙħØ°Ø§Ú©":5069,"ĠÙħØ·Ø¨ÙĪ":5070,"ĠÚ©Ø§Ø±Ú©ÙĨØ§ÙĨ":5071,"ĠÙĨÛĮØ±ÙĪÚ¯Ø§Ùĩ":5072,"ĠØªÙħØ±":5073,"ĠØ³ÙĦÛĮÙħØ§ÙĨ":5074,"Ø²ÛĮÙħ":5075,"ĠÙ¾Ø°ÛĮØ±ÛĮ":5076,"ÙĪÛĮÙĤ":5077,"Ġper":5078,"af":5079,"ĠØ¢Ø²ÙħÙĪÙĨ":5080,"ĠÙ¾Ø±Ø¯Ø§Ø®ØªÙĩ":5081,"ĠØ¬ÙĪØ§ÛĮØ²ÛĮ":5082,"uth":5083,"ĠÚ©Ø§ÙĪØ´":5084,"ĠØ¬Ø²Ø¦ÛĮØ§Øª":5085,"ÛĮÙĨÚ¯ØªÙĪÙĨ":5086,"ĠØ§Ø«Ø¨Ø§Øª":5087,"ĠÙĪÛĮØ³Ú©":5088,"ĠØºÛĮØ±Ùħ":5089,"ĠØ¯Ø±Ø§Ø²":5090,"ĠÙ¾Ø±Ø¯Ùĩ":5091,"ĠØ§ÙĨØªÙĤØ§Ùħ":5092,"ĠÙ¾Ø°ÛĮØ±Ø´":5093,"ĠÚ©ÙĦÛĮÙĩ":5094,"Ġcontr":5095,"ĠÙħØ¹ÙĨ":5096,"ĠØ§ÙģØ³Ø±Ø§ÙĨ":5097,"ĠÙĨØ¯Ø§Ø´ØªÙĩ":5098,"Ù¾Ø°ÛĮØ±":5099,"ÙĪÚ©ÙĪ":5100,"ĠÙĦÙĤØ¨":5101,"Ø¦ÙĪØ³":5102,"ĠÙĨÙħØ§ÛĮØ´ÛĮ":5103,"ĠÙĨØ§Ú©":5104,"Ø¯Ø±ÛĮ":5105,"Ø§Ø¹":5106,"ock":5107,"ĠØ¹ÙĤÛĮ":5108,"ĠØŃÛĮÙĨ":5109,"ĠØ³ÙĪØ±Ùĩ":5110,"ĠÙĨØ§Ø´Ø±":5111,"ĠØ¨Ø§Ø±Ø¯":5112,"ĠØ¯Ø§Øº":5113,"Ø¦Ùħ":5114,"ÙĦØ§Ú©":5115,"ĠÙ¾ÙĨÙĩØ§ÙĨ":5116,"ĠÙħØ¯Ø§Ø±Ø³":5117,"ĠØ¹Ø§Ø´ÙĤØ§ÙĨÙĩ":5118,"ĠÙĩØ§Ùħ":5119,"pr":5120,"ĠÚ©ÙĪÚ©":5121,"ĠÙħØ±Ø§ÙĤ":5122,"Ø´ÛĮØ¯Ùĩ":5123,"ĠÙĨØ®ÙĪ":5124,"ØŃÙĦØ§ÙĦ":5125,"ĠØªÛĮÙĦ":5126,"ĠØ§Ø¨ØªØ¯Ø§ÛĮ":5127,"our":5128,"ĠØªÙģÙĨÚ¯":5129,"ĠØ¯Ø§Ú©":5130,"ĠØŃØ±Ú©":5131,"ĠØµØ±Ùģ":5132,"ĠÙ¾ÛĮØ§ÙħØ¨Ø±":5133,"ĠØ¯Ø§ÛĮØ±Ùĩ":5134,"ĠÙħØ¹Ø±Ø¶":5135,"ĠÚ©ÙħÙ¾Ø§ÙĨÛĮ":5136,"Ú©Ø§Ø±Ø§ÙĨ":5137,"ĠÙ¾ØªØ±":5138,"ĠÚ¯ÙĪØª":5139,"ĠØ§ÙĨØªÙĩØ§ÛĮ":5140,"ÙĪØ¯Ø±":5141,"ĠØ®Ø§Ø·Ø±Ø§Øª":5142,"ĠÚĨØ§Ùĩ":5143,"ix":5144,"ĠÙĦÙħ":5145,"ĠØ§ÛĮØ±ÙĪØ§ÙĨ":5146,"ĠÙħØµØ·ÙģÛĮ":5147,"Ñģ":5148,"ĠØµØ§ÙħØª":5149,"ĠØªÙĪÙĦÛĮØ¯ÛĮ":5150,"ÙĦÛĮØ§ÙĨ":5151,"ØµÛĮÙĩ":5152,"ĠØ¬Ø§ÙĨØ¨ÛĮ":5153,"ĠØ±Ø¯ÛĮÙģ":5154,"ĠÙĪÙĨØ²":5155,"ÙĨØ§Ú©":5156,"ĠØ§Ø³ØªØ§ÙĨØ¨ÙĪÙĦ":5157,"ĠØ³Ø®ØªÛĮ":5158,"ĠØªØ±Ø¨ÛĮØª":5159,"ĠÙĪÙĪ":5160,"ĠÙĩØ®":5161,"ĠÙħØ±Ø¯ÙħÛĮ":5162,"ash":5163,"ĠØ¬Ø²ÙĪ":5164,"ĠØµØ¯Ø§Ù¾ÛĮØ´":5165,"Ø´ÛĮØ§ÙĨ":5166,"iss":5167,"Ø¨ÙĦØ§":5168,"ĠØ¨Ø§Ú©Ø³":5169,"ĠÙĩÙĪØ§Ù¾ÛĮÙħØ§ÛĮ":5170,"ĠØ¢Ø´Ù¾Ø²ÛĮ":5171,"ĠÙĨØµØ±":5172,"ĠØ¨Ø§Ú©ØªØ±ÛĮ":5173,"ĠÙħÙĪÙĨÛĮØ®":5174,"ĠØ¢Ø¯Ø§Ùħ":5175,"ĠØªÙĪØµÛĮÙĩ":5176,"ĠÚ©Ø±ÙĪÙħ":5177,"ĠÚĨÙĦ":5178,"ĠØ®ÙĪØ§Øµ":5179,"ĠØ¨Ú©Ø§Ø±":5180,"ĠÙĦÛĮÚ¯Ø§ÛĮ":5181,"ĠÚ¯ÙĦØ¯ÙĨ":5182,"ĠØ³ÙĪØ§ÙĨ":5183,"ĠÙħØªØ´Ú©ÙĦ":5184,"ibut":5185,"ĠØ´Ø§ÙĩÙĨØ´":5186,"ĠÙĨÙĪÛĮÙĨ":5187,"ĠÙĨÛĮØ´Ø§Ø¨":5188,"ĠØ®Ø¨Ø±ÛĮ":5189,"ĠÙĩÙĪØ§ÙĨ":5190,"ĠÙĩÛĮØª":5191,"ĠÙħØ±ØªØ¶ÛĮ":5192,"ĠØ³Ø§Ø³Ø§ÙĨÛĮØ§ÙĨ":5193,"ĠÚ©ÙĪÛĮ":5194,"ĠÙħØªØ§ÙĦ":5195,"ĠØ§Ø³ÙħÛĮØª":5196,"ĠØªÛĮØª":5197,"ĠØ³ØªØ§Ø¯":5198,"ÙħØ±Ø¨ÛĮ":5199,"ĠØ±Ø§Ø¯ÛĮÙĪÛĮÛĮ":5200,"ÙģØ´":5201,"ĠØ±ÛĮÙĪ":5202,"ĠÙģØ±Ø§ÙĪØ§ÙĨ":5203,"ĠØ§ÙĨØŃÙĦØ§ÙĦ":5204,"ĠØªØ¬Ø¯ÛĮØ¯":5205,"ĠÙĤÙĦØ¨ÛĮ":5206,"Ġencyclopedia":5207,"ĠÙ¾ÛĮØ´Ø±ÙģØªÙĩ":5208,"ult":5209,"ĠØ¨Ø®ØªÛĮØ§Ø±ÛĮ":5210,"ĠÙĤÙĦÙĩ":5211,"ĠØ±ÙĪØª":5212,"ĠØ¨Ø§Ø±ÛĮ":5213,"ĠØ³Ø±ÙħØ±Ø¨ÛĮ":5214,"Ġworld":5215,"ÛĮØ§Ø¡":5216,"ĠØ¬ÙĨØ¨Ùĩ":5217,"ĠÙĨÙĪØ§Ø²ÙĨØ¯Ùĩ":5218,"ĠØŃØ³ÛĮÙĨÛĮ":5219,"iel":5220,"ĠØ´ØºÙĦ":5221,"ĠÙĪØ³ÙģÛĮØ¯":5222,"ĠØªØ¬Ø±Ø¨ÛĮ":5223,"ĠÙħØ¹ÙĦ":5224,"ĠØ®ÙĪØ§ÙĨØ¯ÙĨ":5225,"ĠØ¨Ø²Ø±Ú¯Ø±":5226,"Ø®ÙĪØ§Ùĩ":5227,"ĠÙħØ§Ø¬Ø±Ø§Ø¬":5228,"ĠÙħØŃØªÙĪ":5229,"ĠØ§Ø³ØªÛĮÙĪÙĨ":5230,"ĠÙĩÛĮØ±":5231,"ĠØ¨Ø§Ø²Ø±Ú¯Ø§ÙĨÛĮ":5232,"ĠØ¨ÙĩØ´Øª":5233,"ĠÙĤØ²Ø§ÙĤ":5234,"ĠØ±Ø¤":5235,"ĠØ¨ÙĨØ§ÛĮ":5236,"Ġdo":5237,"ĠØ²ÙĩØ±":5238,"ĠØ§ÙĤÙĪØ§Ùħ":5239,"ĠØ¯ÛĮÙĦ":5240,"ĠØ²ÙĨØ¯Ø§ÙĨÛĮØ§ÙĨ":5241,"ĠÙĩØ§Ø´ÙħÛĮ":5242,"Ġag":5243,"uk":5244,"ĠØ¨ÙĪÛĮ":5245,"ĠÚ©ÙħØ§ÙĨ":5246,"Ø¨ÙĪØ¯Ùĩ":5247,"ĠØ¢ÙħØ¯ÙĨ":5248,"Ø§ÙħØ¯":5249,"ĠØ¦ÛĮ":5250,"ĠØªØ±ÙĪØ±":5251,"ĠØªØ¯Ø±ÛĮ":5252,"ĠÙĨÚ¯Ø±Ø§ÙĨÛĮ":5253,"ĠØªØ§ÙĨ":5254,"ĠÙħØ¹Ø¨Ø¯":5255,"ĠÙĩØ®Ø§ÙħÙĨ":5256,"ĠØ§ÙģØªØªØ§ØŃ":5257,"Ø¯ÛĮÙĩ":5258,"ĠÙĪØ§Ø³Ø·Ùĩ":5259,"Ġhist":5260,"Ø§Ø¯ÛĮØ±":5261,"Ø±Ø¯ÛĮ":5262,"ĠØ§Ø²Ø¨Ú©":5263,"ÙĪØ±ÛĮØ§ÙĨ":5264,"ĠØ¯ÙħÙĪÚ©Ø±Ø§ØªÛĮÚ©":5265,"ĠÙĤÙĨØ§Øª":5266,"Ġsm":5267,"ĠØ¹Ø§Ø¯ÛĮ":5268,"ĠØ¨ØªÙĪØ§ÙĨ":5269,"ĠØŃØ§Ø¬ÛĮ":5270,"ĠØ¯ÛĮÙĨØ§Ùħ":5271,"ÙĨØ§Ø¨":5272,"ÙĤÛĮÙĤÛĮ":5273,"ĠØŃØ¨ÛĮ":5274,"Ø§ÙģÛĮ":5275,"Ġsch":5276,"ĠÙĦÛĮÙĪØ±":5277,"ĠØ§ÛĮØ±ÙĦÙĨØ¯ÛĮ":5278,"ĠÙ¾ÛĮØ±ÙĪØ²":5279,"ĠØ¨Ø±Ú¯Ø´Øª":5280,"Ú¯ÙĪØ¦Ùĩ":5281,"ĠØ«ÙħØ±":5282,"ĠÚ©ÙĦÛĮØ³Ø§":5283,"ĠÙĨÙħØ§ÛĮÙĨØ¯":5284,"Ġres":5285,"ĠÙħØ§ÙĩÙĪØ§Ø±Ùĩ":5286,"ĠÙħØ±Ø¯ÙħØ§ÙĨ":5287,"ĠØ³Ù¾Ø§Ø±ÛĮ":5288,"Ġgu":5289,"ĠÙħÙĪÙĤØª":5290,"ØªØ§ÛĮ":5291,"ĠÙħØªØ±Ø¬Ùħ":5292,"ĠÚ¯Ø§Ø±":5293,"ÙĪØ¯ÙĨ":5294,"ĠØ§ÙħÚ©Ø§ÙĨØ§Øª":5295,"ĠØ±Ø¶ÙĪÛĮ":5296,"Ø§ÛĮØ§Øª":5297,"Ú©ÙĨÙĨØ¯Ú¯Ø§ÙĨ":5298,"Ø¨Ø±ÛĮØ¬":5299,"ĠØªØ§Øª":5300,"ĠÙħØ¬ÙĪØ²":5301,"ĠÙģØ¬Ø±":5302,"ĠØ§Ø³ØªÙĪØ¯ÛĮÙĪ":5303,"ĠÙħÚ¯":5304,"ĠØªÙĪØ¶ÛĮØŃØ§Øª":5305,"ĠØªØµØ§Ø¯ÙģÛĮ":5306,"ĠÙĪØ§Øª":5307,"ĠÛĮÙĪÙĨÛĮÙĪØ±":5308,"ĠÚ¯Ø§Ø±Ø¯":5309,"ĠØ´ÙħØ´ÛĮØ±Ø¨":5310,"ĠØ¹Ø±Ùģ":5311,"ĠØªÙĪØ¯Ùĩ":5312,"ĠØ§ÛĮÙĨØªØ±ÙĨØªÛĮ":5313,"ÙĪÙĨÛĮØ§":5314,"ĠØŃÙĪØ§Ø¯Ø«":5315,"ank":5316,"ĠÙģÛĮÙĦÛĮÙ¾ÛĮÙĨ":5317,"ĠØ¯Ú¯Ø±":5318,"ĠÙĦØ¦ÙĪÙĨ":5319,"ĠÙ¾Ø§Øª":5320,"Ġuniversity":5321,"Ø§ÙĨÛĮÙħ":5322,"ĠÚ©Ø´Ø¯":5323,"ĠØ§Ø±ÙĪÚ¯ÙĪØ¦Ùĩ":5324,"Ú¯Ø±Ø§ÛĮÛĮ":5325,"ØªÛĮÙĪ":5326,"ĠÙĪÛĮØªÙĨØ§Ùħ":5327,"ĠÙĨÙĪØ²Ø¯ÙĩÙħ":5328,"ition":5329,"ĠØ¨ÙĩÛĮÙĨÙĩ":5330,"ĠØ¢ÛĮÙĨØ¯":5331,"ĠÙħØ¬ÛĮØ¯":5332,"ĠØ¢Ø¨Ø§Ø¯ÛĮ":5333,"ĠÙħØ¨ÙĨÛĮ":5334,"ĠØ§ÛĮÙĨØ¯ÛĮØ§ÙĨØ§":5335,"act":5336,"ĠÚ¯ÛĮÙħ":5337,"ĠØ¨ÛĮØ§ÙĨÛĮÙĩ":5338,"ĠÙĨÙĪØ¬ÙĪØ§ÙĨØ§ÙĨ":5339,"ĠØ§Ø®ÙĦØ§ÙĤ":5340,"ĠÙĨØªÙĪØ§ÙĨ":5341,"Ø¦ÙĪÙĦ":5342,"ĠÚ©Ø§ØºØ°":5343,"ĠÙĨØ§ÙħÚ¯Ø°Ø§Ø±ÛĮ":5344,"ale":5345,"ĠÙħØ§ÙĦÚ©ÛĮØª":5346,"ĠÚ©Ø§ÙĨÙĪÙĨ":5347,"ĠÙģØ§ÛĮÙĦ":5348,"ĠÚ¯ÙĨØ¨Ø¯":5349,"ĠÙĤØ¨ÙĪÙĦ":5350,"ĠØ§Ø¬Ø¨Ø§Ø±ÛĮ":5351,"ĠÙģØ±Ø³ØªØ§Ø¯Ùĩ":5352,"ĠØ¨Ø²Ø±Ú¯Ø±Ø§Ùĩ":5353,"Ø§ÙĦÛĮØ³Ùħ":5354,"ĠØªØ±Ø³":5355,"urn":5356,"ĠÙ¾ÙĨØ¬ÙħÛĮÙĨ":5357,"Ú©ÙĪØ³":5358,"Ø·Ø¹":5359,"ĠÚ¯Ø°Ø§Ø±Ø¯":5360,"ĠÚ¯ÙĦÙĪØ¨":5361,"Ø¹Ø¨":5362,"ĠÙĪÙĤÙĪØ¹":5363,"ĠØ¬ÙĪØ¯":5364,"iew":5365,"ĠÚ©ÙĪØ¨Ø§":5366,"Ġfil":5367,"ĠØªØ®ÙħÛĮÙĨ":5368,"ĠÚ¯Ø±Ø§ÛĮØ§ÙĨ":5369,"ĠØ®ÙĪØ§ÙĩØ±Ø®":5370,"ma":5371,"Ø³ØªØ§ÙĨÙĩ":5372,"ÙĪÙģÛĮ":5373,"ĠØ¬ÙħØ¹Ùĩ":5374,"Ø§Ø·Ø¹":5375,"ĠÙ¾ÙĨØ¬Ø§Ùĩ":5376,"Ú¯Ø±Ø§":5377,"ĠÙĤØ§Ø¦":5378,"ÖĢ":5379,"ĠØ§Ø¨Ø¹":5380,"Ø§Ø¨ÙĦÙĩ":5381,"ĠÙħØªÙħØ§ÛĮ":5382,"ĠØŃØ§ÙħÛĮ":5383,"ĠØªÙĪÙĨØ³":5384,"Ø³ÛĮØ³Ú©ÙĪ":5385,"ĠÚ©ÙĪØªØ§ÙĩÛĮ":5386,"ĠØ§ÙħØ§ÙĨ":5387,"ĠÚ¯Ø±Ø¨Ùĩ":5388,"ĠØ±ÙĪØ¨Ø±ÙĪ":5389,"ĠÙħÙĨÙĪÚĨ":5390,"ĠÙĨÙĩØ§Ø¯ÙĩØ§ÛĮ":5391,"ĠØ¨Ø±Ø³":5392,"ĠØ¨ÙĤÛĮÙĩ":5393,"Ø±ÛĮØ²":5394,"ĠÙħØ±ÛĮÙħ":5395,"Ø³ØªÛĮÚ©":5396,"ØµØ§Ø±":5397,"ĠØ´ÙĨØ¨Ùĩ":5398,"ĠØ¨Ø·":5399,"ĠØ¬ÙĪØ§ÙħØ¹":5400,"ĠÙĪØŃØ´ÛĮ":5401,"ĠØ§ÙģØªØ¯":5402,"ĠÙħØ³Ú©ÙĨ":5403,"ĠØ§ÙģØªØ®Ø§Ø±ÛĮ":5404,"ÙĪÙĨØ¯ÛĮ":5405,"ĠÙħØ±Ø§ÙĤØ¨Øª":5406,"ĠÙħØ¹Ø¯ÙĨ":5407,"Ä±":5408,"ĠÚĨØ±Ø®Ùĩ":5409,"ĠÙħÙĩØ§Ø±Øª":5410,"Ġarch":5411,"ĠØ²ÙĦØ²":5412,"ĠØ¹Ø²ÛĮ":5413,"ĠÙħØªÙħØ±Ú©Ø²":5414,"ork":5415,"ĠØ¨Ø±Ø§Ø¯Ø±Ø´":5416,"ĠÚĺØ±":5417,"ubl":5418,"ĠÙĪÛĮØ±Ø§ÛĮØ´":5419,"ĠÙħÙĨÙĪÚĨÙĩØ±":5420,"ĠÙģØª":5421,"Ġho":5422,"ĠØ¯ÙģØ§Ø¹ÛĮ":5423,"ĠÙ¾Ø§Ø¯Ø´Ø§ÙĩØ§ÙĨ":5424,"ĠÚ©ÙĨÛĮ":5425,"ĠÙ¾Ø²Ø´Ú©Ø§ÙĨ":5426,"ĠØ¨Ø§ÙĦØ§ØªØ±ÛĮÙĨ":5427,"ĠØ§Ø³ØªØ§ÙĨØ¯Ø§Ø±":5428,"ĠØ³Ø·ÙĪØŃ":5429,"ung":5430,"ĠØ¨ÙĩØ§Ø¯Ø§Ø±":5431,"ĠÙĩÙĦÙĨØ¯ÛĮ":5432,"ĠØ®ÙĪØ§ÙĩØ±Ø®ÙĪØ§ÙĨØ¯Ùĩ":5433,"ĠØªØ£ÙĦÛĮÙģ":5434,"ÙħÛĮØ²":5435,"Ø¶Ø§ÙĨ":5436,"ĠÚ©ÙĨØ³ÙĪÙĦ":5437,"Ġaf":5438,"ĠØ¬ÙĦØ§ÙĦ":5439,"ĠØ¢Ú¯ÙĪØ³Øª":5440,"au":5441,"ĠÚ¯ÙĦØ¯":5442,"ĠØ¢ÚĺØ§ÙĨØ³":5443,"ĠØ®Ø¯Ø§ÛĮ":5444,"ĠÙħÙĩÛĮ":5445,"ĠØ¹Ø¯Ø§ÙĦØª":5446,"ĠØªØ¬Ø§ÙĪØ²":5447,"ĠÙ¾Ø³Ø±Ø´":5448,"Ġer":5449,"ĠØ§Ø³ØªÙĪÙĨ":5450,"ĠÙ¾Ø°ÛĮØ±ÙģØª":5451,"Ø§ÙĩØ±Ø§Øª":5452,"Ġgre":5453,"ĠØ¢Ú¯Ø§ÙĩÛĮ":5454,"ĠÚ©Ø§Ø±Ø¨Ø±Ø¯ÙĩØ§ÛĮ":5455,"ĠØ¯Ø§ÙĨØ´ÙĨØ§ÙħÙĩ":5456,"ĠÚ©Ø§ÙĨÛĮ":5457,"ĠØ¨ÛĮØ§":5458,"eg":5459,"ĠÙħÛĮØ²ÙĪØ±ÛĮ":5460,"ĠÙĦÙĪØ±":5461,"ograph":5462,"ĠØ¨ÛĮÙħØ§Ø±Ø§ÙĨ":5463,"ĠÙħØ´Ø®ØµØ§Øª":5464,"Ġwiki":5465,"ĠØ¨Ø§Ø²Ø®":5466,"ĠÙĪØ§ÚĺÚ¯Ø§ÙĨ":5467,"ĠÙħØªØ¹Ø¯Ø¯":5468,"ĠÙħÙĤØ§Ø¨ÙĦÙĩ":5469,"umb":5470,"ĠØ§ÙħØ§ÙħØ²Ø§Ø¯Ùĩ":5471,"ĠØªØ¨Ø¹ÛĮØ¯":5472,"ĠÙģØ±ØµØª":5473,"ĠØ§ÙĨØ¯Ú©ÛĮ":5474,"ØµØ±ÛĮ":5475,"ÚĺÛĮÚ©ÛĮ":5476,"ĠØ¹ÙĦØ§Ø¦Ùħ":5477,"ĠÙħÙĪÙĦÚ©ÙĪÙĦ":5478,"ÙĪÛĮÙĪ":5479,"Ø§ØªØ±ÛĮÙĨ":5480,"ĠØªØŃØ±ÛĮÚ©":5481,"ĠØ±ÛĮØ§Ø¶ÛĮØ§Øª":5482,"ĠØ®Ø¨Ø±Ú¯Ø²Ø§Ø±ÛĮ":5483,"co":5484,"ĠØ¢Ú©Ø³":5485,"ĠØ³ÛĮÚ©":5486,"ĠØ§ØŃØªØ±":5487,"ĠØªØ¦ÙĪØ±ÛĮ":5488,"ÙĪÙĦÙĨ":5489,"ĠØ±ÙĨ":5490,"ĠÙħØ¬Ø±ÛĮ":5491,"Ø¨Ø±Ùĩ":5492,"ĠÚ©ÙħØ§ÙĦ":5493,"Ġiran":5494,"Ø¶Ø¹":5495,"ĠÙħØ§ÙĨØ¹":5496,"ĠÙħÙĤØ§Ø¯ÛĮØ±":5497,"ĠØ²ÙĦØ²ÙĦÙĩ":5498,"ÙĪØ±Ø²":5499,"Ġest":5500,"ĠÚ¯ÙĨØ¯":5501,"ĠØ¨Ø±Ø¯ÙĨ":5502,"ĠÙħÙħÙĨÙĪØ¹":5503,"ĠÙĪÙĪØ¯":5504,"ĠØ®ÙĦØ§Ùģ":5505,"ĠØ§ÙĦØ³ÙĦ":5506,"ĠÙħØ§Ø¬Ø±Ø§Ø¬ÙĪÛĮÛĮ":5507,"ĠØ¨Ø±Ø³Ø¯":5508,"ĠØ³ÙĪØ³ÛĮØ§ÙĦÛĮØ³ØªÛĮ":5509,"ĠØµÙĪØªÛĮ":5510,"ĠÚ¯ÙĪØ´Ùĩ":5511,"ĠØ¬Ø³ØªØ¬ÙĪÛĮ":5512,"ĠØ³ÙĪØ¡":5513,"ĠØ³ÙĨÛĮ":5514,"ĠØªÙĦÙĩ":5515,"Ġii":5516,"ĠØ¨Ø§ÛĮØ±ÙĨ":5517,"ĠØ±ÙĪØ§ÙĨÛĮ":5518,"ĠØ³Ø§ÙĪØª":5519,"ĠÚ©Ø§ÙĨØ²Ø§Ø³":5520,"ĠØ¨Ø§Ø±Ø³ÙĦÙĪÙĨØ§":5521,"Ġdr":5522,"ĠØ®ÙĪØ¯Ùħ":5523,"Ġpol":5524,"ĠØ¬ÙĪØ§Ø¯":5525,"ĠÙħØºÙĨØ§Ø·ÛĮØ³ÛĮ":5526,"ÙħØ§ÙĨÙĩ":5527,"ĠØ¯ÛĮØ¯ÙĨ":5528,"ĠØ§ÙĪØ¯":5529,"ĠÙħØ¨Ø¯":5530,"ĠØ³Ø§ÙĦÙĩØ§ÛĮ":5531,"ĠÙħØ¹Ø¯ÙĨÛĮ":5532,"ĠÚ©Ø´ØªØ§Ø±":5533,"ĠÙħØ¹Øª":5534,"ĠØ±Ø³Ø§ÙĦÙĩ":5535,"ĠØµØŃÛĮØŃ":5536,"ØµÛĮÙĦÛĮ":5537,"ĠÚ©ÙĪÙĩØ³ØªØ§ÙĨÛĮ":5538,"ĠÛĮØ§ÙĨÚ¯":5539,"Ú©ÛĮÙĨ":5540,"ĠÙħÙĨØŃØµØ±":5541,"ÙħÛĮÙĨØ§ÙĨ":5542,"ĠØ¨Ø±Ø§ÙĪÙĨ":5543,"ĠÙ¾Ø§ØªØ±":5544,"ĠØ¬Ø¨Ø±":5545,"ĠØ´ÛĮÙĨ":5546,"ĠÙģÙĦØ³ÙģÛĮ":5547,"ĠÚ©ÙĨÙħ":5548,"ĠÚ©ÙĨÙģ":5549,"ĠÚ©Ø§Ø±Ú¯Ø±":5550,"ĠÙħØ®ÙĦÙĪ":5551,"ĠÙħÛĮØ§ÙĨÛĮ":5552,"ĠÙ¾Ø³Ø±Ø§ÙĨ":5553,"ĠØ´Ø§Ùħ":5554,"ĠÙģØ§ÙĦ":5555,"ĠÛĮÙĪÙĨØ³Ú©ÙĪ":5556,"ĠØ®ÙĪØ¯Ú©Ø§Ø±":5557,"ire":5558,"Ø¯Ø§Ø«":5559,"ĠØ¨ÙĨØ²":5560,"ĠØ¢ÛĮØ±":5561,"ĠØ³Ø§Ø®ØªÙĨ":5562,"ĠØ§ÙĨØ¯ÛĮØ³":5563,"ĠØ¨Ø§Ø¨Ú©":5564,"ĠØªØ¸":5565,"ĠÙħØ±Ø²ÛĮ":5566,"ĠØ§ÙħØªØ¯Ø§Ø¯":5567,"ĠÚ©Ø¨":5568,"ĠØ¢Ø±ØªÙĪØ±":5569,"ĠÚĨØ§ÛĮ":5570,"Ø¯ÙĦ":5571,"Ø§ÙĨØ³ÛĮÙĨ":5572,"ĠØ±ÙĪÙĦ":5573,"ĠØ´ÙħØ³ÛĮ":5574,"Ġdes":5575,"ØªØ§Úĺ":5576,"ĠÙħØ¬Ø§Ø²ÛĮ":5577,"ĠØ§ÛĮÙģØ§":5578,"ĠØ¢Ø±ÛĮØ²":5579,"ert":5580,"ĠÙĨÙĪØ§Ø±":5581,"ĠØ¨Ø±Ø§ÙĨÚ¯ÛĮ":5582,"ĠØ¨ÙĪØ´ÙĩØ±":5583,"Ø§Ø²Ø¯":5584,"ĠØ®ÛĮØ§ÙĦ":5585,"ĠØ§Ø±Ø¯ÙĨ":5586,"ĠØŃØ±Ø§Ø±Øª":5587,"Ø§ÛĮÙģÙĩ":5588,"old":5589,"Ú©Ø±Ø¯Ùĩ":5590,"Ġbi":5591,"ĠÙħÙĨØ·ÙĤ":5592,"ÙĪÙĨÛĮÚ©":5593,"ĠØ³ÙĦØ§Ùħ":5594,"Ú¯ÙģØª":5595,"ĠÚ©Ø±Ø§":5596,"ĠÙĩØ±ÙħØ²":5597,"ĠØ¢ÙĦÙĪÙħ":5598,"Ú©ÙĪÙĩ":5599,"ĠØ³Ù¾Ø±Ø¯Ùĩ":5600,"sk":5601,"ĠÚ©Ø§ÙĨØ¯":5602,"Äģ":5603,"ĠÛĮÙĩÙĪØ¯":5604,"ĠØ¨Ø§ÙĦØº":5605,"ĠØªÙĨØ´":5606,"ĠØ¢ØªÙĦ":5607,"ĠÙħØ¹ØªØ¨Ø±":5608,"ĠØ¨Ø§Ø´Ú¯Ø§ÙĩÛĮ":5609,"ĠÙħÙģÛĮØ¯":5610,"ĠØ³Ø§Ú©ÙĨØ§ÙĨ":5611,"ĠØ´ÙħØ§Ø±ÛĮ":5612,"ĠÚ©ÛĮÙĩ":5613,"Ø§Ø¯Ø´":5614,"ĠØ®ÙĦØ¨Ø§ÙĨ":5615,"ĠÙĤØ§Ø±":5616,"ĠØ¯Ø§Ø±ÙĪÛĮÛĮ":5617,"ĠØ¢ÙĨÙĦØ§ÛĮÙĨ":5618,"ĠØªØŃØ±ÛĮÙħ":5619,"ĠØ§ØŃØ¯Ø§Ø«":5620,"ĠÛĮØ§ÙĨ":5621,"ĠØ·Ø§ÛĮÙģÙĩ":5622,"ØŃØªÛĮ":5623,"ĠØ§ÙģØ³Ø±":5624,"ĠØ§ÙĨØ¹":5625,"ĠØ§Ø³ØªØ®Ø±Ø§Ø¬":5626,"ĠØ§ÙĪÙĦÛĮ":5627,"Ø§ÙĨØ³ÙĪÙĨ":5628,"ĠØ¯ÙĪÛĮ":5629,"ĠÚ¯ÙĦÛĮ":5630,"ĠØ´Ø§Ø±ÙĦ":5631,"ĠØ§Ø±Ø¯ÙĪÚ¯Ø§Ùĩ":5632,"ĠÙħØ¹ÙĦÙħ":5633,"orm":5634,"ĠØ¨Ø§Ø²ÙħÛĮ":5635,"ĠØ¢Ø³Ùģ":5636,"ĠØµÙģØŃØ§Øª":5637,"ĠÙħØ§ÛĮÚ©Ø±ÙĪ":5638,"ĠÙĤØ¯Ø±ØªÙħ":5639,"ĠØªÙħØ±ÛĮÙĨ":5640,"ĠÚ©Ø´ÛĮØ¯":5641,"ĠØ§Ø«Ø±Ø§Øª":5642,"ĠØ¨ÛĮØ±ÙĪÙĨÛĮ":5643,"Ø¯Ø§Ø´ØªÛĮ":5644,"ĠØ§Ø·ÙħÛĮÙĨØ§ÙĨ":5645,"ĠØ§Ø´Ú©Ø§ÙĦ":5646,"ÙĪÙģØ±":5647,"ĠØ¬Ø§Ø¨":5648,"ĠÚĨÙĨÚ¯":5649,"ĠØ¢Ø±ÛĮØ²ÙĪÙĨØ§":5650,"ĠÚ¯Ø±ÙħÛĮ":5651,"ĠØ§Ú©Ø«Ø±ÛĮØª":5652,"ev":5653,"ĠØªØ¹Ø·ÛĮÙĦ":5654,"Ø§ÙĨØ´":5655,"ĠØ§ÙĦÚ©Øª":5656,"ĠÙĨÚ¯Ø§Ø±Ø´":5657,"ĠÙĦÙĪØª":5658,"ĠØ§Ø³Ù¾Ø±":5659,"ĠÚ¯Ø´":5660,"ĠÙħØ¹ÛĮÙĨ":5661,"ĠØ¯Ø§ÙĨØ´ÙħÙĨØ¯":5662,"ĠØ²ÙĪØ¯":5663,"ĠÙĦØºÙĪ":5664,"ĠÙħØ¬Ø¯Ø¯Ø§":5665,"ĠØ®Ø´Ùħ":5666,"ĠÙħØŃØªÙĪØ§ÛĮ":5667,"ĠØ§Ø±ÛĮÚ©":5668,"ĠØªÙĪØ§ÙĨØ³ØªÙĨØ¯":5669,"ĠÙĤÙĦÙħ":5670,"Ġaccess":5671,"ĠÙħØ¶":5672,"ÙĪØ§Ø¯ÙĪØ±":5673,"ĠØ®Ø±ÛĮØ¯Ø§Ø±ÛĮ":5674,"ÙĪÛĮØ¬":5675,"ĠØ§Ø³ÙĦØŃÙĩ":5676,"ĠÙ¾Ø±Ø¯Ø§Ø²ÛĮ":5677,"ĠØ¬ÙĨØ§":5678,"ÙĪØ¦ÙĦØ§":5679,"ĠØ¹Ú©Ø§Ø³ÛĮ":5680,"ĠØ¹ÙħÙĤ":5681,"ĠØ±Ø´Øª":5682,"ĠÙħØªÙĪÙĨ":5683,"Ø³Ø±ÛĮ":5684,"ĠØŃÙĪÙħÙĩ":5685,"ĠØ®ÙĪØ§Ø³ØªØ§Ø±":5686,"ĠØ¨ÙĦÙĪÚĨØ³ØªØ§ÙĨ":5687,"ame":5688,"ĠØµÙĦØ§ØŃ":5689,"ĠØ¨Ø§Ø¨ÙĦ":5690,"ĠØ³ÙĪØ³":5691,"ĠØªØ³Øª":5692,"ĠØ¢Ø²ÙħØ§ÛĮØ´Ú¯Ø§Ùĩ":5693,"ĠØ§Ø¨Ø¹Ø§Ø¯":5694,"Ø§Ø±ÙĪØ³":5695,"ĠØ¢ÙĤØ§":5696,"ĠÙģÙĦÚ©ÛĮ":5697,"ĠØ§Ø¦Øª":5698,"ĠÛĮÚ©Ø³Ø§ÙĨ":5699,"ØµØ§Ø±ÛĮ":5700,"Ġcan":5701,"Ú¯ÙĪÛĮ":5702,"ĠØ§ÛĮØ²Ø¯":5703,"ĠÚ¯ÙĦÙĪÙĦÙĩ":5704,"ĠØ±ÙĪØ²ÛĮ":5705,"ĠØ§ÙĪØ±Ú¯ÙĨ":5706,"ĠÚ©ØªÛĮØ¨Ùĩ":5707,"ĠÙĨÚ¯Ø§Ø±Ùĩ":5708,"ĠÙĤØ§Ø³Ùħ":5709,"ĠØ¯ÙĤØª":5710,"pe":5711,"ĠÙħØ§Ø±ÛĮØ§":5712,"lin":5713,"ĠÙħØ¯ÛĮØ±Ùĩ":5714,"Ġes":5715,"ĠØ¹ÙħÙĪÙħØ§":5716,"ĠØ®Ùħ":5717,"ĠØ§Ø³Ú©ÛĮØª":5718,"ĠÙ¾ÛĮØ±ÙĪØ§ÙĨ":5719,"ĠØ¢ÙĦÙ¾":5720,"ĠÚ©Ø¨Ú©":5721,"ĠØ°ÙĪØ¨":5722,"ĠØ¢Ø³ÙģØ§ÙĦØª":5723,"ign":5724,"ĠØ³ÙģÛĮØ±":5725,"ÛĮØ¨":5726,"ĠÙħØ±ÛĮÙĦÙĨØ¯":5727,"ĠØ³Ø¤":5728,"ÙĪØ±ÙĩØ§":5729,"ĠØ§ÙĩÙĪØ§Ø²":5730,"Ú¯Ø§Ùħ":5731,"ĠØ³Ø§Ø²ÙĨØ¯Ùĩ":5732,"ĠÙħÙĩÛĮØ¬":5733,"ÚĨÛĮÙĨ":5734,"ÙħÛĮØ§ÙĨ":5735,"ĠÚ©ÙĨØªØ§Ú©ÛĮ":5736,"Ú©Ø¨":5737,"ÙħØ¬":5738,"ase":5739,"ĠÚ¯Ø±Ø¯Ø§ÙĨ":5740,"Ã¶":5741,"ĠØ¯ÛĮØ²ÙĨÛĮ":5742,"ĠØ´Ø¨Ø§Ùĩ":5743,"ĠØ§ÙĨÙĤ":5744,"ĠÚ©ÙĩÚ©":5745,"ĠØ¹Ø¯Ùĩ":5746,"ĠØ´ÙģØ§":5747,"ĠØ³ÛĮØ¨":5748,"ĠØ¨ÙĨØ§Ùħ":5749,"ĠØ®ÙĦÛĮÙģÙĩ":5750,"ÙĪÙħÛĮØª":5751,"ĠÚ©ÙħÛĮÚ©":5752,"ÙĪØªØ§ÛĮ":5753,"ĠØ¯Ø§Ø±Ø§ÙĨ":5754,"ÙĪØ¯Ú¯ÛĮ":5755,"ĠÛĮÙĪØªÛĮ":5756,"ĠØ¹ÙħÛĮÙĤ":5757,"ĠÙħÙĩÙĨØ¯Ø³":5758,"ĠØ¨Ø²Ø±Ú¯Ø³Ø§ÙĦ":5759,"ĠÙħØ±ÙĪØ±":5760,"ĠØ³ÙĪØ¦Ø¯ÛĮ":5761,"Ø§ÙĦÛĮØ²":5762,"ĠØ§ØµÙĦØ§ØŃØ§Øª":5763,"ĠØ·ÙĦØ¨":5764,"Ø¢Ø±":5765,"ĠØªØŃÙĪÛĮÙĦ":5766,"ĠØªÙĪØ±ÙĨØªÙĪ":5767,"ĠÙĩÙħØ§ÛĮ":5768,"ĠØ§ÙģØ²Ø§Ø±ÛĮ":5769,"ĠÙĪØ³Ø·ÛĮ":5770,"ĠØªÙħØ§Ø´Ø§":5771,"ĠØ§ÙĨØ¯ÛĮ":5772,"Ø§ÙĨØ³ÛĮÙĦ":5773,"Ø±Ø§Ú©Ùħ":5774,"ĠÙħÙĨØµÙĪØ±":5775,"ĠÚ¯Ø°Ø±Ø§ÙĨØ¯":5776,"ĠØºØ§Ø±":5777,"ĠÙĩÙĨØ¯Ø¨Ø§ÙĦ":5778,"ĠÙĤØ³ÙħØªÛĮ":5779,"ĠÙħØ±ÙĪ":5780,"ĠØ§Ø³ØªÙĤØ¨Ø§ÙĦ":5781,"ĠØ·Ø±ÙģØ¯Ø§Ø±Ø§ÙĨ":5782,"ĠÙħÚ©Ø§ÙĨÛĮÚ©":5783,"Ġgl":5784,"ley":5785,"Ú¯Ø±ÙħÛĮ":5786,"ĠØ¨Ø±Ø¯Ø§Ø±":5787,"ĠØ±Ø¨":5788,"Ġmet":5789,"ĠØ¨Ø§Ú©":5790,"Ø²Ø±Ú¯":5791,"ĠÙħÙĦØ§":5792,"ood":5793,"ĠØ¹ÙĪØ§Ø±":5794,"ĠØ±ÙĨØ¬":5795,"ri":5796,"ĠÙĩØ§Ø¯ÛĮ":5797,"Ġcontribut":5798,"ward":5799,"Ùĥ":5800,"ĠØ§Ø¶":5801,"ĠÙħØŃÙĤÙĤ":5802,"ĠÙĩÙħØ±Ø§ÙĩÛĮ":5803,"Ġiii":5804,"ĠØ¬ÙĦØ¨":5805,"ĠÙĨÛĮØ¬":5806,"ÙĪØªÙĨ":5807,"ĠÚ¯ÙĪÛĮ":5808,"ĠØ§ÙĪÚ©":5809,"ĠÙĩØ§Ø±ÙĪØ§Ø±Ø¯":5810,"ĠÚ©ÙĪØ´":5811,"ÙĨØ¸":5812,"ĠØ§Ø³ØªØ®Ø¯Ø§Ùħ":5813,"ĠØ´ÙĦÛĮÚ©":5814,"ÙĪØ´ÛĮ":5815,"ĠÙĪÛĮØ³Ú©Ø§ÙĨØ³ÛĮÙĨ":5816,"ĠØªØŃÙĤÛĮÙĤØ§ØªÛĮ":5817,"Ø¬Ø§ÙĨÛĮ":5818,"ĠØ¯ÙĪØ³ØªÛĮ":5819,"ĠØ¯Úĺ":5820,"ĠØŃØ±Ø§Ø±ØªÛĮ":5821,"ĠÙĨÙħÚ©":5822,"ĠØ³ÙĤÙģ":5823,"ĠØªØ³ÙĦÛĮÙħ":5824,"Ġpress":5825,"ĠÚ©ÙĨØ§Ø±ÛĮ":5826,"ĠØªÙĨØ³ÛĮ":5827,"ĠØ¶ÙĦ":5828,"ĠØ¶Ø±ÙĪØ±ÛĮ":5829,"ĠØ´Ø±ÛĮÙģ":5830,"ĠÚ©Ø±Ø¯ÛĮ":5831,"ĠÙħØ³ØªØ¹":5832,"ĠÙĨÙħÙĪØ¯ÙĨØ¯":5833,"ĠØ¨Ø±Ú¯Ø±ÙģØªÙĩ":5834,"Ú¯ÛĮÙĦ":5835,"ĠÚ©Ø§ØªØ§ÙĦ":5836,"ĠÙĨØ¨Ø§ÛĮØ¯":5837,"ĠÙģØ±ÙĤÙĩ":5838,"ĠØ¬ÙħØ´ÛĮØ¯":5839,"ĠØ³ÙĪÙ¾":5840,"ĠØ§ÙĨØ¯Ø§Ùħ":5841,"ÙĪØ§Ø±ÛĮ":5842,"ĠÙĨØ§Ùĩ":5843,"ĠÚ¯ÙģØªÚ¯ÙĪ":5844,"ÙģØ§ÙĦ":5845,"les":5846,"ĠÚ©ÙĦÛĮØ³":5847,"ĠÙĨØ§Ø¨ÙĪØ¯":5848,"ĠÙĨÛĮØ¬Ø±ÛĮÙĩ":5849,"ĠÙĤØ¶Ø§ÛĮÛĮ":5850,"ome":5851,"ĠÚ©Ø§Ù¾ÛĮØªØ§ÙĨ":5852,"ĠÙĪØ§ÙĦØª":5853,"ÙĪØ±ÛĮØ§":5854,"ĠÙĩÙĪØ´ÙħÙĨØ¯":5855,"ee":5856,"ĠÙħØ§ÙĨÛĮ":5857,"ĠÙħØ®Ø§Ø¨":5858,"ÙĨÙĪØ³":5859,"Ø¨Ø±Ø²":5860,"Ġvol":5861,"ĠÚ©Ø¨ÛĮØ±":5862,"ĠØ§Ø³Ø¯":5863,"ĠØ§Ø®Ø±Ø§Ø¬":5864,"ĠÙĤÙĦÙħØ±ÙĪÙĩØ§ÛĮ":5865,"ĠÙĩÙħØ³ÙĪØ¯":5866,"ĠÙħØ¬Ø§Ø²Ø§Øª":5867,"ĠÚ©ÙĪÚĨÚ©ØªØ±":5868,"ĠØµØ¯Ø§Ù¾ÛĮØ´Ú¯Ø§ÙĨ":5869,"Ø´ÙĤ":5870,"ĠØªØ±ÙĪ":5871,"ĠÙĤÙģÙĤ":5872,"ĠØ±Ø§ØŃØªÛĮ":5873,"ĠÙģØ±Ø§Ø®":5874,"Ø§ÙĦØ¹":5875,"bo":5876,"Ú©Ø³ÛĮ":5877,"ØŃØ§ÙĨ":5878,"ĠÚ¯Ø§ÙĪ":5879,"ĠÙħØ®ØªØµØ§Øª":5880,"ĠÙĪÙģ":5881,"ĠØ´Ø§ÙĩÙĨØ§ÙħÙĩ":5882,"ÚĨÙĪØ¨":5883,"ĠÙ¾ÙĦØ§Ø³":5884,"Ġpo":5885,"ĠØ§ØŃØªØ±Ø§Ùħ":5886,"orn":5887,"ĠÙħÛĮÙĨÛĮ":5888,"ĠÙĩÙģ":5889,"ĠÙħÙĤØ·Ø¹":5890,"ĠÚĨØ§ÙĦØ´":5891,"ĠÙħØµØ¯":5892,"ÙĨØ´ÛĮÙĨ":5893,"ĠØ¹ÙħÙĦÛĮØ§ØªÛĮ":5894,"ÙĪØ±Ùģ":5895,"Ø³Ú©ÙĪÙ¾":5896,"ĠØ¢Ø¯Ø±":5897,"ĠØ±Ø³ÙħÛĮØª":5898,"ĠØ¬Ø¯Ø§ÛĮÛĮ":5899,"ĠØ¬Ø²Ø¡":5900,"ĠØ§Ø±ØªØ¨Ø§Ø·ÛĮ":5901,"ĠÙħÙĤØ¯ÙħÙĩ":5902,"ĠØ§Úĺ":5903,"ĠÙģØ±Ø¢":5904,"ĠØ´Ø·Ø±":5905,"ĠØªÙħØ§ÛĮÙĦ":5906,"ĠØ¬Ø¯Ø§Ú¯Ø§ÙĨÙĩ":5907,"Ġmat":5908,"ĠÚ©ÙĪÚĨÚ©ÛĮ":5909,"ĠÙħØ£ÙħÙĪØ±":5910,"ĠØ§Ø³ØªØŃ":5911,"ĠÚ¯ÙĪÚ¯ÙĦ":5912,"Ġall":5913,"ĠÙĨØ´ÛĮÙĨÛĮ":5914,"ÚĨÙĪ":5915,"ĠØ®ÙĪØ§Ø¬Ùĩ":5916,"ĠØªÚ©ÙĨÙĪÙĦÙĪÚĺÛĮ":5917,"ĠØ±ÙĪØ²Ø§ÙĨÙĩ":5918,"ĠÙĨÛĮØ´Ø§Ø¨ÙĪØ±":5919,"ÑĤ":5920,"int":5921,"ĠØ²ÙĨÚ¯":5922,"ØµÙĦÙĩ":5923,"ĠÙĦÛĮØ³":5924,"ĠØ§ÙĨÚ¯ÛĮ":5925,"ÙħØ¯Ùĩ":5926,"ĠÙĤØ¨Ø±Ø³":5927,"ĠØ¬Ø§Ø¯ÙĪ":5928,"ĠÙĨÚ¯ÙĩØ¨Ø§ÙĨ":5929,"ĠØ§Ø·ÙĦØ³":5930,"ĠØ¨Ø±ÙĪØ¯":5931,"ĠÙĪÙĤØ§ÛĮØ¹":5932,"ĠØ§Ø¨Ø±ÛĮ":5933,"ĠØ´Ø¬Ø§":5934,"ĠÙĦÙĨÚ¯":5935,"ÛĮØ§Ø·":5936,"ĠØªÛĮÙħÛĮ":5937,"ĠØªØ§ÙĨÚ©":5938,"ĠØ§ÙĦÛĮØ²":5939,"ĠØ¹ÙĪØ¶":5940,"ĠØ³Ø§ÙĦÙħ":5941,"ĠØ´ÙĪÙĩØ±":5942,"Ġintern":5943,"ĠØ¹ÙĦØ§ÙħØª":5944,"ĠØ§ÙĪÙĤØ§Øª":5945,"ĠÙĨÙħØ§Ø²":5946,"ĠØ¯Ø²Ø¯":5947,"ĠÚ©Ø±ÛĮØ³":5948,"ĠÙĦÛĮÙĪØ±Ù¾ÙĪÙĦ":5949,"Ù¾Ø§ÛĮÙĩ":5950,"ÙģØ±ÙĪØ´":5951,"ĠÙĪÙĨØ²ÙĪØ¦ÙĦØ§":5952,"ĠÙ¾ÛĮØ³Øª":5953,"ĠØ§Ø¨Ø²Ø§Ø±ÙĩØ§ÛĮ":5954,"ÚĨØ±":5955,"ĠØµÙĨØ¯ÙĪÙĤ":5956,"ĠØ§Ø¹Ø¸Ùħ":5957,"ĠÙĪØ§ØŃØ¯ÙĩØ§ÛĮ":5958,"ĠÙģØ±ÙĪÙĨØ¯":5959,"ĠØ¢Ø²Ø§Ø±":5960,"ĠÙħØ±Ø¯Ùĩ":5961,"Ġpe":5962,"ĠÙģÚ©Ø±ÛĮ":5963,"ĠÙĨÚ©Ø±Ø¯Ùĩ":5964,"Ġav":5965,"ĠØ§ÙĪØ§Ø³Ø·":5966,"Ġcontributors":5967,"ĠÚ©Ø§ÙħÛĮ":5968,"Ø³Ø§Ø²":5969,"Ø¬Ø§Øª":5970,"ĠÙģØ±ÙħØ§ÙĨØ¯ÙĩØ§ÙĨ":5971,"ĠØ²Ø±ÛĮÙĨ":5972,"ĠØ³ÙĪØ§":5973,"ÙħØ§ÙĨØ¯Ùĩ":5974,"Ġjohn":5975,"ĠÙħÙĪÙĨØªÙĩ":5976,"Ø³ØªØ±ÙĨ":5977,"Ġteam":5978,"ĠØ¬ÙĨØ§ÛĮØª":5979,"ĠØºÛĮØ±ÙĤØ§Ø¨ÙĦ":5980,"ĠÙ¾Ø§Ø±Ø³":5981,"ĠÙģØ±ÛĮØ¯ÙĪÙĨ":5982,"ĠØ±ÛĮÙħ":5983,"ĠÙģØ±ÙħØ§ÙĨØ¯Ø§Ø±":5984,"ĠÚ©ÛĮØ³":5985,"ĠØ§ÙĪØ±Ø´":5986,"ĠØªØŃÙĪÙĦ":5987,"ĠØªÙĤØ§":5988,"ĠÙģØ§ÙĨØª":5989,"ĠÙħÙĨØªØ®":5990,"ĠØ¢Ø¨Ø±":5991,"ĠÙĨÙģØªÛĮ":5992,"ĠØ¨ÙĦÙĪØ±":5993,"ĠÙģØ´":5994,"ĠØ¹Ø¨":5995,"ĠÚ©ÙħØªØ±ÛĮ":5996,"Ø²Ø¨Ø§ÙĨÛĮ":5997,"ember":5998,"ĠÛĮØ§Ø±":5999,"ØºØ§ÙĦÛĮ":6000,"Ø³Ø§ÙģØª":6001,"ĠØ¹ÙĤÛĮØ¯Ùĩ":6002,"ĠÚ¯Ø±Ø¯ÙĨ":6003,"ĠØ®Ø¨Ø±ÙĨÚ¯":6004,"Ø¢ÙĪØ±":6005,"ĠØ¬ÙĪÙĨÚ¯":6006,"Ú©Ø§ÙĨØ³":6007,"ĠØ§Ø³Ú©ÙĨØ¯Ø±":6008,"ĠØ¨Ø§Ø¯ÛĮ":6009,"ÛĮØ¯Ø§ÙĨ":6010,"ĠØ¨Ø±Ø´":6011,"Ġarm":6012,"Ã§":6013,"ĠØ§ØªÙħÛĮ":6014,"ĠÛĮÙħÙĨ":6015,"ĠÙħÙģØ§ÙĩÛĮÙħ":6016,"Ġaccessed":6017,"ĠÙ¾ÛĮØ¯":6018,"ĠÙĨÙĤØ¶":6019,"ĠØ¨ÙĪØ³ÙĨÛĮ":6020,"ĠØ¬ÙĨÛĮÙĨ":6021,"are":6022,"ĠØ§Ø±Ø¯Ø¨ÛĮÙĦ":6023,"ĠÙħØªÙģØ§ÙĪØªÛĮ":6024,"ĠØ¬Ø¹Ø¨Ùĩ":6025,"ĠÙĤØ·Ø§Ø±":6026,"ĠØ¹ÙĪØ§Ø±Ø¶":6027,"Õ¸":6028,"ÙĪØ³Ø§":6029,"ĠØªØ§Ø¬ÛĮÚ©Ø³ØªØ§ÙĨ":6030,"ĠØ§Ú©Ø³ÛĮÚĺÙĨ":6031,"ĠØªÙĤØ³ÛĮÙħØ§Øª":6032,"ĠØ®ÙĪØ§Ø³ØªÙĩ":6033,"ĠØ³Ø·ØŃÛĮ":6034,"ĠØªØ¯Ø§":6035,"ĠØ¬Ø§ÙħØ¯":6036,"ĠÙĨÚ©ØªÙĩ":6037,"ĠØ´Ø§ÙĩÛĮÙĨ":6038,"Ø¯ÙĪ":6039,"ĠÙĪÛĮØ±Ø¬ÛĮÙĨÛĮ":6040,"ĠØ¬Ø³ØªØ¬ÙĪ":6041,"ĠÙĨÙĪØ±Ø¯":6042,"ĠÙĩØ´":6043,"ĠÙĪÛĮÚ©ØªÙĪØ±ÛĮØ§":6044,"ĠØªØ¹ÙĤÛĮØ¨":6045,"ĠØ¢ÙģØªØ§Ø¨":6046,"ĠÙ¾Ø±ÙĪØªÚ©ÙĦ":6047,"ans":6048,"ĠÙ¾Ø§ÛĮÛĮ":6049,"ĠÙħØ§ÙĩÛĮØ§ÙĨ":6050,"Ø¨Ø®Ø´":6051,"ÙĦÛĮÙĦÛĮ":6052,"ĠØ´Ú¯ÙģØª":6053,"ĠØ³ÛĮÙĨØ§":6054,"ĠØ¨Ø¯ÙĨÙĩ":6055,"Ġcd":6056,"ĠØªØ±Ú©ÛĮØ¨Ø§Øª":6057,"yl":6058,"ĠÚĨÚ¯":6059,"ĠØ°Ùĩ":6060,"ta":6061,"ild":6062,"ĠÙĪØ¸Ø§ÛĮÙģ":6063,"ÙħÛĮÙĩ":6064,"ĠÙģØ§Ø·ÙħÙĩ":6065,"ĠÚ©ÙħØ¨ÙĪØ¯":6066,"ĠØ¢ÙĨØ§":6067,"Ġna":6068,"ĠÙħÙĩÙĨØ¯Ø³Ø§ÙĨ":6069,"ĠØ²ÙĩØ±Ø§":6070,"ĠÙģÙĤÙĩ":6071,"ĠØ±Ø§Ø²":6072,"ÙģØ±ÛĮÙĨÛĮ":6073,"ations":6074,"ĠØ§Ø®ØªØ±":6075,"ĠØ¯ÙĩÙĨØ¯Ú¯Ø§ÙĨ":6076,"ĠÙħÙĪØ¶ÙĪØ¹Ø§Øª":6077,"ĠØªÛĮÙ¾":6078,"Ġsw":6079,"br":6080,"ØªØ±Ùĩ":6081,"ĠØŃÙĤÛĮÙĤÛĮ":6082,"ĠØ®ÛĮØ§ÙĦÛĮ":6083,"Ø§Ø´Øª":6084,"Ø®Ø±Ùĩ":6085,"Ø§ÙĨØªÙĩ":6086,"Ø³ÙĨØ¬ÛĮ":6087,"Ùī":6088,"ĠÙħØ¤Ø³Ø³":6089,"ĠØ§Ø³ØªØ§Ø±":6090,"Ġeng":6091,"ĠØªÙĨØ¯ÛĮØ³":6092,"ĠÙ¾ÙĩÙĨ":6093,"ĠØ¨ÙĨØ§ÙĩØ§ÛĮ":6094,"ĠØ±ÛĮØª":6095,"Ø§ÙĦÛĮÙĨ":6096,"ĠÙħÙĪØ³ÙĪÛĮ":6097,"ĠÙĩÙħÚ¯ÛĮ":6098,"ĠØªØ¨ÙĦÛĮØºØ§Øª":6099,"ĠÙĤÛĮØ§Ùħ":6100,"ĠØ´Ø·Ø±ÙĨØ¬":6101,"ĠÙħØ´Ø±ÙĪØ·Ùĩ":6102,"Ø±Ø§Ø¨":6103,"ĠÙģØ±Ø¯ÙĪØ³ÛĮ":6104,"ĠÚ©ÙĦØ±Ø§Ø¯ÙĪ":6105,"ĠØ§ÙħÛĮ":6106,"ĠØ¹ÙħØ§ÙĨ":6107,"Ġpa":6108,"ĠÚ©ÙħØ¨Ø±ÛĮØ¬":6109,"ĠØ¯ÙĪØ³ØªØ§ÙĨÙĩ":6110,"ĠØ¯ÛĮØ³Ú©":6111,"ĠØ³Ø±Ú¯Ø±ÙħÛĮ":6112,"ĠØ®Ø¯Ø§ÙĪÙĨØ¯":6113,"ĠØ§ÛĮÙħ":6114,"ĠØ¹Ú©Ø§Ø³":6115,"ĠØ§ÙĪØ±Ø´ÙĦÛĮÙħ":6116,"ĠÙĤØ¯Ø±ØªÙħÙĨØ¯":6117,"Ø²ÛĮØ¯":6118,"ĠØªÚ©Ø§ÙħÙĦ":6119,"ĠÚ©ÙĩÚ©Ø´Ø§ÙĨ":6120,"ĠÚ¯Ø±ÚĨÙĩ":6121,"ĠØ±ÛĮÚ©":6122,"ĠÙĩØ§Øª":6123,"Ø§Ø³Ú©Ø§":6124,"ĠØ¯Ø§ÙĪØ±Ø§ÙĨ":6125,"Ġsk":6126,"yn":6127,"Ġcomm":6128,"ĠÚ©ÙĪØ§ÙĨØª":6129,"ĠØªÙĨÙĪØ¹":6130,"ĠÙħØªØ£":6131,"ĠØ³ÙĩÙħ":6132,"Ø§ÙĨÛĮØ¯":6133,"ĠØ²Ø¨Ø§ÙĨÛĮ":6134,"ĠØ³ØŃ":6135,"ĠÙģØ±Ú©Ø§ÙĨØ³":6136,"ĠÙĪØ§Ùħ":6137,"ĠØªØ´ÙĪÛĮÙĤ":6138,"ĠÚ¯Ø§":6139,"Ø¯Øª":6140,"ĠØ§ÙĨÚ¯Ø´Øª":6141,"Ø·ÙĨÙĩ":6142,"ĠÙĤÙĪÙĦ":6143,"ĠØ¸Ø§ÙĩØ±ÛĮ":6144,"sc":6145,"ĠÚ¯ÛĮÙĨÙĩ":6146,"ĠØ§ÙģØªØ§Ø¯Ùĩ":6147,"ĠØ±ÙĨÚ¯ÛĮ":6148,"ĠØ´Ø§ÙĩÙĨØ´Ø§ÙĩÛĮ":6149,"ĠØ¢ÙĩÙĨÚ¯Ø³Ø§Ø²ÛĮ":6150,"ĠÙĦØŃØ¸Ùĩ":6151,"ĠØ¨Ø§ÙĨØ§ÙĨ":6152,"ĠÙ¾Ø±Ùĩ":6153,"ĠØ²ÛĮØ±Ø²ÙħÛĮÙĨ":6154,"ĠØ³Ø§Ø±ÛĮ":6155,"ĠÙĤØ²Ø§ÙĤØ³ØªØ§ÙĨ":6156,"ĠØ´Ø¨Ø§ÙĩØª":6157,"ĠÙħØŃÙĤÙĤØ§ÙĨ":6158,"ĠØ¯Ø´Ùħ":6159,"ĠÙĨÙħÙĪØ¯Ø§Ø±":6160,"ĠÚ©ÙĪÚĨÙĩ":6161,"Ø§ÛĮØªÛĮ":6162,"Ġtran":6163,"ĠÙ¾ÙĨØ¬Ø±Ùĩ":6164,"ĠØ¢Ø´ÙĨ":6165,"ĠÙħØ§ÛĮÚ©Ø±ÙĪØ³Ø§ÙģØª":6166,"ĠØ¢Ø³Øª":6167,"Ø¹ÙĦÙĪÙħ":6168,"ĠÙĩÚ©Øª":6169,"ĠÙĨØ¸Ùħ":6170,"ĠØ¯Ú©":6171,"ĠØ±Ø¹":6172,"ĠÙĩÙħÙ¾":6173,"ÙĪØ¨ÙĪØ³":6174,"ĠØ¨ÙĦÙĪÚ©":6175,"Ø¹Ùģ":6176,"ĠØ±Ùģ":6177,"ĠÙĩÙħØ³Ø§ÛĮÙĩ":6178,"ĠÛĮÚ©Ù¾Ø§Ø±":6179,"Ø§Ø³Ùĩ":6180,"ĠÚ©ÙħØªØ±ÛĮÙĨ":6181,"Ġgen":6182,"ball":6183,"ĠØ¢ÙĦØ¨Ø§ÙĨÛĮ":6184,"ĠØªÙĤØ¯ÛĮØ±":6185,"ĠØ´Ø§Ù¾ÙĪØ±":6186,"ĠÙħØ¹ØªØ±":6187,"Ġind":6188,"ĠØ´ÛĮØ·Ø§ÙĨ":6189,"ĠÙħÚ©Ø§ÙĨÛĮÚ©ÛĮ":6190,"ĠÙĪÛĮØ±Ø¬ÛĮÙĨÛĮØ§ÛĮ":6191,"ance":6192,"ĠØ¹Ø±ØµÙĩ":6193,"ĠÙħØ®Ø§Ø¨Ø±Ø§Øª":6194,"ĠØ¢Ø³Ø§ÙĨ":6195,"ĠØ§ÙĦÛĮØ²Ø§Ø¨Øª":6196,"ĠØ¬Ø³Ùħ":6197,"ĠØ¯ÙĨØ¯Ùĩ":6198,"ĠØ²Ø§ÛĮ":6199,"ĠÙĤØµØ±":6200,"ĠÙĩÛĮÙ¾":6201,"ship":6202,"ĠØŃØ¨ÛĮØ¨":6203,"ĠÚ©Ø§ÛĮ":6204,"ĠØ§ÙĨØ¨Ø§Ø±":6205,"ĠØºÙĨÛĮ":6206,"Ġhar":6207,"ĠØªÙĨÙĩØ§ÛĮÛĮ":6208,"ĠØ³ÙĨØ§ØªÙĪØ±":6209,"ĠØ¨ØŃØ±ÛĮÙĨ":6210,"ĠØªÙĪÙĨÛĮ":6211,"xt":6212,"ĠÚ¯Ø²ÛĮØ¯Ùĩ":6213,"ĠØ§ÙĨÛĮÙħÙĩ":6214,"Ø§Ø²ÙĨ":6215,"ĠØ§ØªÙħØ§Ùħ":6216,"ĠØ¨Ø³ØªÚ¯ÛĮ":6217,"ĠÚ©Ø±Ø³ÛĮ":6218,"ĠÙĪÙĦØªØ§Úĺ":6219,"ĠÙĦØ§Ùħ":6220,"ĠÙħØ¨Ø§Ø±Ø²":6221,"ĠØ¨Ø§Ú©ÙĪ":6222,"ĠÙ¾Ø±Ø´":6223,"ĠØªÚ©Ùĩ":6224,"Ø²ÛĮØ§ÙĨØ§":6225,"ĠÙħØ±Ø²ÙĩØ§ÛĮ":6226,"ĠØ®ÙĪØ¯Ø±ÙĪÛĮ":6227,"ĠÙģØ§Ú©Ø³":6228,"ĠØ¹ÙģÙĪÙĨØª":6229,"ĠØ³ÙĦÙĪÙĦÛĮ":6230,"Ġint":6231,"ĠØ·ÙĨØ²":6232,"Ø¨Ø§Ø²":6233,"ĠØ´Ø±Ø·":6234,"ĠØ¢Ú©Ø³ÙģÙĪØ±Ø¯":6235,"Ø²ÙĪÙĨ":6236,"ĠÙģØ±Ø§ÙĨØ³ÛĮØ³Ú©ÙĪ":6237,"Ġstat":6238,"ĠØ´Ø´ÙħÛĮÙĨ":6239,"ĠØ§Ø³ÛĮ":6240,"Ġsl":6241,"Ø§ÙĩÙĪ":6242,"ĠÙĪØ§Ú¯Ø°Ø§Ø±":6243,"ĠØ®ÙĪØ´Ùĩ":6244,"ĠØ´ÛĮØ±Ø§Ø²ÛĮ":6245,"ĠÙģÛĮØ±ÙĪØ²":6246,"ĠØ¨Ø±ÙĪØ¬":6247,"ĠÙĨØ§ÙĨÙĪ":6248,"ĠØ§ÙĨØªØ®Ø§Ø¨ÛĮÙĩ":6249,"ĠØ§Ø®Ø¨Ø§Ø±":6250,"Ø§Ø·Ø±":6251,"ĠÙĨØ§Ú¯Ùĩ":6252,"ĠØ§Ø²Ø¨Ú©Ø³ØªØ§ÙĨ":6253,"ĠÙĩØ§Ù¾":6254,"Ø¢Ø¨":6255,"ĠØ§Ø¦ØªÙĦØ§Ùģ":6256,"ÙĨØ¸Ø§ÙħÛĮ":6257,"ĠÚ©ÙĨÙĪÙĨ":6258,"ĠÚ©ÙħÙĪÙĨ":6259,"ĠØ³ÙĦØ¬ÙĪ":6260,"Ġfilm":6261,"ĠÙħÙĪØ§ÙģÙĤØª":6262,"ĠØ§ÛĮØ±Ø¬":6263,"Ð¾Ð":6264,"ĠÙģØ±ÙĩØ§Ø¯":6265,"anc":6266,"ĠØ´ÙĪØ§ÙĩØ¯":6267,"ĠÙħØªØ±ÙĪÛĮ":6268,"ĠÙħÙĨÙĩ":6269,"Ø²Ø§Ø¨":6270,"ĠØŃØ±ÛĮÙģ":6271,"Ø±Ø¯Ú¯ÛĮ":6272,"ĠÙħÙĨØ§ÙĤ":6273,"ĠØ§ÙĨØ¯Ø§Ø®Øª":6274,"ĠØ§ÙĨØªØ§Ø±ÛĮÙĪ":6275,"ĠØ¯Ø±Ø¢ÙĪØ±Ø¯":6276,"ĠÙħÙĨØ§Ø³Ø¨Øª":6277,"ĠØºÛĮØ±ÙĨØ¸Ø§ÙħÛĮ":6278,"ĠÙĩØ§Ø³Øª":6279,"ĠÙħÙħØª":6280,"ĠØ¨ÙĪØ³ØªÙĪÙĨ":6281,"ĠØ´Ú©ÙĨØ¬Ùĩ":6282,"ĠØ¢ÛĮØª":6283,"ĠØ¯ÙħÙĪÚ©Ø±Ø§Ø³ÛĮ":6284,"ĠÙģØ§ÛĮ":6285,"ĠØ¯ÙĪÚ¯Ø§ÙĨÙĩ":6286,"Ø²Ø¯ÙĩÙħÛĮÙĨ":6287,"ĠØ¨ÛĮÙĦØ¨ÙĪØ±Ø¯":6288,"ĠÙĦÛĮØªÙĪ":6289,"ĠØªØ±Ø¬ÛĮ":6290,"ated":6291,"ĠÙģÙĪØ±Ø¯":6292,"ĠØ¹ÙĤÙĦ":6293,"ĠÙĨØ®ÙĪØ§ÙĩØ¯":6294,"Ġtown":6295,"ĠØ¬ÙĨÚ¯ÙĨØ¯Ùĩ":6296,"Ú¯Ø±ÙģØªÚ¯ÛĮ":6297,"Ø§ÙĨÙĪØ±Ø¯":6298,"ĠØŃØ±ÙĪÙģ":6299,"ĠØ´ÙħØ³":6300,"ĠØ¢ØºØ§Ø²Ø´Ø¯Ùĩ":6301,"ĠÚ¯ÙĨØ§Ùĩ":6302,"ĠØ¨Ø§Ø±ÙĩØ§":6303,"Ø®ØªØ§Ø±":6304,"ĠØ§Ù¾ÙĦ":6305,"ĠÙħØ²Ø±":6306,"ĠØ¨ÛĮØ²":6307,"ĠØ¬ÙĪÛĮ":6308,"ĠØ¯Ø¨ÛĮ":6309,"ĠÙĩØ±Ú©":6310,"ĠÙģØ±ÙĪØ´Ú¯Ø§Ùĩ":6311,"ĠÚ©ÙĨØ§Ø±Ùĩ":6312,"ĠÚ©ÙĪÛĮÙĨ":6313,"ĠØ¬Ø±ÛĮ":6314,"ĠÙħØŃÙĦÙĪÙĦ":6315,"ĠØ±Ù¾":6316,"Ø¬Ø§ÛĮÛĮ":6317,"ĠØ§ÙĨØ¨":6318,"ĠÙħØ®Ø§ÙĦÙģØ§ÙĨ":6319,"ĠÚ©Ø±Ùħ":6320,"ĠØªØ¬ÙħØ¹":6321,"ĠÙĤÙĪÙħÛĮ":6322,"ĠÙĦØ§Ø³":6323,"ĠØ¬ÙĪØ´":6324,"ĠÙħØ´ØªØ±ÛĮ":6325,"ÙģÚ©":6326,"ĠØ¨ÛĮÙĩ":6327,"Ø¦ÙĦ":6328,"Ġfa":6329,"ĠØ³Ø±ÚĨ":6330,"ĠØ®Ø§":6331,"ĠÙĨØ§ÙħØ²Ø¯ÛĮ":6332,"Ø´Ø±Ø¯Ùĩ":6333,"ĠÙĨÙ¾":6334,"ĠØ§ØµØºØ±":6335,"ĠÛĮØ§Ø¯Ø¨ÙĪØ¯":6336,"ĠØªÙĩØ§Ø¬Ùħ":6337,"ĠØ¨ÛĮÙħÙĩ":6338,"ĠØ³ÙĪÙĨÚ¯":6339,"ÙĪÙħØªÛĮ":6340,"ĠØªÙĪÙĦÛĮØ¯Ú©ÙĨÙĨØ¯Ùĩ":6341,"ĠÙĤÙĦÛĮ":6342,"ĠØ§ÙĨÙģØ±":6343,"ĠÙĪØ§ÛĮØª":6344,"ĠØ§Ø¶Ø§ÙģÛĮ":6345,"ĠÚ©Ø§Ø±ÙĨØ§ÙħÙĩ":6346,"ĠØ§Ø³ØªØ±Ø§ÙĦÛĮØ§ÛĮÛĮ":6347,"ĠØ§ÛĮÙħØ§ÙĨ":6348,"ĠØ¢ÙĨØ§Øª":6349,"ĠØ±ÙģØªÙĨØ¯":6350,"ĠØ¨ÛĮÙĦÛĮ":6351,"ĠÙħÙĨØªØ®Ø¨":6352,"ĠØªØ¹Ø§ÙħÙĦ":6353,"ĠØ¨Ø±Ø¢ÙĪØ±Ø¯":6354,"Ø§ÙĨØªØ§":6355,"ĠØ³ÛĮØ¯ÙĨÛĮ":6356,"ĠÙĨÛĮØ§Ø²ÙħÙĨØ¯":6357,"ĠÙģØ±ÙĪØ´ÛĮ":6358,"ĠÙħÙĤØ¨Ø±Ùĩ":6359,"ont":6360,"ĠØ´Ø§Ú¯Ø±Ø¯Ø§ÙĨ":6361,"ĠØ¬ÙĪÙĨØ²":6362,"ĠÙ¾Ø±Ø§Ú©ÙĨØ¯Ùĩ":6363,"ĠÙģØ´Ø±Ø¯Ùĩ":6364,"ĠÙĨÙĪØ±Ø«":6365,"ĠÙħØ²Ø§Ø±":6366,"Ġfe":6367,"ĠØ·Ø¹":6368,"ĠÛĮØ§Ø²Ø¯ÙĩÙħ":6369,"ĠÙĪÙĩ":6370,"ĠÙħÛĮØ²Ø¨Ø§ÙĨÛĮ":6371,"ĠØ¯Ùģ":6372,"ĠÙħÙĪØ±Ø®":6373,"ĠØ§ÙĨÙģØ±Ø§Ø¯ÛĮ":6374,"ÙĨÛĮÙĩ":6375,"ĠØ²ÙĨØ¬Ø§ÙĨ":6376,"ĠÚ¯ÙĦØ³ØªØ§ÙĨ":6377,"Ø³Ø§Ø±":6378,"Ø·Ø§ÙĨÛĮ":6379,"Ġval":6380,"ĠØ¹Ø±Ø§ÙĤÛĮ":6381,"Ġher":6382,"ĠÚ©ÙĨØ¯ÛĮ":6383,"ĠØ¢Ø±Ø³ÙĨ":6384,"ĠÙĤÙģÙĤØ§Ø²":6385,"ĠØ¨Ø§Ø²Ú¯Ø±Ø¯":6386,"ÙħØ§Ùĩ":6387,"ĠØ¯Ø§Ø¦ÙħÛĮ":6388,"ĠÚ©Ø§Ú©":6389,"ĠØªÙĪÙĦ":6390,"ĠØ§ÙĪØ³":6391,"ĠÙĨØ§Ø¯":6392,"ĠÙĦÙĨ":6393,"ĠÙħÙĪØ§Ø±Ø¯ÛĮ":6394,"ĠØ¯Ø§Ú©ÙĪØªØ§ÛĮ":6395,"ĠØ¨Ø§Ø¨Ø§":6396,"Ġbu":6397,"ĠÙ¾ÚĺÙĪÙĩØ´Ú¯Ø±Ø§ÙĨ":6398,"ĠÙĦÙĪØ¦ÛĮØ²ÛĮØ§ÙĨØ§":6399,"lo":6400,"ĠÚ©ÙĪÙĩØ³ØªØ§ÙĨ":6401,"ĠÙħØ´Ø§ÙĩÛĮØ±":6402,"ĠØ§ÙģØ´Ø§Ø±":6403,"ĠÙĪØµ":6404,"ĠØ§ÙģØ²ÙĪØ¯Ùĩ":6405,"Å¡":6406,"ĠÙħØ²Ø±Ø¹Ùĩ":6407,"ĠØ§Ø¹Ø±Ø§Ø¨":6408,"ØªØ±Ø§":6409,"ited":6410,"ĠØ±ÙĤÙħ":6411,"ĠØ¨ÛĮÙĨØ¯":6412,"Ø·ÙĪ":6413,"ĠØ¨ÙĪÙĦÛĮ":6414,"ĠØ§Ø´ØªØ±Ø§Ú©":6415,"ĠØ¬ÙĪÙĨÛĮ":6416,"ĠØ´ÛĮØ¹ÛĮØ§ÙĨ":6417,"Ġlin":6418,"Ġet":6419,"Ø±Ø¯Ø§Ø¯":6420,"ĠÚ©ÙĪØ¦ÛĮÙĨ":6421,"ĠÙĦØ±Ø³ØªØ§ÙĨ":6422,"Ġcro":6423,"ĠØ¨Ø§Ø²ÛĮÚ¯Ø±Ø§ÙĨÛĮ":6424,"ĠÙħÙĤØ¯ÙĪÙĨÛĮ":6425,"ĠÙĨØ¨Ø±":6426,"ĠØ¬Ø§ÙĨØ¨":6427,"ĠÙĩÙģØªØ§Ø¯":6428,"ime":6429,"Õ«":6430,"ĠØ±ÙĪÛĮÚ©Ø±Ø¯":6431,"ĠÙĪÙĨÛĮ":6432,"ĠÙħØ¬ØªÙħ":6433,"Ú¯ÙĪÙĨÚ¯ÛĮ":6434,"ĠÙħØªÙħØ§ÛĮØ²":6435,"ĠØ¢Ø¨Ø´Ø§Ø±":6436,"ĠÙĪØ§ÙĦØ¯ÛĮÙĨ":6437,"ĠØªØ¹Ø§Ø¯ÙĦ":6438,"ĠØ§ÙĤÙĦÛĮØª":6439,"ĠØ³Ø§Ø±Ø§":6440,"Ø¨ÙĪÙĨ":6441,"ĠÙħØŃØª":6442,"ÙħØ±Øº":6443,"Ġalt":6444,"ĠØ¢Ú¯Ø§Ùĩ":6445,"ĠÙĤØ¯ÙħØª":6446,"ĠØ¢ÙĦØ§Ø³Ú©Ø§":6447,"ĠØ®ÙĪØ±Ø´ÛĮØ¯Ú¯Ø±ÙģØªÚ¯ÛĮ":6448,"Ø±ÙĪØ³":6449,"ĠØ³ÙĪØ§ÙĨØŃ":6450,"ĠÙĪØ¶Ø¹":6451,"ĠØ§Ø³Ø±Ø§Ø¦ÛĮÙĦÛĮ":6452,"Ġsoc":6453,"ĠØ§Ø´Ú©Ø§ÙĨÛĮØ§ÙĨ":6454,"ĠØªØ¸Ø§ÙĩØ±Ø§Øª":6455,"ĠÙĪÛĮÙĦÛĮØ§ÙħØ²":6456,"que":6457,"ÙģØ§ØµÙĦÙĩ":6458,"ann":6459,"Ġop":6460,"ÙĪÙħÛĮÙĩ":6461,"Ġmus":6462,"ĠØ³Ø§ÙĨØ³":6463,"ĠØ§Ø³ØªØ«":6464,"ru":6465,"ĠØ¯ÙģÙĨ":6466,"ĠØ¨Ø§Ùħ":6467,"ĠÙħÙĤØµ":6468,"ĠÙħØ¹Ø§Ø¯ÙĦÙĩ":6469,"Ġoffic":6470,"Ã¤":6471,"ĠÙħØŃØ±Ú©":6472,"Ġdi":6473,"ÙĪØ²ÙĨ":6474,"ÙĪØ§Øª":6475,"ĠÚ©ÙĨØ´":6476,"ĠÙģÙĩ":6477,"ĠÙ¾ÙĪÙĦÛĮ":6478,"ĠÙħØ¬ØªÙħØ¹":6479,"ail":6480,"ĠÙĤØ±Ø¨Ø§ÙĨÛĮØ§ÙĨ":6481,"Ø´Ø§ÛĮ":6482,"ĠÚĨÚ¯ÙĪÙĨÚ¯ÛĮ":6483,"ÙģÛĮÙĨ":6484,"Ã³":6485,"ĠØ§ØŃØ²Ø§Ø¨":6486,"ĠØ¢Ø±Øª":6487,"ĠØ±Ø§ÛĮÚ¯Ø§ÙĨ":6488,"ĠØ³Ø§Ø²ÙĩØ§ÛĮ":6489,"ĠÙ¾Ø§Ø±ÚĨÙĩ":6490,"ÙĤØ¯Ø±":6491,"ĠØ®ÙĪØ±Ø¯ÙĨ":6492,"ĠØ²Ø§Ø±":6493,"ĠØ§Ø±Ø¯Ø´ÛĮØ±":6494,"ĠØ¯Ú©ØªØ±Ø§ÛĮ":6495,"ÙĨÙĪØ´Øª":6496,"ĠØ¯Ø³ØªÚ¯ÛĮØ±ÛĮ":6497,"ĠØ¯Ø±ØŃ":6498,"ĠØ¶Ø®":6499,"ĠØ¨Ø³ØªØ±":6500,"ĠØ¬ÙĪØ²Ùģ":6501,"ĠÙħÙĨØ²ÙĦ":6502,"ĠÚĺØ§Ú©":6503,"Ø¦ÙĨ":6504,"ÙģØ§Ø±ÛĮ":6505,"ĠØ¢Ø±Ú©Ø§ÙĨ":6506,"ĠØ¨Ø§Ø²ØªØ§Ø¨":6507,"ÙħÙĪÙĨØ¯":6508,"ĠÙħØ¬Ùĩ":6509,"ĠØ¯Ø±ÙĪØº":6510,"Ġpp":6511,"ĠÙ¾Ø§Ø³Ø¯Ø§Ø±Ø§ÙĨ":6512,"ĠØ±ØºÙħ":6513,"Ġep":6514,"Ø°Ø±":6515,"ĠØ¯Ø´ÙĪØ§Ø±":6516,"ĠÙ¾ÛĮÙħ":6517,"ĠÙģØ±Ø§Ø²":6518,"ĠØ§Ø±Ø³":6519,"ĠÙĪØŃØ¯Øª":6520,"ÛĮØ¯Ú¯ÛĮ":6521,"ĠØ±Ø§ÙĨÙĨØ¯Ùĩ":6522,"ĠÙģÙĪØ±Øª":6523,"ĠÙĦØºØª":6524,"ØµÙĦÛĮ":6525,"ĠÙĤØµÙĩ":6526,"ĠØŃØ§Ú©ÙħÛĮØª":6527,"ĠØ¢ÙĦÙĪØ¯Ú¯ÛĮ":6528,"ĠØªÚ©ÙĪØ§ÙĨØ¯":6529,"ĠØ³Ø±ÙĪØ¯":6530,"Ù¾ÙĦÙĪ":6531,"ÙĪÚ©Ø§Ø±Ø§ÙĨ":6532,"ĠØ±Ø³Ø§ÙĨ":6533,"ĠØ¬ÙĨØ§ØŃ":6534,"ĠÙħØ§Ø±Ø´":6535,"ĠØ§Ø³ØªØ±Ø§ØªÚĺÛĮ":6536,"Ġtrans":6537,"ĠØ§ÙĦØ¹Ø§Ø¯Ùĩ":6538,"ĠÙħØŃØ§Ú©":6539,"ĠØ³Ø§ÙĨØªØ§":6540,"ĠÙĦØ²":6541,"ĠØ³ÙĪØ³ÛĮØ§ÙĦÛĮØ³Øª":6542,"ĠØ³Ú¯ÙĪÙĨØ¯Ø§":6543,"ara":6544,"Ú©Ø§Ú©":6545,"ĠÙħØ±ØªØ¨Ùĩ":6546,"ĠÙħØ±Ø¬Ø¹":6547,"Ø¹Ø´":6548,"ĠØ¹Ø²":6549,"ÙħÙĨØ¯ÛĮ":6550,"ÙģÙĪØ±Øª":6551,"ana":6552,"Ġdec":6553,"ĠØ§ÙĨØªØ®Ø§Ø¨ÛĮ":6554,"ĠÙĪØ³ØªØ±ÙĨ":6555,"ĠØ³ÛĮÙħØ§":6556,"Ø´ÙħÙĩ":6557,"ĠÙħØ¯Ø¹ÛĮ":6558,"ĠØ´Ø¨Ø§ÙĨÙĩ":6559,"ĠÙģÙĪ":6560,"ĠØ¨ÙĦØ§ÙģØ§ØµÙĦÙĩ":6561,"ĠÙĨØ§ÙħØ¹ÙĦÙĪÙħ":6562,"ĠØ²Ø®ÙħÛĮ":6563,"ĠÙħØ¨ÙĨØ§ÛĮ":6564,"ĠØŃØ¨Ø³":6565,"ĠÙĩÙħØ§ÛĮÙĪÙĨ":6566,"ĠØ¨Ø§Ø²Ø§Ø±ÛĮ":6567,"ĠÙħÙĪØ´":6568,"ĠØ¨Ø¯ÛĮ":6569,"ĠØ¯Ø³ØªÛĮØ§Ø±":6570,"ĠÙĪØ§Ø±ÙĨØ±":6571,"ĠÙĩÙģØªÙħÛĮÙĨ":6572,"ĠÛĮÙĪÙĨÚ¯":6573,"ĠÙĪØ§Ú¯":6574,"ĠÙħØ§ÙĨÚ©ÙĨ":6575,"ÙĨØ¨Ø±Ú¯":6576,"ĠÙĩÚ©ØªØ§Ø±":6577,"ĠØ²ÛĮØ¨Ø§ÛĮ":6578,"ĠØ¢ÙħÛĮÙĨ":6579,"ĠØ³Ø±Ø¯Ø§Ø±":6580,"ake":6581,"ĠØ§ÙĪÙħ":6582,"ĠÚ©Ø§Ø¨ÛĮÙĨÙĩ":6583,"ĠØ¢Ø±Ú©Ø§ÙĨØ²Ø§Ø³":6584,"ĠØ´ØµØª":6585,"ÙĪÚ¯Ø±Ø§ÙģÛĮ":6586,"Ø·ÙĪØ±":6587,"ÙĪØ±Ø¯ÙĩØ§ÛĮ":6588,"Ġhy":6589,"ĠØ¬ÙĦÙĪÙĩ":6590,"Ø³Ø§Ùħ":6591,"ĠÙĩÙĪÛĮ":6592,"Ġca":6593,"ĠØ§ØŃØªÙħØ§ÙĦÛĮ":6594,"ĠÙĩÙħØ¯":6595,"orth":6596,"ÙĪØ§ÙĦÛĮ":6597,"Ú¯Ø§Ø±Øª":6598,"Ġec":6599,"ĠØ¯ÛĮÙħ":6600,"ss":6601,"ĠÚ©ÛĮÚ©":6602,"ĠØ®ÙĦØ§ÙģØª":6603,"ĠØ¨Ø¯Ø§ÙĨ":6604,"ĠØ³Ø§Øª":6605,"ĠÙħØºØ²ÛĮ":6606,"ĠØ§ØªÙĪØ¨ÙĪØ³":6607,"ĠØ§ÙĦÚ¯ÙĪÛĮ":6608,"ÃŃ":6609,"ĠØ±Ø³ÛĮØ¯ÙĨØ¯":6610,"ĠÙĩØ±Ø²":6611,"ĠÙĨÙģØ³":6612,"ĠØ³ÛĮØª":6613,"ĠÙ¾Ø®ØªÙĩ":6614,"Ġinf":6615,"ĠØ¢ÙĨØ²ÛĮÙħ":6616,"iy":6617,"ĠØ³ÙĪØ¦ÛĮ":6618,"ĠÙħÙĨØ´Ø£":6619,"Ù¾Ø§ÙĨ":6620,"ĠØ³Ø¤Ø§ÙĦ":6621,"ĠÚ©Ø´ØªÙĨ":6622,"Ø³Ø§Ø®Øª":6623,"ĠÚ¯Ø°Ø§Ø±Ø§ÙĨ":6624,"Ø²Ø¨ÙĪØ±Ú¯":6625,"ĠØ´Ø¹Ø¨Ùĩ":6626,"ĠØ¢ÙĦØ¨Ø±":6627,"Ø³ÛĮØ±ÛĮ":6628,"Ġmy":6629,"ĠÙħÙĨØ·ÙĤÛĮ":6630,"ĠÙĨØ¨ÙĪØ¯Ùĩ":6631,"ĠØ¬ÙĦÙĪÛĮ":6632,"ĠØ§ÙĨÙģØ¬Ø§Ø±":6633,"ĠØ§ØªÙĦØªÛĮÚ©ÙĪ":6634,"ĠÚ©ÙĦÛĮÙĨ":6635,"ĠÙĪØ§Ø¬":6636,"Ġfoot":6637,"Ġmod":6638,"ĠØ§Ú©ÙĦ":6639,"ĠØ±Ø³ÙĪÙĦ":6640,"ĠØªØ±Ø¯":6641,"ĠÚ©ÙĨÙģØ¯Ø±Ø§Ø³ÛĮÙĪÙĨ":6642,"ĠØ¨Ø±Ø¯Ø§Ø±Ø§ÙĨ":6643,"ĠØªÚ©ÛĮÙĩ":6644,"ĠÙħØ§ÙĩÛĮÚĨÙĩ":6645,"ĠÚĨÙĪØ¨ÛĮ":6646,"ĠÙģÙĤÛĮÙĩ":6647,"Ø¦ÙĪÙ¾":6648,"ĠÛĮÙĪØ±Ú©":6649,"ĠØ³ÙħÛĮ":6650,"ĠÚ¯ÙģØªÙĨØ¯":6651,"ĠÙħÛĮØ³ÛĮ":6652,"ÙĤØ§ÙĨÙĪÙĨÛĮ":6653,"istr":6654,"ĠÙģØ¶Ø§Ù¾":6655,"ĠÙĨØ§Ù¾ÙĦ":6656,"Ø§ÙħÙĦÛĮ":6657,"ĠØ³Ø§ÙĨØ¯":6658,"Ġdis":6659,"Ġcounty":6660,"ĠØ®Ø±Ø³":6661,"ĠØ¢Ø¦":6662,"ĠÙĪØ§ÙĦØªØ±":6663,"Õ¥":6664,"Ðº":6665,"ĠÙħØ¹ÛĮ":6666,"ĠØºÛĮØ±ÙĤØ§ÙĨÙĪÙĨÛĮ":6667,"Ø§ÙĩØ±Ùĩ":6668,"ĠÙĦØ¨Ùĩ":6669,"ĠÙĤØ¶ÛĮÙĩ":6670,"ĠØ¨ÙĪÚ©Ø³ÙĪØ±ÙĩØ§ÛĮ":6671,"ĠØ³ÙĨÚ¯Ø§Ù¾ÙĪØ±":6672,"ÛĮØ³ÙĪÙĨ":6673,"ĠØªÛĮÙĦÙĪØ±":6674,"ĠØ¢ÙħØ¯ÙĨØ¯":6675,"ĠÚĨÙĨ":6676,"ĠØ¢ÙĨØ¬Ø§ÛĮÛĮ":6677,"Ø³ÛĮØ§ÙĨ":6678,"ĠØ§Ø°":6679,"ĠØ¨Ø±ØªØ±ÛĮ":6680,"ĠÙĩØ§Ø±Øª":6681,"ĠØ³ÙĪØ²ÛĮ":6682,"ĠØ±ÛĮØ®ØªÙĩ":6683,"Ø§ÙĩÙħØ§":6684,"ĠÙħØ¨ÙĦØº":6685,"ĠØ¨Ø¨ÛĮÙĨ":6686,"ĠÙħØ¯Ø§":6687,"ĠÚ©ÙĪÙ¾Ø§":6688,"Ø±ÙĪÙĩ":6689,"ĠØªØ¯Ø±ÛĮØ¬":6690,"ĠØ§ØµØ·ÙĦØ§ØŃØ§Øª":6691,"ĠÛĮÙĪÚ©":6692,"ĠØ±Ø³ØªÙħ":6693,"Ú¯ÙĪØ´":6694,"ĠÚ©Ø§Ø±Ø§ÙĨ":6695,"ĠØ¨ÙĩØ¯Ø§Ø´ØªÛĮ":6696,"Ù¾ÛĮÙĨ":6697,"ater":6698,"ĠØ²Ø±ØªØ´ØªÛĮ":6699,"ĠØ²Ø±ÙĩÛĮ":6700,"ĠØ¨Ø±Ø¯ÙĨØ¯":6701,"ade":6702,"ĠØ¯Ø³ØªÛĮØ§Ø¨ÛĮ":6703,"ĠÙħØ®ÙĦÙĪØ·":6704,"ĠÙĦÛĮØ³Ø§ÙĨØ³":6705,"ĠÙĤØ¯Ùħ":6706,"ĠÙĨØ§ÙħÛĮ":6707,"ĠÙĦÛĮØ¨ÛĮ":6708,"oph":6709,"ĠØ§Ø¹Ø·Ø§":6710,"Ø±Ø¯ÙĨ":6711,"Ø§Ø±ÙĪ":6712,"ĠØ¹Ø¸ÛĮÙħ":6713,"Ġnot":6714,"ĠØ®Ø§ÙħÙĨÙĩ":6715,"ĠÙĨÙĤÙĦÛĮÙĩ":6716,"Ú¯ÙĪØ±":6717,"Ú¯Ø±Ø§Ùħ":6718,"ĠØ±Ø³ÙħØ§":6719,"ĠÙĪØŃØ´Øª":6720,"ĠØ¢ÙĦÙĪÙħÛĮÙĨÛĮ":6721,"ĠØªØ³ÙĦ":6722,"ĠÚĨÚ©Ø³":6723,"ĠØ§Ø±ÙĪÙħÛĮÙĩ":6724,"ĠØ¯Ù¾":6725,"ĠØ¯ÙĩØ§ÙĨÙĩ":6726,"ĠØ§ÙĪØ±Øª":6727,"ĠØ§ÙĨØªØ®Ø§Ø¨Ø§ØªÛĮ":6728,"ĠÙħØ§Úĺ":6729,"ĠØ®Ø§ÙĦØµ":6730,"ĠØ·ÙĪÙģ":6731,"ear":6732,"ĠØ´Ø±Ú©":6733,"ĠÙ¾Ø±Ø³ÙĨ":6734,"ĠÙħÙĩØ§Ø¬Ø±Ø§ÙĨ":6735,"eng":6736,"ÙħØ¬ÙħÙĪ":6737,"Ø§Ú¯ÙĪØ¦Ùĩ":6738,"ille":6739,"ĠÙĤØ¨ÛĮÙĦ":6740,"ĠÙħØ®Ø¯Ø±":6741,"ĠÙħØ±Ø§Øª":6742,"ĠÙĨÙĪØ±ÙĪØ²":6743,"ĠÙ¾Ø±Ø¯Ø§Ø²ÙĨØ¯Ùĩ":6744,"ĠÚĨØ§Ø±ÚĨÙĪØ¨":6745,"Ø§ÙĤÛĮ":6746,"ĠØªØŃÙħÙĦ":6747,"ĠÙħÙĪÙĦÚ©ÙĪÙĦÛĮ":6748,"ĠÛĮØ§ÙģØªÙĨØ¯":6749,"ĠØ¯Ø³ØªÙĪØ±Ø§ÙĦØ¹":6750,"ĠÙĩÙĪÙĨ":6751,"ĠØ³Ø§Ø²ÙħØ§ÙĨÛĮ":6752,"ĠØ´Ø§Ø¯":6753,"ĠÙĩØ±Ø§Øª":6754,"ĠØ¬ØºØ±Ø§Ùģ":6755,"ĠÙ¾ÛĮÚ©Ø±":6756,"ÙĦÙĪØ§Ú©ÛĮ":6757,"ark":6758,"ĠÙħÙĩØ±Ùĩ":6759,"Ø§Ø¨Ø§ÙĨÛĮ":6760,"ĠØ§Ú©ØªØ´":6761,"ĠÙĩØ§ÙĦÛĮÙĪÙĪØ¯":6762,"ĠÚ©ÙĦÛĮØ¯ÛĮ":6763,"ĠØªÙĪØª":6764,"Ø§ØªÛĮÙĨ":6765,"ĠØŃØ±Ùħ":6766,"Ø¯Ø±ÛĮØ§ÛĮÛĮ":6767,"ĠØ³Ø±Ø§Ø³Ø±ÛĮ":6768,"ĠØ¯Ø§Ø±Ø§":6769,"ĠØ³Ø±ÙĨÙĪØ´Øª":6770,"ĠØ¯Ø§Ø±ÛĮÙħ":6771,"ĠØ¯Ø¨ÙĦÛĮÙĪ":6772,"ĠÛĮØ¯":6773,"ĠØ¨Ø²Ø±Ú¯Ø³Ø§ÙĦØ§ÙĨ":6774,"ĠÙ¾Ø±ØªÙĪ":6775,"ĠØ´Ø§ÙĩØ§ÙĨ":6776,"ĠØ¬Ø§ÙĨØ³ÙĪÙĨ":6777,"ĠÙģØ±ÙĨÚ¯ÛĮ":6778,"enn":6779,"ĠÚ©Ø§Ø¸Ùħ":6780,"ĠØ³ÙĪØ§ØŃÙĦ":6781,"ĠÚĨÚ©Ø³ÙĦÙĪØ§Ú©ÛĮ":6782,"Ø§ÙĦØ¨Ø§":6783,"ØŃÙħØ¯":6784,"Ø§Ø¨Ø¯":6785,"ĠÙħØ¯Ø±Ø³":6786,"ĠØªÙģÚ©":6787,"ĠÙĪØ§ØªØ±Ù¾ÙĦÙĪ":6788,"ĠÙĨØ¨Ø§Ø´Ø¯":6789,"ÙĦÛĮÙĨÚ¯":6790,"Ø§Ø±Ø¯ÙĪ":6791,"ĠÙħÛĮØ®":6792,"ĠØªØŃØ³ÛĮÙĨ":6793,"ÙħØ§Ø³ÛĮ":6794,"ama":6795,"ÙĪÙģØ³Ú©ÛĮ":6796,"ve":6797,"Ø±Ø¯Ø§Ùħ":6798,"ĠÙħÙĨØ¸Ùħ":6799,"ĠØ³Ø§Ø²Ø§ÙĨ":6800,"ĠØ´Ú©Ø³ØªÙĩ":6801,"ĠÛĮÙĪÙĩ":6802,"ĠØ¯Ø±ÙĪÙĨÛĮ":6803,"ĠØªØ¹ÙĦÙĤ":6804,"ØªÛĮÙĨÙħÙĨØª":6805,"ĠØ§Ø¹Ø¶Ø§":6806,"ĠØ·Ø¨Ø§Ø·":6807,"Ø§Ø¨Ø§Ø¯":6808,"Ø¯Ø§ÛĮ":6809,"ĠØ¯Ø§ÙĪØ±":6810,"ÙĬÙĨ":6811,"ĠÚ©Ù¾":6812,"ĠØ§Ø±ÙĪÙ¾Ø§ÛĮ":6813,"ĠÙħØ§Ø±ÙĪÙĦ":6814,"ĠÙ¾Ø±Ø¯ÛĮØ³":6815,"Ø¬ÛĮÙĨ":6816,"ĠÙģØ§ÙĨ":6817,"ĠÙħØŃØ§ÙģØ¸Ùĩ":6818,"ĠØ±ÙĪØ²Ùĩ":6819,"Ġuk":6820,"ĠØ¢ÙĪØ±ÙĨØ¯":6821,"ĠÚ©Ø§Ø±Ø¨Ø±ÛĮ":6822,"ĠÚĨØ±Ø§Øº":6823,"Ø§Ø±Ø´ÛĮ":6824,"Ø®ØªÙĨ":6825,"ĠØªØŃÙĤ":6826,"ĠØ±Ø´":6827,"Ġbro":6828,"ĠØ¨ÙĪÙĨ":6829,"ĠØ§ÙĨØªØ±":6830,"ĠØ§ÙħÙĪØ§Ø¬":6831,"ĠÙĦØ§ÙĨÚ©Ø§":6832,"ĠÙĤÙĪÙĩ":6833,"ÙĦØ§ÙĪ":6834,"ĠØ¨ÙĦØ§Ø±ÙĪØ³":6835,"ĠÙģØ§Ø¬":6836,"ĠÙĦÙĨÛĮÙĨ":6837,"Ø§Ø±ÙĩØ§ÛĮÛĮ":6838,"ĠÙħÙĪØ³ÙĪÙħ":6839,"ĠØªØ§Ø¨Ø¹ÛĮØª":6840,"ĠØ¬ÙĪØ§Ø¨":6841,"ĠÙĨÛĮÚ©ÙĪÙĦ":6842,"ĠØ§Ø³ÙĦÙĪØ§Ú©ÛĮ":6843,"ĠØ¢Ø´ÙĨØ§ÛĮÛĮ":6844,"ĠØ´Ø§ÙĨØ²Ø¯ÙĩÙħ":6845,"ĠÙħØ¹Ø§ÙĪÙĨØª":6846,"ĠØ§ÙĦÚ©ØªØ±ÙĪ":6847,"ĠØ´ÛĮØ¨":6848,"ĠØªØ±ÙĪØ±ÛĮØ³ØªÛĮ":6849,"ĠÛĮØ±":6850,"ĠØ³ÙĪÚ©":6851,"ØªÛĮØ³":6852,"ØªØ²":6853,"Ø®Ø§":6854,"ĠÚĺÙĨØªÛĮÚ©ÛĮ":6855,"ĠØ§ÙĦÚ©ÙĦ":6856,"ĠØ¯Ø±Ø¨Ø±":6857,"Ø¯ÙĪØ¯":6858,"ĠØ§Ø³ØªØŃÚ©Ø§Ùħ":6859,"ĠØ²ÛĮØ±Ø¯Ø±ÛĮØ§ÛĮÛĮ":6860,"Ø³Ø±Ø§ÛĮ":6861,"ĠØµØ¯ÙĪØ±":6862,"ĠØ¢Ø¨Ø´":6863,"ĠÙ¾Ø±ØªØºØ§ÙĦÛĮ":6864,"Ġcal":6865,"ĠÙĨØ§ÙħØ´Ø®Øµ":6866,"ĠØ§Ø¶Ø·Ø±":6867,"ĠÚ¯Ø±Ø¯ÙĨØ¯":6868,"ĠÙ¾Ø±Ø³ÙĨÙĦ":6869,"ÙģØªÛĮ":6870,"ĠØ³Ø±Ù¾Ø±Ø³Øª":6871,"ĠØ¢ÛĮÙĩ":6872,"ĠØ¨ÙĩØ§Ø¦ÛĮ":6873,"ĠØ¯Ø§ÙĪÙĪØ¯":6874,"Ġpet":6875,"ĠØ±Ø§ÙĨÙĨØ¯Ú¯Ø§ÙĨ":6876,"Ġwar":6877,"ĠÙħÙĨØªÙĤØ¯":6878,"ĠØ§ÙĦØ¯ÙĪÙĦÙĩ":6879,"ĠØ§Ø¬Ø²Ø§ÛĮ":6880,"ÙĦØ§Ø·":6881,"ba":6882,"ĠÙ¾Ø±ÙģØ±ÙĪØ´":6883,"ĠØ¨Ø§Ø²ÙĨØ´Ø³ØªÙĩ":6884,"ĠØ±Ú¯":6885,"Ġofficial":6886,"Ġwom":6887,"Ġpubl":6888,"ĠÚ©ÙĦÙħØ§Øª":6889,"ĠÙħØ±Ø§Ø¬":6890,"ĠÙ¾Ø¯ÛĮØ§":6891,"ĠÙħØªÙĨØ§":6892,"ĠØ¯Ø³ØªÙĪØ±Ø§ÙĦØ¹ÙħÙĦ":6893,"ĠØ§Ø³ØªÛĮÙĪ":6894,"ĠØ§Ø³ØªØ§Ø¯ÛĮ":6895,"ĠØ±Ø³ØªÙĪØ±Ø§ÙĨ":6896,"ĠÙħØ³Ø§ÙĪÛĮ":6897,"ĠØªØ±Ø§ÙĨ":6898,"ÚĨÛĮØ§ÙĨ":6899,"Ġpers":6900,"Ø¹Ø§ÙĨ":6901,"ĠØªØ«":6902,"ĠÙ¾Ø§Ø±Ø§ÙħØªØ±":6903,"Ø§Ø±ÛĮÙĩ":6904,"ĠÙħØŃØ¨ÙĪØ¨ÛĮØª":6905,"Ø§ÙħÙĦÙĩ":6906,"ĠØ§Ø³Ø§Ø·":6907,"ĠØ®ÙĨÚ©":6908,"ĠØ§Ø¯Ø¹Ø§ÛĮ":6909,"ĠØ¢ÙĪØ±Ø¯ÙĨØ¯":6910,"ĠØ§ÙĨØ³":6911,"ĠÙĩÙħØ§ÙĩÙĨÚ¯ÛĮ":6912,"ÙħØ¬ÙħÙĪØ¹Ùĩ":6913,"Ø¨ÙĪØ±ÙĨ":6914,"ĠÛĮÙĨ":6915,"ĠØ§Ø¨Ø±Ø§Ø²":6916,"ĠÚ©Ø§ÙĨØ¯ÛĮØ¯":6917,"ĠØ¹Ø§Ø±Ùģ":6918,"ĠÚĨØ±Ø¨ÛĮ":6919,"du":6920,"ĠÙģØ±Ø§Ø±ÛĮ":6921,"Ġchar":6922,"ĠÙħØ¹ÙħØ§Ø±":6923,"ĠÙ¾ÙĦØª":6924,"ĠÙ¾ÛĮØ¯Ø§ÛĮØ´":6925,"ĠÙ¾Ø§ÛĮÛĮØ²":6926,"ĠØªÙĪÙĤÙģ":6927,"ĠØ¢ÙĦÛĮØ§Úĺ":6928,"Ø¯Ø²":6929,"ĠØ¨Ø§Ùĩ":6930,"ĠØ³Ø±ÙĪØ±":6931,"ĠÙħÙĤØµØ¯":6932,"ĠØ¨Ø®Ø§Ø·Ø±":6933,"ĠØ¨Ø±ÙĨØ¬":6934,"ĠØªÙĦÙĤÛĮ":6935,"ĠØ¨Ø¯ÙĩØ¯":6936,"ĠØ§Ø¨Ø¯Ø§":6937,"ĠØ¬Ø§Ø²":6938,"Ġunder":6939,"ĠØªØŃØµÛĮÙĦÛĮ":6940,"ĠØ§ÙĨÚ¯ÛĮØ²Ùĩ":6941,"ĠÙģØ§Ø¬Ø¹Ùĩ":6942,"ĠÛĮØ§Ø±ÛĮ":6943,"ĠØ¢Ø°Ø±Ø¨Ø§ÛĮØ¬Ø§ÙĨÛĮ":6944,"Ġinternational":6945,"ĠØ®Ø§Ú©Ø³ØªØ±ÛĮ":6946,"ĠØ¨Ø²Ø±Ú¯Ø§ÙĨ":6947,"ĠÚ©Ø±Ú©":6948,"ĠÚ©ÛĮÙĪ":6949,"ĠØ¢Ø®":6950,"ĠØ´ÙĨØ§ÛĮ":6951,"ĠØ¯ÙĦØ§":6952,"ĠØªØ§ÛĮÙħØ²":6953,"Ġwebs":6954,"ÙģØ´Ø§ÙĨ":6955,"ĠÙĩÙħØ¨":6956,"ĠÙĨØ¬Ùģ":6957,"ÙħÙĪØ¯":6958,"ĠÛĮØ§Ø¨ÛĮ":6959,"ĠÛĮØ§Ùħ":6960,"ĠÙĪØ³ÛĮØ¹":6961,"ism":6962,"ham":6963,"Ú¯ÙĪÛĮÛĮ":6964,"ĠØ®ÛĮØ²":6965,"ĠØ±ÙĪØ§Ø¬":6966,"ĠØ§Ø³ØªØ¹Ø¯":6967,"ĠØ§ÛĮÙĦØ§Ùħ":6968,"Ø§ÙħÛĮÚ©":6969,"ĠÙħØŃØ¶":6970,"ÙģØ§ÙĨ":6971,"ĠØ¨Ø§Ø²Ø±Ú¯Ø§ÙĨ":6972,"ĠÙģÛĮÙĦØªØ±":6973,"ĠØ¹ÙħØ§Ø±Øª":6974,"ĠØ³Ø²Ø§Ø±":6975,"ĠÙģÙĪÚ©":6976,"ĠØ·Ø¨Ø±":6977,"ĠØ³Ù¾Ùĩ":6978,"Ġgro":6979,"ĠÙĩÙĪØ§Ù¾ÛĮÙħØ§ÙĩØ§ÛĮ":6980,"ĠØµØ®Ø±Ùĩ":6981,"ĠØ¹Ø§ÙĦÙħ":6982,"ÚĨØ§ÙĤ":6983,"ĠØ¨ØªÙĨ":6984,"ÛĮÚ©Øª":6985,"Ú©Ùħ":6986,"ĠØ·Ø§ÙĤ":6987,"ĠÙĨÙĪØ²Ø§Ø¯":6988,"ÙĨØ§Ø³":6989,"ĠÚ¯ÙĨØ¯Ùħ":6990,"ĠØ³ÙĪØ±Ø§Ø®":6991,"ĠÙģÙħÛĮÙĨÛĮ":6992,"ĠØºØ§ÙĦØ¨Ø§":6993,"Ġdel":6994,"ĠÙħØ·ÙĦÙĪØ¨":6995,"Ø§Ø±Ùħ":6996,"Ġhistory":6997,"ĠØ§Ú©ÙĦØ§ÙĩÙħØ§":6998,"ĠØ³Ø§Ø²ÙħØ§ÙĨØ¯ÙĩÛĮ":6999,"Ø§ÙĩØ§ÛĮÛĮ":7000,"ĠØ§Ø®ØªØµØ§ØµÛĮ":7001,"ĠÙĦØ§ÙĨ":7002,"ĠØ±Ø§ÙĨØ¯":7003,"ĠÙģØ§Ú©":7004,"ĠÚĨØ±Ø®Ø´":7005,"ĠØ¨Ø±Ú©ÙĨ":7006,"ĠÚ¯Ø±ÙħØ§ÛĮ":7007,"ÙĪØ§ÙĨÚ¯":7008,"ology":7009,"ons":7010,"ĠØ¶Ø±ÛĮØ¨":7011,"ere":7012,"Ġil":7013,"ĠØ¢ÙģØ±ÛĮÙĨ":7014,"ĠØ³ÛĮÙħØ±Øº":7015,"ĠØµØ§ÙĦØŃ":7016,"ĠÙģØ±Ø§ØªØ±":7017,"ĠØ®ÙĪØ¯Ø´Ø§ÙĨ":7018,"Ø´Ø§ÛĮÛĮ":7019,"ĠØªØ³ÙĦØ·":7020,"ĠÚ©Ø±ÛĮØ³ØªÛĮÙĨ":7021,"ĠØ³Ø±ÚĨØ´ÙħÙĩ":7022,"ĠØºØ§ÙĦØ¨":7023,"ĠØ²ÛĮØ±ÙħØ¬ÙħÙĪØ¹Ùĩ":7024,"unt":7025,"ĠÚ©Ø±Ø¬":7026,"ĠØ§ÛĮØ¯Ø¦":7027,"ĠÙĩØ®Ø§ÙħÙĨØ´ÛĮ":7028,"ĠÙĨØ§Ø³":7029,"ĠÙĨÙħØ§":7030,"Ø³Ø§ÙĪÛĮ":7031,"Ġkm":7032,"ĠÙħØŃØ§Ú©ÙħÙĩ":7033,"ĠÚ©ÙĪØ§ÙĨØªÙĪÙħÛĮ":7034,"ĠÙ¾ÙĪØ´ÛĮØ¯Ùĩ":7035,"ĠØ§Ø±Ø§Ú©":7036,"ĠØ´ÙģØ§Ùģ":7037,"ĠØ§Ø¯ÙĦ":7038,"ĠØªÙĪÙĦÛĮØ¯Ú©ÙĨÙĨØ¯Ú¯Ø§ÙĨ":7039,"ĠØ¹ÙĨÚ©Ø¨":7040,"Ø±ÙĪÚĺÙĨ":7041,"ĠØªØ±Ø´":7042,"Ġsa":7043,"ĠØ²Ø§Ú¯Ø±":7044,"ĠØ±ÛĮØ¯":7045,"ĠØ±ÙĪØ²Ú¯Ø§Ø±":7046,"ĠØ®Ø·Ø±ÙĨØ§Ú©":7047,"ĠØ§ÙĤØªØµØ§Ø¯Ø¯Ø§ÙĨ":7048,"ĠØ¹Ø§ÙħÙĩ":7049,"ĠØ®ÙĪØ±Ø§Ú©ÛĮ":7050,"ĠØ§ÙĤÙĦÛĮÙħ":7051,"Ġret":7052,"ĠÙĤØ§Ø¬Ø§Ø±ÛĮØ§ÙĨ":7053,"Ġje":7054,"ĠØ¸Ø§ÙĩØ±Ø§":7055,"ĠØ¨Ø±ÙĨØ¯ÙĩØ§ÛĮ":7056,"ĠÛĮÚ¯Ø§ÙĨ":7057,"ĠÚ©Ø§ÙħÛĮÚ©Ø³":7058,"ĠØªØ®ÙĦÛĮÙĩ":7059,"ĠØ¢ÙĨÚ¯":7060,"ĠÙħÙĩÙħØªØ±ÛĮÙĨ":7061,"ĠØ¢ÙĨØªÙĪÙĨÛĮÙĪ":7062,"oll":7063,"ĠÙħÛĮØ´ÙĦ":7064,"ĠÙĨÛĮÙĪÙħ":7065,"Ġcity":7066,"ĠÙ¾ÛĮØ±ÙĪÛĮ":7067,"ari":7068,"Ġev":7069,"ĠØ±Ø§ÙĨÛĮ":7070,"Ġcy":7071,"ĠÚ¯Ø§ÙĨ":7072,"ĠÚ©Ø±ÛĮØ³ØªØ§ÙĦ":7073,"ÛĮØ§ÛĮ":7074,"Ġnet":7075,"ĠØªØ§Ø±ÛĮÚ©":7076,"ĠØ¯ÙĪÙĨØ§ÙĦØ¯":7077,"ĠÙĨØ³Ø¨ÛĮ":7078,"ĠØ¢ÛĮÙĨÙĩ":7079,"ÙĪØ³Ùĩ":7080,"ĠØªØ±ÙĪØ±ÛĮØ³Ùħ":7081,"Ġfootball":7082,"ĠÚ©ÙĨØ³ØªØ§ÙĨ":7083,"ĠØ¬ØºØ±Ø§ÙģÛĮØ§":7084,"ĠØ¯Ø§ÙĪØ·":7085,"ĠÚĺÛĮÙħÙĨØ§Ø³ØªÛĮÚ©":7086,"ĠØ¯Ø®ØªØ±ÛĮ":7087,"ĠØªØ§ÛĮÙĪØ§ÙĨ":7088,"ĠØ¯ÙĩØ§ÙĨ":7089,"ĠØ¢ÙĦØ¨Ø±Øª":7090,"ĠØ±Ø§Ø¬Ø±":7091,"ĠØ§ÙĦÚ©":7092,"ĠØ§ÙĨØ¬Ø§ÙħÛĮØ¯":7093,"ĠØµÙĨØ¯ÙĦÛĮ":7094,"Ġga":7095,"ĠØªØ³Ùĩ":7096,"ĠØ¢ØªØ´ÙģØ´Ø§ÙĨ":7097,"ĠÚ¯Ø±Ø¯Ø¢ÙĪØ±ÛĮ":7098,"Ġht":7099,"ĠÙĩÛĮØªÙĦØ±":7100,"ĠÙĨØ¸Ø±Ø³ÙĨØ¬ÛĮ":7101,"ĠØ¨Ø±Ùģ":7102,"Ġid":7103,"ĠØªÙĤÙĦÛĮØ¯":7104,"ĠÙħÙĤØ±Ø±Ø§Øª":7105,"ĠÙĨØ§Ø¦":7106,"ĠØ¨Ø§Øª":7107,"ĠÙħØ§ÙĩÛĮØª":7108,"Ġup":7109,"Ø³ÛĮÙ¾ÛĮ":7110,"ĠÙħØ¹Ú©ÙĪØ³":7111,"ka":7112,"ĠØªØ±ÙĪÛĮØ¬":7113,"ĠØªÙĦÙģØ§Øª":7114,"ĠÚ¯ÙĪÙĨØ§Ú¯ÙĪÙĨÛĮ":7115,"ÙĦØ¯":7116,"ĠØ³Ù¾Ø§ÙĩÛĮ":7117,"ÙĪØ²ÙĪÙħ":7118,"ĠØ¯Ø§Ø±Ùħ":7119,"ĠØ³Ø§ÙĤ":7120,"Ø§ÛĮÙĦØ±":7121,"ĠØ§Ø³Ù¾ÙĪØ±Øª":7122,"ĠÙĩÛĮØ¯Ø±ÙĪÚĺÙĨ":7123,"fer":7124,"Ġamer":7125,"Ø§Ø¨ÛĮÙĨ":7126,"ĠØªØ²Ø±ÛĮÙĤ":7127,"ĠØ´Ú©ÙĦÛĮ":7128,"ĠØ§Ø®Ø°":7129,"ĠÙĤØ±ÙĤÛĮ":7130,"ĠØ³Ø§Ø®ØªØ§Ø±ÛĮ":7131,"ĠÙħØ¯Ø§ÙĪÙħ":7132,"ha":7133,"ĠÙģØ±Ø§Ú¯":7134,"ĠØ§ÙĪØ¨":7135,"ĠØŃØ§ÙħÙĦ":7136,"ĠØµØ§Ø¯Ø±Ø§Øª":7137,"ĠØ±Ø³ÛĮØ¯Ú¯ÛĮ":7138,"Ã¢":7139,"ĠØ§Ø³ÙĦÙĪÙĪÙĨÛĮ":7140,"ĠÙĪÙĦØ³":7141,"ĠØ¯ÙĩÙĦÛĮ":7142,"ĠÙģØ§ÙĨØªØ²ÛĮ":7143,"ĠÛĮØŃÛĮ":7144,"ĠØ¯ÙĪÙ¾":7145,"ĠØ¨ÙĨÚ¯ÙĦ":7146,"out":7147,"ĠØ¯ÙĪØ§Ø²Ø¯ÙĩÙħ":7148,"ĠØ¨Ø§ÙĦÛĮÙĨÛĮ":7149,"ĠÛĮØ¹ÙĤ":7150,"ĠØ¨Ø±ÚĨ":7151,"ĠØ³Ø§Ø®ØªÙħØ§ÙĨÛĮ":7152,"Ø®Ø§Øµ":7153,"Ø§Ø¨ØªÛĮ":7154,"ĠÛĮÙĪØ±":7155,"ĠÙħØ¹ÙĨØ§":7156,"ĠØ¨Ø§ÙĦÙĩ":7157,"ÙĤÙĦÛĮ":7158,"ĠØ¨Ú¯ÛĮØ±ÙĨØ¯":7159,"ĠØ³Ø±ÙĩÙĨÚ¯":7160,"ĠØ£":7161,"ĠÙĦÙĪØ¯":7162,"ĠÙĪÛĮØ±Ø§ÙĨ":7163,"ÙĪØ³ÙĨ":7164,"ĠØ§ØµÙģÙĩØ§ÙĨÛĮ":7165,"ĠÙħØªØ¯Ø§":7166,"ĠÙħØµØ±ÛĮ":7167,"ĠØ±Ø§ÙĩÙĨÙħØ§ÛĮ":7168,"way":7169,"ÙĪØªØ³":7170,"Ġwebsite":7171,"Ġport":7172,"ÚĺÛĮÙĪÙĨ":7173,"ĠØ¨Ø§Ø±Ùĩ":7174,"ĠØªØ±Ø§Ú©Ùħ":7175,"ĠØ¬Ø§ÙĨÙĪØ±":7176,"ĠÙĦÙĪØŃ":7177,"ĠÙħÛĮØ³ÛĮØ³ÛĮÙ¾ÛĮ":7178,"ĠØ¯Ø§ÙĨØ³ØªÙĨØ¯":7179,"ĠÙħØ§Ø±Ú©Ø³ÛĮ":7180,"ĠØ¯Ø§Ø¯Ú¯":7181,"ĠØ·Ø¨Ø±ÛĮ":7182,"ĠÙĨÙĪØ¯":7183,"ĠØ¹ÙĦÛĮØ§":7184,"uss":7185,"ĠÙģØ¶Ø§ÙĨÙĪØ±Ø¯":7186,"ĠØŃØ§Ú©ÙħØ§ÙĨ":7187,"ĠÙģØ±Ø´":7188,"ĠÙħÙĪØ§Ø²ÛĮ":7189,"ĠÙĪØ§ÙĤØ¹Ùĩ":7190,"ĠÛĮÚ©Ù¾Ø§Ø±ÚĨÙĩ":7191,"Ø§ÙĦÛĮØ³Øª":7192,"ĠØ§Ù¾Ø±":7193,"Ø¬ÙĨØ¯":7194,"ĠÚ¯Ø³Øª":7195,"ĠÙĩÙħÚ©Ø§Ø±Ø§ÙĨ":7196,"ĠÙĢ":7197,"ĠØ¨Ø±ÙĤÛĮ":7198,"ĠØ³Ø±Ø§ÛĮ":7199,"Ġdir":7200,"ĠØªÙģØª":7201,"ĠÙħØŃØ§Ø³Ø¨Ø§Øª":7202,"Ġmed":7203,"ĠÙĦØ§ÙĨÚ¯":7204,"ĠÚ©ÙħÙĪÙĨÛĮ":7205,"ĠØ³Ø±ÙĤØª":7206,"Ø·Ø¦Ùĩ":7207,"Ø±Ø¯ÙĪ":7208,"ĠØ´ØªØ§Ø¨":7209,"Ġrev":7210,"Ġmc":7211,"ĠÚ©Ø´ÛĮØ¯ÙĨ":7212,"ĠØªØ³Ø®ÛĮØ±":7213,"Ġchr":7214,"ĠØ±Ø§Ø¨Ø·":7215,"Ø¬ÙĨ":7216,"Ø§Ø´ØªÙĩ":7217,"ĠØ·Ø§ÙĦØ¨Ø§ÙĨ":7218,"ĠÙĩØ´Ø¯Ø§Ø±":7219,"Ø¯ÙĪÙĨ":7220,"ÙĩØ§ÛĮÙħ":7221,"ĠÙħØ³ØªÙĤÛĮÙħØ§":7222,"ĠØ§Ø³ØªØ±Ø§":7223,"ĠØºÙĪÙĦ":7224,"ode":7225,"ĠÙĤØ±Ø§Ø±Ø¯Ø§Ø¯ÛĮ":7226,"ĠÙĨØ§ÙħØ²":7227,"ĠØ§Ø²Ø§ÛĮ":7228,"ĠÙ¾ÙĪØ³ØªÙĩ":7229,"ĠÙĦØ·":7230,"ĠØ¢Ø³ØªØ§ÙĨÙĩ":7231,"ĠØ¬Ø°Ø§Ø¨":7232,"ĠØ´Ú©Ø§Ùģ":7233,"ĠØ±ÙģØ¹":7234,"ĠØ³ÙĪØ§Ø±Ú©":7235,"ĠÙħØ·Ø¨ÙĪØ¹Ø§Øª":7236,"ĠÙĩÙĪØ§Ø¯":7237,"ĠØ¬ÛĮÙħÛĮ":7238,"ield":7239,"ĠØ³Ø§Ø¦ÙĪ":7240,"ican":7241,"ĠØªØ§ÛĮÛĮ":7242,"ĠØ§ÙĦØ´":7243,"Ġwill":7244,"ĠØ¢ÙħÙĪØ²Ø§ÙĨ":7245,"ĠØ°ÙĩÙĨÛĮ":7246,"ĠØ¹Ø¨Ø±ÛĮ":7247,"ĠØ§ÙĦØ¨Ø±Ø²":7248,"ĠÙĦÚĺÛĮÙĪÙĨ":7249,"ĠÙĩØ§ÙĨØ³":7250,"ĠÚ©Ø§Ø±Ø§ÛĮÛĮ":7251,"ĠÛĮÙĪØ§Ø³":7252,"ĠØµØ±ÙģØ§":7253,"ĠØ¹Ø¬ÛĮØ¨":7254,"ĠØ§Ø±Ø§Ø¶ÛĮ":7255,"ĠØªÙĪØ·Ø¦Ùĩ":7256,"ĠÛĮÙĪØªØ§":7257,"ĠØ§ÙĤÛĮØ§ÙĨÙĪØ³ÛĮ":7258,"ĠØ¢ØªÙĨ":7259,"ĠØ®Ø±Ø¯Ùĩ":7260,"Ø¯ÛĮØ³":7261,"ĠÚ©ÙĦØ§Ø±Ú©":7262,"ĠØ¹ÙħÙĪÙħ":7263,"ĠØ·ÙĪÙģØ§ÙĨ":7264,"ien":7265,"ÙĨØ¬Ø§ÙĨ":7266,"Ø§Ø¨Ú©":7267,"ĠÙģØ±Ø§ÛĮÙĨØ¯ÙĩØ§ÛĮ":7268,"ĠØ²ÛĮØ±Ø²ÙħÛĮÙĨÛĮ":7269,"ĠÚ©Ø§ÙĨØªÛĮ":7270,"ĠØŃÚ©ÙĪÙħØªÛĮ":7271,"bert":7272,"ĠØ¨Ø¨Ø±":7273,"ĠØ¯Ø§Ø¯Ú¯Ø³ØªØ±ÛĮ":7274,"ĠÙĪØ³ÛĮØ¹ÛĮ":7275,"ĠÚ¯Ø²ÛĮÙĨÙĩ":7276,"ĠÙĨØ§ÙħÙĨØ¯":7277,"ĠÙħØ¹ØªÙĤØ¯ÙĨØ¯":7278,"ĠØ¢ÙĨØ¯Ø±":7279,"ĠÚ©ÙĦØ§Ùħ":7280,"ĠÙģØ±Ø§ÙĨØ³ÛĮØ³":7281,"ĠÙ¾Ø±Ø§Ú¯":7282,"ĠÙĩØ´ØªÙħÛĮÙĨ":7283,"ĠØ³Ø§Ø¯":7284,"ĠÙ¾ÛĮØ´Ú¯ÛĮØ±ÛĮ":7285,"ĠØªÙĦÙģØ¸":7286,"ĠÚ¯ÚĨ":7287,"ĠØ§ÙģØ²ÙĪØ¯":7288,"ĠØ¢Ø¯Ø±Ø³":7289,"ĠØ¬Ø§ÙĨÛĮ":7290,"Ø¸ÙħÛĮ":7291,"ĠØ²ÛĮØ§Ø±Øª":7292,"iet":7293,"ĠÙħØ¬ÙĩØ²":7294,"itt":7295,"ĠØŃØ³Ø§Ø³":7296,"ĠÙħØ¹ÙħØ§Ø±Ø§ÙĨ":7297,"ĠÚ©Ø§ÙħØ±ÙĪÙĨ":7298,"ĠØªØ±Ø¬ÛĮØŃ":7299,"ĠØ³Ø¦ÙĪÙĦ":7300,"ĠØ±ÙĪØ´ÛĮ":7301,"ĠÚ¯Ø±ÙħØ§":7302,"ĠÙħÙĪØ¯":7303,"ĠÙ¾Ø±Ø¯Ø§Ø®ØªÙĨØ¯":7304,"ĠÙĤØ§Ø¦Ùħ":7305,"ĠÙħØªØŃØ±Ú©":7306,"ĠÙģÛĮØ²ÛĮ":7307,"ĠØ¬Ø¹ÙģØ±ÛĮ":7308,"ĠØ§Ø±ÙĨ":7309,"ĠÙĩØ±Ú¯ÙĪÙĨÙĩ":7310,"ĠØ±ÙĪØ¯Ùĩ":7311,"ÙĪÙĩØ§":7312,"ÙħÙĪÙĦ":7313,"ĠØ¯Ø±Ø¨":7314,"ĠÙħØ¹Ø§ÙħÙĦÙĩ":7315,"ĠØªØ¹ÙħÛĮØ±":7316,"ĠØ¨ÙĦÙĪØ§Ø±":7317,"ĠØ¹Ø²ÛĮØ²":7318,"ĠÙħÙĨØ§ÙģØ¹":7319,"ĠÚ©ÙĪØ±ÙĪØ´":7320,"ĠØ¢ÙĦÙģØ±Ø¯":7321,"ĠØ´ÙĩØ±Ø¯Ø§Ø±":7322,"ĠØªØ§Ø¨ÙĦ":7323,"Ġloc":7324,"Ø§ÛĮÙĨÛĮ":7325,"ĠØ§Ø¹Ø²Ø§Ùħ":7326,"ose":7327,"ĠØ¯Ø²":7328,"ĠØ¯Ø®Ø§ÙĦØª":7329,"ÙģÛĮÙĤ":7330,"ĠÚ¯Ø±Ø§ÙģÛĮÚ©":7331,"ĠÚ©ØªØ¨":7332,"ĠØ¨Ù¾Ø±Ø¯":7333,"ĠÙĪØ¯":7334,"ĠØ¬ÙĨÚ¯ÙĦÛĮ":7335,"ĠÙ¾Ø±Ú©":7336,"ĠØ±ÛĮÙĨ":7337,"Ø§Ø³Ø§Ø²ÛĮ":7338,"ĠØ¯Ø±ØŃØ§ÙĦÛĮ":7339,"Ġcap":7340,"ÙĪÚĺ":7341,"ĠÙ¾Ø±Ø³Ø´":7342,"ĠØªÙĪÙħØ§ÙĨ":7343,"Ġcm":7344,"ĠÙħÛĮØ´ÙĪØ¯":7345,"ĠØ¨Ú¯Ø°":7346,"ĠØ§Ø³Ú©Ø§ØªÙĦÙĨØ¯ÛĮ":7347,"ĠÙĦØª":7348,"Ø¬ÛĮÙĩ":7349,"Ġaward":7350,"ĠÙ¾ÙĪØ±ÙĨÙĪ":7351,"ĠÙĩÙĨØ¯ÙĪØ³ØªØ§ÙĨ":7352,"Ø³Ùģ":7353,"Ġwe":7354,"ĠØªÙĤÛĮ":7355,"ĠØªØ§Ø¨Ø´":7356,"ĠØ±Ø§Ø¨ÛĮÙĨ":7357,"ĠÛĮØŃÛĮÛĮ":7358,"ĠØ®ÙĨ":7359,"ĠÙ¾Ø§ÛĮØ¯Ø§Ø±ÛĮ":7360,"ĠÙħÙĪØªÙĪØ±ÙĩØ§ÛĮ":7361,"ÙĪÚ©Ø§Ø±":7362,"ĠØ§ÛĮØ²ÙĪ":7363,"ĠØ¨Ø±Ø§ÛĮØ§ÙĨ":7364,"ĠÚ¯ÙĪØ§ÙĩÛĮ":7365,"ĠØ®Ø§Ø·Ø±Ùĩ":7366,"ĠÙħÙĨØ§ÙĤØ´Ùĩ":7367,"Ø¨ÙĦÛĮ":7368,"ĠØ¬Ø§Ø±ÛĮ":7369,"ÛĮÚ©ÙĨ":7370,"ĠÙĩØ§ÛĮØ´Ø§ÙĨ":7371,"ĠØ¯ÛĮÙĪØ§Ø±Ùĩ":7372,"ĠÙĦÙĪØ¨":7373,"ĠÙħØ¹Øµ":7374,"ÙĪÙħØ§ÙĨ":7375,"ĠØºØ²ÙĦ":7376,"ĠØŃØ¯ÛĮØ«":7377,"ĠØ§ÙħÙĦØ§Ú©":7378,"ĠØ®ÙĪØ²Ùĩ":7379,"Ġcor":7380,"bs":7381,"ĠÙĤØ¨Ø§ÛĮÙĦ":7382,"ÛĮÙĦÙĪ":7383,"Ø§ØªÙĪØ±ÛĮ":7384,"ĠÙĨÙĩØ§ÛĮØªØ§":7385,"ĠÙħØªØ¯Ø§ÙĪÙĦ":7386,"ĠØ¯Ø§ÙĨØ´Ø¬ÙĪ":7387,"ÙĪØ§ÙĨØ§":7388,"ĠØ§Ø³ÙĤÙģ":7389,"Ú¯Ø±ÙĩØ§ÛĮ":7390,"ÙĪÙĦÙĪÚĺÛĮÚ©ÛĮ":7391,"ĠØ¯Ø±Ø®Ø´":7392,"me":7393,"Ġdav":7394,"ÛĮØªÙĪ":7395,"ĠØ±ÙĪØ¯ÙĩØ§ÛĮ":7396,"ĠØ³ÙĦØ·Ùĩ":7397,"Ġber":7398,"igh":7399,"Ú©Ø²ÛĮÚ©":7400,"ĠÙĦÛĮÙĪÙĨ":7401,"ĠØ³ÙĪÙĨÛĮ":7402,"Ø§Ø²ÙĨØ¯":7403,"Ġtw":7404,"ÙĦØ³ÙĪÙĨ":7405,"ĠÙĩØ²Ø§Ø±Ø§ÙĨ":7406,"Ġsup":7407,"ĠØ³Ø±Ù¾Ø±Ø³ØªÛĮ":7408,"ĠÚ©ÙĪØ±Øª":7409,"ĠØ¢ÙħØ§Ø±ÛĮ":7410,"ĠØ²ÛĮØ³ØªÚ¯Ø§Ùĩ":7411,"ĠÙħÙĪØ±ÛĮØ³":7412,"ÙħÛĮÚ©":7413,"ĠØ§ÙĦØ§":7414,"ĠÙħØ°Ú©ÙĪØ±":7415,"ĠÙħÙĩØ§Ø±":7416,"ĠÙ¾ØªØ§ÙĨØ³ÛĮÙĦ":7417,"ject":7418,"ĠÙģÙĦØ²Ø§Øª":7419,"ĠÙģØ³Ø§Ø¯":7420,"ĠØ¢ÙģØ±ÛĮÙĨÛĮ":7421,"ĠØ³ÙĨØ§":7422,"ĠÚ©Ø§Ø±Ú¯Ø§Ùĩ":7423,"Ġrec":7424,"ĠØŃÙĪØ§ÙĦÛĮ":7425,"ĠØ´ÙħØ´ÛĮØ±Ø¨Ø§Ø²Ø§ÙĨ":7426,"ÙĨÙħ":7427,"Ġiv":7428,"ÙĪÙĨØªÙĪØ³":7429,"ĠÙĪÙĨÛĮØ²":7430,"ĠÙĩÙħØ§ÙĩÙĨÚ¯":7431,"ĠØ§Ø³ØªÙĤØ±Ø§Ø±":7432,"ĠØ®Ø²Ø±":7433,"ĠØ§Ø®ØªÙĦ":7434,"Ø§ÙĦÙĪ":7435,"Ú©Ø²ÛĮÚ©ÙĪ":7436,"ĠØ²Ø§Ú©":7437,"ĠÙĦÙĪØ³ÛĮ":7438,"ĠØ³ÙģØ§Ø±Ø´":7439,"Ø§ÙĦØ¯ÙĪÙĦÙĩ":7440,"ĠÚ©Ø§ÙĦØ§":7441,"ĠØªØ·Ø¨ÛĮ":7442,"ĠØ·Ø¨Ø§Ø·Ø¨Ø§ÛĮÛĮ":7443,"ĠÙĨØ§Ø¨ÙĪØ¯ÛĮ":7444,"ĠÚĨÚ¯Ø§ÙĦÛĮ":7445,"ĠÙħÚ©Ø³":7446,"ĠØ´Ø§ÛĮØ³ØªÙĩ":7447,"ĠÚ©ÙĨØªÛĮÚ©":7448,"ĠÙģÙĩÙħ":7449,"aj":7450,"dr":7451,"ĠÙģØ±ÙħØ§ÙĨØ¯Ø§Ø±ÛĮ":7452,"ĠÙħØ§ØªØ±ÛĮØ³":7453,"ĠÚ©ÙĨØªÛĮÚ©Øª":7454,"Ġche":7455,"Ø§ÛĮØ¨":7456,"ĠÙĤØ§ÙĩØ±Ùĩ":7457,"ĠØ±ÙĤÛĮØ¨":7458,"Ø³ØªÙĨ":7459,"ml":7460,"ps":7461,"ĠÙħØ¹ÙĨÙĪÛĮ":7462,"Ø±ÛĮØ´ÛĮ":7463,"ĠÙħØ·Ø§ÙĦØ¨":7464,"ĠÙģÛĮÙģØ§":7465,"ĠØªØ±Ø§ÙħÙ¾":7466,"ĠÛĮÙĪØ±ÙĪÙĪÛĮÚĺÙĨ":7467,"ĠØ²ÛĮØ±Ø³Ø§Ø®Øª":7468,"ĠÙĨÙĪÙĩ":7469,"ĠØ§Ø¹ØªØ±Ø§Ùģ":7470,"Ø§Ø¯ÙĦÙģ":7471,"ĠÚĨÙĨØ¯Ø§ÙĨ":7472,"ĠØ¢Ø²ÙħØ§ÛĮØ´ÛĮ":7473,"ĠØªÙĪØ±ÛĮ":7474,"ĠÙĨØ´ÙĪØ¯":7475,"Ø³ÙĪÙħ":7476,"ÙĪØ¯ÙĪØ±":7477,"Ġjul":7478,"ames":7479,"ĠØ´ÙĩØ±Ø§Ùħ":7480,"ĠÙĨØµÙģ":7481,"ĠØ§Ø«Ø±ÛĮ":7482,"ĠÚ©Ø±ÙĪØ²":7483,"Ġreg":7484,"ĠÙħØ§Ø±Ø´Ø§ÙĦ":7485,"ĠØ¨ÙĦÛĮ":7486,"ĠØ¬ÙĨÛĮ":7487,"ĠØ§Ø±ÙħÙĨÛĮØ§ÙĨ":7488,"Ø®Ø§ÙĨÛĮ":7489,"Ġgra":7490,"ĠØªÙģØ±ÛĮ":7491,"ÚĨØ§ÙĦ":7492,"ĠØªÛĮÙħÙĪØ±":7493,"ĠØ¹ÙĦÙħÛĮÙĩ":7494,"ĠØ¯Ú©ØªØ±ÛĮ":7495,"ĠØ¢ÙĦÙģØ§":7496,"ĠØ¨ÛĮØ²Ø§ÙĨØ³":7497,"ĠÙħÙĩØ±Ø¯Ø§Ø¯":7498,"ĠØ¢Ø±Ø§ÛĮ":7499,"ÙħØ±Ø¯":7500,"ĠÙģÛĮÙĦØ§Ø¯ÙĦÙģ":7501,"ĠÙĨØ§ÙħÛĮØ¯":7502,"ĠØ³ÛĮØ²Ø¯ÙĩÙħ":7503,"ĠÙħÛĮÙĩ":7504,"ĠÙĨÛĮÙĪÙħÚ©Ø²ÛĮÚ©ÙĪ":7505,"ĠØ¢Ø±Ø³ÙĨØ§ÙĦ":7506,"Ø¶Øª":7507,"ĠÙĩØ³ØªÛĮ":7508,"ĠØ§ÛĮÙĨÚĨ":7509,"ÙĦÙĪØ¯":7510,"ĠØªØ¹ÙĦÛĮ":7511,"ĠÚ¯Ø±Ú¯Ø§ÙĨ":7512,"ĠØ¨Ø§ØªØ±ÛĮ":7513,"ĠØ¶Ø¹Ùģ":7514,"ĠÙħÚ©Ø±":7515,"ĠÙĩÙĨØ¯Ø³Ùĩ":7516,"ĠØ¨Ø¯Ø±":7517,"da":7518,"ks":7519,"ĠØ®ÙĦØ§ÙĤ":7520,"ĠÙĤØ§Ø±ÚĨ":7521,"Ġsu":7522,"ĠÙĩÙĪØ§Ú¯Ø±Ø¯ÙĩØ§":7523,"ĠØ¢ÙĦÙĪÙħÛĮÙĨÛĮÙĪÙħ":7524,"ĠÙĨÙĩÙħÛĮÙĨ":7525,"ĠØ±Ø¹Ø§ÛĮØª":7526,"Ġpal":7527,"Ġdu":7528,"ĠÙģÛĮÙĦØ§Ø¯ÙĦÙģÛĮØ§":7529,"ĠØ±ÙĪÛĮÙĩ":7530,"org":7531,"Ġact":7532,"ĠÙģØ¹ÙĦ":7533,"ÙĦÙĪØ¨":7534,"Ġcam":7535,"ĠØ±ÙĪØ¨Ø±":7536,"ĠÚ©Ø±ÛĮÙħÛĮ":7537,"ĠÙĪØ³Ø¹Øª":7538,"Ø³ÙħÛĮ":7539,"ĠÙĨÚ¯Ø±ÙĪ":7540,"ĠÚ©Ø§ØªØ±ÛĮÙĨ":7541,"ÙĪØ¨Ø§":7542,"ĠÙģØ±Ø¹ÛĮ":7543,"ĠØ¨ØªÙĪØ§ÙĨÙĨØ¯":7544,"ÙĨÚ¯Ø§Ø±ÛĮ":7545,"ĠØ®ÙĪØ¯ÙħØ®ØªØ§Ø±":7546,"ĠÙĪØŃØ´":7547,"ĠØ®ÙĪØ¯Ø¯Ø§Ø±ÛĮ":7548,"ĠØ¬Øª":7549,"ÉĻ":7550,"ĠÙ¾ÙĨØ¯":7551,"ĠÙħØ´ØªÙĤ":7552,"ĠØ¶ÙĦØ¹":7553,"ĠÙħØ§Ø¯Ø±ÛĮ":7554,"Ú¯Ø±Ø§ÙģÛĮ":7555,"ĠÙģÙĦØ³Ø·ÛĮÙĨÛĮ":7556,"ings":7557,"ĠÚĨÙĪ":7558,"Ø´ØªØ§ÛĮÙĨ":7559,"ĠÙ¾Ø§Ø±Ùĩ":7560,"Ú¯ÙĪÛĮÙĨ":7561,"Ø§Ø¨ÙĨ":7562,"ĠÙ¾ÛĮØ´Ú¯Ø§Ùħ":7563,"Ġver":7564,"ĠÙħÙĩØ±Ø§ÙĨ":7565,"ĠØ§Ø³ØªØ¹ÙģØ§":7566,"ĠÙĨØªÙĪØ§ÙĨØ³Øª":7567,"ĠØ¬Ø§Ø¯":7568,"ise":7569,"ĠØ§Ø¯Ø¨":7570,"ĠÙħØ±Ø§Ø¬Ø¹Ùĩ":7571,"ĠØºØ°Ø§ÙĩØ§ÛĮ":7572,"Ġthumb":7573,"Ġder":7574,"ĠØ§ÛĮØ³ÙĦÙĨØ¯":7575,"ĠØªÙģÚ©Ø±":7576,"Ø±ÙĪÙ¾":7577,"ĠÙĪØ²ÛĮØ±ÛĮ":7578,"ĠØ§Ø´ÛĮØ§Ø¡":7579,"Ġda":7580,"Ġkh":7581,"ĠØ·Ø±Ø§ØŃØ§ÙĨ":7582,"Ġger":7583,"ĠÙģØ±Ø´ØªÙĩ":7584,"ĠÙĨØ§Ù¾Ø°ÛĮØ±":7585,"ĠÙĤØ±ÙĤÛĮØ²":7586,"ĠØ¯ÙĪØ¨":7587,"ĠÙ¾ÙħÙ¾":7588,"ĠØ¨Ø±ÛĮØªÛĮØ´":7589,"ĠÙĪÛĮØ¯ÛĮ":7590,"Ġter":7591,"ĠØ§Ø¯ÛĮØ§ÙĨ":7592,"ower":7593,"ĠØ§Ø¨Ø¯Ø§Ø¹":7594,"ĠÚ©Ø§Ø±Ø§Ú©":7595,"ĠØ¯ÛĮÙĨØ§ÙħÙĪ":7596,"ĠØ´Ú©Ø±":7597,"Ø§ÙĨØªØ³":7598,"Ø³ÙĪØ±":7599,"ĠØ³ØªÛĮ":7600,"Ú¯ÙĦØ§Ø³":7601,"Ġsol":7602,"ĠÙĦÛĮØªÙĪØ§ÙĨÛĮ":7603,"ĠÙ¾Ø±Ø³ÛĮ":7604,"ĠØ®Ø¯ÙħÙĩ":7605,"Ġhol":7606,"ĠØ§Ø®ØªÙĦØ§ÙĦØ§Øª":7607,"ØªØ§ÙĨ":7608,"ĠÙĤØ§ÚĨØ§ÙĤ":7609,"Ø±ÛĮØ±":7610,"ĠØ³ÙĨØ¯Ø±Ùħ":7611,"ĠØ¯ÛĮÙĪÛĮØ³":7612,"ĠØªØ´Ú©ÛĮÙĦØ§Øª":7613,"ĠØ§Ø±Ú¯":7614,"ĠØ¬Ø§ÛĮÚ¯Ø²ÛĮÙĨÛĮ":7615,"ĠÙ¾Ø§Ø¦ÙĪÙĦÙĪ":7616,"ĠØªØ±Ø§Ùģ":7617,"ĠÙĨØ¯Ø§Ø´ØªÙĨØ¯":7618,"ĠØ§ÙĦØ³ÙĦØ·ÙĨÙĩ":7619,"ĠØ¨Ø¯ÙĦ":7620,"ÙĨÛĮÙģ":7621,"ĠØ¨Ø±Ø³Ø§ÙĨØ¯":7622,"idge":7623,"ĠÙħØ®Ø²ÙĨ":7624,"ĠØ¨Ø§Ø²ÛĮØ§Ø¨ÛĮ":7625,"ĠØ³Ø§ÙħØ§ÙĨ":7626,"ÙĪØ¦ÛĮØ¯":7627,"ĠÙĩØ´ØªØ§Ø¯":7628,"Ġdistr":7629,"ĠØªØ´ÛĮ":7630,"ĠØ§Ø±Ø¨Ø§Ø¨":7631,"Ġlib":7632,"ĠØ¨ÙĩØ´ØªÛĮ":7633,"ĠÙĤØ§ÙĦÛĮ":7634,"ĠØ§Ø¨ÙĪØ§ÙĦØŃ":7635,"ĠØªØ¶ÙħÛĮÙĨ":7636,"ĠØªØ¹ÙĩØ¯":7637,"ax":7638,"ĠÙĨÛĮØ§Ø²ÙĩØ§ÛĮ":7639,"ĠÙ¾Ø§Ø±ØªÛĮ":7640,"ĠÙĪÙĦØ§Ø¯ÛĮ":7641,"ĠÙĩÙĪØ§Ø¯Ø§Ø±Ø§ÙĨ":7642,"ĠÚ©ÙĨÙĪØ§ÙĨ":7643,"ĠØ¨ÛĮØ§Ø¨Ø§ÙĨ":7644,"ÙĪØªÛĮÚ©":7645,"ĠØ§Ø³ÙħØ§Ø¹ÛĮ":7646,"ĠØ¢Ø¨Ø§Ø¯Ø§ÙĨ":7647,"ĠÙĪÙĦØ³ÙĪØ§ÙĦÛĮ":7648,"Ġass":7649,"ĠØ¹ØµØ¨":7650,"ĠÚ©ÙĪØ±Ùĩ":7651,"ĠÙĪØ±Ø´ÙĪ":7652,"ĠØ¨ÛĮÚĺÙĨ":7653,"ÙĨØ¸Ø±":7654,"ĠØ¯Ø§ÙĪØ±ÛĮ":7655,"ĠØ±Ø§ÙĩÙĨÙħØ§ÛĮÛĮ":7656,"ÙĪØ§Ú©":7657,"ĠÙĩØ±Ùħ":7658,"ĠÙĨØ§ØµØ±Ø§ÙĦØ¯ÛĮÙĨ":7659,"ĠÙħØ¹ÙĦÙĪÙħ":7660,"ĠØ¨Ø§Ø²Ø§Ø±ÛĮØ§Ø¨ÛĮ":7661,"Ø³ÛĮÙĪ":7662,"ane":7663,"ucn":7664,"ĠÙĨØ±Ø³ÛĮ":7665,"ĠÚ¯Ø§ÙĦØ±ÛĮ":7666,"ĠØ¨Ø§Ø±ÛĮÚ©":7667,"ull":7668,"ugh":7669,"Ġiucn":7670,"ĠØ¢ÙħÙĪØ®ØªÙĩ":7671,"ĠÙħÙĨØŃÙĨÛĮ":7672,"ĠÛĮÙĪÙĪÙĨØªÙĪØ³":7673,"Ø§ÙĩØ§Ùħ":7674,"able":7675,"ĠÙĤØ§Ø¹Ø¯Ùĩ":7676,"che":7677,"ĠØ§Ø³ØªØ§ÙĨØ¯Ø§Ø±Ø¯ÙĩØ§ÛĮ":7678,"ĠØ´Ú©Ø§ÛĮØª":7679,"Ñĥ":7680,"ĠØ¨Ú¯":7681,"ĠÙħØ¯Ø§Ø®":7682,"ĠØ¯ÙĪÙĤÙĦ":7683,"ĠØ§Ø³ÙĨ":7684,"ĠÚ©Ø§Ø±Ú©Ø±Ø¯":7685,"ope":7686,"ĠÙħÙĪØ¬ÙĪØ¯Ø§Øª":7687,"ÙĤØ±Ø§Ø±ÛĮ":7688,"Ġsouth":7689,"ĠÚ©ÙĨÙĪØ§ÙĨØ³ÛĮÙĪÙĨ":7690,"ĠØ¬Ø§ÙĨØ´":7691,"ÙĪØªØ±ÛĮ":7692,"ĠØ§ØŃØ³Ø§Ø³Ø§Øª":7693,"ĠÙĨÛĮÙħÛĮ":7694,"ĠÚ©Ø±Ø¨":7695,"ĠØªØ³Ø§ÙĪÛĮ":7696,"ĠØ§ÙĪÚ©Ø±Ø§ÛĮÙĨÛĮ":7697,"ĠØŃÛĮØ¯Ø±":7698,"ĠØ¬Ø§ÙĨØ¯":7699,"ØºÙĦÛĮ":7700,"Ġstr":7701,"ĠÙĨØ¨Ø±Ø§":7702,"ĠØ§Ø³ØªÙĪ":7703,"ĠØªÙĪØ§ÙĨØ³ØªÙĩ":7704,"ĠÙħÙĨÙģ":7705,"Ġnorth":7706,"Ġyork":7707,"ĠÙģØ±Ø®":7708,"ĠØŃÚ©ÙħØ±":7709,"ĠÙħØ§Ø¬Ø±Ø§ÛĮ":7710,"oss":7711,"ĠÙĦØ°Øª":7712,"ĠÙĤØ§ØªÙĦ":7713,"ĠØ´ÙĨÛĮ":7714,"ĠÚĨÙĩØ±":7715,"urg":7716,"ĠØ¬ÙĪÙĨÛĮÙĪØ±":7717,"ĠÙħØ§ÙĨÚ¯Ø§":7718,"ĠÙ¾Ø§ÙĪÙĦ":7719,"ÙĤØ¯":7720,"ĠÙħØ¨Ø¯ÙĦ":7721,"iam":7722,"Ú¯Ø§Ø³":7723,"ĠÙħÙĨÙĩØªÙĨ":7724,"ÙĦÙĨ":7725,"ĠØ§Ø±Ø´Ø§Ø¯":7726,"ĠØªØµØŃÛĮØŃ":7727,"ĠØªÙĨØ§":7728,"ĠØ§ÙĨÙĤØ±Ø§Ø¶":7729,"Ġsec":7730,"ĠØ¬ÙĩØ´":7731,"Ø§Ø¹Øª":7732,"ĠÙħØ´Ø§":7733,"ĠÙĨØ§Ø²Ú©":7734,"ĠÙħØŃØ§ÙģØ¸":7735,"ĠÚ¯ÙħØ´Ø¯Ùĩ":7736,"ĠØºØ°Ø§ÛĮ":7737,"ĠÙĨØ¨Ø±Ø§Ø³Ú©Ø§":7738,"ĠÙĪØ§Ø¨Ø³ØªÚ¯ÛĮ":7739,"ĠØ¨ÙĪØ¯Ø§ÛĮÛĮ":7740,"Ø¬ÙħÙĦÙĩ":7741,"ĠÙĦØ°Ø§":7742,"ĠØ¯ÛĮØª":7743,"Ġmay":7744,"ÛĮÙĨÚ¯ÙĨ":7745,"ĠØ¨Ø§ÛĮØ³Øª":7746,"ĠØªÙģÚ©ÛĮÚ©":7747,"ĠØ¬ÙĨØ³ÛĮØª":7748,"att":7749,"Ð»":7750,"ĠØ¨Ø±ÙĪÙħ":7751,"Ġmag":7752,"Ø§Ø¬ÛĮ":7753,"ĠÚ©Ø§Ø´ÛĮ":7754,"ĠÙħÙĪÙĦÛĮ":7755,"ĠØªØ«Ø¨ÛĮØª":7756,"ĠÚ©ÙĪØ´Ø´":7757,"ĠØ±ÛĮÙĩ":7758,"ĠÚ©Ø±Øª":7759,"ĠØŃÙģØ±Ùĩ":7760,"ĠØ±Ø§ÙĨÙĨØ¯Ú¯ÛĮ":7761,"ĠØŃØ±Ú©Ø§Øª":7762,"ÙħÙĪØ³":7763,"ĠÙĦÛĮÙĨÙĪÚ©Ø³":7764,"ĠØ§Ú©ÙĪØ§Ø¯ÙĪØ±":7765,"Ø§Ø±ØªÙħØ§ÙĨ":7766,"ins":7767,"ĠØ§Ø³Ú©ÙĨ":7768,"Ġko":7769,"ĠÙħØ°Ø§Ú©Ø±Ø§Øª":7770,"ĠØ§ÙĦØª":7771,"ĠØŃØ³Ø§Ø³ÛĮ":7772,"ĠÙ¾ÚĺÙĪÙĩØ´Ú¯Ø±":7773,"Ġste":7774,"ĠØ§Ø³ØªÛĮÙĦ":7775,"ĠÙĩÙĪØ§ÙĨÙĪØ±Ø¯ÛĮ":7776,"Ġtra":7777,"ĠÙ¾ÛĮÙĪØ³ØªÙĨ":7778,"ĠØ¢ÙĨØ¯Ø±Ùĩ":7779,"ĠØ²Ø®Ùħ":7780,"ĠØ¢Ø±Ø´":7781,"ĠØ¯ÙĪØ²":7782,"Ġent":7783,"ĠÙ¾ÙĦÙĩ":7784,"ĠÚ¯Ø§Ø²ÛĮ":7785,"ÙĨÚ¯Ø§Ùħ":7786,"ĠÙĦÛĮØ¨Ø±Ø§ÙĦ":7787,"ĠØ±ÙģØ³":7788,"Ġlo":7789,"ĠØ¢Ø«Ø§Ø±ÛĮ":7790,"ĠØ³ÙģÙĦÛĮ":7791,"ĠØ¬Ø§Ø³ÙĪØ³ÛĮ":7792,"ĠØ§Ø³ØªÙĪØ¯ÛĮÙĪÛĮÛĮ":7793,"ĠØ¯ÙĤÛĮÙĤØ§":7794,"Ø§ØªØ§ÙĨ":7795,"Ø¹Ø§ØªÛĮ":7796,"ĠÙĪØ¬":7797,"ĠÙ¾ÙĦÛĮÙħØ±":7798,"ĠÚ©Ù¾ÛĮ":7799,"ĠØ§Ù¾Ø±Ø§":7800,"ĠØ´ÛĮÙħ":7801,"ÅŁ":7802,"ene":7803,"ÙĪÙĪÙĨ":7804,"ĠÙħØ¬Ø§ÙĪØ±":7805,"ĠÙĦÛĮØ²Ø±":7806,"ĠÚ©ÙĦÙħ":7807,"ĠØ²Ø§Ùħ":7808,"ĠØ®Ø§ÙħÙĪØ´":7809,"ĠÚ©Ø±Ø§ÙĨÙĩ":7810,"ĠØ´Ø§ÛĮØ¹":7811,"ĠØªØ§Ø±ÛĮÚ©ÛĮ":7812,"ĠØ§ÙĨØªØ¸Ø§ÙħÛĮ":7813,"ĠÛĮÛĮ":7814,"ĠÙħØ«ÙĦØ«":7815,"ĠÚ©ÛĮÙĩØ§ÙĨ":7816,"Ø¶Ø§ÛĮÛĮ":7817,"ĠÙ¾ÙĪÙĨØ¯":7818,"ÙĪÙĨØ¯Ú¯Ø§ÙĨ":7819,"ĠØ®Ø§Ú©ÛĮ":7820,"Ġmap":7821,"Ø±Ú©Ø´ÛĮ":7822,"ient":7823,"Ġele":7824,"ĠØ¢ÛĮØ±Ø³":7825,"ĠØªÙĤÙĪÛĮÙħ":7826,"Ø§ÙĦÙģ":7827,"ĠÚ©ÙĪÙĩÙĨ":7828,"ĠÙĦÙĪÙ¾":7829,"ĠÙħÙħÙĨÙĪ":7830,"ĠØªÙĪØ§ÙĦÛĮ":7831,"ĠØ§ÙħØ§ÙħÛĮ":7832,"ĠÙĤÙĪØ§":7833,"ĠØ§Ø®ØªÛĮ":7834,"ĠØ¨Ø§Ø±Ø¯Ø§Ø±ÛĮ":7835,"ĠØ¯ÙģØ¹":7836,"ĠÚ©Ø§Ø±ÙĦÙĪØ³":7837,"ĠÙħÙĦØ§ØŃ":7838,"ĠØ¨Ø±ÙĤØ±Ø§Ø±ÛĮ":7839,"ĠÙģØ±Ø§ÙĨÚ©ÙģÙĪØ±Øª":7840,"ĠØ¨Ø§ÙĦØª":7841,"Ġlond":7842,"ĠÙĦÙĩØ¬Ùĩ":7843,"ĠØ§ÙģÚ©Ø§Ø±":7844,"ĠØ±Ø³Ùħ":7845,"Ù¾Ø§Ø´ÛĮ":7846,"Ġty":7847,"ĠÙħØ¤ÙĦÙģ":7848,"ĠØ³Ø§Ø®ØªØ§Ø±ÙĩØ§ÛĮ":7849,"ĠÙ¾ÛĮØ´Ø±ÙĪÛĮ":7850,"ĠÙĪÛĮÙĦØ³ÙĪÙĨ":7851,"ĠØ³ÙħÙĨØ§ÙĨ":7852,"ĠØ§Ø¹Ùħ":7853,"Ġpre":7854,"ĠØ¹Ø±ÙĪØ³ÛĮ":7855,"ĠÙĨØ¸Ø±Ø§Øª":7856,"ĠØ«Ø±ÙĪØªÙħÙĨØ¯":7857,"ĠØªÛĮØ±Ø§ÙĨØ¯Ø§Ø²Ø§ÙĨ":7858,"ĠÚ©ÛĮØ§":7859,"ÙĤÙĩØ±":7860,"ĠØ§Ø³ØªØ§ÙĨÛĮ":7861,"ĠÙĨØ§Ø´ÙĨØ§":7862,"ĠÙħÛĮØ¨":7863,"ĠÙ¾Ø±ÛĮÙĨ":7864,"ĠØ¢ÙĦØª":7865,"ĠÙĨÙħØ§Ø¯ÙĩØ§ÛĮ":7866,"ÛĮÙĨÚ¯Ø²":7867,"ĠÙħØ®ØªØ±":7868,"ĠØ³ÙĨØªØ±":7869,"ĠÙ¾Ø§ÛĮØ§ÙĨÙĩ":7870,"ĠØ´ÙĨØ§Ø³Ùĩ":7871,"Ø§Ø³ÙĦ":7872,"ĠÙĦÙĪÛĮÛĮ":7873,"ĠØ´ÙĩØ§Ø¨":7874,"ĠØ¹ÙħØ±Ø§ÙĨ":7875,"ĠØ§Ø³Ø§Ø·ÛĮØ±":7876,"ĠØ±Ø¶Ø§ÛĮØª":7877,"Ġfin":7878,"ĠØªÙĨÚ¯Ùĩ":7879,"Ġsan":7880,"Ġhel":7881,"ĠØ¨Ø§Ø²Ùĩ":7882,"ĠÙģØ±Ø¶ÛĮÙĩ":7883,"ĠØ®ÙĪÙĨÛĮ":7884,"ĠØ¢Ø°Ø±ÛĮ":7885,"ĠÙĩØ±ÙħØ²Ú¯Ø§ÙĨ":7886,"ĠØ¬Ø§Ø¨Ø¬Ø§ÛĮÛĮ":7887,"ĠØ§Ø´Ø±Ø§Ùģ":7888,"Ø³ÙĨØª":7889,"ĠØ³Ø±Øª":7890,"Ġà¤":7891,"ĠØ¯ÙĩÛĮÙħ":7892,"ĠØ¬ÙħØ§ÙĦ":7893,"ĠÙħØªÙĪØ§ÙĦÛĮ":7894,"ĠÙĤÙĨØ¯":7895,"ĠÙĤØ¶Ø§":7896,"ĠØ®Ø·Ø§Ø¨":7897,"oth":7898,"Ġant":7899,"ĠÙħØ±Ú©Ø¨":7900,"Ø±Ø§Ø·":7901,"ĠØµÙĪÙħ":7902,"ĠÙĨÙĤØµ":7903,"Ø¯Ø§ÙĦ":7904,"ĠØ§ÙħØ§Ú©ÙĨ":7905,"ĠÙħØªØ±Ø¬ÙħØ§ÙĨ":7906,"ĠØ³Ø±Ø¯Ø¨ÛĮØ±":7907,"Ġeur":7908,"ĠÙĦÙĪØ§Ø²Ùħ":7909,"ĠØ¨ÙĨÛĮØ§ÙĨÚ¯Ø°Ø§Ø±":7910,"ĠØ¨Ø±ÚĨØ³Ø¨":7911,"ĠØ±Ø§ÛĮØª":7912,"ko":7913,"ĠÚĨØ§Ø±ÙĦÛĮ":7914,"ner":7915,"Ø³Ø±ÙĪ":7916,"ĠØ§ÙħØ¶Ø§ÛĮ":7917,"ĠØ¯Ø´ÙħÙĨØ§ÙĨ":7918,"Ã¨":7919,"ĠØ¯Ø±Ø¢ÙħØ¯Ùĩ":7920,"ĠØ³Ø®ÙĨÚ¯":7921,"ĠØ¨ÙĨØª":7922,"ĠØ³ÙĪØ¯Ø§ÙĨ":7923,"ĠÙĪØ±Ø¯":7924,"ĠØ¯Ø§ÙĨÛĮÙĦ":7925,"ĠØ´Ø¹Ø§Ø±":7926,"ÙĤØ§Ø³Ùħ":7927,"ena":7928,"Ø§ÙĤØ¹":7929,"ĠÙĨØ³Ø¨":7930,"ĠØ±Ø§Ø³ØªØ§ÛĮ":7931,"Ġsn":7932,"Ú©Ø¯Ùĩ":7933,"ĠØ§ÙĦÙģØ¨Ø§ÛĮ":7934,"ÙħÙĪØ±":7935,"ĠØ¯Ø±Ø³ØªÛĮ":7936,"ĠÚ©Ø§Ø´Ø§ÙĨ":7937,"ĠØ¨ÙĪÙĦÛĮÙĪÛĮ":7938,"ove":7939,"ĠØŃØ´Ø±Ø§Øª":7940,"ĠÙĦÛĮÙĪ":7941,"ĠØ´Ø§ÙĩÛĮ":7942,"ÙģØ±Ø§ÙĨ":7943,"ĠØ·Ø¨Ø±Ø³ØªØ§ÙĨ":7944,"Ġstud":7945,"ĠØ§ÙĨØ¯Ø±ÙĪ":7946,"Ø§ÙĨÛĮØ§ÛĮ":7947,"ĠÙģØ±Ø³":7948,"ĠØ§Ø±ÙĨØ³Øª":7949,"ler":7950,"ĠÙĩÙħØ§ÛĮØ´":7951,"ĠÛĮÛĮÙĦ":7952,"ĠÙĤØ·Ø¨ÛĮ":7953,"ĠÙħØ£ÙħÙĪØ±Ø§ÙĨ":7954,"Ú¯ÙĪÙĨÛĮ":7955,"ĠØ·ÙĦØ§ÙĤ":7956,"ĠØ¨ÙĦÙĪØ±ÛĮÙĨ":7957,"ĠØ¹Ø³ÙĦ":7958,"Ġlondon":7959,"ĠØ¨Ø±ÙĪØ³":7960,"ĠØ¨Ø±Ø§Ø¨Ø±ÛĮ":7961,"ĠØ±ÛĮØ³Ú©":7962,"ĠØ§ÙĦØ¨":7963,"ĠÚ©ÙħÙ¾ÛĮÙĨ":7964,"ĠÚ©Ø±ÛĮØ³ØªÛĮ":7965,"ĠÚ¯Ø±Ø¬ÛĮ":7966,"ĠØŃÙĪØ¶Ùĩ":7967,"Ġjun":7968,"ĠØ§ÙĦÙħÙĦÚ©":7969,"ĠØ®ÙĪØ´ÙĨ":7970,"Ġdirect":7971,"ĠØ§ÙħÙĪØ§ÙĦ":7972,"mer":7973,"ĠØ¯ÛĮÙĪØ§ÙĨÙĩ":7974,"ca":7975,"ĠØ³ÛĮÙħÙĪÙĨ":7976,"ĠÙ¾Ø§ØªØ±ÛĮÚ©":7977,"ford":7978,"Ø¬ÙĪÛĮÛĮ":7979,"ĠØ´Ú©Ùħ":7980,"ĠØ´ÙĪØ±Ø§":7981,"ĠØ´ÙĪÚ©":7982,"ĠÚ©Ø±ÛĮØ³ØªÙĪÙģØ±":7983,"ĠØ§ÙĦØ³":7984,"ĠÙħØ¯Ø§Ø±Ú©":7985,"ĠØ®Ø±Ø§Ø¨":7986,"ĠØ³Ø§Ø²ÙĨØ¯":7987,"we":7988,"Ø²ÛĮÚ©ÛĮ":7989,"ĠØ¹Ø¬":7990,"ĠÙĨÙģØ¹":7991,"ĠÙħØ¹ÛĮØ§Ø±":7992,"ĠÙģÛĮØ¨Ø±":7993,"ĠØ·Ø±ÙģØ¯Ø§Ø±":7994,"ĠÙħÙĨØ§Ø¸":7995,"ĠØ§Ø¯ÙĦØ§ÙĨØªÙĩ":7996,"line":7997,"ĠØ³ÙĩØ±":7998,"ĠÙħØ°Ø§Ú©Ø±Ùĩ":7999,"ĠØµÛĮ":8000,"ott":8001,"ĠØ³ØªØ§ÛĮØ´":8002,"ĠØ³Ø§Ø¨":8003,"Ø¨Ø§ÙĦÙĩ":8004,"ĠÙĤØ¯Ø³":8005,"ĠØ²ØºØ§ÙĦ":8006,"ĠØ¹Ø±ÙĪØ³":8007,"ĠÚ©Ø±Ø¯Ùħ":8008,"ĠÙħÙĨÙĤØ±":8009,"ĠØ¯Ø±Ø®Ø´Ø§ÙĨ":8010,"ĠÚ©Ø§Ø±Ø´ÙĨØ§Ø³Ø§ÙĨ":8011,"ĠØªØ³ÙĩÛĮÙĦ":8012,"ĠÙħØ¹Ø§Ø¯ÙĨ":8013,"ĠØ¨ÙĨÚ¯ÙĦØ§Ø¯Ø´":8014,"ĠØ¯Ø§Ø±ÙĪÛĮ":8015,"Ġå":8016,"ĠØ¬Ø³Ø¯":8017,"ÛĮÙĨÚ¯ÙĩØ§Ùħ":8018,"Ø§Ø³ÙĪ":8019,"ĠÙĨÙĩØ¶Øª":8020,"ÙĪÙĨØ¯ÙĩØ§ÛĮ":8021,"ĠÙħÙĨÙĤØ±Ø¶":8022,"ĠØ§Ø¨ÙĪØ§ÙĦØŃØ³ÙĨ":8023,"ĠØ§Ø´Ø®Ø§Øµ":8024,"ĠÙĩØ±Ø²Ú¯ÙĪÛĮÙĨ":8025,"ĠÙĨØ§ÙħÙĨ":8026,"Ġwomen":8027,"Ø§Ø²ÙĪÙĨ":8028,"eder":8029,"ĠÚ©ÛĮØ³Ùĩ":8030,"ĠÙħØªÙĤØ§Ø¨ÙĦ":8031,"ĠØ«Ø¨Ø§Øª":8032,"ĠÙģØ±ÙĪØ®ØªÙĩ":8033,"ĠØ¹ÙħÙĪØ¯ÛĮ":8034,"ĠÙħØ§Ø¯ÛĮ":8035,"ĠÚĨÙĨØ¯ÛĮ":8036,"ĠØ§ÙĦØ®":8037,"Ø¨ÛĮØ§ÙĨ":8038,"ĠÚ¯Ø°Ø±Ø¯":8039,"Ġsal":8040,"ĠÚ©ÙĨÚ¯ÙĪ":8041,"ĠÙ¾Ø±ÙĪÙģØ³":8042,"ĠÚ¯Ø±ÙħØ³ÛĮØ±ÛĮ":8043,"ĠØ§Ø¹ØªØµØ§Ø¨":8044,"ĠØ¨Ø¯ÙĨÛĮ":8045,"ĠØªØ£Ø«ÛĮØ±Ø§Øª":8046,"Ġred":8047,"ĠØ´Ø§Ú¯Ø±Ø¯":8048,"ÙģÙĪ":8049,"Ù¾Ø§ÛĮ":8050,"ij":8051,"Ø±ÙĩØ§ÛĮ":8052,"ĠÙħØ´ØªØ±ÛĮØ§ÙĨ":8053,"ĠØ³Ø±ÙĨÚ¯":8054,"ĠÙħÙĨØªÙĩÛĮ":8055,"ĠØ¢ÙĨÛĮ":8056,"ĠÙģØ¶Ø§Ù¾ÛĮÙħ":8057,"ĠØªØ¹ÙĪÛĮ":8058,"ĠØ¢ØºØ§Ø²ÛĮÙĨ":8059,"ĠÙĨØ§ÙĪÚ¯Ø§ÙĨ":8060,"ĠØ³Ù¾Ø±ÛĮ":8061,"ÙħÙĪØ«":8062,"ĠÚĨÙĦØ³ÛĮ":8063,"ĠÙĤØ±ÙĤÛĮØ²Ø³ØªØ§ÙĨ":8064,"ĠØµÙĪÙħØ¹Ùĩ":8065,"ĠØªÙĪÙĨÙĦ":8066,"ÙĨÙĪØ§":8067,"ĠÙĦÛĮÙĨÚ©":8068,"ĠØ¹ÙĤØ§ÛĮØ¯":8069,"ĠØ²Ø§Ùĩ":8070,"ĠØ²Ø±Ø§":8071,"ĠØ¨Ø§ÙĨÙĪØ§ÙĨ":8072,"ÙģÛĮÙĩ":8073,"ĠØµÙģÙĪÛĮÙĩ":8074,"ĠÚ¯ÙħØ§ÙĨ":8075,"ÙĨØ¯ÙĪ":8076,"ĠØ±Ø³ÙĪØ¨":8077,"Ġfir":8078,"Ø§ÙĦÛĮØ§ÛĮ":8079,"ĠÙĦÛĮÙĦØ§":8080,"ĠØ¯Ø§Ø¯Ø³ØªØ§ÙĨ":8081,"ĠØ¨Ùħ":8082,"ĠÙĩÙħØª":8083,"ĠÙĦØ±ÛĮ":8084,"ÙĪØ²Ø§ÙĨ":8085,"ĠÙ¾Ø°ÛĮØ±Ø¯":8086,"stem":8087,"ĠØ³Ø§Ø¹Ø§Øª":8088,"ĠØ³Ù¾Ø§ÙĩØ§ÙĨ":8089,"Ø§ÙĪÛĮ":8090,"Ø¶Ø§Ø¹":8091,"ĠØ±ÙĨØ³":8092,"ÙģØ§Ø¹Ø§Øª":8093,"Ø§ÛĮØ´Ú¯Ø§Ùĩ":8094,"ÙĪÛĮÚ¯":8095,"Ġtext":8096,"ĠØ§ÙħÛĮÙĨÛĮ":8097,"ĠÙĨØ¨Ø±Ø¯ÙĩØ§ÛĮ":8098,"ĠØªØ£Ø«ÛĮØ±Ú¯Ø°Ø§Ø±":8099,"ĠØ¯Ø§Ú¯ÙĦØ§Ø³":8100,"ÙĨÙĩØ§Ùħ":8101,"ĠØ§ÙĨØªØ±ØªÛĮÙĨÙħÙĨØª":8102,"Ø¬ÙĪØ§ÙĨÛĮ":8103,"Ġur":8104,"ĠÙĪØ¹Ø¯Ùĩ":8105,"ĠØ²Ø¯ÙĨØ¯":8106,"ĠØºÙħ":8107,"ĠÛĮØ§Ø¨ÙĨØ¯":8108,"ĠÙħÙĪØ³Ø³":8109,"ĠØ§Ø±ØªÙģØ§Ø¹Ø§Øª":8110,"ĠÎ":8111,"ĠÙ¾ØªØ±Ø²Ø¨ÙĪØ±Ú¯":8112,"ĠÙ¾Ø§Ø±Ø§ÙĨ":8113,"Ġisland":8114,"ĠÙħÙĪÙĨØªØ§ÙĨØ§":8115,"ĠØªØ§Ø²":8116,"ĠØ³Ø§Ø²Ú¯Ø§Ø±":8117,"ÙĨÙĪØ§ÙĨ":8118,"ĠÙĩØ§ÙĪØ§ÛĮÛĮ":8119,"ĠØ·Ø±Ø²":8120,"ĠÙħÛĮØ§ÙħÛĮ":8121,"Ġare":8122,"ĠÙģØ±ÙĨØ§ÙĨ":8123,"ØŃÙĤ":8124,"ĠØ¯ÛĮÙĪÛĮÚĺÙĨ":8125,"ĠØ²Ø§Ø¯Ú¯Ø§Ùĩ":8126,"ĠÙħØŃÙħØ¯ØŃØ³ÛĮÙĨ":8127,"ĠÚ©ÛĮØ´":8128,"ĠØ¨ÙħØ§ÙĨØ¯":8129,"ĠÙħØ±Ø§Ø¯":8130,"ĠØ§Ø´ØªØºØ§ÙĦ":8131,"ĠØ¯Ø§ÙĨØ´Ø¬ÙĪÛĮÛĮ":8132,"uz":8133,"ÙĪÙĦØ§ÙĨ":8134,"ĠÙħÙģÙĩÙĪÙħÛĮ":8135,"ĠÙĤØ´":8136,"ĠÙģØ±Ø¯Ø±ÛĮÚ©":8137,"lex":8138,"ĠÙĨÙħØ§ÛĮØ§ÙĨ":8139,"ĠØ±Ø²Ùħ":8140,"sp":8141,"ĠÙģØ±ÙħØ§ÙĨØ±ÙĪØ§ÛĮÛĮ":8142,"ho":8143,"ĠØ³ÛĮØ§ÙĪØ´":8144,"ement":8145,"ĠÙģÛĮØ³":8146,"ÙĤÙĪÙĩ":8147,"ĠØ¯ÙĪØª":8148,"ĠÙĦÙĪØ³":8149,"ĠØ¯ÙĨÛĮÙĦ":8150,"ĠÙħÙĪØ³Ø³Ùĩ":8151,"ĠØ´Ø±ÛĮÚ©":8152,"Ġlist":8153,"ĠÙģÙĪØªØ³Ø§ÙĦ":8154,"ĠØµÙĦØ§ØŃÛĮØª":8155,"ĠØ´Ø§ÙĨØ³":8156,"ĠÙĨÙĪØ§Ø®Øª":8157,"ĠÙ¾ÛĮØ±ÙĪ":8158,"ĠØ²ÙĪØ±":8159,"ÙħÛĮÙĦÛĮ":8160,"Ġnov":8161,"Ø¨Ø§Ø®":8162,"Ø©Ø§ÙĦ":8163,"ĠÙħØ§ÛĮÙĩ":8164,"Ø¨Ø²Ø±Ú¯":8165,"Ø·Ø±Ùģ":8166,"ĠØ§ÙĪÛĮ":8167,"ĠÙħÚ©Ø¹Ø¨":8168,"ĠÙĨØ§Ø´ÙĨØ§Ø®ØªÙĩ":8169,"ĠÙħÙĤØ¯Ø§Ø±ÛĮ":8170,"ĠØ¹Ø¨Ø¯Ø§ÙĦØ±ØŃ":8171,"ĠØªØ£Ø®ÛĮØ±":8172,"ĠØªØ¨ÙĦÛĮØºØ§ØªÛĮ":8173,"ĠÙĨØ§Ø®Ø§ÙĦ":8174,"Ø²Ø§ÛĮÛĮ":8175,"ĠÚĨÙħ":8176,"ĠØ§Ø¹ØµØ§Ø¨":8177,"ĠÙĪØ±ÛĮ":8178,"ĠÙĪÛĮØ±Ø§Ø³Øª":8179,"Ġmuse":8180,"ĠÙĨÙĩØ§Ø¯Ùĩ":8181,"ĠØ®Ø´Ú©ÛĮ":8182,"ĠØµØ¯ÙĩØ§":8183,"ĠÙĨÙĪØ¢ÙĪØ±ÛĮ":8184,"ĠÙħÙĨØ¸ÙĪÙħÙĩ":8185,"ĠÙħØ§Ú¯":8186,"ĠØ¨Ø±Øª":8187,"ĠØ¨ÛĮØ±Ø¬ÙĨØ¯":8188,"ĠÙ¾Ø±ØªØ±Ùĩ":8189,"ĠØ§ØªØ±ÛĮØ´ÛĮ":8190,"ĠØ¹ÙĤØ§Ø¨":8191,"ĠØ§ØŃØª":8192,"ĠØ§ÙĪØ¶Ø§Ø¹":8193,"ĠØ±ÛĮØ®Øª":8194,"Ġcenter":8195,"ĠÛĮÙĪÙĨÛĮÙĪØ±Ø³ÛĮ":8196,"ĠØ§ÙĨØ¨ÙĪÙĩ":8197,"ĠØ§Ø³ÛĮØ±":8198,"ĠØ±Ø¶Ø§ÛĮÛĮ":8199,"ĠØŃØ³Ø§Ø³ÛĮØª":8200,"ĠØŃØ§ÙħØ¯":8201,"ĠÙħØªÙĤØ§":8202,"ĠÙĨØ¬ÛĮØ¨":8203,"ĠØ³ÙĨØ¯ÛĮ":8204,"ĠÚ©ÙĦÙĨ":8205,"ÙĨÙĨØ¯Ùĩ":8206,"ĠÚĨÙĩØ§Ø±Ø¯Ùĩ":8207,"ual":8208,"ĠÙ¾ÛĮÚ¯ÛĮØ±ÛĮ":8209,"ĠØªÙģØ±ÛĮØŃÛĮ":8210,"ĠÙĦØ±Ø¯":8211,"ĠØ¢Ø±Ùħ":8212,"Ġout":8213,"ÙĦØ§ÛĮ":8214,"Ġcat":8215,"Ġphot":8216,"ĠÙ¾ÙĪØª":8217,"ĠØ¬ÙĨØ¬":8218,"ĠÙĪÛĮØªØ§ÙħÛĮÙĨ":8219,"ĠÙ¾Ø±ÙĪÙģØ³ÙĪØ±":8220,"ĠØºÙĦØ¸Øª":8221,"ĠÙĩØ§Ø¨":8222,"ĠÙħØ¨Ø§ØŃ":8223,"Ġba":8224,"ĠÚ©Ø§ÙĨÙĪ":8225,"Ġarchive":8226,"ĠØ¯ÙĩÚ©Ø¯Ùĩ":8227,"ĠÙ¾Ø±ÙĪØ§Ø²ÛĮ":8228,"ĠÚ©ÙĪÙĩÛĮ":8229,"Ú©ÙĦÙĨ":8230,"ĠÛĮØ¹ÙĤÙĪØ¨":8231,"ĠØ³Ø§Ø¯Ú¯ÛĮ":8232,"ĠØ§Ø±Ø¬Ø§":8233,"ÙĦØ§Ú¯":8234,"Ù¾Ø²Ø´Ú©":8235,"ÙģØ±Ùħ":8236,"ustr":8237,"Ġmun":8238,"ĠÙĤØ§Ø¬Ø§Ø±ÛĮÙĩ":8239,"ÙĦØ§ÙĨÛĮ":8240,"ĠÙ¾ÙĪÛĮØ§":8241,"ĠÙĦÙĪÛĮ":8242,"ĠØ¨Ø±Ø²ÛĮ":8243,"ĠØ¬ÙĩØ§Ø¯":8244,"ĠØ§Ø³ØªØ¹ÙħØ§Ø±":8245,"Õ¡ÖĢ":8246,"ĠØ¨ØµØ±ÛĮ":8247,"Ġpark":8248,"Ġbook":8249,"ĠØ¢ÙħÙĦ":8250,"Ġunited":8251,"ĠÙĦØ§Ùĩ":8252,"ĠÚĨØ³":8253,"ĠØ§Ú©ØªØ´Ø§Ùģ":8254,"ØªØ¨ÛĮ":8255,"ĠØ·Ø§ÙĦØ¨":8256,"ĠÙħÙĤØ§ÙĪÙħ":8257,"ĠÙĩØ¯ÛĮÙĩ":8258,"ĠØ¹Ø¸":8259,"ĠÙģØ§Ú©ØªÙĪØ±":8260,"ĠÙĨÙĪØ§Ø¯Ø§":8261,"ĠÙĨØ§ÙĤ":8262,"ĠØ§Ø±Ùħ":8263,"vel":8264,"ĠØ¨Ø§Ø±Ø¨Ø§Ø±":8265,"ĠØªÙĪØ±Ùħ":8266,"ĠØ¹ÙĪØ§Ùħ":8267,"ĠÙĨØ´Ø§ÙĨÛĮ":8268,"ions":8269,"ĠÚ©Ø´ÛĮØ´":8270,"ĠÚ©ÙĨÛĮØ§":8271,"ĠÚ©ÙĪØ¦":8272,"ĠØ¯ÙĪØ±ÛĮ":8273,"Ġsur":8274,"ĠÙĪØ§Ù¾":8275,"ĠÙħØ®ØªÙĦØ·":8276,"ĠÙĩØ§ÙħØ¨ÙĪØ±Ú¯":8277,"ĠØ¨Ø§Ø²Ø§Ø±ÙĩØ§ÛĮ":8278,"Ġwest":8279,"ĠØŃÚ©ÙħØª":8280,"ĠÙĨÙĪØ¬ÙĪØ§ÙĨÛĮ":8281,"ĠØ¢Ø³ÛĮØ§Ø¨":8282,"ĠÙħØ´Ø§ÙĪØ±Ùĩ":8283,"ĠÙ¾Ø§Ø²":8284,"ÙĦØ§ØŃÛĮ":8285,"ĠØ³Ø±Ø´ÙĨØ§Ø³":8286,"ĠØ³ÙĪÚ¯":8287,"ĠØ±ÙĪÙĨÙĤ":8288,"ĠØ¨ÙĤØ§ÛĮØ§ÛĮ":8289,"ĠÙģÙĤØ±":8290,"ĠÚ¯ÙĪØ´ÛĮ":8291,"ĠØ³ÛĮÙĦÛĮÚ©":8292,"ĠØ²ÙĪØ¯ÛĮ":8293,"ĠÙħØ´ÙĩÙĪØ±ØªØ±ÛĮÙĨ":8294,"ĠØ¯ÛĮÙ¾ÙĦÙħØ§ØªÛĮÚ©":8295,"Ø´Ø§ÛĮØ±":8296,"ĠØ´Ø§ÙĦ":8297,"ĠÛĮØ§ÙģØªÚ¯Ø§ÙĨ":8298,"ĠÙĨØ¬ÙģÛĮ":8299,"ife":8300,"ĠØ³ÙĨØ¬ÛĮ":8301,"ĠØ³Ú©ØªÙĩ":8302,"ĠÙģØ§Ø¶ÙĦ":8303,"ĠØ¨ÙħØ¨Ø¦ÛĮ":8304,"ĠÙĨØ§Ø¯Ø±Ø³Øª":8305,"ĠØ§Ù¾ÛĮØ²":8306,"ĠÙħÙĩØ¯":8307,"Ø§ÙħÛĮØ¯":8308,"ĠØ¹Ø§Ø¯ÙĦ":8309,"ĠÙĤØ·Ø¹ÛĮ":8310,"ĠØ§Ø¨Ø±ÙĤÙĩØ±":8311,"ĠØ¢ÛĮÙĦÙĨØ¯":8312,"ĠØ´Ø§ÙĨÚ¯":8313,"aint":8314,"ĠÙĨÚ©ÙĨ":8315,"ĠØ§ÙĦÙħØ§Ø³":8316,"ĠÙ¾ÛĮÚĨÛĮØ¯Ú¯ÛĮ":8317,"ĠØ¨ÙĪØ¦ÙĨÙĪØ³":8318,"ĠØ§ÙĦØ²":8319,"ĠØ±ÙĪÛĮØ§ÙĦ":8320,"Ø§Ø³Ø±":8321,"ĠØ¬ÙħØ¹ÛĮØªÛĮ":8322,"ĠÙĨØ§Ø³ÛĮÙĪÙĨ":8323,"ĠÙħÛĮÙĩÙĨ":8324,"ĠÙħØµØ§ÙĦØŃ":8325,"vin":8326,"ĠÚ©Ø±ÙĪÙĨØ§":8327,"ĠØªØ§Ø«ÛĮØ±":8328,"Ø·ÙĪØ¨":8329,"ĠÚ©Ø§Ø±ÙħÙĨØ¯":8330,"ĠØ³Ú©ÙĪØª":8331,"ĠÙħØ¬ÙĦ":8332,"ĠÙħØ²Ø¯":8333,"Ø¢ÙħØ¯":8334,"Ø§ØªØ³":8335,"ĠÙ¾Ø®Øª":8336,"ĠÙģØ±ÙĪÙ¾Ø§Ø´ÛĮ":8337,"ĠØ¨Ø±Ú¯Ø²ÛĮØ¯":8338,"ĠØ¢Ø´ÙĪØ±":8339,"ĠÚ¯Ø±Ø¯Ùĩ":8340,"ĠØªÙĪÙĦÛĮØ¯Ø´Ø¯Ùĩ":8341,"ĠØ¬Ø§ÙĨØ´ÛĮÙĨÛĮ":8342,"ĠØ²Ùĩ":8343,"ĠØªÙĪØ±ÙĨ":8344,"Ø¹Ø¨Ø§Ø³":8345,"ĠÚ¯ÙģØªØ§Ø±":8346,"ĠÛĮÙĪÙģØ§":8347,"Ø¨ØªÛĮ":8348,"ĠÙĨØ®ÙĦ":8349,"ÛĮÙĦØªÙĪÙĨ":8350,"ĠØ¢ÙĨÚ¯Ø§Ùĩ":8351,"Ø¬ÙħÛĮ":8352,"ĠØ¬ÙĨØ¨":8353,"Ġkn":8354,"ĠÙĦÚ©":8355,"ÖĤ":8356,"ĠØ¨ÛĮØ±ÙĪØª":8357,"ĠØ±ØŃÙħ":8358,"ĠÙĩØ§Ø¯":8359,"ĠØ¨Ø®ÙĪ":8360,"ÙħØ¯Ø§Ø¯":8361,"ĠÚ©ÙģØ´":8362,"Ø±ÛĮÙĨ":8363,"ĠÙĪÚ©ÛĮÙĦØ§ÙĨ":8364,"ĠÙĨØ´Ø±ÛĮ":8365,"ĠÙħØ²Ø§ÛĮØ§ÛĮ":8366,"ÙħÙĦÛĮ":8367,"ÙĪØ®":8368,"ÙĪØ³ØªÙĪÙĨ":8369,"ĠÙħØ§Ø¦":8370,"ĠØ³ØŃØ±":8371,"ĠØªØ¨Ø¹ÛĮ":8372,"áĥ":8373,"ĠÙħØ±Ú¯Ø´":8374,"ĠØ§Ø¹ÙĦØ§ÙħÛĮÙĩ":8375,"ĠØ±ÙħØ²ÙĨÚ¯Ø§Ø±ÛĮ":8376,"ĠØªØµØ¯ÛĮ":8377,"ĠØ®ÛĮØ±ÛĮÙĩ":8378,"Õ¥Õ":8379,"ĠÙħÙĨØ§Ø³Ø¨ÛĮ":8380,"cr":8381,"Ø·Ø§Ùģ":8382,"ĠØ¹Ø«ÙħØ§ÙĨ":8383,"ĠÙĪØµÙĦ":8384,"ĠØ¯Ø§Ø±ÙĨØ¯Ú¯Ø§ÙĨ":8385,"ĠÙĨÙĪØ´ÛĮØ¯":8386,"Ġjan":8387,"ĠÙĦØªÙĪÙĨÛĮ":8388,"ÙģÛĮØ³":8389,"ĠÙ¾Ø§ÙĨØ²Ø¯ÙĩÙħ":8390,"ĠØ±ØµØ¯":8391,"ÙĪØªÙĪÙĨ":8392,"ĠÙ¾ÛĮÙĦ":8393,"ĠÙĦØ§ÛĮØŃÙĩ":8394,"ĠÙħØ³Ø¦ÙĪÙĦØ§ÙĨ":8395,"Ø§ÙĪØ§":8396,"Ġmac":8397,"ĠØ¨Ø±Ø²ÛĮÙĦÛĮ":8398,"Ú¯Ø°Ø§Ø±Ø§ÙĨ":8399,"ĠØ³Ø§ÙĦÚ¯Ø±Ø¯":8400,"Ġlang":8401,"ĠÙħÚ©Ø§ÙĨÛĮØ³Ùħ":8402,"ĠÛĮÙĦ":8403,"ĠØ¨ÛĮØ§Øª":8404,"ĠØ³ÙĦÛĮÙħØ§ÙĨÛĮ":8405,"Ø¨Ø§Ø¹":8406,"Ġvo":8407,"ĠØ¨ÙģØª":8408,"ĠØºÛĮ":8409,"iver":8410,"ĠÚ©ÙĦÛĮØ³Ø§ÙĩØ§ÛĮ":8411,"ĠØªØ³ÙĦÛĮ":8412,"Åį":8413,"ĠØ¬ÙĪØ²":8414,"ĠÙħØªÙĨÙĪØ¹":8415,"ĠØ§Ø±ØªØ¯":8416,"ĠÙ¾ÛĮØ´Ùĩ":8417,"ĠØ³ÙĨØªØ²":8418,"ÚĨÙĨ":8419,"Ġphil":8420,"ĠÙħÙĤØ¯ÙĪÙĨÛĮÙĩ":8421,"ĠØ±ÙģØªØ§Ø±ÛĮ":8422,"ĠØ¯Ø§ÙĨØ´Ø¬ÙĪÛĮ":8423,"ĠØ¯ÙħØ´ÙĤ":8424,"ĠØ¢ÙĦÙĪØ¯Ùĩ":8425,"ĠÙĤØµ":8426,"ØªÛĮÙĪÙ¾ÛĮ":8427,"ĠÙħÙĪÙĨØªØ±":8428,"ĠØ¯Ø§ÙĪØ·ÙĦØ¨":8429,"ĠØ´ÙĪÙĨØ¯Ùĩ":8430,"Ø´Ú©ÙĨ":8431,"ĠØ³Ø§ÙħÙĪØ¦ÙĦ":8432,"ĠØªØ¨Ø±ÛĮØ²ÛĮ":8433,"ĠØ³Ø¹Ø¯":8434,"Ø§Ø´Ø§Ùĩ":8435,"ke":8436,"ĠØ¨ÙĨÛĮØ§Ø¯ÛĮ":8437,"ĠØ±Ø§ÛĮØ§ÙĨ":8438,"ĠÙ¾ÙĪØ´Ø§Ú©":8439,"ĠÙĩÙħØ¨Ø³ØªÚ¯ÛĮ":8440,"Ø¨ÛĮØ§":8441,"ĠÙĦÛĮÙĨÚ©ÙĦÙĨ":8442,"Ġtur":8443,"ĠØ®ÛĮØ§ÙĨØª":8444,"ĠÚ©Ø±ÛĮØ³Ùħ":8445,"ĠØ±Ø§ÙĩØ¨Ø±Ø¯":8446,"ĠÙĩÙĪØ´ÙĨÚ¯":8447,"ĠÙħØ§ÙĨØ¯ÙĨ":8448,"ĠÙħÙģØµÙĦ":8449,"ĠØ¨ÛĮÚ¯Ø§ÙĨÙĩ":8450,"ØªÛĮØ³Øª":8451,"ĠØ§Ø¨Ø±ÛĮØ´Ùħ":8452,"Ø¯Ø§Ø¯ÛĮ":8453,"ĠØ§Ø±ØªÙĤØ§":8454,"ĠØ³Ø±ØªÛĮ":8455,"ĠØ²Ø±ØªØ´Øª":8456,"bc":8457,"ĠÙ¾Ø§Ø±Ø§Ú¯ÙĪØ¦Ùĩ":8458,"ĠØ¨ÙĦÙĨØ¯ØªØ±ÛĮÙĨ":8459,"ĠØ§ÙģØ³Ø±Ø¯Ú¯ÛĮ":8460,"ĠÙĩÙĪÙħ":8461,"ĠØ®ÙĪÛĮ":8462,"Ú©Ø§ÙĦ":8463,"ĠÙĨÙĪÛĮ":8464,"ĠØŃØ±Ú©ØªÛĮ":8465,"ĠØ¯Ø§Ø¹Ø´":8466,"Ġtv":8467,"Ø³ÙĨÚ¯ÛĮ":8468,"ĠØ§ÙħÛĮÙĦÛĮ":8469,"ĠØ®Ø§ØµÛĮØª":8470,"ĠÙħØªÙģÙĤ":8471,"ĠØ¯Ø²Ø¯ÛĮ":8472,"Ġmer":8473,"ĠÛĮÙĪÙĨÛĮÙĪØ±Ø³Ø§ÙĦ":8474,"Ø³ÛĮÙĩ":8475,"Ø®ÛĮØ²":8476,"ĠÙħØ³ØªØ¹Ø§Ø±":8477,"ĠØ¹Ø±ÙģØ§ÙĨ":8478,"ĠØ¯ÙĪØ´ÙĨØ¨Ùĩ":8479,"ĠÙĩÙħÚ©Ø§Ø±":8480,"Ø±ÛĮØ²ÛĮ":8481,"Õ¡Õ¶":8482,"ĠÚĨØ§ÙĤ":8483,"ĠÛĮØ§Ø²Ø¯Ùĩ":8484,"Ø§ÙĩÛĮÙħÛĮ":8485,"Ġbas":8486,"ĠØªØ®ØµØµ":8487,"ĠØªØ¹ÙĦÛĮÙħ":8488,"ĠØ³Ø¨Ø²ÙĪØ§Ø±":8489,"ĠÙħØ±Ø³Ø¯":8490,"ĠØ¨Ø±ØªØ±ÛĮÙĨ":8491,"ĠÙĪØ¶ÙĪ":8492,"ĠÚ©Ø§Ø±Ø§Ø¦ÛĮ":8493,"ĠØŃØ§ÙĦØ§":8494,"ĠØªØµÙĪÛĮØ±Ø¨Ø±Ø¯Ø§Ø±ÛĮ":8495,"Ġmic":8496,"ĠØ§ØŃÚ©Ø§Ùħ":8497,"Ġsystem":8498,"ĠÙģØ¶ÙĦ":8499,"ĠÙħÙĪÙĨØ§Ú©ÙĪ":8500,"let":8501,"ĠØªÙĪÙĩ":8502,"ĠØ¢Ø³ØªÛĮÙĨ":8503,"ĠØºØ§Ø±Øª":8504,"ĠÙħØ¯Ø§Ø®ÙĦÙĩ":8505,"ĠØ¹Ø§ÙĦ":8506,"Ù¾ÙĪØ´":8507,"ĠØŃÙģØ§Ø±ÛĮ":8508,"ĠØ´Ø±Ø§ÛĮØ·ÛĮ":8509,"ĠÙħØ¬Ø§Ùĩ":8510,"ĠØ¨Ø¹ÙĨÙĪØ§ÙĨ":8511,"ĠÙ¾ÙĪØ¯Ø±":8512,"Ø§ÙĨÛĮÙĪÙħ":8513,"ĠØ§ÙĦØªÙĩ":8514,"Ø§ÛĮØ±ÛĮ":8515,"ĠÙģØªÙĪ":8516,"ett":8517,"ĠØ§Ø¨ÙĪØ§ÙĦÙĤØ§Ø³Ùħ":8518,"ĠØ¢Ø±ÙħØ§ÙĨ":8519,"ĠÙĨÙĩÙĨÚ¯":8520,"ĠØ§ØªÛĮÙĪÙ¾ÛĮ":8521,"Ġdf":8522,"ĠØ°Ø±Ùĩ":8523,"ĠÙĩÙħÙ¾ØªÙĪÙĨ":8524,"Ġmi":8525,"ĠØ²ÙĨØ§ÙĨÙĩ":8526,"ĠÙħØ¹ØªØ±Ø¶Ø§ÙĨ":8527,"ĠØµØ¯Ø§Ù¾ÛĮØ´Ùĩ":8528,"Ø±ÙĪØ¨":8529,"ĠÚ©Ø±ÛĮØ³ÙħØ³":8530,"ĠØ¬Ø§ÙĦØ¨":8531,"ĠØ¯Ø±Ø¬":8532,"ĠØ´Ø§Ø¯ÛĮ":8533,"ĠØ´Ø§ÙĨÙĩ":8534,"ĠÙĤÙĪØ§ÛĮ":8535,"ĠØ§ÙĨØ¹Ø·Ø§Ùģ":8536,"Ø§ÛĮØ³":8537,"ĠØ¨Ø±ÙĩÙħ":8538,"ĠØ§ÙĨØªÙĤØ§Ø¯ÛĮ":8539,"ĠÙħØµØ¯ÙĤ":8540,"ĠØ§ÙĨØ¬ÛĮÙĦ":8541,"ĠØ¨Ø±ÙĪØ¬Ø±Ø¯":8542,"ĠØ§ÛĮÙĦÛĮ":8543,"ĠÙĨÙĤØ´ÛĮ":8544,"ÛĮÚ©Ø§ÙĦ":8545,"ĠØŃÚ©ÛĮÙħ":8546,"ÙĨØ§Øª":8547,"led":8548,"ĠØ§Ø³Ù¾Ø§Ø±Øª":8549,"ĠÙĪØŃÛĮØ¯":8550,"Ġwr":8551,"ĠØ³Ø¹Ø¯ÛĮ":8552,"pa":8553,"ĠØ¯Ø§ÛĮÙĨ":8554,"ĠÙĪÙĦÙģ":8555,"Ġwal":8556,"ĠØªÙħØ§ÛĮØ²":8557,"wood":8558,"ino":8559,"ĠØ¯ÛĮÙ¾ÙĦÙħ":8560,"ĠÙ¾Ø§Ø´Ø§":8561,"ĠØ±Ø§Ú¯":8562,"ĠÚ¯ÙĪØ§Ùĩ":8563,"ĠØ§Ø´Ø±Ùģ":8564,"ÙħÙĪØ²":8565,"ÚĨÙĦ":8566,"ĠØ¯Ø®ØªØ±Ø´":8567,"ĠÙħØ±Ø·ÙĪØ¨":8568,"Ġpu":8569,"ĠÙĨÙģÙĪØ³":8570,"ĠØ¨ÙĦÙĪØº":8571,"ĠÙĩØ³ØªÙħ":8572,"Ġbest":8573,"ĠØ§ÙĨØ¯Ø±ÙĪÛĮØ¯":8574,"ĠÛĮØ§Ø³":8575,"ÙĪØ±Ø§Ø³":8576,"ĠØ¨Ø±ÙĪ":8577,"ĠÙĦØ§ÙĦÙĩ":8578,"Ġinst":8579,"ĠØ³ÙĪØ±ÛĮ":8580,"ĠØµÙĪÙģÛĮ":8581,"ĠÙĪÙĨØ¯":8582,"Ġkar":8583,"ĠÙĨØ¯Ø±":8584,"ĠÙĤÙĪØ±":8585,"ĠÚĨÙĩØ±ÙĩØ§ÛĮ":8586,"ron":8587,"ĠØ´ÙĦÙĪ":8588,"ĠØ§Ø³Ú©ÙĨØ¯":8589,"ĠØ§Ø¬ØªÙħØ§Ø¹":8590,"ĠØ±ÙĪÛĮØ¯Ø§Ø¯ÙĩØ§":8591,"ĠØ§Ø³ØªÙĪØ§Ø±Øª":8592,"ĠØªØ¨Ø±":8593,"Ġsub":8594,"ĠØªØ¹ÙĦÛĮÙĤ":8595,"Ġrel":8596,"ĠØªØ±Ø§ÙģÛĮÚ©":8597,"Ú¯Ø§Ø±Ø§ÙĨ":8598,"ĠØ¨Ø±Ù¾Ø§":8599,"Ġtownship":8600,"ĠÙħØ§Ú©Ø³":8601,"ĠÙģØ±ÙħØª":8602,"ĠÙĨØ§Ú¯ÙĩØ§ÙĨÛĮ":8603,"Ø§ÙĦØ³":8604,"Ø§ÙģØª":8605,"be":8606,"ĠØ§Ø³Ù¾ÛĮÙĨ":8607,"ĠØ³Ø¯ÛĮÙħ":8608,"ĠØ·Ø±ÙģÛĮ":8609,"ĠÚ©ÙĪØ¯ØªØ§ÛĮ":8610,"ĠÙħØ³ÛĮØ±ÙĩØ§ÛĮ":8611,"Ú¯Ùħ":8612,"ĠÙ¾Ú©ÙĨ":8613,"ĠØ³Ø§Ø²Ú¯Ø§Ø±ÛĮ":8614,"ĠÙĪÙĨÚ©ÙĪ":8615,"ĠØ¯Ø±Ú¯Ø§Ùĩ":8616,"ĠÙħØ¨Ø§Ø¯":8617,"ĠÙħØ§ÙĪØ±":8618,"ĠØ¨Ø±Ú¯Ø±Ø¯":8619,"ĠØ¬ÙĪÙĦÛĮ":8620,"ĠØ®ÙĪØ±Ø¯Ú¯ÛĮ":8621,"ĠØ±Ø§Ø³ÙĦ":8622,"ĠÙĨÛĮØ§Ø²ÛĮ":8623,"hel":8624,"ĠØªØ£Ø³ÛĮØ³Ø§Øª":8625,"ĠØ±Ø§ÛĮÙĨ":8626,"ĠÚ©ÙĩÙĨÙĩ":8627,"Ù¾Ø²":8628,"ĠÙħØ¯ÛĮÙĨÙĩ":8629,"ĠØ³ÙĪØ³ÛĮØ§ÙĦ":8630,"ĠØªØŃØ±ÛĮØ±":8631,"ÛĮØ§ÙĨ":8632,"ĠÙħØ¹ÙħØ§ÛĮÛĮ":8633,"ĠÙĩØ¬Ø¯ÙĩÙħ":8634,"ÙĪÚ©Ø±":8635,"ĠØ¨Ø²ÙĨ":8636,"ĠØ§ÙĦØ±":8637,"ĠÙĨØ§Ø¯ÛĮ":8638,"ĠÙĦØ´Ú©Ø±Ú©Ø´ÛĮ":8639,"ĠØ¢Ø´ØªÛĮ":8640,"ĠÛĮØ§ÙĦ":8641,"ĠØ®Ø´ÙĨ":8642,"Ú¯Ø±Ø§Ùģ":8643,"ĠØ±ÙĪØ¨Ùĩ":8644,"ĠÙĨÙĪØ´":8645,"ĠØ´ÙĨØ§Ú¯Ø±":8646,"ĠØ§Ø¨ØªÙĦØ§":8647,"ĠØŃØ§ÙħÛĮØ§ÙĨ":8648,"Ġci":8649,"ĠØ®ÙĪØ§ÙĩÛĮ":8650,"ĠØªØ±Ú©ÙħÙĨØ³ØªØ§ÙĨ":8651,"ĠÙĪØ§Ú©Ø³ÙĨ":8652,"ĠØ±Ø§Øª":8653,"ĠÙĨÙĪØ³Ø§ÙĨ":8654,"so":8655,"ÙĪÚ©Ø§Ø³Øª":8656,"ĠÙĦØ§ÛĮÙĨ":8657,"ĠØµÙģÙĪÛĮØ§ÙĨ":8658,"ĠØµØ§Ùģ":8659,"Ġmf":8660,"ĠØªØ¨Ø¹ÛĮØ¶":8661,"ĠØ¯Ø±Ø³ÛĮ":8662,"ĠÙħÚ©Ùĩ":8663,"ĠÚ©ÙĪØ±ÛĮ":8664,"ĠØ³Ú©Ø³":8665,"ĠØªØ±Ø³ÛĮÙħ":8666,"ĠØ´Ø®ØµÛĮØªÛĮ":8667,"ĠÙħØ±ÛĮØ®":8668,"ĠØ®ÛĮØ§Ø¨Ø§ÙĨÛĮ":8669,"ĠÚ©ÙĨØ³ØªØ§ÙĨØªÛĮÙĨ":8670,"ĠÙĪÙĨÚ©ÙĪÙĪØ±":8671,"ĠØ¨Ø§ÙĦÙĤÙĪÙĩ":8672,"ĠØ¬ÛĮØ±":8673,"ĠÙħÙĪÙĤØ¹":8674,"ĠØ¨ÙĪÙħÛĮØ§ÙĨ":8675,"ĠØªÙĨØ§Ø³":8676,"ĠØ³ÙĦØ§ÙħØªÛĮ":8677,"ĠØªØ²Ø¦ÛĮÙĨ":8678,"ĠØ¬ÙĦØ³Ø§Øª":8679,"ĠÙħØ³ØªØ¹ÙħØ±Ùĩ":8680,"ya":8681,"Ú©Ø§ÙĨÛĮ":8682,"ĠØ¨Ø¨":8683,"ĠØ§Ø³ØªØ±Ø§ØŃØª":8684,"ĠØ³Ø¨Ø²ÛĮ":8685,"ĠØ§ÙĦÙĩÙĩ":8686,"Ø§Ø¦ÛĮÙĦ":8687,"ĠÚ©Ø§Ø±Ú¯Ø±ÛĮ":8688,"ĠÙĩÙģØ¯ÙĩÙħ":8689,"ĠÚĺÙĨØªÛĮÚ©":8690,"ĠÙħÚ¯Ø±":8691,"ĠÚ©ÛĮØ±":8692,"ĠØªØ¨Ø§Ø¯ÙĦ":8693,"ĠØ³ÙĨÙĨØ¯":8694,"ĠØ§Ø®ØªØµØ§Ø±":8695,"ĠÚ©Ø§Ø±Ø§Ø¦ÛĮØ¨":8696,"ĠØ§ØŃØ³Ø§ÙĨ":8697,"ĠÚĨØ³Ø¨":8698,"tern":8699,"ĠØ±ÙģØ§Ùĩ":8700,"ĠÚ©Ø§Ø±ÙħÙĨØ¯Ø§ÙĨ":8701,"ĠÚ©Ø§ÙĦØ§ÙĩØ§ÛĮ":8702,"ĠÙħØ±Ø³Ø¯Ø³":8703,"ĠØªØ§ÙħÛĮ":8704,"ĠÙĪÙĦØ§Ø¯ÛĮÙħÛĮØ±":8705,"ĠØ§ÙĨØ¯Ú©":8706,"ĠÚ¯Ø±ÙĨØ¯":8707,"ÙĤØ§ÙĨÛĮ":8708,"ĠØ§Ø³Ø§ÙħÛĮ":8709,"ind":8710,"ĠØ¬Ø§ÙħØ§Ø¦":8711,"ĠÙĩØ§Ø´Ùħ":8712,"pp":8713,"ĠØ§Ø³ØªÙĨØ§Ø¯":8714,"ĠØ¨ÛĮÚĨ":8715,"ĠÙ¾Ø±ÙĨØ³":8716,"ĠØ§Ø±Ø²Ø´Ùħ":8717,"ĠØ«Ø§ÙĨ":8718,"ĠÚ¯Ø²Ø§Ø±Ø´ÛĮ":8719,"Ġif":8720,"Ø§ØªØŃ":8721,"ĠÛĮÚ©Ø´ÙĨØ¨Ùĩ":8722,"ĠÙħØªÙĤ":8723,"ĠÛĮÙģ":8724,"Ġru":8725,"ĠÙĨÚĺØ§Ø¯ÛĮ":8726,"Ø³Ø§ÙĦÙĩ":8727,"ĠØ¯Ø§ÙĨÙħØ§Ø±Ú©ÛĮ":8728,"Ġmal":8729,"ute":8730,"ĠØªØ±Ø§Ú©ØªÙĪØ±":8731,"ius":8732,"ĠØ¹Ø¯Ø¯ÛĮ":8733,"ĠÙħÛĮÙĦÙĩ":8734,"ĠØ±ÙħØ¶Ø§ÙĨ":8735,"ĠØ¢Ø¯Ø§ÙħØ²":8736,"Ø¨Ø§ÙĤ":8737,"ÙģØªÚ¯ÛĮ":8738,"ĠØ§ØµØ§ÙĦØª":8739,"ĠÙĨØ§Øµ":8740,"ĠÙ¾Ø¯Ø±Ø¨Ø²Ø±Ú¯":8741,"ĠÙħØªØ¹Ø§ÙĤ":8742,"ĠØ±ÙĪØ§ÛĮØ§Øª":8743,"ÙĪØ´ÛĮÙħØ§":8744,"ĠÙħØ³Ø§ÙģØ±Ø§ÙĨ":8745,"ĠØ¹Ø§Ø¬":8746,"ĠØ¢Ø±Ø¯":8747,"ĠÙħÙĪØ¶Ø¹":8748,"ĠÙģØ¯":8749,"ĠØ¨ÙĦÙĨØ¯ÛĮ":8750,"ĠÚ©Ø§Ø±Ø§ØªÙĩ":8751,"bn":8752,"ĠÚ©ÙĪÙĪÛĮØ¯":8753,"ĠØŃØ¬Ø§Ø¨":8754,"ÙģÙĪÙĨÛĮ":8755,"ĠÙĨÙĪØ´ÛĮØ¯ÙĨÛĮ":8756,"ĠØ¢ÙħØ§Ø²ÙĪÙĨ":8757,"ada":8758,"ĠØ¢Ø´ÙĪØ±ÛĮ":8759,"Ġsam":8760,"Ġnat":8761,"ĠÙ¾Ø±ÙĪØ³":8762,"Ġprof":8763,"ĠØªØ´Ø¯ÛĮØ¯":8764,"ĠÙĩØ³ØªÛĮÙħ":8765,"ĠÙĨØ¹ÙħØª":8766,"ĠÚĨÙĩØ§Ø±Ø¯ÙĩÙħ":8767,"ĠØ®ÙĪØ§ÙĩÛĮÙħ":8768,"ĠÙĨØ±ÙĪÚĺÛĮ":8769,"ĠÙĨÛĮÙĨ":8770,"ĠÙħØŃØ§Ø³Ø¨":8771,"ogle":8772,"ĠØ±ÙĪÙĨØ§ÙĦØ¯":8773,"ĠÙħØºÙĪÙĦØ³ØªØ§ÙĨ":8774,"ĠÛĮÙĩÙĪØ¯ÛĮØª":8775,"ĠÛĮÙĪØªÛĮÙĪØ¨":8776,"yr":8777,"ĠØ¢Ø±Ø§ÙħØ´":8778,"ĠØ¨Ø§Ø²ÙĨ":8779,"ĠØ¢Ø±Ø§ÙħÛĮ":8780,"ĠØ¢Ø¬Ø±":8781,"ĠØ§Ø¬Ø§Ø±Ùĩ":8782,"ĠØ§ÙĦÛĮØ§Ùģ":8783,"ĠØ¯ÙĪØ¨ÙĦ":8784,"Ø§ÙĨØªÛĮÚ©":8785,"ĠØ³ÙĪØ§Ø¨ÙĤ":8786,"ĠÙĦØ§ÙħÙ¾":8787,"Ġeg":8788,"ĠØ³ÙģØ§ÙĦ":8789,"ĠÙĪØ§ÙĦÙĨ":8790,"ÙħØ§Ø³":8791,"ĠÚ¯Ø³":8792,"ĠØ¨Ø§Ø³":8793,"ĠØ¨Ø§Ø²ÙħØ§ÙĨØ¯":8794,"Ø§ÙĤØª":8795,"ĠÙħØ´Ø§Ø¨ÙĩÛĮ":8796,"ĠØ§Ø±ÛĮ":8797,"Ġsim":8798,"ĠØ´Ø±Ø§Ø¨":8799,"ĠØªØŃÙĦÛĮÙĦÛĮ":8800,"ury":8801,"ĠØ¶Ø®Ø§ÙħØª":8802,"ĠØ¢Ø±Ø§ÛĮØ´":8803,"ĠØªØ¹Ø·ÛĮÙĦØ§Øª":8804,"ØµØ¯ÛĮ":8805,"ĠØ±ØŃÛĮÙħ":8806,"ĠÚ©ÙĦÙĪØ¯":8807,"Ġpd":8808,"ĠØ³ÛĮØ²Ø¯Ùĩ":8809,"ĠØ±ÛĮØ§Ø¶":8810,"ĠÙģØ¶Ø§ÙĩØ§ÛĮ":8811,"la":8812,"ĠØ¯Ø±ÙĩÙħ":8813,"ĠÚ¯Ø°Ø±Ú¯Ø§Ùĩ":8814,"ÙĨØ§Ø³ÛĮ":8815,"ĠØ§Ø®ÛĮØ±Ø§":8816,"ĠØ§Ø±Ø²Ø§ÙĨ":8817,"ĠØªØ±Ø§ÙĨØ³":8818,"ĠØ®Ø²Ø§ÙĨÙĩ":8819,"ĠØ§Ø³ØªØ§ÙĦÛĮÙĨ":8820,"Ġmich":8821,"ĠØ§ÙĦÚ¯ÙĪ":8822,"ĠÙħØ¬Ø±ÙĪ":8823,"ĠÙĩØ§Ø±Ø¯":8824,"ĠØ§ÛĮØ³ØªØ§Ø¯Ùĩ":8825,"ĠÙĨÙ¾Ø§ÙĦ":8826,"ĠÙĪÛĮÙĦÙĩ":8827,"ĠÙħØ¯ÛĮØ±Ø¹":8828,"ĠÙħÙĪÙħ":8829,"ĠØ§ÙĪØ²":8830,"ĠØ´ÙĨØ§ÙĪØ±":8831,"ĠÙħØ±Ø§Ø¬Ø¹":8832,"ĠÚĺØ±ÙħÙĨ":8833,"ĠØ¢ÙĨØ§ØªÙĪÙĦÛĮ":8834,"ĠØ³ÙĨÙĨØ¯Ø¬":8835,"ĠØªÙĪØ¬ÛĮÙĩ":8836,"ĠÙħØ³Ø¯ÙĪØ¯":8837,"ĠÙħÙĨØ´ÙĪØ±":8838,"Ø´Ú©Ø§Ø±ÛĮ":8839,"Ġgoogle":8840,"ĠØ¨Ø§ÙĤØ±":8841,"Ġpan":8842,"Ġms":8843,"ĠÙ¾Ø±Ø§Ú©ÙĨØ¯Ú¯ÛĮ":8844,"ĠÙĩÙĪÙĦÙĪÚ©Ø§Ø³Øª":8845,"ÙĪØ±ÛĮÙĪ":8846,"ĠØ§ÙĪÙĦÙĪÛĮØª":8847,"ĠØªØ®ØªÙĩ":8848,"ĠÚ¯ÙĪÛĮÛĮ":8849,"ĠÙħÙĨØ§Ø·ÙĤÛĮ":8850,"ĠØ±Ø³Ø§ÙĨØ¯ÙĨ":8851,"Ø®ÙĪØ§ÙĨ":8852,"Ġdat":8853,"ĠØ³Ø±ÙĨØ´ÛĮÙĨ":8854,"ĠØ¯Ø¨ÛĮØ±Ú©ÙĦ":8855,"ĠØ¯Ø´ØªÛĮ":8856,"ĠÙħÙĦØ®":8857,"ĠÙħØ³Ùħ":8858,"ĠØ±ÙĨÙĪ":8859,"ĠØªØ§Ø³":8860,"ĠØºÙĨØ§":8861,"Ġos":8862,"ĠÙħØŃØ±ÙĪÙħ":8863,"Ø·ÙĪØ¨Øª":8864,"ĠØ¨Ø±Ù¾Ø§ÛĮÙĩ":8865,"ĠÙĩÙĦØ³":8866,"ÙĩØ±Ø§ÙĨÛĮ":8867,"ĠÙħØ§Ø±Ù¾ÛĮ":8868,"ĠÙħØµØ§Ø¯":8869,"ĠÙħØ¬Ø²Ø§":8870,"ĠØ´Ø¬Ø§Ø¹":8871,"ÙĪÛĮÙĨÛĮ":8872,"ĠØ±Ø·ÙĪØ¨Øª":8873,"ÙħÛĮØ¯":8874,"ĠÙ¾Ø§ÙĪØ±":8875,"Ø§ØªÛĮÙĪ":8876,"ÙĪØ±Ø«":8877,"ĠØ´ÛĮÙĪØ¹":8878,"Ġblack":8879,"ĠÙĩÛĮÙĪØ³ØªÙĪÙĨ":8880,"ĠÚ©Ø§ÙħÙ¾ÛĮÙĪØªØ±ÛĮ":8881,"ĠØ®Ø§Ø³Øª":8882,"ĠØ¹ÙħÙĦØ§":8883,"ĠØªØ¹ÙĪÛĮØ¶":8884,"Ġak":8885,"ĠØ¨Ø§ÙĨÛĮ":8886,"ĠÙħÙĪØªÙĪØ±ÛĮ":8887,"ĠØ¢Ø¨ÛĮØ§Ø±ÛĮ":8888,"ĠØªÙĪØ±Ø¨ÛĮÙĨ":8889,"ĠØ±Ø£Ø³":8890,"ĠÚ©ÙĪÙ¾Ø±":8891,"Ġpart":8892,"ĠØ§Ø³ØªÙĪØ§Ø±":8893,"ĠØ¨Ø±ÛĮØªØ§ÙĨÛĮØ§ÛĮ":8894,"Ġyou":8895,"ĠÙħØ§Ø²ÙĨØ¯Ø±":8896,"ÙĪÙħÙĪØªÛĮ":8897,"ĠÙĩØ¬ÙĪÙħ":8898,"ĠØ¢ÙĨØ§ÙĦÛĮØ²":8899,"ĠØ±ÛĮÙĪØ±":8900,"Ø±ÙĪØ´ÛĮÙħÛĮ":8901,"ĠÙħØ±Ø§ØªØ¨":8902,"ĠÚ¯Ø¦":8903,"ĠØ§Ø®ØªÙĦØ§ÙģØ§Øª":8904,"ĠØ¯Ø±ÙħÛĮ":8905,"Ġmuseum":8906,"ĠÙĨØ¯Ø§Ø¯":8907,"ĠØ±Ú©ÙĪØ±Ø¯ÙĩØ§ÛĮ":8908,"ĠØ¹ÛĮØ¯":8909,"ĠÙħØ¬Ø§":8910,"ese":8911,"ĠÙĪÛĮÙĪÙĦÙĨ":8912,"ÛĮØ³Øª":8913,"Ġta":8914,"ĠÙħØ§Ø¬Ø±Ø§":8915,"ĠØ®Ø§ØªÙħÛĮ":8916,"ĠÙħØ§Ø²ÙĨØ¯Ø±Ø§ÙĨÛĮ":8917,"ĠÙ¾ÙĩÙĦÙĪ":8918,"ĠÙĨØ§Ù¾Ø¯ÛĮØ¯":8919,"ĠØ¨Ø±ÛĮÙĨØ²":8920,"ĠØ¯Ø±ÙĨ":8921,"Ú©ÛĮÙĨØ²":8922,"ital":8923,"ĠÙħØŃØ§Ø³Ø¨Ø§ØªÛĮ":8924,"ĠØ¬Ùģ":8925,"Ġps":8926,"ĠØ³ÙĪØ²Ø§ÙĨ":8927,"ĠÙĩÙħÛĮÙĦØªÙĪÙĨ":8928,"ĠÙħØ®Ø±ÙĪ":8929,"ĠØ´Ø§ÛĮØ³ØªÚ¯ÛĮ":8930,"ĠÙħÛĮØ¨Ø§Ø´Ø¯":8931,"ĠÚ©Ø§ÙĨØªÙĪÙĨ":8932,"ĠÙħÙĦÙĤØ¨":8933,"ĠØ´ÙĪØ´":8934,"Ġaz":8935,"ĠÙĨØ¨ÙĪØ¯ÙĨØ¯":8936,"ars":8937,"Ø§Ú¯Ø§Ø³":8938,"ĠÙ¾ÙĦØ§Ø³ØªÛĮÚ©":8939,"ĠÙħØ§Ø¬Ø±Ø§ÙĩØ§ÛĮ":8940,"ĠÙħØ¨Ø§ØŃØ«":8941,"ÙĪÙĦÙĪÚĺÛĮÚ©":8942,"ÙģØ³ÛĮ":8943,"ĠÚ©Ø±ÙĨ":8944,"ÙĪÙĦØ§Ø±":8945,"Ġpat":8946,"ĠÙħÛĮÙĨØ§":8947,"ĠØ¬Ø¨Ø±Ø§ÙĨ":8948,"ĠØ±ÙĪØ¨":8949,"ĠØ³ÛĮØ§ÙĦ":8950,"Ġha":8951,"Ø¨Ø±ÙĨ":8952,"ÙĨØ¯ÙĩØ§":8953,"ĠØ§Ø´Ú©Ø§ÙĨÛĮ":8954,"ĠÙĨÛĮÙĨØª":8955,"ĠÚ¯Ø±Ø§Ø¯":8956,"ĠØ±ÛĮØ´":8957,"ĠÙģØ§Ø±Ø³Øª":8958,"ĠØ¯Ø±ØŃØ§ÙĦ":8959,"ĠØ³Ø¨Ø§":8960,"ĠØ§ÙĤÛĮØ§ÙĨÙĪØ³ÛĮÙĩ":8961,"Ġmark":8962,"ĠØ±ÙĪØ´ÙĨØ§ÛĮÛĮ":8963,"ĠØ¯ÙĪÛĮØ³Øª":8964,"Ø®Ø¯Ø§":8965,"ĠÙħÛĮÙĦØ±":8966,"ĠÛĮÙĪÙĨÛĮÙĪØ±Ø³ÛĮØ§Ø¯":8967,"Õ¸ÖĤ":8968,"ÙĪØ¦ÙĨ":8969,"ĠØŃØ¶Ø±Øª":8970,"ĠØ¹Ø¶ÙĪÛĮ":8971,"ĠÙħØ¬Ø§ÙĩØ¯ÛĮÙĨ":8972,"ĠØªØµÙĨÛĮÙģ":8973,"ĠØºÙĦØ§ÙħØ±Ø¶Ø§":8974,"Ø®Ø´ÛĮ":8975,"Ø±Ø³ÙħÛĮ":8976,"ĠÙĤØ¨Ø±Ø³ØªØ§ÙĨ":8977,"ĠØ§Ø±Ú¯Ø§ÙĨ":8978,"ĠÚĨØ´":8979,"ĠØ¨ÙħØ¨Ø§Ø±Ø§ÙĨ":8980,"Ø³ØªÙĪÙĦ":8981,"ĠÙħÚ©Ø²ÛĮÚ©ÛĮ":8982,"ĠØ¢ÙĦÛĮØ³":8983,"ĠÚ¯ÙĪØ±Ø¯":8984,"ĠÚ¯Ø±Ø§ÙģÛĮÚ©ÛĮ":8985,"ĠÙħØ¬Ø§ÙĪØ±Øª":8986,"ØŃØ¯":8987,"ĠØªØ¯Ø§Ø±Ú©":8988,"ĠÚ©Ø§ÙĨØªØ±ÛĮ":8989,"Ø±Ø§ÛĮÛĮ":8990,"ĠÙĪØ¶ÙĪØŃ":8991,"ĠÙĪØ§ÙĤØ¹Ø§":8992,"ĠÙħØªÙģÙĤÛĮÙĨ":8993,"ĠØªØ§Ø¬Ø±":8994,"ĠØ§ÙĦÚ©ØªØ±ÙĪÙħ":8995,"ĠØ®ÙĨØ«ÛĮ":8996,"ĠØ¯ÙĪÙĨÚ¯":8997,"Ġday":8998,"Ġdistrict":8999,"ĠÙĨØŃÙĪÛĮ":9000,"ĠØªÙĤØ§Ø¶Ø§ÛĮ":9001,"ĠØ§ÙĨØµØ§Ø±ÛĮ":9002,"ĠÙģÙħÛĮÙĨÛĮØ³Øª":9003,"ĠØ®ÙĪØ§ÙĨÙĨØ¯Ú¯ÛĮ":9004,"ĠØ¨ÛĮØªÛĮ":9005,"ĠÙħØ¬ØªØ¨ÛĮ":9006,"ÙħØ²Ø¯":9007,"ĠÙĦØ§Ø±ÙĨØ³":9008,"Ø§Ø¯Ø±ÛĮ":9009,"ĠØ§ÙģØ´":9010,"ĠØ§ÛĮÙĨÙĩØ§":9011,"ĠØ¹ÙĦØ§ÙħÙĩ":9012,"ĠÛĮÙĪØ±Ø´":9013,"ĠØ±Ø³Ø§ÙĨØ¯Ùĩ":9014,"ĠØ®Ø·Ø§":9015,"Ġkr":9016,"ĠÚ©Ø±ÙĪÙħÙĪØ²ÙĪÙħ":9017,"ĠØ±ÙĪÙħÛĮØ§ÙĨ":9018,"ĠØ¯ÛĮÙĪØ§Ø±ÙĩØ§ÛĮ":9019,"ĠØµØ¨Ø§":9020,"Ø¸ÛĮ":9021,"ĠØªÛĮØ²":9022,"ush":9023,"Ġæ":9024,"ĠØ±Ø³ÙĨØ¯":9025,"Ø§ÙĨØ¯Ø±Ø§":9026,"ĠØ´ÙĩØ±ÛĮØ§Ø±":9027,"za":9028,"Ø§ÙĩÙĨ":9029,"ĠØ¨Ø§Ø±Ø´":9030,"ĠÙĦØ§Ø³Øª":9031,"ĠÛĮÙĪØ´ÛĮ":9032,"ĠÙħÚ©Ø±Ø±":9033,"ĠØ·ÙĨØ§Ø¨":9034,"ÙħÚ©ÙĨ":9035,"ĠØ¯ÙĦØ§Ø±ÛĮ":9036,"ĠÙĦØ·Ùģ":9037,"ĠØ¨ØªØ§":9038,"ĠÚ©Ø³Ø±":9039,"ĠØºÛĮØ±Ø±Ø³ÙħÛĮ":9040,"ĠÚ©ÙĪØ¯ØªØ§":9041,"ĠØŃÙĦØ§ÙĦ":9042,"ĠØ§ÙĨÚ¯ÙĪØ±":9043,"ĠØ§ÙģØ²ÙĪÙĨ":9044,"ano":9045,"ÙĦØ¦":9046,"ĠØ§ÙģÙĤÛĮ":9047,"ĠØªÙĦÙģ":9048,"ĠÙĨØ´Ø±ÛĮØ§Øª":9049,"ĠØ¯Ø³ØªØ§ÙĪØ±":9050,"ĠØ®ÙĪØ§ÙĨÛĮ":9051,"ØªÙĪØ³":9052,"ms":9053,"ĠÚ©Ø§Ø±Ø´":9054,"ĠØ±Ø§Ø²ÛĮ":9055,"ĠÙĨÛĮÙĨØªÙĨØ¯ÙĪ":9056,"ery":9057,"ĠÚĨÙĩØ§Ø±Ø´ÙĨØ¨Ùĩ":9058,"ĠØ§Ø³ØªØ±Ø§ØªÚĺÛĮÚ©":9059,"ĠØ¹ÙĦÙģ":9060,"ĠØŃØ³Ø¨":9061,"ĠØ¨ÙĩØ±ÙĪØ²":9062,"ĠÙĤØ¶Ø§ÙĪØª":9063,"ĠØªØ±ÙĨØ³":9064,"ĠØ³ÙĪØ§Ø¯":9065,"ĠØ¯ÙĪØ´":9066,"ĠÚ¯Ø°Ø§Ø±ÙĨØ¯":9067,"ĠÙħØ§ÙĦØª":9068,"Ġut":9069,"ĠØ§Ú¯":9070,"ĠÚĺÙĪ":9071,"eth":9072,"ĠØªÙĦØ³Ú©ÙĪÙ¾":9073,"ĠÙĩÙĪØ³":9074,"ÚĺÙĪ":9075,"ĠÚ©Ø¬Ø§":9076,"Ø¦ÛĮÙĨÛĮ":9077,"ÙĪØ·ÛĮ":9078,"ĠÙĤÙħØ±":9079,"ĠÙħØ±Ø¯Ú¯Ø§ÙĨ":9080,"ĠØ¯ÛĮØ¯ÙĨÛĮ":9081,"Ù¾ÙĪØ±Øª":9082,"Ø²ÛĮÙĪ":9083,"Ø¸Ø±ÛĮ":9084,"ĠØ²Ø§ÛĮÛĮ":9085,"ĠØ§Ø³ØªÚ©Ùĩ":9086,"Ġic":9087,"ĠØ¨Ø¨Ø±Ø¯":9088,"Ø¯ÙĩØ§ÛĮÛĮ":9089,"ĠØ´ÛĮÙĦ":9090,"ĠÚĨØ§Ø±Øª":9091,"ĠØ´ÙĪÙħ":9092,"ĠØ¨Ø§ÙĤ":9093,"ĠØªÙĤØ±ÛĮØ¨ÛĮ":9094,"ÙĪÛĮÚ©":9095,"ĠÚ¯ÙĦÙĩ":9096,"Ġcont":9097,"ĠÙģØ®Ø±":9098,"ĠØ¨Ø±Ú¯Ø±Ø¯Ø§ÙĨ":9099,"ĠÙħÙĨØ´ÛĮ":9100,"ific":9101,"ĠØ±Ø§Ø³ØªÙĩ":9102,"ĠÚ©ÙĪÙ¾":9103,"als":9104,"ĠØŃØµØ§Ø±":9105,"ĠÙħØ§Ø¯Ø§Ú¯Ø§Ø³":9106,"ĠØ®Ø¨Ø±ÙĨÚ¯Ø§Ø±":9107,"ĠØ±Ø§Ú¯Ø¨ÛĮ":9108,"ĠÙĪØ§Ø±ÛĮ":9109,"ures":9110,"Ġamerican":9111,"Ø¨ÙĨØ¯ÛĮ":9112,"Ú¯Ø´Ø§ÛĮÛĮ":9113,"ipal":9114,"ior":9115,"ĠÚ©ÙĦØ³ÛĮÙħ":9116,"ĠØªØ±ÛĮÙĦ":9117,"ĠØ§ÙĨØ³Øª":9118,"ĠØ§Ø³ØªØ±Ø§ÙĦÛĮØ§ÛĮ":9119,"ĠØŃØ´Ø±Ùĩ":9120,"ØŃØ§Ùģ":9121,"ĠØŃØ³Ø§Ø¨Ø¯Ø§Ø±ÛĮ":9122,"ĠØ¨Ø§Ø²ÙĨØ´Ø³ØªÚ¯ÛĮ":9123,"ĠØ±Ø¶Ø§Ø´Ø§Ùĩ":9124,"ze":9125,"ĠÙħØªØ§Ø¨":9126,"ĠØ§ÙĨØ·":9127,"ĠØ³ÙĦØ¬ÙĪÙĤÛĮØ§ÙĨ":9128,"ĠÙĦÙĪÙħ":9129,"ĠØªÙĪÙĦÛĮØ¯Ø§Øª":9130,"Ġvir":9131,"ÙħØ±Ø¯Ùĩ":9132,"ĠØ¬Ø§ÙĪØ§":9133,"ÙĪØ±ÛĮØ³":9134,"ĠÛĮÙĪÙĩØ§ÙĨ":9135,"ĠØ§Ø±Ø«":9136,"ĠØ§ÛĮÙĨÚ¯ÙĪÙĨÙĩ":9137,"ÙĦÚ©":9138,"ĠØ±Ø§ÙĪÛĮ":9139,"ĠÙħØ²ÛĮØª":9140,"ĠÚ©ÙħÚ©ÛĮ":9141,"ÛĮÚ©Ø§ÙĨ":9142,"ĠÙħØ´Ø®ØµÛĮ":9143,"ator":9144,"Ġcolle":9145,"ĠØ¯ÛĮØ§":9146,"ĠØ§ÛĮÙĨØ¯":9147,"ĠØ¨Ø§ÙĦÚ¯Ø±Ø¯":9148,"ĠÙħØ´Ø®ØµÙĩ":9149,"iev":9150,"ĠØ³ÙĤØ·":9151,"ĠÙħÙħÙĨÙĪØ¹ÛĮØª":9152,"ĠØ¢ÙħØ³Øª":9153,"ĠÙ¾Ø§ÙĨØ²Ø¯Ùĩ":9154,"ĠØŃÙĪØ¶":9155,"ĠÙ¾ÛĮØ´ÙĨÙĩØ§Ø¯ÛĮ":9156,"ĠØ¯Ø§Ø¨":9157,"ĠÚ©Ø§Ø±Ú¯ÛĮØ±ÛĮ":9158,"Ġstre":9159,"ĠØ®Ø±Ø§Ø´":9160,"Ú©Ø§Ø±Ø§":9161,"ĠØ¨Ø¨ÛĮÙĨÛĮØ¯":9162,"ĠØ§Ø³ØªØ¹Ø¯Ø§Ø¯":9163,"ĠÙĨØ²":9164,"ĠØ¢ÙĩÙĨÚ¯ÛĮ":9165,"ĠØ¨Ø±ÙĪÚ©ÙĦÛĮÙĨ":9166,"ĠØ¹Ø§Ø·":9167,"ÛĮØ§ÙģØª":9168,"ĠØ´ØºÙĦÛĮ":9169,"ĠØ¢Ø¯Ø§Ø¨":9170,"ĠØ§ÙģØ±Ø§":9171,"ĠØ¨ÙĪØ¦ÛĮÙĨÚ¯":9172,"ĠØ¯ÛĮÚ©Øª":9173,"ĠØ³ÙĨØ¬Ø´":9174,"ĠÙħØ¸ÙģØ±":9175,"ĠØ¢ÛĮØ²":9176,"ĠÙģÙĤÛĮØ±":9177,"ĠÙħØ§Ø³Ùĩ":9178,"ÙĪÚ¯ÙĪ":9179,"ĠÙĦØ§Ø±ÛĮ":9180,"ave":9181,"ĠØ³ÙħÙģÙĪÙĨÛĮ":9182,"ĠØ±Ø¨ÛĮ":9183,"ĠÙĩÛĮÙĪÙĨ":9184,"Ø±Ø§Ø±ÛĮ":9185,"ĠÙģØªØŃØ¹ÙĦÛĮ":9186,"ĠÙħØ®ØµÙĪØµØ§":9187,"ĠÙģØ±ÛĮØ¨":9188,"ĠÚ¯ÙĪØ³Ùģ":9189,"Ø¨Ø§Ø²ÛĮ":9190,"ĠØŃÛĮØ§Ø·":9191,"ĠÙħÙĨØ³ÙĪØ¨":9192,"ĠÙĨÛĮÙĪÙĩ":9193,"Ø³Ø§ÙĦÛĮ":9194,"ĠØ·Ø§Ùĩ":9195,"ĠØ¢Ø±ÙĨ":9196,"ĠÙĦÛĮÙĨØ¯":9197,"ĠØ¢Ø²Ø§Ø¯Ú¯Ø§ÙĨ":9198,"ĠØ´Ø¹ÙĦÙĩ":9199,"ĠÙħÙĪØ±Ø®Ø§ÙĨ":9200,"Ġfirst":9201,"ĠØ®Ø§Ø³ØªÚ¯Ø§Ùĩ":9202,"ĠØ§Ø³Ø§Ø±Øª":9203,"ĠÙĩÙĨØ¯Ø³ÛĮ":9204,"ĠÙģØ±ÙĨ":9205,"ĠÙģØ¶Ø§ÙĨÙĪØ±Ø¯Ø§ÙĨ":9206,"ĠÙĪØ±ÙħØ§":9207,"ĠÚ©ÙĪØ¦ÛĮÙĨØ²":9208,"ĠÙħØ´Ø§ØºÙĦ":9209,"ĠØ¨ÙĪØ³ÛĮ":9210,"ĠØµØ§Ø¯ÙĤÛĮ":9211,"Ġone":9212,"ĠØµØ±ÙģÙĩ":9213,"ĠÙĦÛĮØªØ±":9214,"ÙħØ§Ùħ":9215,"Ġpap":9216,"ĠØ¨Ø±Ø¯Ø§Ø´ØªÙĩ":9217,"ĠÙħÙĪØªÙĪØ±Ùĩ":9218,"ÛĮØ±Ø²":9219,"ĠÙħÙĪØ³ÛĮÙĤ":9220,"ĠØªØ§ÙĦØ§Ø¨":9221,"ĠÙĩØ±ÛĮØ³":9222,"ĠØ¨ÙĦÙĪØ²":9223,"Ð²":9224,"ĠØªØ±Ø§Ø²":9225,"Ø¢ÙĦ":9226,"ĠÙħØ¨Ø§Ø±Ú©":9227,"ĠÙħØ®Ø§Ø·Ø¨Ø§ÙĨ":9228,"Ġtom":9229,"Ġmos":9230,"ĠØ§Ø±ÙĪØ§ØŃ":9231,"ĠÙ¾ÙĪØ¯":9232,"ĠØ³Ø±Ø³":9233,"ĠÙħØ§Ø¯Ø§Ú¯Ø§Ø³Ú©Ø§Ø±":9234,"Ġvar":9235,"ÙĪÛĮØ³Ø§ÙĨ":9236,"ĠØªÙĪÙ¾Ø®Ø§ÙĨÙĩ":9237,"ĠØªÚ©ÙĪØ§ÙĨØ¯ÙĪ":9238,"ĠØºØ²Ùĩ":9239,"Ġaug":9240,"Ġproject":9241,"ĠØ¨ØŃØ±Ø§ÙĨÛĮ":9242,"ĠØ´ÛĮØ±ÛĮÙĨÛĮ":9243,"Ġbel":9244,"ĠØ±Ø¨Ø§Ø·":9245,"ĠÙĩÙĪØ±ÙħÙĪÙĨ":9246,"ĠØ§Ù¾ÛĮØ²ÙĪØ¯":9247,"Ø§Ø¯ÙĨ":9248,"ĠØµÙģÛĮ":9249,"ĠÙģÙĦØ§Øª":9250,"ĠØ¨Ø§ÙĨÙĪÛĮ":9251,"ĠØ§Ø³Ø¨Ø§Ø¨":9252,"Ġang":9253,"ĠØŃÛĮØ§ØªÛĮ":9254,"Ú¯Ø§ÙĪØ§":9255,"ðĲ":9256,"ĠÙħØªÙĨØ§Ø³Ø¨":9257,"ĠØ¬Ø§Ø¨Ùĩ":9258,"ĠØ³ÛĮÙģ":9259,"Ġgh":9260,"ÙĨØ§ÛĮÛĮ":9261,"ÙħØ§Ø±ÛĮ":9262,"ĠÙĨØ´Ø³ØªÙĩ":9263,"ĠØ§Ø³ØªÚ©ÙĩÙĦÙħ":9264,"ĠÙĤØ±ÛĮØ¨":9265,"ĠØ§ÙĦØ§Ø³":9266,"ani":9267,"ĠØ¬ÙĨØ³ÛĮØªÛĮ":9268,"ces":9269,"ĠØ¢Ø±ØªØ³":9270,"ĠÙĤÙħÛĮ":9271,"ĠÙĦÙĪÚ©ÙĪÙħÙĪØªÛĮ":9272,"ÙĪØ³Ø§Ø²ÛĮ":9273,"ĠØ¢Ø±Ø²":9274,"ĠØ§Ø¨Ø¯":9275,"cc":9276,"ØŃØ§ÙĤ":9277,"ĠÙħÙĨØ²":9278,"ĠØ®Ø²ÙĨØ¯Ú¯Ø§ÙĨ":9279,"ĠÚ¯Ø§Ø¨Ø±":9280,"ĠÚ¯ÙĪØ³Øª":9281,"Ġgold":9282,"ĠØ±ÙģØªØ§Ø±ÙĩØ§ÛĮ":9283,"ĠØ¬Ø³ÙħÛĮ":9284,"ĠØ¨Ø§Ø¨ÛĮ":9285,"Ø§Ø±ÛĮØ¯":9286,"ĠÙ¾ÙĨÛĮØ±":9287,"ĠÙĪØ±ÙĤ":9288,"Ġvan":9289,"ĠØ¨ÙĪÙĩ":9290,"ĠØ¨Ø§Ø²ÙħØ§ÙĨØ¯Ùĩ":9291,"Ġra":9292,"Ø²Ø´":9293,"ĠØ®ÙĦÛĮÙĦ":9294,"ĠÙ¾ÙĪØ³ØªÛĮ":9295,"ĠØ³Ø§ÙĨØ§ÙĨ":9296,"ĠØ¢ÙĨØ±Ø§":9297,"ĠÙ¾Ø§Ø±Øª":9298,"ĠØ¨Ø±Ú©ÙĦÛĮ":9299,"ĠÙģØ±Ø¯Ø§":9300,"ĠØ¨Ø§Ø´ÛĮØ¯":9301,"Ġstates":9302,"Ġ×":9303,"ĠØ¢Ø¬":9304,"Ġsi":9305,"ĠÙĦÙĪÚ©Ø²Ø§Ùħ":9306,"ĠÚ©Ø´ÙĪØ±ÙĩØ§ÛĮÛĮ":9307,"ĠÙĪÛĮÙĦØ§":9308,"ĠØ·Ø¨ÙĤØ§Øª":9309,"ĠØ¢ÙĦØ§Øª":9310,"ĠØ®ÙĦØ§ÙĦ":9311,"ĠØ§ÙĤØ¨Ø§ÙĦ":9312,"ĠØ§Ø¬ØªÙĨØ§Ø¨":9313,"ĠÚ©Ø§Ø±ÙĪÙĦ":9314,"Ġmm":9315,"ĠÚ©ÙĪØ±Ø¯":9316,"ĠØªÙħÛĮØ²":9317,"ĠØŃÙĪØ§":9318,"ĠØªØ±Ø¨Øª":9319,"ĠØ¬Ø¯Ø§Ø³Ø§Ø²ÛĮ":9320,"ÙģØ¹Ø§ÙĦ":9321,"ĠØŃØ²":9322,"ĠÙģØ±Ø§ÙĨÚ©ÙĦÛĮÙĨ":9323,"vd":9324,"ĠØ³Ø§ÙĤÙĩ":9325,"ĠÙĨØ¯Ø±Øª":9326,"ĠØ±Ø§ÛĮØ´":9327,"ÙĩØ±Ùħ":9328,"ĠØªÚ©Ø«ÛĮØ±":9329,"ĠØ³Ø±ØªÛĮÙ¾":9330,"ĠØ®ÙĪØ±Ø§Ú©":9331,"ĠØªÙ¾":9332,"ĠÙĨÛĮÙĪÚ©":9333,"ĠØ±ÛĮÙĦÛĮ":9334,"Ġbiograph":9335,"ĠÚĺØ±Ùģ":9336,"ĠØºÙĦØ§ÙħØŃØ³ÛĮÙĨ":9337,"ĠÚ¯Ùĩ":9338,"ini":9339,"ĠØŃØ¯ÙĪØ¯ÛĮ":9340,"ĠÙ¾Ø±Ø³ØªØ§Ø±ÛĮ":9341,"ĠÚ¯Ø³ØªØ±Ùĩ":9342,"ple":9343,"ous":9344,"ĠÛĮØ§Ø±Ø§ÙĨ":9345,"ĠØ´Ú©ÙĪÙĩ":9346,"ĠØªØ±Ú©ÙħÙĨ":9347,"ĠØ¨Ø´Ø±ÛĮ":9348,"ĠÚ©ÙĪÙĦÛĮ":9349,"ĠÙħØ¯ÛĮØ±Ø¹Ø§ÙħÙĦ":9350,"mat":9351,"ĠÙ¾ÛĮØ±Ø§ÙĩÙĨ":9352,"ĠØ³ÛĮÙĨÚ¯":9353,"Ġmas":9354,"ĠÚ¯Ø°Ø§Ø´ØªÙĨ":9355,"ĠÙĪÛĮÙĦÙĩÙĦÙħ":9356,"ĠØ¢Ø±ÚĺØ§ÙĨØªÛĮÙĨÛĮ":9357,"ĠØ±ÙĨØ³Ø§ÙĨØ³":9358,"ØŃØ³ÙĨ":9359,"ĠÙĨØ§Ø¸Ø±":9360,"ĠØ³ÛĮÙħØ§ÛĮ":9361,"ĠØ±ÙĪÙĨÙħØ§ÛĮÛĮ":9362,"ĠÙ¾ÛĮØ´ØªØ±":9363,"ĠØ³Ø±ØªØ§Ø³Ø±":9364,"ĠÚ©ÙħÛĮÙĨ":9365,"Ú©Ø¨ÛĮØ±":9366,"ĠØµØ¯ÛĮ":9367,"ĠØ§ÙĨØŃØµØ§Ø±ÛĮ":9368,"ĠÙħØªÙĪØ³Ø·Ùĩ":9369,"ĠØªØµØ§Ø¯Ùģ":9370,"ied":9371,"ĠØ¨Ú¯Ø°Ø§Ø±Ø¯":9372,"ĠØ´Ùģ":9373,"ĠÙħØ´Ø±ÙĪØ·":9374,"ÙħØ§ÙĨØª":9375,"ĠØªÙĨÙģØ³ÛĮ":9376,"ĠÙĩÙĪÚ©":9377,"Ú©ÙĨÙĩ":9378,"ĠØŃØ³ÛĮ":9379,"ĠÚ¯Ø±Ø§Ùħ":9380,"ĠØ²ÛĮÙħ":9381,"ĠØ·Ø¹Ùħ":9382,"ĠØ§Ø³Ø±Ø§Ø±":9383,"ĠØ§ÙĪÙĩ":9384,"ĠÙ¾ÛĮÚ©Ø§ÙĨ":9385,"ĠØªÙĤØ¯ÛĮÙħ":9386,"ĠÙħØ³Ø§ÙģØª":9387,"Ø³ÛĮÙĦÛĮ":9388,"ĠØ¯Ø§ÙĨÙĦÙĪØ¯":9389,"Ġmil":9390,"ĠØ¨ÙĦÙĩ":9391,"ĠØ¢ÙĨØªÙĨ":9392,"Ø§Ø³ÙħÛĮ":9393,"Ø¢ÙħÛĮØ²":9394,"Ġmor":9395,"ĠØ¨ÙĨÛĮØ§ÙĨÚ¯Ø°Ø§Ø±Ø§ÙĨ":9396,"Ù¾Ø±Ø³":9397,"Ø¹Ú©Ø³":9398,"ĠÙĦÛĮØ²":9399,"Ġend":9400,"ĠØ³Ø¬":9401,"ĠÙħÙĪØ±Ú¯Ø§ÙĨ":9402,"ĠØ°ÛĮÙĦ":9403,"ĠÙĩØª":9404,"Ġob":9405,"ĠØ±ÛĮØªÙħ":9406,"ĠÙħÛĮØªÙĪØ§ÙĨ":9407,"Ø§ÛĮÙĨØ¯":9408,"ĠÙĩØ§ÙĪØ³":9409,"ĠØ§Ù¾Ø±Ø§ÛĮ":9410,"ĠØŃØ§Øª":9411,"ĠØ§ÙĦÚ¯ÙĪÙĩØ§ÛĮ":9412,"ĠØ¢ØªÙĦØ§ÙĨØªØ§":9413,"ĠÙħÙĦÙĪØ§ÙĨ":9414,"Ġcast":9415,"Ġview":9416,"ĠÚ¯Ø±ÛĮØ²":9417,"ux":9418,"ĠØºØ±ÛĮ":9419,"ĠØ´ÛĮØ±Ø¬Ùĩ":9420,"Ġlocal":9421,"ĠÙĩÛĮÙĪÙĦ":9422,"ĠØ¢ÙħØ³ØªØ±Ø¯Ø§Ùħ":9423,"ĠØ¨Ø§Ø®":9424,"ĠØ±ÙĪØŃØ§ÙĨÛĮÙĪÙĨ":9425,"gress":9426,"ĠÙħØ¹Ø§Ø¯ÙĦØ§Øª":9427,"by":9428,"ĠÚ¯Ø±ÙĪÚ¯Ø§ÙĨ":9429,"ĠØ¯ÛĮÚ¯ÙĪ":9430,"ĠÚ©Ø¨Ø¯":9431,"ĠØªØ±Ú©Ø§ÙĨ":9432,"ĠÙ¾ÙĦØ§Ú©":9433,"ĠÚ©Ø§Ùģ":9434,"ĠÚĺÙĨÙĪ":9435,"ĠØ¬ÛĮØ³ÙĪÙĨ":9436,"ĠØ·Ø±ÙģÛĮÙĨ":9437,"Ø³ØªÙħÛĮ":9438,"ĠÙĨØ§Ø¯ÛĮØ¯Ùĩ":9439,"rop":9440,"ĠØ´ÙģÛĮÙĦØ¯":9441,"Ø±Ø§Ùĩ":9442,"ĠØªÙĤØ§Ø·Ø¹":9443,"ĠÙģØ±Ø§ÙħÙĪØ´":9444,"fl":9445,"ĠÙĩÛĮÙħ":9446,"Ø§ØŃÙħØ¯":9447,"ĠØ¨Ø§Ø¯Ø§Ùħ":9448,"ĠØ¹Ø´Ø§ÛĮØ±":9449,"ĠØ§Ø³ÙģÙĨØ¯ÛĮ":9450,"ĠØ¹Ø§ÛĮÙĤ":9451,"ĠÚ©ÙĪÛĮØ±":9452,"ĠØ¯Ø§ÙĦØ§Ø³":9453,"Ø³Ø§ÛĮØª":9454,"ĠÙģØµÙĦÛĮ":9455,"ĠÛĮØ§Ú©":9456,"ĠÙĩØ±ÚĨÙĩ":9457,"ÙħÛĮÙħÛĮ":9458,"ĠØ¬Ø§Ú©":9459,"Ø³Ù¾ÛĮØ±":9460,"ĠØ´Ø¹Ø±ÛĮ":9461,"ĠØ§ÙĤØªØ¯Ø§Ø±":9462,"ĠÚ©Ø§ÙħÛĮÙĪÙĨ":9463,"ĠÙĤÙģÙĦ":9464,"chn":9465,"ÙģØ§ÙĤÛĮ":9466,"ĠØ§ØŃÛĮØ§ÛĮ":9467,"ĠÙ¾Ø±Ø¯Ø§Ø²ÙĨØ¯":9468,"ym":9469,"Ø§Ø¨Ø§":9470,"ĠØ§ÙĦØ§ÙĨ":9471,"Ġip":9472,"ĠØ¹Ø¨Ø¯Ø§ÙĦØ¹":9473,"ĠØ·Ø§ÙĩØ±":9474,"ĠØ³Ø®ÙĨØ§ÙĨ":9475,"ĠÙħÙĪØ²":9476,"ÙģÛĮØ¹":9477,"ĠÙ¾Ø¯ÛĮØ¯Ø§Ø±":9478,"ĠØªØ§Ø³ÛĮØ³":9479,"ĠÙ¾ÙĩÙĦÙĪØ§ÙĨ":9480,"Ġdavid":9481,"ĠÚ©Ø§Ø¯":9482,"ĠÙħØ¬Ø±ÛĮØ§ÙĨ":9483,"ĠØ¹ÙĦÙĦ":9484,"Ġyo":9485,"ĠØ¯ÙĪÙĨÙĪØ±":9486,"ĠØ§Ø³Ù¾ÙĪØ±":9487,"Ġhigh":9488,"ĠØ¯ÛĮØ±ÛĮÙĨ":9489,"ĠØ¹Ø±ÙĪØ³Ú©":9490,"ÙģØ±ÙĪ":9491,"ĠØ¢ÙĨØªÙĪÙĨ":9492,"ĠÙħØ¬ÙĦØ§Øª":9493,"ĠÙĪØ¨ÙĦØ§Ú¯":9494,"Ø¹Ø§Ø¨":9495,"ĠÙħØ§Ø±ÛĮÙĪ":9496,"ĠÚ©Ø±ÙĪÙĨ":9497,"Ġce":9498,"Ġcs":9499,"ĠÙĨØ³Ø§Ø¬ÛĮ":9500,"ĠÙħØ§Ø±Ú©Ø³":9501,"ĠÚ©Ø±Ø§Ø³":9502,"ĠÙĦÙĨØ²":9503,"ĠØ³Ø§ÙģØª":9504,"ĠØºÙĦØ¨Ùĩ":9505,"ĠØ³Ø§Ø¯Ø§Øª":9506,"ĠÙħØªÛĮÙĦ":9507,"ÙĪØ±Ø§ÛĮÛĮ":9508,"ĠØ¨Ø§ÙĦØ§Ø®":9509,"ĠØ³ÛĮØ±ÙĪØ³":9510,"ÙĨÚ¯Ø±ÛĮ":9511,"ĠÙħØŃÚ©Ùħ":9512,"ĠÙĨÚ¯Ø§ÙĩÛĮ":9513,"ĠØŃÙħØ§Ø³ÛĮ":9514,"ĠÙ¾Ø±ÙĪØªØ³ØªØ§ÙĨ":9515,"ĠØ±Ø§Ø¬":9516,"Ġcf":9517,"ĠÚ¯Ø§Ø²ÙĩØ§ÛĮ":9518,"ĠØ¢ÙħÛĮØ²ÛĮ":9519,"ĠÚ¯Ø±Ø§ÙĨØ¯":9520,"ĠØµØŃØ±Ø§ÙĨ":9521,"ÙģÙĪÙĦ":9522,"Ġchrist":9523,"ents":9524,"ĠØ³Ø®ÙĨÚ¯ÙĪÛĮ":9525,"ĠØ¬ÙĪÛĮÛĮ":9526,"ĠØ¢ÙģØ±ÛĮÙĨØ´":9527,"ĠÙģØ±Ø§Ùĩ":9528,"Ù¾Ø³ÙĪÙĨ":9529,"ÙħÙĦÚ©":9530,"ĠØ§ÙħÛĮØ±Ú©Ø¨ÛĮØ±":9531,"ĠØ¯Ø±Ø§ÛĮ":9532,"ĠØªÙĪÙĤÛĮ":9533,"ĠØ§Ø±ØªÙĤØ§Ø¡":9534,"ald":9535,"ĠØ¢ÛĮØ§Øª":9536,"ĠÙĨØ§Ø±Ø³":9537,"ĠÙ¾Ø§Ùħ":9538,"ĠØ§ÛĮÙĪ":9539,"ØªØ³Ø§Ø¨":9540,"Ø³Ø¨ÙĪØ±Ú¯":9541,"ĠØ´Ø¹Ø§Ø¹":9542,"ĠÙĪØ±ÙħØ§Ø®Øª":9543,"ula":9544,"ĠØªÙĩØ§Ø¬ÙħÛĮ":9545,"ĠØ¨ÙĩØ§Ø¡":9546,"Ø§ÙĦÙĪÚ¯":9547,"ĠØŃÙħØ§Ø³Ùĩ":9548,"ĠØ³Ø§ÙĨØ³ÙĪØ±":9549,"ĠØ³Ø±Ùħ":9550,"Ġrom":9551,"ĠØ§ÙĤØªØµØ§Ø¯Ø¯Ø§ÙĨØ§ÙĨ":9552,"ĠØ³Ø±ÙĪØ´":9553,"ĠØ«Ø§ÙĨÙĪÛĮÙĩ":9554,"ĠØ¨ÛĮØ±Ùħ":9555,"ĠØ³ÙĦÙħØ§ÙĨ":9556,"ĠØ®Ø§ØªÙħÙĩ":9557,"Ġsen":9558,"ades":9559,"ĠØ´Ú©Ø³ØªÙĨ":9560,"ĠØ¨ÙĪØ±Ø¯":9561,"Ú©Ø±Ø¯ÙĩØ§ÛĮ":9562,"ĠÙħØ±Ø¯Ø§ÙĨÙĩ":9563,"ĠÙħØ·Ùħ":9564,"ÛĮØ¹":9565,"Ø²Ø§Ø¯ÛĮ":9566,"Ø¨Ø±Ø¯Ø§Ø±":9567,"ĠÙ¾ÙĨØ§ÙĦØªÛĮ":9568,"Ġmem":9569,"ĠØ¨Ø³ÛĮØ¬":9570,"ville":9571,"ift":9572,"ga":9573,"ĠØ§ÙĨÚ©Ø§Ø±":9574,"ĠØ¹ÙĨÚ©Ø¨ÙĪØªÛĮ":9575,"ÙĪÙĨØ²":9576,"ĠØ§ÙĦÙĨÙĩ":9577,"Ú¯ÛĮÙĨØ§ÙħÙĩ":9578,"ĠÙħÛĮÙħÙĪÙĨ":9579,"ĠØ®ÙĪØ¯Ø±ÙĪØ³Ø§Ø²ÛĮ":9580,"Ġwilliam":9581,"Ġmunic":9582,"ĠØŃÛĮØ¯Ø±ÛĮ":9583,"ĠØ¨Ø¯ÙĩÛĮ":9584,"ĠÚ©Ø§Ø±Ø§":9585,"Õ¶":9586,"ĠØ²Ø§Ø¦":9587,"ĠØªØŃÙĪÙĦØ§Øª":9588,"ÙĪÙħÙĪ":9589,"ĠØ¨Ø±Ø§ÛĮØ´":9590,"ĠÙħØ¬Ø±ÙĪØŃ":9591,"ĠØ±Ø§Ú©Øª":9592,"ÛĮØªØ³":9593,"ĠÚ©Ø´Ùħ":9594,"ĠÙĨØ´Ø§ÙĨÚ¯Ø±":9595,"Ġtem":9596,"ters":9597,"ĠÙĤÙĪÚĨ":9598,"its":9599,"Ġpres":9600,"ĠÙĪØ§Ú¯ÙĨ":9601,"ĠØ°ÛĮ":9602,"ĠØªØ¬Ø³Ùħ":9603,"ĠØªÙģÙĦÛĮØ³":9604,"ĠØ§Ø³ØªÙĨÙĦÛĮ":9605,"ĠØ¯ÙĩÙĤØ§ÙĨ":9606,"ĠÙĨÛĮÚ©ÙĦØ§Ø³":9607,"ĠØ¯ÙĨÛĮØ³":9608,"ĠÙĨØ§ÙħØ²Ø¯ÙĩØ§ÛĮ":9609,"ĠØ§Ø³ØªØ®Ø±":9610,"ĠØ´Ú©Ø§Ø±ÚĨÛĮ":9611,"ĠÙħÙĬ":9612,"ĠØ¨Ú©Ø´Ø¯":9613,"Ø³ÙĦÛĮ":9614,"ĠÙĨÛĮÚ©ÛĮ":9615,"ĠØ®ÙħÛĮØ±":9616,"Ġnews":9617,"Ġaut":9618,"ĠØ¨ÙĩØ¨Ùĩ":9619,"ĠØ§ÙģØ²ÙĪØ¯ÙĨ":9620,"ĠÙħÙĪØ¨":9621,"go":9622,"ĠÙģÙĦØ§":9623,"inc":9624,"Ġol":9625,"ĠÚ¯Ø²ÛĮÙĨ":9626,"ĠÙħØ§ÙĨØ¯Ú¯Ø§Ø±":9627,"ĠÛĮÚ©ÙħÛĮÙĨ":9628,"ĠØ§ÙĦØµ":9629,"ĠØ§ÙĨØŃØ±Ø§Ùģ":9630,"ÙĪÙĨÙĪ":9631,"ĠÙĤÙĪØ³":9632,"Ġss":9633,"ĠÚ¯Ø±ÛĮØ®Øª":9634,"ĠØªÙĪØ§ÙĨÛĮØ¯":9635,"ĠØ±Ú©ÙĪØ±Ø¯Ø¯Ø§Ø±":9636,"ĠÙħØ§Ø¨ÛĮÙĨ":9637,"ĠÙħØ³ÛĮØ±ÛĮ":9638,"ĠØ¨Ø±Ø§ÙĨÚ¯ÛĮØ²":9639,"ĠØ¬Ø§ÙĨØ¯Ø§Ø±Ø§ÙĨ":9640,"Ð´":9641,"ÙħÙĪÙĨÛĮ":9642,"ĠØ¨Ø§Ø¨Øª":9643,"ĠÙħØŃØ±Ùħ":9644,"Ø¨ÛĮÙĨÙĨØ¯Ùĩ":9645,"ĠØªØ§Ø¯":9646,"ĠÙģÙĪØ±ÛĮ":9647,"ĠØªÙĪØ§ÙĨÛĮÙħ":9648,"Ġox":9649,"ision":9650,"ĠØ¨Ø³Ø·":9651,"Ġcolor":9652,"ĠÙĩÙĦÙĨ":9653,"Ġmunicipal":9654,"ĠÚ¯Ø§ÛĮ":9655,"ĠÙħØ§Ø±Ø³ÛĮ":9656,"ĠÙħÛĮÚ©Ø±":9657,"ĠÙħØ§ÛĮØ±":9658,"ĠÙ¾ÙĨØ§ÙĩÙĨØ¯Ú¯Ø§ÙĨ":9659,"Ø±ÙĤ":9660,"Ø¬ÙĪÛĮØ§ÙĨ":9661,"Ú¯Ø°Ø´Øª":9662,"ĠÚ¯ÙĪÚ¯":9663,"ĠØºØ²":9664,"ĠÙħÙĦÛĮØª":9665,"ages":9666,"ĠÙĦÛĮÙĦÛĮ":9667,"ĠØ¨Ø±Ú©ÙĨØ§Ø±":9668,"ĠØ³ÙģÛĮØ±Ø§ÙĨ":9669,"Ġì":9670,"ĠÙĩØ§ÛĮØ¯":9671,"ĠØ§ÙĦØ¬":9672,"ĠÚ¯Ø±ÙħØ§ÛĮÛĮ":9673,"ĠÚ©Ø§Ø´Ø§ÙĨÛĮ":9674,"ĠØ¯ÙĪÙĨØ¯Ú¯Ø§ÙĨ":9675,"ĠØ±Ø§ØŃØª":9676,"Ø¬ÙħØ¹ÛĮØª":9677,"ĠÙħØ¹Ø¯Ùĩ":9678,"ÙĨÙĪØ§Ø®Øª":9679,"ĠØ¨Ø§ÙĨÙĪ":9680,"ĠØ¯ÙĩÛĮØ¯":9681,"ĠØ¬Ø±ÙħÛĮ":9682,"ĠÙħÙħØªØ§Ø²":9683,"Ġrad":9684,"ÙĨØ¹":9685,"Ġear":9686,"Ø³ÙĨÛĮ":9687,"ĠÙ¾Ø±Ø¨ÛĮÙĨÙĨØ¯Ùĩ":9688,"ĠÚ¯Ø¯":9689,"ĠØ²Ø¨Ø§ÙĦÙĩ":9690,"ĠØŃØ±ÛĮÙħ":9691,"ĠÙħØ·ÙĦØ¹":9692,"ĠØ¯Ø§Ø±ÙĪÙĩØ§":9693,"Ø§ÙĪØ±Ø¯":9694,"ĠØ®ÙĪØ§Ø³ØªÙĨØ¯":9695,"Ġhtml":9696,"ĠØ§Ø³Ø§Ø³Ø§":9697,"ØªÙĤÛĮ":9698,"ĠØ§Ø³Ú©Ø§ÛĮ":9699,"ĠØŃÚ©Ø§ÛĮØª":9700,"ĠØ±Ø§Ø¯ÛĮÚ©Ø§ÙĦ":9701,"ĠÙħÙĤÛĮÙħ":9702,"Ġoct":9703,"ĠØ´ØªØ±":9704,"ĠØ¢Ø±ÙĪ":9705,"ĠÙ¾ÛĮÙĪÙĨØ¯ÙĩØ§ÛĮ":9706,"ĠØªØµÙģÛĮÙĩ":9707,"ĠØ´ÛĮØ¡":9708,"ĠÙĨÙĪØ§":9709,"ico":9710,"ĠÚĨØ§Ú©":9711,"ĠØ²ÙĨØ¯Ú¯ÛĮÙĨØ§ÙħÙĩ":9712,"ĠØ²Ø§ÛĮÙħØ§ÙĨ":9713,"ĠØªÙĩØ±Ø§ÙĨÛĮ":9714,"ĠØ¨Ø§Ø±Ø¨Ø§Ø±Ø§":9715,"Ø¯Ø§Ø±ÙĨØ¯Ùĩ":9716,"ĠØ¬ÙĨÛĮÙģØ±":9717,"ĠØ´Ø§ÙĨÚ¯ÙĩØ§ÛĮ":9718,"ĠÙĦÙĪÚ©Ø²Ø§ÙħØ¨ÙĪØ±Ú¯":9719,"ØªÛĮÙħ":9720,"ĠÙĨÚ¯Ø±Ø§ÙĨ":9721,"ĠØªØŃÙĤÙĤ":9722,"ĠÙĤØ±Ø§":9723,"ĠØ¨ÙĪØ±ÙĨ":9724,"ĠÙĨÙĪØ±Øª":9725,"ĠÛĮØ²Ø¯ÛĮ":9726,"Ġtim":9727,"ĠØ¨ÛĮÙĨØ§ÛĮÛĮ":9728,"ĠØ³Ø§ÙħØ³ÙĪÙĨ":9729,"ĠØ¨Ø²Ø±Ú¯Ø¯Ø§Ø´Øª":9730,"Ø§Ù¾Ø³Øª":9731,"ĠØªØ±ÙĪÙħ":9732,"ĠÙĩÙĪØ´ÛĮ":9733,"ÙĦÙħØ§ÙĨÛĮ":9734,"ĠÙĪØ§Ø¶":9735,"ÛĮÙĨØ³":9736,"ĠØ³Ø§Ø²ÙĨØ¯Ú¯Ø§ÙĨ":9737,"ĠÙħØ§Ø³Ú©":9738,"ĠÙĦØ§Ø¦":9739,"ĠÙĦØ§Ù¾":9740,"ĠØ¨ÙĪØ³ØªØ§ÙĨ":9741,"Ú©ÙĨØ´":9742,"ĠÙģØ±Ø²ÙĨØ¯Ø´":9743,"ĠÙĩÛĮØ¬Ø§ÙĨ":9744,"ĠÙ¾ÙĦØ§ØªÛĮÙĨ":9745,"ĠÙĩÛĮØ¯Ø±":9746,"ÙĪÙĩØ§ÛĮÛĮ":9747,"Ú¯ÛĮÙĦÙĪÛĮÙĩ":9748,"ĠÙĨØ¦":9749,"ĠÚ¯ÙĦÙĨ":9750,"ĠÛĮØ®ÚĨØ§ÙĦ":9751,"ĠØŃÙĦÙĤ":9752,"ĠÚ©Ø§Ø±ÙĦÙĪ":9753,"ĠØ³ÙģØ±ÙĩØ§ÛĮ":9754,"ĠØ³Ù¾Ø§ÙĩÛĮØ§ÙĨ":9755,"ĠØ¨ÙĨÚ¯Ø§Ùĩ":9756,"ĠÙĪØ§ÙĨÚ¯":9757,"ĠÚ¯ÙĪÙħ":9758,"ĠØ¨ÙĪØ¯Ø§Ù¾Ø³Øª":9759,"ĠØ¯Ø§Ø±Ø§ÙĦ":9760,"Ġfre":9761,"à¸":9762,"duction":9763,"Ø´Ø§ÙĩÛĮ":9764,"ĠØ¯ÙĪØ²ÛĮ":9765,"ĠÙĦÚ©Ùĩ":9766,"ura":9767,"Ġtime":9768,"ĠØªÛĮØºÙĩ":9769,"ĠÙĩØ®Ø§ÙħÙĨØ´ÛĮØ§ÙĨ":9770,"ĠØ¯ÙĪØ¨ÙĦÙĩ":9771,"ĠÙħÙĪØ³Ø³Ø§Øª":9772,"ĠÚ©Ø±Ø¨ÙĦØ§":9773,"ĠÚ¯Ø±Ø§ÛĮØ§ÙĨÙĩ":9774,"ĠØ¹Ú©Ø§Ø³Ø§ÙĨ":9775,"mp":9776,"ØµÙĪÙĦ":9777,"Ø´Ú©Ø±":9778,"ĠÚ©Ø§ÙĦØ¨Ø¯":9779,"ÛĮÙĨÚ©ÛĮ":9780,"ĠØ±ÙĪØŃÛĮ":9781,"ĠÚ©ÙĩÚ¯ÛĮÙĦÙĪÛĮÙĩ":9782,"Ø±Ø§Ø¶ÛĮ":9783,"ĠØªÙģØ§":9784,"Ġann":9785,"ĠØ®Ø§ÙĨÛĮ":9786,"ØµÙĪØ±Øª":9787,"Ø±ÙĪÚ©":9788,"ĠØ§ØªÙģØ§ÙĤÛĮ":9789,"Ġgener":9790,"ĠØ¯ÛĮØªØ±":9791,"ĠØ§ÙĨØµ":9792,"ĠØ®ÙĪÛĮØ´Ø§":9793,"ral":9794,"ĠØ²ÛĮØª":9795,"ĠØ¹ÙĦÙħØ§ÛĮ":9796,"Ġsport":9797,"ĠØ§ÙĦØ£":9798,"ĠØ¸ÙĩØ±":9799,"Ø±ÙĪÙģÛĮ":9800,"ÙĪØ´ÙĪ":9801,"ĠÚĨÙĨØ¯Ø§ÙĨÛĮ":9802,"ĠØ§ÙĦÙĩÛĮØ§Øª":9803,"Ú¯Ø±ÙĪÙĩ":9804,"Ø§Ø±Ø¨":9805,"ĠØ¬ÛĮÚ©":9806,"ĠÙĨØ§Ù¾ÙĦØ¦ÙĪÙĨ":9807,"of":9808,"Ø¨ÙĪÙĦÛĮ":9809,"ĠØ¨Ø±ÙĨØ§Ø±Ø¯":9810,"ĠØºØ¯":9811,"ĠØºØ±ÛĮØ¨":9812,"Ġjourn":9813,"Ø§Ø·Ùĩ":9814,"ĠØªØ°":9815,"ĠÙģØ²Ø§ÛĮ":9816,"ĠØ´ÙĪØ±Ø´ÛĮØ§ÙĨ":9817,"ĠÙĨØ§Ø´ÙĨØ§Ø³":9818,"ĠÙħØ¨Ø§ÙĨÛĮ":9819,"Ġfw":9820,"ĠØ°ÙĪØ§ÙĦ":9821,"ÙĪØ¦Ø±":9822,"ĠØ³ÙĪØ§Ø±Ùĩ":9823,"ĠØ¨Ø±ÛĮØ³ØªÙĪÙĦ":9824,"ĠØµØŃØ±Ø§ÙĨÙĪØ±Ø¯ÛĮ":9825,"Ġmr":9826,"ĠØ±ÙĩØ§ÛĮÛĮ":9827,"ĠØ¨ØªÙħÙĨ":9828,"Ù¾Ø²Ø´Ú©ÛĮ":9829,"Ġspec":9830,"ĠÚ©Ø´Ø´":9831,"ÙĦÙĪÚ©":9832,"ĠÙĨØ§Ø®Ø§ÙĦØµ":9833,"ĠÚ¯ÙĦÙĪ":9834,"ĠØ¨Ø§Ø±Ú©":9835,"ĠØ¨Ú©Ø±":9836,"ĠØ¨ÙĦÙĪÙħ":9837,"ĠÙĨÙģØ±ÛĮ":9838,"li":9839,"ĠØªÙĨÙĩ":9840,"ÙĨØ¬Ø§ÙĨÛĮ":9841,"ĠÚ¯ÙĦÙĪÚ©":9842,"Ø³Ø§Ø±ÛĮ":9843,"ĠÙħØ¨Ø§Ø±Ø²Ø§Øª":9844,"ger":9845,"nes":9846,"ĠÚ¯Ø´ØªÙĩ":9847,"ĠØ¢ÙĦÚ©":9848,"ĠÙħØ¹ØªØ¯ÙĦ":9849,"ĠØ§Ø¬Ø³Ø§Ùħ":9850,"ĠØ±ÙĪØŃØ§ÙĨÛĮØ§ÙĨ":9851,"ĠÙħØŃØªÙĪØ§":9852,"ional":9853,"ĠØªÙģØ±":9854,"ĠØ¹ÛĮ":9855,"Ġmen":9856,"ĠØ§ØªÙĪ":9857,"ĠØ³Ù¾ÛĮØ¯":9858,"ĠØ§Ø¨Ø±Ø§ÙĩÛĮÙħÛĮ":9859,"ÙĦÛĮÙĪØ³":9860,"ĠØ¨Ø§Ø²Ø±Ø³ÛĮ":9861,"ĠÙħÙĤØª":9862,"ÙħÛĮÙĨØ§":9863,"Ġleft":9864,"Ø«Ø±ÛĮ":9865,"ĠÙģÙĦÛĮÚ©Ø³":9866,"ĠØ·ÙĦØ¨Ø§ÙĨ":9867,"ĠÙħÛĮÚ©ÙĨØ¯":9868,"udad":9869,"ĠÙģØ±ÛĮØ§Ø¯":9870,"Ø§ØŃØªÛĮ":9871,"ĠØ³ÙĪÛĮØ§":9872,"ĠØ³ÙģØ±ÙĨØ§ÙħÙĩ":9873,"ĠÚ©Ø§Ø±Ø§Ú©ØªØ±":9874,"ĠÙģØ²Ø§ÛĮÙĨØ¯Ùĩ":9875,"ĠÙģØ±Ø¢ÛĮÙĨ":9876,"ĠØªÙħØ§Ø´Ø§Ú¯Ø±Ø§ÙĨ":9877,"Ġciudad":9878,"Ø§Ø±ÛĮØ§":9879,"Ġstar":9880,"ĠÚ©Ø´Ø§ÙĪØ±Ø²":9881,"ĠØ²ÛĮØ§Ú¯Ø§ÙĨ":9882,"ÙĪØ³Ø§ÙĨ":9883,"ĠÙĪØ¨Ø³Ø§ÛĮØª":9884,"ĠØ³ÛĮÙĨÙħ":9885,"ĠØ®ÙĪØ§ÙĩÙħ":9886,"Ġking":9887,"ĠÙĨÛĮØªØ±ÙĪÚĺÙĨ":9888,"ĠÚ©Ø¬":9889,"ĠØ§ÛĮØ§Ùħ":9890,"Ø±ÙĨÚ¯":9891,"ĠØ§Ø±Ø§Ø¯Ùĩ":9892,"ĠØ´Ú©Ø³Ù¾ÛĮØ±":9893,"ĠØ´Ø§ÙĩØ±Ø®":9894,"Ġund":9895,"ĠÚ¯ÙĪÛĮØ§":9896,"ĠÙ¾Ø¯Ø±ÛĮ":9897,"Ø§ÙĩØ¯Ø§Øª":9898,"Ġapr":9899,"Ġland":9900,"ĠØ¬ÙĦÚ¯Ùĩ":9901,"ĠØ³ÙĦØ¬ÙĪÙĤÛĮ":9902,"ĠØ¬ÙĩØ§ÙĨÚ¯ÛĮØ±":9903,"ĠÙ¾Ø§ÙĨÚ©":9904,"ĠÙħÙĨÛĮ":9905,"ĠØ±Ø§ÙĪØ±Ø²":9906,"Ø®ÙĪÙĨ":9907,"ĠÙħÙĦØŃÙĤ":9908,"ĠØ³Ù¾Ø±Ø¯":9909,"ĠÙ¾ÙĦÙĨÚ¯":9910,"ther":9911,"Ġclass":9912,"ĠØ§ÛĮØ¬Ø§Ø¯Ú¯Ø±":9913,"ĠØ§ÛĮØ¯Ø¦ÙĪÙĦÙĪÚĺÛĮ":9914,"ĠØ§ØµØ±Ø§Ø±":9915,"ĠÙĨÚ¯Ø§Ø´ØªÙĩ":9916,"ĠÙħØ§Ø±Ú©ÙĪ":9917,"urch":9918,"ĠÙĨÚ¯Ø±Ø´":9919,"ĠØ§ÙĪÙ¾":9920,"ĠØ§ÙĪØ±ÛĮ":9921,"ĠÙ¾ÙĩÙĨØ§ÛĮ":9922,"ĠØ¨Ø§Ø®ØªØ±ÛĮ":9923,"ĠÚĨØ§ÙĨ":9924,"ĠÙĤØ¯ÛĮ":9925,"Ġdon":9926,"ĠØ¯Ø§Ø¦Ùħ":9927,"ĠØªØ§Ø²Ú¯ÛĮ":9928,"ĠÙħÙĨÙĤ":9929,"ĠÙĦØ³ØªØ±":9930,"ĠØ§ÙĦÚ©ØªØ±ÙĪÙħØº":9931,"Ġben":9932,"ĠÙ¾Ø§Ø±ÙĦÙħØ§ÙĨÛĮ":9933,"ĠÙ¾ÙĪØ³ØªØ§ÙĨ":9934,"ĠØªØ±Ø§Ø´Ùĩ":9935,"Ġlife":9936,"ĠÙ¾Ø±Ø³ØªØ´":9937,"Ġpaul":9938,"ĠÙģÛĮØª":9939,"ÙĨØªØ³":9940,"ita":9941,"Ġstate":9942,"ĠÙ¾ÙĨØ§ÙĩÚ¯Ø§Ùĩ":9943,"ĠØªÙĪÙĤÛĮÙģ":9944,"ĠÚ©Ø§Ø¯Ø±":9945,"ĠØ¸Ø±ÛĮÙģ":9946,"ĠØ§ØªÙģØ§ÙĤØ§Øª":9947,"ĠØ¨ÙģØªØ§":9948,"Ø³ÙĪØ³":9949,"ĠÚ©Ø§Ø´Øª":9950,"ĠÙħØ³Ø§ÙģØ±Ø¨Ø±ÛĮ":9951,"ÛĮØ§Ú¯ÙĪ":9952,"ĠØªÙĨÙģØ³":9953,"ĠØ³Ø§ÙĨÚ¯":9954,"ĠØ¹ÙĦØ§Ø¡":9955,"ĠØ²ÙĨÙĨØ¯":9956,"ĠÙħØ±Ø³ÙĪÙħ":9957,"ĠØ¹Ø§ÙħÙĦÛĮ":9958,"ĠØªØ§ÛĮÛĮØ¯":9959,"ãģ":9960,"ĠØ§Ø³ØªÙĪÚ©":9961,"ĠÙĤÛĮØ¯":9962,"ĠÙħØ²ÙħÙĨ":9963,"Ã§a":9964,"ĠØ§ÙĨØ¯Ø±Ø³ÙĪÙĨ":9965,"ĠÙģØ±Ø§Ú¯ÛĮØ±":9966,"Ú©ÙĪÙĨ":9967,"ĠÚ©Ø§ÙĪ":9968,"ĠØ¢Ø¯ÙĪÙĦÙģ":9969,"ĠØ¬ÙĪØ´Ú©Ø§Ø±ÛĮ":9970,"ĠØ±Ø§ÙģØ§":9971,"Ú¯Ø§ÙĨØ¯Ø§":9972,"ĠÙħØ¹Ø±ÙģØª":9973,"ĠØ¯Ú¯Ø±Ú¯ÙĪÙĨÛĮ":9974,"ĠØ³Ø±Ø§Ø¨":9975,"ÙģÙĦÛĮÚ©Ø³":9976,"ĠØ¨ÙĤØ¹Ùĩ":9977,"ĠÙĨØ§Ø¨Ø±":9978,"ĠØ§ÙĦØ·":9979,"ĠÙħÙĪØ¨Ø§ÛĮÙĦ":9980,"ĠÙħØ§Ø±Ú©ÙĪØ³":9981,"ãĥ":9982,"ĠÙĪØ§Ø¯Ø§Ø±":9983,"Ġlangu":9984,"ĠÙħÙĪØ§ÙĤØ¹":9985,"ĠØ¨Ø§Ø±Ø²":9986,"ĠØ¯ÙĪÙħÛĮ":9987,"ĠØ¨Ø§ÙĨÚ©ÛĮ":9988,"Ġedition":9989,"ĠÙĩÙĦØ³ÛĮÙĨÚ©ÛĮ":9990,"ĠØ¢Ø±Ø§ÙĨ":9991,"ĠÙħØ§Ø³Øª":9992,"ĠØ¹Ø§ÙħÛĮ":9993,"ĠÙħØŃÙģ":9994,"Ù¾Ø§Øª":9995,"ĠÚ¯Ø°Ø§Ø´ØªÙĨØ¯":9996,"Ø²Ø§Ø¯Ú¯Ø§ÙĨ":9997,"ĠØ±ÛĮÙĦ":9998,"ĠÙ¾ÙĪÛĮÙĨ":9999,"ĠØªØ±Ø¯ÛĮØ¯":10000,"ĠÙĤÙĪØ§Ø¹Ø¯":10001,"ĠÙħØ¯ÛĮ":10002,"ĠØªØ§ÛĮÙħ":10003,"uck":10004,"ĠÙĨÛĮØ§ÙģØª":10005,"ĠØ³ÛĮØ³ÛĮÙĦ":10006,"ĠØ¯Ø§Ø±ÙĨØ¯Ùĩ":10007,"ĠØ·ÙĪØ§ÛĮ":10008,"ĠÚ©Ø§Ø±ØªØ±":10009,"ĠÙĨØªÙģÙĦÛĮÚ©Ø³":10010,"ĠÙĨÚ©ÙĨØ¯":10011,"osh":10012,"ĠØ¯Ø§ÙĨÛĮ":10013,"ĠØ¨Ø´Ú©":10014,"ĠØ±ÙħØ§ÙĨÛĮ":10015,"ĠØ¹Ø¨Ø§Ø¯":10016,"ĠÙĩÙħØ³Ø§ÛĮ":10017,"ĠØ§Ø±Ø¬":10018,"ĠØ¯Ø¨ÙĦÛĮ":10019,"ĠÙħØ¬Ø±":10020,"Ġstation":10021,"ĠØ¢ÙĩÙĨÛĮ":10022,"ÙģØ´Ø§ÙĨÛĮ":10023,"ĠØ¨Ù¾Ø±Ø¯Ø§Ø²Ø¯":10024,"ĠÙģØ§Ø´ÛĮ":10025,"ĠÙħÙĦØ¨ÙĪØ±ÙĨ":10026,"ĠØºÛĮØ±ÙģØ¹Ø§ÙĦ":10027,"ĠØ¨ÙĩØªØ±ÛĮ":10028,"ĠØ§Ø¨Ø²Ø§Ø±ÛĮ":10029,"ĠØ§ÙĪØ³Ø§Ú©Ø§":10030,"ĠØ¨ÛĮØ³Ø¨Ø§ÙĦ":10031,"ĠØ§ÚĺØ¯ÙĩØ§":10032,"ĠØ§ØŃØ§Ø·Ùĩ":10033,"ÛĮÙĦÙĨ":10034,"ĠÙħØŃÙħØ¯ØªÙĤÛĮ":10035,"ĠÙħØµÙĪØ¨":10036,"ĠØ²Ø§Ú¯Ø±Ø³":10037,"ĠÙģØ§Ø´":10038,"Ø«Ùĩ":10039,"Ġlog":10040,"ĠØ´Ø¯ÛĮØ¯ÛĮ":10041,"ĠØ´ÙĩØ§Ø¯Øª":10042,"Ġplay":10043,"ĠØ¹Ø²Øª":10044,"ĠØ³ÙĨÛĮÙĨ":10045,"ĠØ±ÙĨÚ¯ÛĮÙĨ":10046,"Ø·ØŃ":10047,"ĠÙĦØ±Ø²":10048,"ĠØµØŃØ±Ø§ÛĮ":10049,"ĠÙģØ±ÛĮØ¯Ø±ÛĮØ´":10050,"ĠØªÙĤØ§Ø¶Ø§":10051,"ĠØ§Ø¯Ø±Ø§Ø±":10052,"ington":10053,"ĠØ²ÙĨØ¨ÙĪØ±":10054,"ĠØ¢Ø²ÙħØ§ÛĮØ´Ú¯Ø§ÙĩÛĮ":10055,"ÙħÛĮØ¯Ùĩ":10056,"ĠÙ¾Ø±Ø¬ÙħØ¹ÛĮØª":10057,"ĠØ§ÙĦÚ©ØªØ±ÛĮÚ©":10058,"ĠØ¢ÙĨØ¯Ø±ÛĮ":10059,"Ø®Ø§Ø°":10060,"ĠÙĨÛĮØ§Ùħ":10061,"ates":10062,"ĠÙħÙĨØªØ¸Ø±":10063,"ĠØ§Ø¨ÙĪØ§ÙĦÙģ":10064,"ĠØ§ØªØ®Ø§Ø°":10065,"ĠØªØºÛĮÛĮØ±Ø§ØªÛĮ":10066,"ÙģÛĮÙģ":10067,"ĠØªØ§ØªÙĨÙĩØ§Ùħ":10068,"ael":10069,"ĠØ§ÛĮÙħÙĨ":10070,"ÙĪÙĦÙĨØ¯":10071,"Ø§ÙĨØ¯Ø±ÙĪ":10072,"ĠÙĪÙģØ§Ø¯Ø§Ø±":10073,"ĠÙĩÙģØ¯Ùĩ":10074,"ience":10075,"ĠØ±Ø§ÙĩÙ¾ÛĮÙħ":10076,"Ġdatab":10077,"ĠÙ¾Ø§Ø¨":10078,"Ġsil":10079,"ĠØ¯Ø±Ø®ØªÛĮ":10080,"ĠÙģÙĦÛĮ":10081,"Ġts":10082,"Ø´ÙħØ§Ø±":10083,"ĠØ®Ø¯Ø§ØŃØ§Ùģ":10084,"ĠØ¨Ø±ÙĩÙĨÙĩ":10085,"ĠÙħØ·ÙĦØ¨":10086,"ĠØ¬Ø§Ø¯ÙĪÛĮÛĮ":10087,"ĠØ¨Ø§Ø´ÛĮÙħ":10088,"Ġlove":10089,"ĠØ¯ÙħÚ©":10090,"Ġjournal":10091,"ĠØ¯ÙĨØ¯":10092,"ĠÙĨÙħØ±Ùĩ":10093,"ĠØ®Ø±Ø§Ø³Ø§ÙĨÛĮ":10094,"order":10095,"ĠØªØ¶Ø§Ø¯":10096,"Ġcb":10097,"Ġserv":10098,"ĠØ³Ø§Ø®ØªÙĨØ¯":10099,"ĠÚ©Ø§Ø±Ø¢Ú¯Ø§Ùĩ":10100,"Ġhouse":10101,"ĠÙĦÙĤ":10102,"Ġmad":10103,"Ġmol":10104,"Ġdna":10105,"ural":10106,"ĠØ³Ø§ÙĨØªÛĮÙħ":10107,"Ġrh":10108,"ĠØ§ÛĮØ²ÙĪØª":10109,"ĠÙģØ±Ø¢ÛĮÙĨØ¯":10110,"ĠØ§ØµÛĮÙĦ":10111,"ĠØ§ØŃÛĮØ§":10112,"ĠØ¯Ø§ÙħØ¯Ø§Ø±ÛĮ":10113,"Ø³ÙĦØ§ÙĨ":10114,"ĠÙ¾ÛĮØ´Ø±ÙĪ":10115,"ĠÙĪØ§Ú©Ø±":10116,"ĠØ§ÙĦØº":10117,"ĠØ§ÙĦÙĤØ§":10118,"ĠØªØ¬ÙĪÛĮØ²":10119,"ĠØ§Ø¹Ø·Ø§ÛĮ":10120,"ala":10121,"ĠØ¨Ø®Ø´Ø¯":10122,"ĠÙ¾ÙĨØ¨Ùĩ":10123,"ĠÙĩØ§Ø¦":10124,"ĠÙħØ¹Ø¬":10125,"ĠÚ©Ø§ÙĨÚ¯":10126,"ĠÙħÙĨÙģØ±Ø¯":10127,"ĠÙħØ¶ÙħÙĪÙĨ":10128,"ĠÙħÙĤØµØ¯ÙĩØ§ÛĮ":10129,"ĠØ±ÙĪØ²ÙħØ±Ùĩ":10130,"ĠØµØŃØª":10131,"ĠØ¨Ø±Ø¢ÙĪØ±Ø¯Ùĩ":10132,"ĠØ®ØªÙħ":10133,"Ø§ÙĦÛĮÚ¯Ø§":10134,"ĠØ§Ø³ØŃØ§ÙĤ":10135,"ĠÙħØ´Ú©ÙĪÚ©":10136,"ĠÙħØ®Ø§Ø·Ø¨":10137,"ĠØ§Ø±Ø²Ø´ÙħÙĨØ¯":10138,"ÙĨØ³ÛĮ":10139,"ĠÙħØªÛĮÙĪ":10140,"ĠÙĪÛĮÚĨ":10141,"ĠØ¢ÙĦØ§":10142,"Ø§ÙĨØªÙĪ":10143,"Ġyear":10144,"Ø§ÛĮÙĦÛĮ":10145,"Ġcp":10146,"ĠÙ¾ØªØ±ÙĪØ´ÛĮÙħÛĮ":10147,"ĠØ³ÙĪØª":10148,"ular":10149,"ĠÙħØºÙĦÙĪØ¨":10150,"ĠØ±ÙĪØ¯Ø±ÛĮ":10151,"ĠÙħÙĪØ¶ÙĪØ¹ÛĮ":10152,"ĠÙĨÛĮØ²Ùĩ":10153,"ĠÙ¾Ø³Ø±ÛĮ":10154,"ĠØ¯ÙĪØªØ§ÛĮÛĮ":10155,"ĠØ§Ø±Ø¬Ø§Ø¹":10156,"Ø¯Ø§Ùģ":10157,"ĠØ¬Ø§ÙĨØ§ØªØ§ÙĨ":10158,"ÙĨÙĪÛĮ":10159,"ĠÙħØ±ÙħØª":10160,"ĠØµÙĪÙģ":10161,"ume":10162,"ĠØ§Ø¨ØªÚ©Ø§Ø±":10163,"ÙģØ§Ø¯Ùĩ":10164,"Ù¾ÙĨØ¯":10165,"ĠÙĪÙĤÙģÙĩ":10166,"ĠÙħØ±Ú©Ø²ÛĮØª":10167,"Ø§ÙħØ§ÙĨ":10168,"ĠØµØŃØ±Ø§ÛĮÛĮ":10169,"Ġinc":10170,"Ġfar":10171,"ĠØ®ÙĪØ¯ÛĮ":10172,"ĠÙħØ¨Ø¯Ø£":10173,"ÙĪÙĦØªÛĮ":10174,"ĠÙĨÙĤØ¯ÙĩØ§ÛĮ":10175,"ĠÙ¾Ø§ÙĨØ§ÙħØ§":10176,"ĠØ´ÙĩØ±ÙĪÙĨØ¯ÛĮ":10177,"Ġmusic":10178,"ĠÚ¯ÙĪØ§ÙĨÚ¯":10179,"ĠØ¨ÛĮØ§ÙĨÚ¯Ø±":10180,"ĠØ§Ø¨ÙĪÙħ":10181,"ĠØ¯Ø§ÛĮÙĨØ§Ø³":10182,"Ġcur":10183,"Ġbra":10184,"ĠÛĮØª":10185,"ĠØ§Ø³ØªØ±ÛĮ":10186,"ĠÙ¾ÙĪØ±ØªÙĪØ±":10187,"ĠØ²Ø¹":10188,"ĠØªØ¹ÙħÛĮÙħ":10189,"ĠÙ¾ÙĦØªÙģØ±Ùħ":10190,"ĠÙħØ§ÙħÙĪØ±ÛĮØª":10191,"ĠÑ":10192,"ÙĪØ¯Ø§ÙĨ":10193,"ĠØŃØ§ÙĦÛĮÚ©Ùĩ":10194,"ĠØ³ÛĮÙĦÙĨØ¯Ø±":10195,"ĠØ¢ØªØ´Ú©Ø¯Ùĩ":10196,"ĠØŃØ§ÙĦØªÛĮ":10197,"ĠÙĨÙĩØ§":10198,"ĠØ¹ÙĦÙĪÛĮ":10199,"ĠØ³ÙĪØ¦ÛĮÙģØª":10200,"ĠØ¬Ø§ÙħØ§Ø¦ÛĮÚ©Ø§":10201,"ĠØ³ÛĮØµØ¯":10202,"ĠÙħØªÙĤØ§Ø¹Ø¯":10203,"ĠÙĪÙĪØ±Øª":10204,"ĠØ§ÙĨÙĪØ´":10205,"ĠØ¨ÙĦÚ¯Ø±Ø§Ø¯":10206,"Ø¨Ø±Ø§":10207,"ĠØŃØ§Ø¦":10208,"ĠÙĩÛĮØ¬Ø§ÙĨÛĮ":10209,"ĠÙħØ±Ø¨ÙĪØ·Ùĩ":10210,"fa":10211,"ĠÙħÙĨÛĮØ²":10212,"ĠØ²ÛĮØ±ÛĮÙĨ":10213,"ĠØ¬ÛĮÙĦ":10214,"Ġdem":10215,"ĠØ®Ø¯Ø§ÛĮÛĮ":10216,"ĠÚ©ÙĦÙĩ":10217,"ĠØ¯Ø³ØªÙħØ²Ø¯":10218,"ĠÚ©ÛĮÙ¾":10219,"Ġnd":10220,"Ġmid":10221,"ÙĪØ²ÛĮØª":10222,"ĠÙĨÙĪØ§Ø¯Ú¯Ø§ÙĨ":10223,"Ø¬Ø±Ø²":10224,"ĠÙħÚ©Ø§Øª":10225,"ola":10226,"ĠÙĨÙħÙĪØ¯ÙĩØ§ÛĮ":10227,"ĠØŃÚ©ÙħØ±Ø§ÙĨÛĮ":10228,"ÙĦÛĮÙħÛĮ":10229,"ĠØªØ¹Ø¨ÛĮØ±":10230,"ĠØ¯ÙĪÙ¾ÛĮÙĨÚ¯":10231,"Ġbrit":10232,"ĠØ±ÛĮÙĨÚ¯":10233,"Ø§Ø±ÛĮÚ©Ø§":10234,"ĠÚ©Ø§Ø¸ÙħÛĮ":10235,"Ø§Ø¯ÛĮØ§ÙĨ":10236,"ĠØ±Ø³ÙĪÙħ":10237,"ĠØºÛĮØ±Ø¯Ø§":10238,"ĠØ¢ØªØ´ÙģØ´Ø§ÙĨÛĮ":10239,"ĠØ´ÙħØ§Ø±Ø´":10240,"ble":10241,"ĠÛĮØ§Ø³ÙĪ":10242,"ony":10243,"Ġbre":10244,"ĠØ®Ø·Ø§ÛĮ":10245,"ĠØ²Ø§Ø¯Ø±ÙĪØ²":10246,"ĠØ¯ÛĮØ§Ø¨Øª":10247,"wn":10248,"ĠØ§ÙĤØªØ¨Ø§Ø³ÛĮ":10249,"ĠÙ¾ÙĨØª":10250,"Ø§Ø¯Ø§Ø±ÛĮ":10251,"Ġconf":10252,"ĠØªØ§Ù¾":10253,"ĠÙģÙĩØ±Ø³ØªÛĮ":10254,"ĠØªÙĨÚ©":10255,"ĠØ¢ÙĪÛĮ":10256,"ĠØ¨ÙĨÙģØ´":10257,"ĠÚ¯ÙĪÙĩØ±":10258,"ĠÙħØ®Ø§Ø¨Ø±Ø§ØªÛĮ":10259,"Ø¨Ø§Ø·":10260,"ĠÛĮÙĪØ´":10261,"ÙĪÙħÛĮÙĨÚ¯":10262,"ĠÙĨÙĤØ¯ÛĮ":10263,"ĠØŃØ¯Ø³":10264,"ĠÙģÛĮØ²ÛĮÙĪÙĦÙĪÚĺÛĮ":10265,"ĠØ¨Ø³ØªØ±ÛĮ":10266,"ĠØ§Ø³ØªÙģØ§ÙĨ":10267,"Ġham":10268,"ĠÚĨØ´ÙħÚ¯ÛĮØ±ÛĮ":10269,"Ø³ØªÛĮÚ©ÛĮ":10270,"ĠØ¯Ø²Ø¯Ø§ÙĨ":10271,"ĠØ§Ø¹ØªØ±Ø§Ø¶ÛĮ":10272,"ĠÙĦÛĮÙĦ":10273,"ĠØºÛĮØ±ÙħÙħÚ©ÙĨ":10274,"ĠØ·ÙĪØ§ÛĮÙģ":10275,"ĠÙ¾Ø³ÙĨØ¯":10276,"ĠØ§ÙĦØªÙĩØ§Ø¨":10277,"ĠÚ©ÛĮØ¯":10278,"ĠÚ©ÙĦØ§Ø±":10279,"ĠØ§Ø¯ÛĮÙĨ":10280,"ÙĨØ²Ø§":10281,"ĠØ¯ÙĪØ´ÛĮ":10282,"ĠØ¹ÙĨØ§ÙĪÛĮÙĨ":10283,"ĠÚ¯Ø§Ø³":10284,"ĠÙĩØ§ÙĪØ§Ø±Ø¯":10285,"ĠØ¯Ø§ÙħØ§Ø¯":10286,"ĠÙĨØ§ØªÙĪ":10287,"ĠØ¨ÛĮØ´ÛĮÙĨÙĩ":10288,"ĠÙħØŃÙģØ¸Ùĩ":10289,"ÛĮÙĨØ§ÙħÙĩ":10290,"ĠØ§ÙĨØªØ²Ø§":10291,"ĠØ¯Ú©Øª":10292,"ĠÙħÛĮÚ¯":10293,"Ø°ÛĮ":10294,"ĠÙĨÙħÙĪØ¯ÙĨ":10295,"ĠØ®ÛĮØ²Ø´":10296,"Ø¨ÙĪØ¬":10297,"ĠØ¯Ø§ÛĮØ±":10298,"ĠØ¨Ø±ÙĩØ§ÙĨ":10299,"ella":10300,"Ġkg":10301,"Ø§ÙĪØ±Ø¯Ùĩ":10302,"ĠØ¨ÛĮØ±ÙħÙĨÚ¯Ø§Ùħ":10303,"ĠØ¨Ø±ÙĨØª":10304,"ĠØ¢ÙħÙĪØ²Ùĩ":10305,"ĠØ¬Ø§Ø¯ÙĪÚ¯Ø±":10306,"ĠØ¢Ø«Ø§Ø±Ø´":10307,"Ġover":10308,"ĠØ³ÙĪØ®ØªÙĩ":10309,"Ġthis":10310,"ĠØªØ·Ø¨ÛĮÙĤ":10311,"ĠÙħÙĪØ§Ø¶Ø¹":10312,"ĠÙ¾ÛĮÙĪØ³ØªÙĨØ¯":10313,"Ø¢Ø¨Ø§Ø¯ÛĮ":10314,"ĠØªÙĦØ®":10315,"à¤°":10316,"ÙĨØ§Ø¹":10317,"ĠØ§ØªÙĩØ§ÙħØ§Øª":10318,"ĠÙ¾Ø§Ú©Ø³Ø§Ø²ÛĮ":10319,"ensis":10320,"Ġshe":10321,"ĠØ³Ø§ÙħÙĪØ±Ø§ÛĮÛĮ":10322,"ĠØŃÙĪÙĦ":10323,"ĠØ¨Ø®Ø§Ø±Ø§":10324,"ĠÙħÚ©Øª":10325,"ĠØ³Ø§ÙħÛĮ":10326,"Ġrich":10327,"ĠÙĨØ§Ø±ÙĨØ¬ÛĮ":10328,"Ø´ÙĦ":10329,"ĠÚ¯ÙĪØ§ÙĩÛĮÙĨØ§ÙħÙĩ":10330,"Ø¦Ø§":10331,"ĠØ±Ø§ÙĩÙ¾ÛĮÙħØ§ÛĮÛĮ":10332,"ĠÙģØ±ØŃ":10333,"ĠÙĨØ§ÚĨØ§Ø±":10334,"ĠÙ¾ÙĪØ±ØªÙĪ":10335,"ĠÙħØ®Ùģ":10336,"ĠØ¹Ø¨Ø¯Ø§ÙĦØŃØ³ÛĮÙĨ":10337,"ĠØ¨Ø§ØºÛĮ":10338,"ĠÙħØ±ØªÙģØ¹":10339,"ÙĦØ§ÙĨØ¯ÛĮ":10340,"ĠØ¨Ø§ÙĦØ§Ø®Ø±Ùĩ":10341,"ĠÙ¾Ø§Ø¯Ú¯Ø§ÙĨ":10342,"ĠØ¨ÙĩØ²Ø§Ø¯":10343,"ĠÚ¯Ø§ÙĦÛĮ":10344,"ĠÙħØ¹Ø§Ø±Ùģ":10345,"ĠÙħÙĪÙĦÙĪÛĮ":10346,"ĠØ®ÙĦØ¹":10347,"ĠÛĮÚ©Ø¨Ø§Ø±":10348,"ĠÚĨÛĮØ³Øª":10349,"ĠØ±Ø§Ø¯Ø§Ø±":10350,"ĠÚ©Ø¯ÙĩØ§ÛĮ":10351,"ĠÙħØ²Ø§Ø±Ø¹":10352,"ØªØ±ÙĨ":10353,"ĠÚ¯ÙĨØ¬ÛĮÙĨÙĩ":10354,"ets":10355,"ĠØ¯ÙĩØ®Ø¯Ø§":10356,"ĠÙħØ±Ø¬":10357,"Ġtop":10358,"ĠØ§Ø´Ø¹Ùĩ":10359,"Ø³ÙĦØ¯":10360,"ĠØ¨Ø§Ø·":10361,"ĠÙĤØ±Øµ":10362,"Ø§ÙĦÙħÙ¾ÛĮÚ©":10363,"ĠØªØ¶Ø¹ÛĮÙģ":10364,"ĠØ¨ÙĩØ§ÙĨÙĩ":10365,"ora":10366,"ĠÙĨÛĮÙĪÚ©Ø§Ø³ÙĦ":10367,"ÙĩØ±ÛĮ":10368,"ĠÚ¯Ø´ØªØ§ÙĪØ±":10369,"ĠØ§Ø±ØªØ¯Ú©Ø³":10370,"ĠÙĬ":10371,"ĠØ³Ø§ÙĦØ§Ø±":10372,"ĠØ¢ÙħÙĪØ²Ú¯Ø§Ø±Ø§ÙĨ":10373,"ĠØ¶Ø±Ø¨Ø§Øª":10374,"ĠÙħØªÙĨØ§ÙĪØ¨":10375,"ĠØ¯ÙĪÙĨØ¯Ùĩ":10376,"ĠØ¨ÙĪØ¯Ùħ":10377,"ĠØ´ÙĪØ±Ø´ÛĮ":10378,"ÙģÙĦØ¯":10379,"ĠØ¬ÙģØ±":10380,"ĠØ´Ø§Ø±ÙĦÙĪØª":10381,"ĠÚ©Ø§Ø±ÙĩØ§":10382,"ĠØ¹ÙģÙĪ":10383,"Ġopen":10384,"ĠÙ¾ÙĨÛĮ":10385,"ĠÙĪÛĮÙħ":10386,"ĠØ¹Ø°":10387,"ĠØ¢ÙĩÙĨÛĮÙĨ":10388,"ĠÙĨÙħØ§Ø¯ÛĮÙĨ":10389,"ĠÙĪÙĪÙĦ":10390,"ĠØ¢Ø¦ÛĮÙĨ":10391,"ĠÙ¾Ø§ÛĮÛĮÙĨÛĮ":10392,"iana":10393,"ĠØ²ÛĮØ¯":10394,"ĠÙĩÙħØ§":10395,"ĠØ¹ÙħÙĪÛĮ":10396,"ĠÙ¾ÛĮØ§Ù¾ÛĮ":10397,"berg":10398,"ĠØ®Ø¨Ø±ÙĨÚ¯Ø§Ø±Ø§ÙĨ":10399,"ĠÙħØ¨Ø§Ø¯ÙĦÙĩ":10400,"ĠØ§Ø¶Ø·Ø±Ø§Ø¨":10401,"ĠØªØ§ÛĮØª":10402,"ĠØµÙģØª":10403,"Ġeast":10404,"ĠØ§Ø±Ø¯ÙĦØ§ÙĨ":10405,"ÙħØŃÙħØ¯":10406,"ĠÚ©Ø¨ÙĪØ¯":10407,"Ø§ÙĨØ§ÙĨ":10408,"ĠÙģØ³ØªÛĮ":10409,"Ú¯Ø±Ø¯ÛĮ":10410,"ĠØ²ÛĮØ§ÙĨ":10411,"ĠÙ¾Ø§ÙĨØµØ¯":10412,"ĠØ±ÙĪØ§ÙĨÙĩ":10413,"ĠØ³Ø³":10414,"Ø§Ú©Ø±":10415,"ĠØ³Ø±Ú¯":10416,"ĠØ¹Ø¶ÙĦØ§ÙĨÛĮ":10417,"burg":10418,"ĠÚ©Ø´Ø§ÙĪØ±Ø²Ø§ÙĨ":10419,"ÙģØ§Ø±":10420,"ĠØ´ÙĪØ´ØªØ±":10421,"ĠÙĤØ§Ø¦ÙĦ":10422,"ĠÙĪØ§ÙĦÙĨØ³ÛĮØ§":10423,"ĠÙĩÙĩ":10424,"ĠØ¹Ø§Ø²Ùħ":10425,"ĠØ³ÙĨÚ¯Ø§ÙĦ":10426,"hl":10427,"ĠÙĨØ¦ÙĪ":10428,"ĠÙģÛĮÙĦØ¯":10429,"ĠÙħØªØ®ØµØµØ§ÙĨ":10430,"Ø¨ÙĨØ¯Ø§ÙĨ":10431,"ĠØ³Ø§ÙĦØ§Ø±ÛĮ":10432,"Ø²ÛĮØ³Øª":10433,"ĠØ¨Ø§Ø²ÙħØ§ÙĨØ¯Ú¯Ø§ÙĨ":10434,"Ġline":10435,"ĠØªÙĪÙĩÛĮÙĨ":10436,"ĠÙģØ±Ø§ÙĪØ±Ø¯Ùĩ":10437,"Ġdet":10438,"ĠÙħØ§ÙĦÛĮØ§ØªÛĮ":10439,"ĠØ¨Ø§Ø¯Ø¨Ø§ÙĨÛĮ":10440,"ĠÙĩÚ©":10441,"Ġvill":10442,"Ġchamp":10443,"Ø¨Ø§ØºÙĩ":10444,"ĠØªØ¨Ø§Ø±ÙĩØ§ÛĮ":10445,"ĠØ°Ø®Ø§ÛĮØ±":10446,"ĠÙ¾ÛĮØ§ÙħØ¯ÙĩØ§ÛĮ":10447,"ĠÙ¾Ø´ØªÙĩ":10448,"ÛĮÙĦØª":10449,"ĠÙĨØ±ÙħØ§ÙĦ":10450,"ĠØ¨ÙĪØ³ÛĮÙĦÙĩ":10451,"Ø²ÛĮØ²":10452,"ĠÙģØ±Ø¯ÛĮÙĨ":10453,"ĠØ§ÙħØªÛĮØ§Ø²Ø§Øª":10454,"ĠÙĪØ§Ø¶ØŃ":10455,"ĠØ´Ø§Ø¨Ú©":10456,"Ø´ØªÛĮÙĨ":10457,"ĠÚĺÙĪØ±ÙĨ":10458,"ĠØ®ÙĪØ§ÙĩØ±Ø´":10459,"Ø¶Ø¹ÛĮ":10460,"ison":10461,"ĠØ±Ø´ÛĮØ¯":10462,"ĠØ§ÙģÙĤ":10463,"ĠÙħÙĪÛĮ":10464,"ÙĨØ§Ø·":10465,"ÙĨÛĮÚ©":10466,"ĠØªØ²ÛĮ":10467,"ĠÙ¾Ø±ÙĪÛĮÙĨ":10468,"ĠÙ¾Ø§Ø±Ø§ÙĦÙħÙ¾ÛĮÚ©":10469,"ĠÙĨÙĪØª":10470,"ĠØ³Ø±Ø¨Ø§Ø²ÛĮ":10471,"inal":10472,"ĠØ±Ø§Ø¬Ø¹":10473,"ĠØ´ÙĨÛĮØ¯Ùĩ":10474,"Ù¾Ø§ÛĮÛĮ":10475,"ĠÚ©Ø§ÙĦÛĮÙĨ":10476,"ĠÚ¯Ø³ÙĦ":10477,"ĠÙĦÛĮÙĨÙĩ":10478,"ĠÙĦÙĪÚ©Ø³":10479,"ĠØ§ÙħÛĮØ±ÛĮ":10480,"ĠØ¶ÙħÛĮÙħ":10481,"Ø±Ø§Ø³Øª":10482,"fr":10483,"ĠÙĪÙĪÙĨ":10484,"Ġruss":10485,"ĠÙĩØ¬Ø¯Ùĩ":10486,"ĠÙĤÙĪØ±Ø¨Ø§ØºÙĩ":10487,"Ġsaint":10488,"ĠÙģÙĨÙĦØ§ÙĨØ¯ÛĮ":10489,"Ġrobert":10490,"ĠØ¨ÛĮØ¶Ø§ÛĮÛĮ":10491,"ĠÙħÙģØª":10492,"Ġartic":10493,"ĠØ¨Ø¬":10494,"Ø´Ø§Ø®":10495,"Ø®ÙĪØ§Ø±":10496,"ÙĪØ²Ø§":10497,"ĠÙĨÛĮÙĪÙĩÙħÙ¾":10498,"Ø®Ø§Ø±":10499,"Ġtill":10500,"ĠØ®ÙĪÙĨØ±ÛĮØ²ÛĮ":10501,"ĠØ§Ø³ØªÙĪØ¯ÛĮÙĪÛĮ":10502,"ĠØºÛĮØ±Ø¯Ø§Ø³ØªØ§ÙĨÛĮ":10503,"Ø²ÛĮÙĨ":10504,"ĠÙĩÛĮØ³":10505,"ĠÙħØªØºÛĮØ±ÙĩØ§ÛĮ":10506,"ck":10507,"ÙĪØ§Ùģ":10508,"ĠÙħØµÙĦ":10509,"Ġdan":10510,"ĠØ¢Ø±Ø²ÙĪ":10511,"ĠØ¨Ø±ÙĪÚ©Ø³ÙĦ":10512,"Ø³ÛĮØª":10513,"Ø³Ø§ÙĦØ§Ø±":10514,"ĠØ±ÙĪØ§ÙĨØ´ÙĨØ§Ø³ÛĮ":10515,"ĠÚ©ÙĪÙĨÚ©Ø§Ú©":10516,"ĠÙħØ·Ø§Ø¨ÙĤØª":10517,"ÙĪÙģÙĩ":10518,"ĠØ´Ø¹Ø±ÙĩØ§ÛĮ":10519,"ĠÚ©ÙĪÙĨÚ©Ø§Ú©Ø§Ùģ":10520,"ĠØªÚ©ÙħÛĮÙĦÛĮ":10521,"ĠØ¯Ú©ØªØ±Ø§":10522,"onom":10523,"Ø§ÙģÙĦ":10524,"ĠØªÙĪØ±ÛĮÙĨ":10525,"Ø³ØªÙĪ":10526,"els":10527,"ĠÙģØ±Ø¯ÙĪØ³":10528,"ĠØ¯Ø§ÛĮÛĮ":10529,"ĠÙĦØ§Ø²":10530,"ĠØ¨Ø²ÙĨØ¯":10531,"Ġpage":10532,"Ġles":10533,"ĠØ¶ÙħÛĮÙħÙĩ":10534,"work":10535,"ĠØ±ÙģØ³ÙĨØ¬Ø§ÙĨÛĮ":10536,"ĠØ´Ø§Ù¾":10537,"Ġfac":10538,"ÙħØ¹Ø§Ø±Ùģ":10539,"Ø²ÙĨØ§ÙĨ":10540,"ĠÙħÙĨØ¹Ú©Ø³":10541,"Ø¨ÙĪØ¯ÛĮ":10542,"ĠØ§ÙģÚ©ÙĨ":10543,"ĠØ¢ÙĨÚ¯ÙĪÙĦØ§":10544,"ĠÙħÚ¯Ø³":10545,"ĠØ±ÙĤØ§Ø¨ØªÛĮ":10546,"Ġast":10547,"ĠÚ©ÛĮØ§ÙĨ":10548,"ĠÙģØ±ÙħØ§ÙĨØ±ÙĪØ§ÛĮ":10549,"ĠÙĨÚ¯Ø§Ø´Øª":10550,"Ġpublic":10551,"ĠØŃØ²Ø¨ÛĮ":10552,"ĠØ¯ÙĩÙħÛĮÙĨ":10553,"ĠÚ©Ø§Ø³ØªØ§Ø±ÛĮÚ©Ø§":10554,"ĠÙħÛĮØ«":10555,"Ġalb":10556,"ĠÙĤÙĪØ§Ùħ":10557,"Ġisbn":10558,"ÛĮØµ":10559,"ĠØ®ÙĪØ¯Ø±ÙĪÛĮÛĮ":10560,"ĠÙ¾Ø§Ø±Ø§ÙħÙĪÙĨØª":10561,"orge":10562,"ĠØ¯ÙĨÛĮØ§Ú¯ÛĮØ±ÛĮ":10563,"ĠÚ©Ø§Ø±ÙĪØ§ÙĨØ³Ø±Ø§ÛĮ":10564,"po":10565,"ĠÙĨÙĪÛĮØ¯":10566,"ĠØ¨ÙĪÛĮØ±":10567,"ĠØ¨Ø§ÛĮØ³ØªÛĮ":10568,"ĠÙĩÛĮØ¯Ø±ÙĪÚ©":10569,"ÙħØ±Ø§Øª":10570,"ĠÙ¾ÛĮØ´Ú¯Ø§ÙħØ§ÙĨ":10571,"ĠØ¨Ø§Ø±ÙĪÙĨ":10572,"ĠÙĪØ§ÛĮÙĪÙħÛĮÙĨÚ¯":10573,"ĠÙĨÙĪØªØ±":10574,"ĠØ¯Ø±ÛĮÚĨÙĩ":10575,"ĠØ¶Ø±ÙĪØ±Øª":10576,"Ġpop":10577,"Ġmov":10578,"Ġdie":10579,"ĠÙħØ§ÙĩÙĨØ§ÙħÙĩ":10580,"ĠÙĨØŃÙĪ":10581,"ĠØ·ÙĦÙĪ":10582,"ĠÚ©Ø§Ø±Ø´ÙĨØ§Ø³":10583,"ĠÚ©Ø§Ø±Ø¢ÙħØ¯":10584,"ĠØ®Ø§ÙĦØ¯":10585,"ĠØ²ÙĪØ±ÛĮ":10586,"ĠÙģÙĦØ´":10587,"Ġmart":10588,"ÙĪØ±Ø³":10589,"ĠØ§Ø¨ÙĪØ§ÙĦÙģØ¶ÙĦ":10590,"ĠØ³ÛĮÚ¯Ø§Ø±":10591,"Ġaa":10592,"ĠÚ©Ø§ÙĪÙĩ":10593,"ĠÙĨÛĮØ±ÙĪÙĩØ§":10594,"ĠÙĪÚ¯Ø§Ø³":10595,"ĠÚĨØ§":10596,"any":10597,"Ġtechn":10598,"ĠØ§Ø¬Ø²Ø§":10599,"ĠÙħØ³ØªØ±":10600,"Ø³ÛĮÙĪØ³":10601,"ĠØ®Ø¨Ø±Ú¯Ø§ÙĨ":10602,"ĠØ¢ÙĦÙ¾Ø§ÛĮÙĨ":10603,"ĠÙģØ³ØªÛĮÙĪØ§ÙĦ":10604,"ĠÙħÙĨØ³ÙĪ":10605,"ĠØ¨Ø¯ÙĪ":10606,"ĠÚ©Ø§Ø±Ø¨Ø±Ø¯ÙĩØ§":10607,"ĠØ²Ø§ÙĩØ¯Ø§ÙĨ":10608,"ĠÚ©ÙĪØ¦ÛĮÙĨØ²ÙĦÙĨØ¯":10609,"ĠÙĩØ§ÛĮÙĨ":10610,"ĠØŃÙĦØ¨":10611,"ĠØ¨ÙĨØ¯Ø±ÛĮ":10612,"ÙĪØ§Ø³":10613,"ĠÙĨØ§ÙħÙĪÙģ":10614,"Ġhum":10615,"ĠÙħØ§Ø±Ú¯Ø§Ø±Øª":10616,"Ġke":10617,"ĠÙħØ§Ø¯Ø±Ø¨":10618,"ĠÛĮØ§Ø®ØªÙĩ":10619,"ĠÙģØ±Ø§ÙĨØ³ÙĪØ§":10620,"ĠØ´Ø±ÛĮØ¹Øª":10621,"Ġib":10622,"Ġmarch":10623,"ize":10624,"Ġright":10625,"ike":10626,"ĠØ¨Ú©Ø´":10627,"ĠÙĩÙĦÛĮ":10628,"ĠÚ©Ø§ÙħÙ¾Ø§ÛĮÙĦØ±":10629,"ĠÙħØ®ÙģÙģ":10630,"ĠÙ¾Ø§Ø¯Ø§Ø´":10631,"ima":10632,"ĠØ±ØµØ¯Ø®Ø§ÙĨÙĩ":10633,"ĠØ´ÙħÛĮØ±Ø§ÙĨ":10634,"ĠØ§ÙĨØªØµØ§Ø¨":10635,"ĠØ®ÙĪØ§Ø±Ø²Ùħ":10636,"ĠØµØ¯Ø§Ùħ":10637,"ĠÙĨØ§ÙĩÙħ":10638,"iation":10639,"ĠÙĨÙĪØ¨Øª":10640,"Ø§Ø¹ÛĮ":10641,"ĠØ¨ÛĮØ¯Ø§Ø±":10642,"ĠÙĥÙĩ":10643,"ĠÙĨÛĮÙĦÙĪÙģØ±":10644,"ĠØ³Ø§ÙĨØªÛĮÙħØªØ±":10645,"hr":10646,"Ø¦ÙĪØ¯":10647,"ĠÙĨÙĪØ¨Ùĩ":10648,"Ġmir":10649,"ĠØ¬ÙĨØ¬Ø§ÙĦ":10650,"ĠØ¨Ø§Ø±Ø¯Ø§Ø±":10651,"Ġrep":10652,"ĠØ§ÛĮØ§ÙĨ":10653,"ĠÛĮÙĪØ³":10654,"ĠØ´Ø§ÙĩØ±ÙĪØ¯":10655,"ĠØºÛĮØ±Ø¹":10656,"ĠØ§Ø³ÙħØ§Ø¹ÛĮÙĦÛĮ":10657,"Ø®ÛĮÙħ":10658,"ĠØ§Ø¯ÛĮØ¨":10659,"ĠØ®ÙĪØ§ÙĨÙĨØ¯":10660,"ĠØ®Ø´ÙħÚ¯ÛĮÙĨ":10661,"ĠÙħÙĨØ¸Ø±":10662,"ĠÙħÙĪÙĦØ§ÙĨØ§":10663,"ÙĨØ§Ø²":10664,"ĠØŃØ§Ø¯":10665,"ĠØ¬ÙĪØ¯ÙĪÚ©Ø§Ø±Ø§ÙĨ":10666,"ĠØªØ§ÙĨØ²":10667,"Ø©Ø§ÙĦÙħØ¹Ø§Ø±Ùģ":10668,"ĠÙ¾ÛĮØ§Ø²":10669,"ĠÙħÙĨØ¬":10670,"ĠØ°Ø§ØªÛĮ":10671,"ĠØ§Ø³ØªÙĨÙģÙĪØ±Ø¯":10672,"ĠÙģÚ©":10673,"ĠÙ¾Ø±Ø³ØªÛĮ":10674,"ĠØ³ÙĦØ·Ø§ÙĨÛĮ":10675,"ĠÙħÙĨÛĮØ²ÛĮÙħ":10676,"Ø§Ø±ØªØ²":10677,"ĠØ¨Ø±Ø¢ÙħØ¯":10678,"ĠØ®Ø§ÙĪØ±ÛĮ":10679,"ĠØ²Ø§ÙĨ":10680,"ĠØ³Ø§ÛĮÙ¾Ø§":10681,"ĠØ¢ÙĨØ§Ø±Ø´ÛĮ":10682,"ero":10683,"ÙģÚ©Ø±Ø§ÙĨ":10684,"ĠÙ¾ÙĪØ²":10685,"ĠÙĨØ§ÙħÛĮØ¯ÙĨØ¯":10686,"Ġmot":10687,"ĠØ§Ø¹ØªØ¨":10688,"ĠØªÛĮÚ©":10689,"ĠØ¢ÙĦÚ©Ø³":10690,"ÙĪÙĦÙĪÙĨ":10691,"ĠØ³ÛĮÙĦÛĮ":10692,"Ġgal":10693,"ĠÙħØºØ§Ø²Ùĩ":10694,"ĠØ±Ø¯ÛĮØ§Ø¨ÛĮ":10695,"ĠØ¹Ø±ÙģØ§ÙĨÛĮ":10696,"ĠÚ¯ÙĪØ±Ø¯ÙĪÙĨ":10697,"ĠØ¨Ú¯Ø°Ø§Ø±":10698,"ØµØ¨":10699,"ÙĪÙħÙĨØ¯":10700,"Ø§Ø³ÙĪÙĨ":10701,"ĠØ¢ÙħØ§Ø¯Ú¯ÛĮ":10702,"ÙĪØ§Ø±Ø§":10703,"ĠØ¬ÙħØ¬ÙħÙĩ":10704,"ĠÙħØ®ØªØµØ±":10705,"ki":10706,"ĠØ¬ÙĪÙĦÛĮØ§":10707,"ĠØ¯ÙĦØ®ÙĪØ§Ùĩ":10708,"ĠØ¯ÛĮØ¬ÛĮØªØ§ÙĦÛĮ":10709,"ĠØ¨ÙĩØ±":10710,"ĠØ¹ÙħÙĪ":10711,"ĠØŃØª":10712,"ĠÙħØ¹ÙĦÙħØ§ÙĨ":10713,"ĠÙģÛĮØ´Ø±":10714,"Ġprovin":10715,"ĠÙħØ±ÙĪØ§Ø±ÛĮØ¯":10716,"ĠØ¨Ø±ÙĪÙĨØ¯":10717,"ĠÙĩÙĪØ§Ùģ":10718,"ĠÚ©ÙĪØ³Ùĩ":10719,"Ġau":10720,"ĠØªÙĪÚ©":10721,"ĠØ´Ø±Ú©ØªÛĮ":10722,"ĠØ¬Ø§ÙĨÙĪØ±ÛĮ":10723,"Ġchurch":10724,"ĠÙħÙĦØ§ØŃØ¸Ùĩ":10725,"ĠÛĮÙĪØ±ÛĮ":10726,"ĠÙĤØ·Ø±Ùĩ":10727,"ĠÙħÛĮØ¯ÙĦ":10728,"ĠØ³ÙĩØ±Ø§Ø¨":10729,"ĠÙģÛĮÙĦÙħØ´ÙĨØ§Ø³ÛĮ":10730,"ĠÚ¯ÙĪØ§Øª":10731,"ĠØªØ®ØµÛĮØµ":10732,"ĠØ®Ø³Ø§Ø±Øª":10733,"Ø³Ø±Ø§":10734,"ĠØ¯ÙĪØ§Ùħ":10735,"ĠØ§Ø³ÛĮØ¯ÙĩØ§ÛĮ":10736,"ĠÚ¯Ø§Ø¨Ø±ÛĮÙĦ":10737,"Ø±Ø¨ÙĨØ¯ÛĮ":10738,"ĠØ¨ÙĨØ²ÛĮÙĨ":10739,"ĠØ³ÙĦÛĮÙħ":10740,"ĠØ¨Ø§ÛĮÚ¯Ø§ÙĨÛĮ":10741,"ĠÚĨØ´ÙħØ§ÙĨ":10742,"ÙĪÙħØ±ÛĮ":10743,"Ú¯ÛĮØª":10744,"ÙħÛĮÙĨÚ¯":10745,"Ġrd":10746,"ĠÙĩÙĪØ§Ø´ÙĨØ§Ø³ÛĮ":10747,"ĠØ¹Ø¸ÛĮÙħÛĮ":10748,"ĠÙĨØ§Ú¯ÙĩØ§ÙĨ":10749,"Ø¨ÙĤ":10750,"iter":10751,"ĠÙĦÙĪÚ©Ø§Ø³":10752,"ĠØµÙĦÛĮØ¨ÛĮÙĪÙĨ":10753,"Ġcongress":10754,"ĠÚĨÙĨØ§ÙĨÚĨÙĩ":10755,"Ġsite":10756,"ĠÙħØ®ÙģÛĮØ§ÙĨÙĩ":10757,"ĠØ´Ø³Øª":10758,"ĠØ§ÙĨØ²ÙĦÛĮ":10759,"ĠÚ¯Ø°Ø±Ø§ÙĨ":10760,"Ġmount":10761,"ĠØ§Ø¶Ø·Ø±Ø§Ø±ÛĮ":10762,"ÙħØ±ÛĮ":10763,"ĠÚ¯ÙģØªÚ¯ÙĪÛĮ":10764,"ution":10765,"Ù¾Ø°ÛĮØ±ÛĮ":10766,"ĠÚĨØ§ÙĨÚ¯":10767,"ĠØ¬ÙĪÙĩØ±":10768,"ĠÙ¾ÙĨØ¬Ùĩ":10769,"ÙĪØ¨Ùĩ":10770,"Ù¾ÙĪØ³Øª":10771,"ĠØ´ÙĨÛĮØ¯ÙĨ":10772,"ĠØ¬ÛĮØ±ÙĪ":10773,"ÛĮÙĦÛĮÙĨ":10774,"ĠÚĺÙĪÙĦÛĮ":10775,"ĠØ¢ØªÙĦØ§ÙĨØªÛĮÚ©":10776,"form":10777,"ĠÙħØ¯ÛĮØ§":10778,"ĠØ¨ÛĮØ§ÙĪØ±Ø¯":10779,"Ø§Ú©Ø§ÙĨ":10780,"ĠØ§Ø³ØªÙĪØ§ÙĨÙĩ":10781,"ĠØ®Ø±Ú¯ÙĪØ´":10782,"ws":10783,"Ġjuly":10784,"ĠÚĨÙĨØ¯Ú¯Ø§ÙĨ":10785,"Ġpass":10786,"ĠÙģÙĪÙĤØ§ÙĨÛĮ":10787,"ĠÚ©ÙħÙĪÙĨÛĮØ³ØªÛĮ":10788,"Ú©Ø±Ùĩ":10789,"Ù¾Ø±ÙĪ":10790,"ĠØ¹ØªÛĮ":10791,"ĠÚ©Ø§Ø±ÙĨ":10792,"Ġsq":10793,"ĠÙĪÛĮØ¯ÛĮÙĪÛĮÛĮ":10794,"Ø§ÙĦÚ©":10795,"Ø¹ÙĪÙĨ":10796,"ĠÚ¯Ø§Øª":10797,"ĠØ±ÙĪØ§ÛĮØªÛĮ":10798,"ĠÙĨÙĪØ§Ø®ØªÙĨ":10799,"Ø§ÙĦØŃÛĮ":10800,"ĠÚ©Ø§ÙĨØ¯ÛĮØ¯Ø§ÛĮ":10801,"ĠÙĨÙģØ±ÛĮÙĨ":10802,"ĠØ§Ø°ÛĮØª":10803,"Ġsr":10804,"ĠÙĨØ§Ø±Ø³Ø§ÛĮÛĮ":10805,"ĠÚ©ÙĪØ²ÙĪ":10806,"Ġspr":10807,"ÛĮÙĨØ§Ùħ":10808,"Ú¯Ø§ÛĮ":10809,"ĠÙħÙĪØ¶Ø¹ÛĮ":10810,"ĠÚĺØ§ÙĨÛĮØ±ÙĪ":10811,"Ġgerman":10812,"lam":10813,"Ø§ÙĪØ§Øª":10814,"ĠÚ¯Ø±ÛĮÚ¯":10815,"Ġwhite":10816,"ĠÙħØ§ÙĨÙĪØ¦ÙĦ":10817,"Ġlake":10818,"ird":10819,"ota":10820,"ÙĪØ±ÙĨØ¯":10821,"ĠÙĨÚ©Ø§Øª":10822,"ĠØ§ÙĪØ¨Ø§ÙħØ§":10823,"Ġfeb":10824,"Ġborder":10825,"Ġhd":10826,"ĠØ®Ø±ÛĮ":10827,"ÙĪØ³ÛĮØ§":10828,"ĠÙĩÙĨØ¬":10829,"Ø±Ø§ÙĤ":10830,"ĠØ§ÙĤØ¯":10831,"Ø§Ø³ÛĮÙħ":10832,"ĠÙħØ¹ÛĮØ§Ø±ÙĩØ§ÛĮ":10833,"ĠØ§ÛĮÙĩ":10834,"ĠÙĨØµÛĮØ±":10835,"ĠØ¨ÙĨØ¯Ø±Ø¹Ø¨Ø§Ø³":10836,"ĠØ¨ÛĮØ§ÛĮØ¯":10837,"ĠÙ¾ÙĩÙĨÙĩ":10838,"ĠØ³Ú©ÙĨÙĩ":10839,"ĠÙģÙĪØ§":10840,"ĠÛĮÚ©Ø§ÛĮ":10841,"Ġtc":10842,"ĠÙħØ±Ø§ØºÙĩ":10843,"ĠÙħÙĪØ±Øª":10844,"ĠØŃØ§Ú©ÛĮ":10845,"ĠØ¨ÙĦÚĺÛĮÚ©ÛĮ":10846,"Ø´ÙĩØ±ÛĮ":10847,"ĠØ¨ØªÙĩ":10848,"ĠÙ¾Ø´Ùħ":10849,"ĠØ¨Ø§Ø±Øª":10850,"ival":10851,"ĠØªØ´Ø±ÛĮØŃ":10852,"ĠØ¨Ø³ØªÙĨ":10853,"iff":10854,"Ø±Ø§ÙģØª":10855,"Ø¨Ø±ÛĮØ§":10856,"ĠØªØ¹Ø§":10857,"ĠÙĪØ§Ù¾Ø³ÛĮÙĨ":10858,"ĠÚ¯ÙĪÙĦ":10859,"ĠÙħÙĨØ§Ø²":10860,"ĠÙħØ§ÙĩØ±":10861,"ĠØ²ÙĪØ±ÛĮØ®":10862,"ĠØ¯ÛĮØ²":10863,"ĠÚ©Ø§ÙģÙĩ":10864,"ĠÙħÙĪØ§ÙĨ":10865,"Ø¯Ø§ÙĪÛĮ":10866,"ĠÙĨØ³Øª":10867,"ĠØ®ÙĨØ¯":10868,"Ġset":10869,"ĠØ³ÙĪØ¦ÛĮÚĨ":10870,"ĠÙĤØ´Ø±":10871,"Ġgov":10872,"ĠØªØ§Ø¨Ø¹ÛĮ":10873,"ĠØ®ØµÙĪØµØ§":10874,"osa":10875,"ĠØ¨Ø±Ø§ÙĨØ¯":10876,"ĠØ¹Ø³":10877,"ÙħØ³":10878,"ĠØ®Ø³ØªÚ¯ÛĮ":10879,"ĠØ§ÛĮÙĨØ³ØªØ§":10880,"Ø·ÛĮÙĦÛĮ":10881,"ĠØªÙģØ§Ø¶ÙĦ":10882,"ĠØ±Øª":10883,"Ø¶Ø±Ø¨":10884,"ĠØ³Ø±Ø¢":10885,"ÙģÛĮØ¹ÛĮ":10886,"Ġbet":10887,"ĠØ¨Ø§Ø²Ø®ÙĪØ±Ø¯":10888,"Ø§ÙħÙĪ":10889,"ĠØ®Ø§ØªÙĪÙĨ":10890,"ĠÙĩØ§ÙĨØ§":10891,"ÙħÙħ":10892,"ĠÙģØ§Ùħ":10893,"ĠØ³ÙĪÙģ":10894,"sa":10895,"ĠØ³ÙħØ±":10896,"ØºÛĮØ¨":10897,"ipt":10898,"ĠØ§Ø¹ØªØ¨Ø§Ø±ÛĮ":10899,"ĠØ¯Ø±ÙĪÛĮØ´":10900,"ĠØ³Ø§ÙħØ³ÙĪÙĨÚ¯":10901,"ĠÙħØ¹Ø§ÙĨÛĮ":10902,"Ø§Ø³ØªÙģØ§Ø¯Ùĩ":10903,"ĠØ§ÛĮÙĨÚ©":10904,"ĠØ§ÙģÙĦØ§Ø·":10905,"ĠÙĨÙĪØ±ÙĪÙĨ":10906,"ĠØ¬ÙĨØ±Ø§ÙĦ":10907,"ĠÙ¾Ø±ÙĪØ¯":10908,"Ġmu":10909,"ĠÚ¯ÙĪØ³ÙģÙĨØ¯":10910,"ĠÙĦØ§ÙĨÙĩ":10911,"ĠØ±ÛĮØ²Ø¯":10912,"ĠØ§Ø³Ø¯Ø§ÙĦÙĦÙĩ":10913,"ĠØªÙĨØ§Ø³ÙĦÛĮ":10914,"ĠØ®ÙĦÙģ":10915,"ĠÙģØ±Ú¯Ø´Øª":10916,"ĠØ³ÛĮØ¨Ø±ÛĮ":10917,"ally":10918,"ĠÚ©Ø§ØªØ§ÙĦÙĪÚ¯":10919,"ØŃÛĮØ¯":10920,"ĠØ²Ø§Ø¨ÙĦ":10921,"ÚĨÚ©":10922,"ĠØ¨Ø®Ø´ÛĮØ¯":10923,"ĠØ¨ÙĦØ®":10924,"ĠØ¨Ø±Ø¹Ú©Ø³":10925,"ĠÙħÙĦÚ©ÛĮ":10926,"ĠÙħØµØ±ÙģÛĮ":10927,"sch":10928,"Ø§ÙĦØ²":10929,"ĠÙĪÚ©Ø§Ø±":10930,"ĠØ´ÙĪÙĨ":10931,"Ġmiss":10932,"ĠÚ©Ø¨ÙĪØªØ±":10933,"Ġaugust":10934,"ĠÙħØ®ØªØ§Ø±":10935,"ĠØ§Ù¾Ø±Ø§Øª":10936,"ĠØ¨Ø´Ø±Ø¯ÙĪ":10937,"ĠÙĨÛĮÙħØ§":10938,"ney":10939,"ĠØ´Ø±ÛĮØ¹ØªÛĮ":10940,"ric":10941,"Ø¹ÛĮØ¯":10942,"ĠÙ¾ÙĪØ±ÙĨÙĪÚ¯Ø±Ø§ÙģÛĮ":10943,"ĠÙĨÛĮÙĪÙĩÙħÙ¾Ø´Ø§ÛĮØ±":10944,"ĠØ®ÙĪÚ©":10945,"ĠØ§Ø³Ø¯ÛĮ":10946,"ĠÙħÙĪÙĩØ§ÛĮ":10947,"erv":10948,"ĠØ§Ø¸ÙĩØ§Ø±Ø§Øª":10949,"ĠØ¨Ø³ØªÚ©":10950,"ĠØ´Ø±Ùģ":10951,"ĠØ³Ø§ÙĨØªÛĮØ§Ú¯ÙĪ":10952,"ĠØ³ÙĪØ³ÛĮØ§ÙĦÛĮØ³Ùħ":10953,"ĠØ¨Ø±Ùħ":10954,"ĠØ±ÙĪØ¯Ø¨Ø§Ø±":10955,"ĠÙĤÙĦÙħØ±ÙĪÛĮ":10956,"ĠØ§Ø³ØªÙĪØ¯ÛĮÙĪØ²":10957,"ĠÚ¯Ø²Ø§Ø±Ùĩ":10958,"ĠÙĨØ§ÛĮØª":10959,"ĠØ³Ø±ÙĦ":10960,"ĠØ¨Ø§ÙĨÚ©Ø¯Ø§Ø±ÛĮ":10961,"ĠØ¨ÙħØ§ÙĨ":10962,"ĠØ¬ÙĦÛĮÙĦ":10963,"ĠÚ¯ÙħÛĮÙĨØ§":10964,"ĠÙĩÙģØªÚ¯ÛĮ":10965,"ĠØ¨Ø§ÙģÛĮ":10966,"Ġback":10967,"ĠØ¨ÙĨÙģ":10968,"Ġgrand":10969,"ĠØ¢Ø´ÙĪØ¨":10970,"ĠØªÙĩÙĪÛĮÙĩ":10971,"ĠØ³ÙĨÚ¯ÙĪØ§Ø±Ùĩ":10972,"ĠØ¯Ø§Ø¦Ø±":10973,"ĠØ±ÙĪØ¨Ø§Ùĩ":10974,"ĠÙĨÙĪØ±ÙħÙĨ":10975,"ĠÚĨÙĪÙ¾":10976,"Ġsept":10977,"ĠØ¨Ø§Ø±ÙĨØ¯Ú¯ÛĮ":10978,"ĠÙħØ§ÙĨØ¯ÙĨØ¯":10979,"ĠØ¨ÙĪØªÙĩ":10980,"Ø§ÙĨÙĩØ§":10981,"ĠÙĪÛĮØ³":10982,"ĠØ¢ÙĦØ¨Ø±ØªØ§":10983,"ĠØ®Ø·Ø±Ø§Øª":10984,"ĠØ³Ø±Ú¯Ø°Ø´Øª":10985,"ĠØ¹Ø§ÙħÛĮØ§ÙĨÙĩ":10986,"ĠØ¨ÙĨØ¬":10987,"ĠØ³ÛĮÙħØ§ÙĨ":10988,"ĠÚ¯Ø±Ø¯Ø´Ú¯Ø±Ø§ÙĨ":10989,"ĠØ³Ø±Ø¯Ø±":10990,"ĠØ¢Ú©ÙĪ":10991,"Ġhill":10992,"ĠÚ©Ø³Ø±ÛĮ":10993,"ĠÙĪØ§Ø±Ø«":10994,"ĠØ±Ø§ÙħÛĮÙĨ":10995,"bridge":10996,"ĠÙ¾ÙĪÛĮÙĨØª":10997,"ĠØ¬Ø§Ø´":10998,"ÚĺÙĩØ§ÛĮ":10999,"ĠØ§Ú¯Ø²":11000,"ĠÙģØ±ÛĮÙħ":11001,"ĠØ®Øª":11002,"ĠØµÙĩÛĮ":11003,"esh":11004,"Ø¶ÙĪÛĮ":11005,"ĠÙĨØµØ±Øª":11006,"ÙĪÙĨØ¯Ø§ÛĮ":11007,"ĠÚĨÙĩØ§Ø±ÙħØŃØ§ÙĦ":11008,"ĠÙģØ±ÙĪØ®Øª":11009,"ĠÙĦÙĪØ¦ÛĮØ²":11010,"ĠØ²ÙĨØ¬ÛĮØ±":11011,"ĠÙħØ¹ØªØ±Ø¶":11012,"ĠØ§ÙĪÙ¾ÙĨ":11013,"ĠØ¯ÙĪØ¬ÙĨØ³":11014,"ĠØ¹ÙĤØ¯":11015,"ĠØ·Ø±ØŃÛĮ":11016,"ãĤ":11017,"ĠÚĺØ±Úĺ":11018,"Ġng":11019,"ÙĪÛĮØ±ÙĪØ³":11020,"ĠÙĪÙģØ§Ø¯Ø§Ø±ÛĮ":11021,"ĠØªÙĪÚ©ÙĪ":11022,"Ġsun":11023,"Ø²Ø¨ÙĪØ±":11024,"Ġarmen":11025,"ĠØ¯Ø±Ø¨ÛĮ":11026,"ĠØ§ÛĮÛĮ":11027,"Ú¯Ø±Ø§ÛĮ":11028,"view":11029,"Ġcn":11030,"ĠÙĪÙĦØª":11031,"Ġleg":11032,"ĠÙħØ·ÙħØ¦ÙĨ":11033,"ĠÙĨØ«Ø±":11034,"ĠÚĨØ§Ø¯Ø±":11035,"ĠØ·ÙĩÙħ":11036,"ĠØµØ±ÛĮØŃ":11037,"ĠÚ©Ø±Ø§ÛĮ":11038,"Ġcas":11039,"Ġmill":11040,"ĠØ´ÙħØ´ÛĮØ±Ø¨Ø§Ø²ÛĮ":11041,"ĠØ³ÙĪØ§Ø±Ú©Ø§Ø±Ø§ÙĨ":11042,"Ñı":11043,"ĠØ¢ÙĪÛĮØ²":11044,"ĠÚ¯Ø±ÙģØªØ§Ø±":11045,"Ġlab":11046,"ĠØ¢Ø±ÛĮØ§ÛĮÛĮ":11047,"over":11048,"Ġwind":11049,"Ø´ÙĪÛĮÛĮ":11050,"ĠØ³Ø±Ø§ÙħÛĮÚ©":11051,"ĠØ¬ÙħØ§Ø¹Øª":11052,"ĠØ¨Ø§Ø±ÙĪØ±ÛĮ":11053,"ĠØ¬ÙĪØ¬Ùĩ":11054,"ĠÙģØ³ÙģØ§Øª":11055,"ĠÙ¾ÛĮØ´Ú©":11056,"ĠØªØ¬Ø±Ø¨ÛĮØ§Øª":11057,"Ġara":11058,"Ġthat":11059,"ĠØªØ§ÙĨØ²Ø§ÙĨÛĮØ§":11060,"ĠÙĤÙĨØ¯Ùĩ":11061,"ĠØ§Ø¹ØªÛĮ":11062,"Ø³ÙĦÙħ":11063,"ĠÙģÙĪÙĦØ§Ø¯ÛĮ":11064,"ĠÙĩØ§Ø¦ÛĮØªÛĮ":11065,"ĠØ¹Ø¶ÙĦØ§Øª":11066,"ĠÙĨØ§ØªÙĪØ§ÙĨÛĮ":11067,"Ġsum":11068,"ĠÚ©ÙĪØ¨":11069,"ĠØ²ÙĪ":11070,"ĠØ§ÛĮØ±ÙĦØ§ÛĮÙĨ":11071,"Ġstad":11072,"Ġstreet":11073,"ĠÙģØ§ØªØŃ":11074,"ĠÙħØ³ÙĦÙħ":11075,"Ø§Ú©ÛĮØ§ÙĨ":11076,"ĠÙģÙĦÙĪØ±Ø§ÙĨØ³":11077,"Ø§ÙĨÙĪØ³":11078,"ĠØ²Ø¨":11079,"Ø§Ù¾Ø±":11080,"ĠØ§ÙģØ´ÛĮÙĨ":11081,"ĠØ¨Ø§Ø´ÛĮ":11082,"ĠØªØ¦ÙĪØ¯ÙĪØ±":11083,"ĠØ±ÙĤØµÙĨØ¯Ú¯Ø§ÙĨ":11084,"Ġparis":11085,"ĠÙħØ§ÚĺÙĪØ±":11086,"ĠØ¢Ø±ØªØ³Ø§Ø®":11087,"ĠÙħØ¹ÛĮÙĨÛĮ":11088,"ĠÙĪÙĦÛĮØ¹ÙĩØ¯":11089,"ĠÚ¯ÙĪØ§ØªÙħØ§ÙĦ":11090,"ĠÚ¯ÙĪØ±Ú©":11091,"ĠÙħÙħØªÙĨØ¹":11092,"ep":11093,"ĠØ§ØµØ§Ø¨Øª":11094,"ĠÙħÙĨØµØ¨":11095,"ĠØ¯Ø³ØªØ§ÙĪØ±Ø¯ÙĩØ§ÛĮ":11096,"Ø§ÙħÛĮØ§ÙĨ":11097,"ats":11098,"ÙĪØ§Ø³ØªÙĩ":11099,"Ġrem":11100,"ĠØ¯ÛĮØªØ±ÙĪÛĮØª":11101,"ĠØ§ÙģØªØªØ§ØŃÛĮÙĩ":11102,"ĠÙ¾Ø±ÙĩÛĮØ²":11103,"Ø¬Ø¯":11104,"ĠÙĨØ§ÙħØ¯Ø§Ø±":11105,"ĠØºØ²ÙĨ":11106,"ĠÙģØ±ÙħØ§ÙĨØ¯Ø§Ø±Ø§ÙĨ":11107,"ĠÚ©ÙĨØ¯Ùĩ":11108,"ĠÙĨÚ¯Ø±ÙģØª":11109,"ĠØ¯Ø²ÙģÙĪÙĦ":11110,"ĠØ¨Ø§Ø¯ÙĨ":11111,"ĠÙħÙĦØ§ÛĮØ±":11112,"Ġud":11113,"ĠÙĤØ§Ø³ÙħÛĮ":11114,"ÙĪÙĦØ§ÛĮ":11115,"ĠÙĨÙĪÚ©ÙĦ":11116,"ĠØ§ÙĦÙħÙ¾":11117,"ĠØ¢Ú©Ø§Ø¯ÙħÛĮÚ©":11118,"ĠØ³Ø§ÙĦÛĮØ§ÙĨÙĩ":11119,"ĠÚ©ÙħÙĪÙĨÛĮØ³Ùħ":11120,"ĠÙĦØ§ÛĮØª":11121,"ĠØ§ØªØ±":11122,"ĠØªØ§ÙĦÛĮ":11123,"Ø¨ÛĮÙĪÙĨ":11124,"ĠØ¬ÙĨØ§Ø²Ùĩ":11125,"Ġdep":11126,"ĠÚ©Ø§Ø±Ø¯ÛĮ":11127,"ĠØŃØ¯ÙĪØ¯Ø§":11128,"ĠÙĪØ§Ø±Ø¯Ø§Øª":11129,"ĠØ§ÛĮØ²ÙĪØªÙĪÙ¾":11130,"Ø°ÛĮØ¨":11131,"ĠÙ¾Ø³ÛĮÙĨ":11132,"ĠØ·ÙĦØ¨ÛĮ":11133,"Ġgreat":11134,"ĠÙĨØ§ÙħÙĪÙģÙĤ":11135,"ĠÙħØ¯ÙģÙĪÙĨ":11136,"Ø§ØŃØ¨":11137,"Ø³Ø§Ø¯":11138,"ĠÙ¾Ø¯ÛĮØ¯Ø¢":11139,"Ġhall":11140,"ĠØ¹ÙģÙĪÙĨÛĮ":11141,"ĠÙĪÙģØ§Øª":11142,"ĠØ§ÙĪØ¨Ø±":11143,"arch":11144,"ĠØ®ÙĪØ§ÙĩØ±Ø§ÙĨ":11145,"Ø§Ú¯ÙĪÙĨ":11146,"ĠÙģÙĨÙĪÙĨ":11147,"ĠØªØ§ÙĦØ´":11148,"ĠÙĪØ§Ø¬Ø¯":11149,"ĠÙħÛĮÚ©Ø³":11150,"ĠØªØ±ÙħÛĮÙħ":11151,"Ġmichael":11152,"ĠØ§Ø¨ÙĪØ¨":11153,"ÙĩØ§ÛĮØª":11154,"era":11155,"Ġah":11156,"ÙĪØ³Ú©":11157,"ĠØ³Ø§ÙĨØªÛĮÚ¯Ø±Ø§Ø¯":11158,"Ø¯Ø´Øª":11159,"ĠÙĪÙĨØª":11160,"Ø¶Ø§Ø±":11161,"ĠØ¯Ø§Ø±ÙĪØ³Ø§Ø²ÛĮ":11162,"ĠØ§ÙħØ±ÛĮ":11163,"ĠØ¬ÙĨÙĪØ¨Ú¯Ø§ÙĨ":11164,"Ġflag":11165,"ĠÙħØªØ¹Ø§ÙĤØ¨Ø§":11166,"ĠÚĨÙĨØ¯Ú¯Ø§ÙĨÙĩ":11167,"Ġcamp":11168,"ative":11169,"ĠÚ¯Ø°Ø±Ø§ÙĨØ¯ÙĨ":11170,"ĠÙĨÙģÛĮ":11171,"ĠØ®ÙĪØ´Ø¨":11172,"ĠØ§ÙĦÙĨÙĩØ§Ø±":11173,"gen":11174,"ĠØ¨Ø±Ú©":11175,"ĠÙħØ¬Ø§Ø±":11176,"Ġgroup":11177,"ĠØµÙĪÙģÛĮÙĩ":11178,"ĠÙħÙĨÚ¯":11179,"ĠÙĦØ§ÙĩÛĮ":11180,"Ġviz":11181,"ĠÚ¯Ø±Ø¯ÙĪ":11182,"ĠÚ©ÙĪØªÙĪÙĦÙĩ":11183,"ĠØ¯Ø±Ùħ":11184,"Ù¾Ø±Ø³ØªÛĮ":11185,"Ø§Ø·Ø¨ÛĮ":11186,"ĠØ¹ÙħØ§Ø¯":11187,"ÙĪØ¨Ø±ÛĮ":11188,"ĠÙĩÛĮÙĪ":11189,"ĠÙ¾ÙĪØ³ØªØ±":11190,"ĠØ¨Ø±Ø¯Ø§Ø´ØªÙĨ":11191,"ÛĮØ±ÙĪØ§ÙĨ":11192,"ĠÛĮÚ¯Ø§ÙĨÙĩ":11193,"ÙĪØ´ÙĨ":11194,"Ġriver":11195,"ĠØ§ÙħØªØŃØ§ÙĨ":11196,"Ø±Ø²ÛĮ":11197,"Ø±Ø§Úĺ":11198,"ĠÙĦØ·ÛĮ":11199,"ĠØ¢Ø±Ø´ÛĮ":11200,"ĠØŃÙħØ²Ùĩ":11201,"ĠØ§ÙĪØ±ØªÙĪÙĨ":11202,"ĠØ§Ø±Øº":11203,"ĠØ±ÙĪÙħØ§ÙĨÛĮØ§ÛĮÛĮ":11204,"ĠÙħØ¯Ø§Ø±ÙĩØ§ÛĮ":11205,"ĠÙģØ§ÛĮÙĨ":11206,"ĠÙĪÙĤÙģ":11207,"ĠØ´Ø§Ø±Úĺ":11208,"ĠØ³Ø¯Ø§ÙĨ":11209,"ĠÙħØªÙĩ":11210,"ĠÙħØ§Ø±ÛĮÙĨ":11211,"ĠÙĩÙĨØ±Ø³ØªØ§ÙĨ":11212,"Î±":11213,"ĠØ¨Ø§ÙĦÛĮ":11214,"ĠØ¸Ø±ÙĪÙģ":11215,"Ġsd":11216,"ĠÙ¾ÙĪÙħ":11217,"ÚĨØ§":11218,"Ġeurope":11219,"Ø§ÙĩÙĦÛĮ":11220,"ĠØ¶Ø§ÛĮ":11221,"Ù¾ÙĨÙĩØ§":11222,"ĠØ³ÛĮØ§Ùħ":11223,"ĠÙĨÙĪØ´ØªØ§Ø±":11224,"ĠÙħØ´Ø±ÙĤ":11225,"ĠØ¨ÙĦÙĪØ·":11226,"ĠØ´ÙĪÚ¯ÙĪÙĨ":11227,"ĠØªÙĦÙģÙĨÛĮ":11228,"ĠÙħØ¹Ø§ÙħÙĦ":11229,"ÛĮÙĨÚ¯ÙĪ":11230,"ange":11231,"ĠÙħØ´Ú©ÙĦØ§ØªÛĮ":11232,"ÙħØ¨Ø±Ú¯":11233,"ĠÙģÛĮÙĦÙħØ²":11234,"ĠÙĨØ§ÙĪØ´Ú©ÙĨ":11235,"ĠØ¯Ø¨ÙĦÛĮÙĪØ¯":11236,"ĠÙħØ§ÙĩÙĩ":11237,"ĠÙĦÙĪØ¯ÙĪÛĮÚ¯":11238,"ÙĨÙģØ±Ùĩ":11239,"ĠÚ¯ÙĪÛĮØ§ÙĨ":11240,"Ġdef":11241,"ĠØªØ±Ø´ØŃ":11242,"ĠØµÙĪØª":11243,"Ġgreen":11244,"ĠØªØ¯Ø§Ø®ÙĦ":11245,"ĠÙħØªØ£Ø³Ùģ":11246,"ÙĪÚ©Ø³ÛĮ":11247,"ĠÙħØ´Ø§ÙĩØ¯Ø§Øª":11248,"ĠÚ©Ø§ÙħØ¨ÙĪØ¬":11249,"ĠØ±Ø§ÙģØ§Ø¦ÙĦ":11250,"Ġsar":11251,"Ġbal":11252,"Ù¾Ø±Øª":11253,"Ø°Ø¨":11254,"Ġbur":11255,"Ġwas":11256,"va":11257,"ĠØ§Ø³Ú©Ø§ÙĨ":11258,"ĠØ±ÙħØ²Ú¯Ø°Ø§Ø±ÛĮ":11259,"ĠØ³ÛĮÙħÛĮÙĨ":11260,"Ð¼":11261,"ĠØ§ÙĦØ²Ø§Ùħ":11262,"ĠÚ¯Ø±Ø§ÙĩØ§Ùħ":11263,"ĠØ¬ÙģØ±ÛĮ":11264,"Ġmel":11265,"ĠÚ¯ÙĦØ§Ø³":11266,"ĠÙħØ³Ø§ÙģØ±Øª":11267,"ĠØ±Ø§ÙĩØ¨Ø±Ø¯ÛĮ":11268,"ĠØ´Ø¬":11269,"ĠØ¯ÛĮÙģØ±":11270,"ĠÙĪØ±ÙĪÙĨØ§":11271,"ĠÙħÙĩÙħØ§ÙĨÛĮ":11272,"ĠÙ¾Ø§Ù¾ÙĪØ¢":11273,"ĠØ·ÙĦÙĪØ¹":11274,"den":11275,"ĠÙĤÙģ":11276,"ĠØ´Ú©Ø³ØªÚ¯ÛĮ":11277,"ĠØ¢Ù¾Ø§Ø±ØªÙħØ§ÙĨ":11278,"ĠØ¯Ø¨Ø³ØªØ§ÙĨ":11279,"ja":11280,"ĠØ¯Ø±ÙĪØ³":11281,"Ø§ÙħÙĪØªÙĪ":11282,"ĠØ¨ÙĪØ¯Ø§":11283,"itz":11284,"ĠÚ©ÙĦÛĮÙĨØªÙĪÙĨ":11285,"ĠÙħØ§Ùģ":11286,"ĠÙĩÛĮØ¯Ùĩ":11287,"ĠÚ©ÛĮÙĪØªÙĪ":11288,"ÙĦØ¦Ø§ÙĨ":11289,"ĠØ¨Ø°Ø±":11290,"Ġsant":11291,"ĠÙħØ«Ø¨ØªÛĮ":11292,"ĠØ³ÙĪÚ¯ÙĨØ¯":11293,"Ġmicro":11294,"ÙĤØ¶":11295,"ĠÙĪØ§ØŃØ¯ÙĩØ§":11296,"ĠØ§ÙĨØªÚ¯Ø±":11297,"ĠØ¯Ø¨ÙĦÛĮÙĪØ¯Ø¨ÙĦÛĮ":11298,"ĠØ³ÙĪÙħØ§ÙĦÛĮ":11299,"Ġrf":11300,"ĠØ§Ø´ØªÙĪØª":11301,"yan":11302,"ĠÙģÙĪÙĦÚ©ÙĦ":11303,"ĠÚĺÙĨÙĪÙħ":11304,"ÙĨÛĮØª":11305,"Ġplat":11306,"ĠØ§ÙĪØ³ØªØ§":11307,"ĠÙ¾Ø³ÙĪÙĨØ¯":11308,"ĠØ¯Ø³ØªØ§ÙĪØ±Ø¯":11309,"ĠÙĤÙĪÙħÛĮØª":11310,"ĠØ§Ø±Ø³Ø·ÙĪ":11311,"ci":11312,"oro":11313,"ĠØ§Ø®ØªÛĮØ§Ø±Ø§Øª":11314,"ĠØ¯Ø±Ø´Øª":11315,"Ø°Ùĩ":11316,"ĠÙĩÙĪÚ¯ÙĪ":11317,"ĠØ³ÙħÙ¾":11318,"ker":11319,"lish":11320,"ĠØ¨ÛĮÚ©Ø±":11321,"ĠÙģØ¶Ø§Ù¾ÛĮÙħØ§ÙĩØ§ÛĮ":11322,"ĠØ²ÙĩØ±Ùĩ":11323,"Ġaustr":11324,"Ø²ÛĮØ§":11325,"ĠÙģØ±Ø§Ø·Ø¨ÛĮ":11326,"Ġdata":11327,"ĠÙħØ³Ø¬Ø¯ÙĩØ§ÛĮ":11328,"ĠÙ¾Ø´ØªÛĮØ¨Ø§ÙĨ":11329,"ĠØ¨Ø§Ø²Ú¯Ø´ØªÛĮ":11330,"ĠØ§ÛĮÙĨØª":11331,"ool":11332,"ĠØ¯ÙħÚ©Ø±Ø§Øª":11333,"ĠÙĨÙĤÛĮ":11334,"ĠØµØŃØ±Ø§":11335,"ĠØ¨Ø¯ÙĩÙĨØ¯":11336,"ĠØ¹Ø§Ø·ÙģÛĮ":11337,"ĠÙģØ§Ø³":11338,"ĠØ¢ÙĦÙħ":11339,"ĠØ§Ø¹ØªÛĮØ§Ø¯":11340,"ĠØ§ÙħÛĮØ¯ÙĪØ§Ø±":11341,"ĠØ¶ÙĦØ¹ÛĮ":11342,"ÙĪØ¦ÙĪÚ©Ø§":11343,"ĠØ§Ø¯ÙĪ":11344,"ĠØ¬ÙħÙĩÙĪØ±ÙĩØ§ÛĮ":11345,"ference":11346,"ĠÛĮØ§Ø¯Ú¯Ø§Ø±":11347,"ĠÙĦØ²ÙĪÙħ":11348,"Ġrock":11349,"Ġthom":11350,"ĠÙħØ¨Ùĩ":11351,"ĠÙĪÛĮØ¯Ø¦ÙĪÛĮ":11352,"ÙģÚ©Ø±":11353,"ĠÙĦÚ¯":11354,"ÙĪØ¯ÙĪ":11355,"ĠØ´ÙĩØ±Ø³Ø§Ø²ÛĮ":11356,"Ø¨Ø±Ø§ÙĨ":11357,"ature":11358,"ĠÙħÙĦÙĪØ¯ÛĮ":11359,"ĠÛĮÚ©ÙĨÙĪØ§Ø®Øª":11360,"ĠÙħØŃÙĪØ±ÛĮ":11361,"ĠØºÙĦØ·":11362,"ona":11363,"ĠØ§Ø±ÙħØºØ§ÙĨ":11364,"ĠÚ©Ù¾ÙĨÙĩØ§":11365,"Õ¡Õ¿":11366,"ĠÚ©Ø§ÙħØ±Ø§ÙĨ":11367,"Ø§ÙħÙĨÙĩ":11368,"ĠØ¢ØªÛĮ":11369,"Ú¯Ø±Ø§ÛĮØ§ÙĨ":11370,"Ġsing":11371,"Ġtre":11372,"Ø²Ø±Ø³Ø§ÙĨÛĮ":11373,"ida":11374,"ĠØ¨Ø§ÙĦØ§ØªØ±ÛĮ":11375,"ĠÙħÙĪØ´Ú©ÛĮ":11376,"ĠÃ©":11377,"ĠØ¨ÛĮÙĪÙĦÙĪÚĺÛĮÚ©ÛĮ":11378,"Ø±Ø§ÛĮÙĨ":11379,"Ø¨Ø¯ÛĮ":11380,"Ø§ÙĦØ«":11381,"ĠÙ¾Ø³ØªÛĮ":11382,"ĠØ±Ø³ÙĪØ§ÛĮÛĮ":11383,"ĠÙ¾Ø§ÙĦØ§ÛĮØ´Ú¯Ø§Ùĩ":11384,"ĠØ¯ÙĪØ³ØªØ§ÙĨØ´":11385,"ĠØªØŃØ±Ú©":11386,"ĠØªÙħØ¯ÛĮØ¯":11387,"ĠÙģØ±ÙħØ§ÙĨØ±ÙĪØ§ÛĮØ§ÙĨ":11388,"Ø¯ÙĩØ¯":11389,"ĠØªÙĦÚ¯Ø±Ø§Ùģ":11390,"Ġjune":11391,"Ġvis":11392,"ĠØ¬ÙĪØ¯ÙĪ":11393,"ĠØ§Ø¨Ø±ÙĤÙĩØ±ÙħØ§ÙĨ":11394,"ĠØ§Ø³ÙħÛĮ":11395,"ÙģØ±Ø§Ø²":11396,"ĠÙħØ±Ø¨ÛĮÚ¯Ø±ÛĮ":11397,"Ġhistor":11398,"ĠÙĨÙĩØ±":11399,"field":11400,"ĠØ¨Ø®Øª":11401,"ĠÙĨØ§ÙħØŃ":11402,"ĠØªØ§Ø¨Ø¹Ùĩ":11403,"ĠØªÛĮØ³":11404,"ĠØ§ÙĪÛĮÙĨ":11405,"ĠÚĺÙĨØ±":11406,"ĠØ¨Ø¯ØªØ±ÛĮÙĨ":11407,"ĠÙħÛĮÚ©Ø±ÙĪØ³Ú©ÙĪÙ¾":11408,"ĠÚĨØº":11409,"ÛĮØ¯ÙĪ":11410,"ĠØ¯ÛĮÙģØ±Ø§ÙĨØ³ÛĮÙĦ":11411,"Ø®ÙĪØ§ÙĨØ¯Ùĩ":11412,"Ġlong":11413,"Ġvi":11414,"ĠÙģØ±Ø§ÙĨØªØ³":11415,"ĠØ´Ø§ÙĩØ²Ø§Ø¯Ú¯Ø§ÙĨ":11416,"ĠÙĤØ³Ø·ÙĨ":11417,"ĠÙģØ±Ø§ÙħØ±Ø²":11418,"ĠØ¨Ø±Ø§ÙĨÚ¯ÛĮØ®Øª":11419,"ĠØ²Ø±ØªØ´ØªÛĮØ§ÙĨ":11420,"uary":11421,"ĠØªØŃÙĤÛĮØ±":11422,"ÙĤÛĮÙĨ":11423,"ĠÙĩÙĦØ§ÙĦ":11424,"ĠØ¹ÛĮÙĨÛĮ":11425,"ĠØ±Ø§ÙĨØ¯Ùĩ":11426,"ĠÙĩÙĪØ¯":11427,"ĠØ³Ø¹Ø§Ø¯Øª":11428,"ĠØ§Ø´ØªÙĪØªÚ¯Ø§Ø±Øª":11429,"ĠØ§ÙĨØ¨Ø§":11430,"ĠØ´ÙĪÙĩØ±Ø´":11431,"ĠÙģØ±Ø§Ø·Ø¨ÛĮØ¹ÛĮ":11432,"ĠØ¯ÙĪØ±ØªÙħ":11433,"ĠØ¯ÙĪØ´ÛĮØ²Ùĩ":11434,"ĠÙĤØ³Ø·ÙĨØ·":11435,"ĠØªØ§ÙĦÛĮÙĨ":11436,"Ø¬Øª":11437,"ĠÙĪØ§Ø±ÙĨ":11438,"ÙĦÛĮÙĨÚ¯ØªÙĪÙĨ":11439,"ĠØ®ÙģØ§":11440,"Ø«ÙĦ":11441,"ĠÙĩØ±ÙħØ§ÙĨ":11442,"ĠØ²ÛĮØªÙĪÙĨ":11443,"ÙĦÙģÙĩ":11444,"Ø®ÙĪØ§ÙĨÛĮ":11445,"ĠØ§Ø³ÙģØ±":11446,"Ġjames":11447,"ĠÙ¾Ø§Ø±Ø§ÙħØªØ±ÙĩØ§ÛĮ":11448,"Ø§Ø±ÛĮÙĨ":11449,"ĠØ³ÙĩÙħÛĮÙĩ":11450,"Ã¼r":11451,"ÙħØ¯Ø§ÙĨ":11452,"Ġmit":11453,"Ġka":11454,"Ġcin":11455,"ĠØ´Ú©Ø§Ø±ÛĮ":11456,"ĠØ¬Ø§Ø³ØªÛĮÙĨ":11457,"ĠØ§ÙĨÙģØ¬":11458,"ĠØ§ÛĮÙĨØ³ØªØ§Ú¯Ø±Ø§Ùħ":11459,"Ø§ÙĩØ¨":11460,"ĠØªØ±ÙĤÛĮ":11461,"Ø§Ú©Øª":11462,"ĠÚĺÙĪØ²Ùģ":11463,"ĠÙĩÛĮÙĦØ²":11464,"Ø²Ø¨Ø§ÙĨÙĩ":11465,"ĠÙģÛĮØ¶":11466,"ÙĤØ§Ùħ":11467,"Ø§Ø¯ÛĮÙĨ":11468,"ĠÙħØŃÙĦØ§Øª":11469,"ĠÚ©ÙĪØ²ÙĪÙĪ":11470,"ĠÚ©Ø§Ø±Ø¯":11471,"ĠÚ©Ø±ÙĪÛĮ":11472,"ĠØ¢Ø´Ø§Ùħ":11473,"ĠÙħÙĪÙĦØ¯Ø§ÙĪÛĮ":11474,"ĠÚ¯ÙĨØ¬Ø§ÙĨØ¯Ùĩ":11475,"ĠÙĨØ§Ø³ÛĮÙĪÙĨØ§ÙĦ":11476,"ĠØªØ³ÙĦÛĮØŃØ§Øª":11477,"ĠØ¨Ø§Ø²Ø¯Ùĩ":11478,"ĠØ¨Ø§ÙĦØ§Ø¯ÙĩØ§ÛĮ":11479,"ĠØ¯ÙħØ§ÙĪÙĨØ¯":11480,"ĠØ²Ø§Ú©Ø³ÙĨ":11481,"ĠÚ¯Ø±ÛĮÙĩ":11482,"ĠÙħØ´ØªÙħÙĦ":11483,"ĠÚ©ÙĪØ±ÙĨ":11484,"ĠÙħØ¬ØªÙĩ":11485,"ĠØ¯ÛĮÙĪØ§Ø±ÛĮ":11486,"Ġretr":11487,"Ġoh":11488,"gram":11489,"ĠØ§ÛĮØ±ÙĦØ§ÛĮÙĨØ²":11490,"ÙĪÚ©Ùĩ":11491,"ĠØ§ÙĦØ§Ø³ÙĦØ§Ùħ":11492,"ĠØ²ÙĨØ§":11493,"ĠØ¯ÛĮÙĩ":11494,"ĠØ±ÛĮØ§ÙĦ":11495,"ĠÙĨÙ¾Ø°ÛĮØ±":11496,"ĠØ¨Ø§Ø¬":11497,"ØºØ¯":11498,"ĠÙħØ³Ø·ØŃ":11499,"Ġmain":11500,"ĠØŃÙħÛĮØ¯Ø±Ø¶Ø§":11501,"ĠØªØ´ÛĮØ¹":11502,"ĠØ§ÙĦÚ©ØªØ±ÙĪÙĨÛĮ":11503,"ÙĪØ³ÛĮØª":11504,"ĠØŃØ§ØªÙħÛĮ":11505,"ĠØ¨ØµØ±Ùĩ":11506,"ĠØ°Ø§Øª":11507,"idades":11508,"ĠÙĤØ³Ø·ÙĨØ·ÙĨÛĮÙĩ":11509,"ĠØ¹Ø§Ø±":11510,"Ø«ÛĮØ±ÛĮ":11511,"ĠØ¬ÙĩÙĨÙħ":11512,"ĠÙħØ³ÙĦØ·":11513,"ÙĦØ³ÙĦ":11514,"Ġlou":11515,"Ġinstit":11516,"ĠØªÛĮÙĨ":11517,"ĠØ§Ø²Ø¬ÙħÙĦÙĩ":11518,"ĠÚĨØ±Ø§Ú©Ùĩ":11519,"Ġdoc":11520,"Ġhis":11521,"Ġve":11522,"ĠØ¹Ø¨Ø§Ø±ØªÛĮ":11523,"ĠÙ¾ÚĺÙĪÙĩØ´Ú¯Ø§Ùĩ":11524,"ĠØ±ÙĩÙĨ":11525,"Ø§ÙĨÛĮØª":11526,"Ġdar":11527,"Ø±Ø§ÙĨÚ¯":11528,"ĠØ³Ø§ÙĪÙĩ":11529,"ĠØºÛĮØ±Ø¯":11530,"ĠØ³ÙĪØ¦ÛĮØ³ÛĮ":11531,"Ġapril":11532,"ÙĨØ§Ø·ÛĮØ³":11533,"ĠØ¯ÙĪÙħÛĮÙĨÛĮÚ©ÙĨ":11534,"ĠÚ¯ÙĪØ³ØªØ§ÙĪ":11535,"ĠØ¯ÙĪØ±ØªÙħÙĪÙĨØ¯":11536,"ĠÚ©Ø±Ø§ÙĨ":11537,"ĠØ¯Ø³ØªÚ©Ø§Ø±ÛĮ":11538,"ĠØªØµØ§ØŃØ¨":11539,"ĠØ¹Ø±ÙĪÙĤ":11540,"ĠÙ¾ÙĦØ§Ø³ØªÛĮÚ©ÛĮ":11541,"ĠÚ©Ø§Ø³Ùĩ":11542,"Ú©ÛĮÙħ":11543,"ĠØ±Ú©ÙĨ":11544,"ĠÙĦÙģØ¸":11545,"Ø§Ø±Ú©ÙĨÙĨØ¯Ùĩ":11546,"ĠÚĨÙĨÚ¯ÛĮØ²":11547,"ĠØ³Ø¨Ø§Ø³ØªÛĮÙĨ":11548,"Ġdb":11549,"ĠØ¬Ø§ÙĨÚ¯":11550,"ua":11551,"ĠØ§ÙĦÚ©ÙĦÛĮ":11552,"ĠØ¹Ø¨Ø¯Ø§ÙĦØ¹Ø²ÛĮØ²":11553,"inhan":11554,"ĠØ±Ø¦ÛĮØ³Ø§ÙĨ":11555,"ĠÙħØ¹ÙĨØ§ÛĮÛĮ":11556,"her":11557,"Ø§Ø³ØªÙĩ":11558,"ÙĤÙĨØ¯":11559,"ĠÙħÛĮØ³":11560,"ĠÙħØ³ØªØŃ":11561,"ĠØ³ÛĮÚ©ÙĦ":11562,"ĠØ¨Ø±ÛĮØ¯Ùĩ":11563,"ĠÚ©Ø§Ø±ÛĮÚ©":11564,"ĠÙĩØ±Ø¨Ø±Øª":11565,"ĠÙ¾ØªØ§Ø³ÛĮÙħ":11566,"ÛĮØ¯Ø§Ø¯":11567,"Ġcir":11568,"ĠØ¢Ø±Ø§Ø±Ø§Øª":11569,"ĠØ§Ø³ØªÙĤØ§ÙħØª":11570,"ĠØ§Ø¨ÙĪØ¨Ú©Ø±":11571,"ĠØ±Ø§ÙĨØ§ÙĨ":11572,"ĠÙ¾ÙĪÙĨ":11573,"ĠÙĤØ§Øª":11574,"ĠØ§Ø³Ø§Øª":11575,"ĠØªØ¹Ø¨ÛĮÙĩ":11576,"Ġshow":11577,"ĠØªÙĪÛĮÛĮØªØ±":11578,"ĠØŃÙĨ":11579,"Ġlocalidades":11580,"ĠÙ¾ÙĪÙ¾":11581,"ĠØ§ØµÙĦØ§":11582,"ĠÙĨÙģØ±Øª":11583,"ÙĪØ±ØªÛĮÙĪÙĪ":11584,"Ġvizinhan":11585,"ĠÙģÙĪÙĦÚ©ÙĦÙĪØ±":11586,"ĠvizinhanÃ§a":11587,"Ø¬ÛĮÙĪ":11588,"ĠÙħØºØ±Ø¨":11589,"Ġiso":11590,"ĠØŃØ¬Øª":11591,"ĠÙħØ§Ø¯Ø±Ø¨Ø²Ø±Ú¯":11592,"Ġsel":11593,"ĠÑģ":11594,"ĠØ§Ø³ØªØ±ÛĮØª":11595,"Ø§Ø¦ÛĮÙĩ":11596,"ĠÙ¾ÙĪÛĮ":11597,"ĠØ¹Ø·Ø±":11598,"ĠÙĦØ¦ÙĪ":11599,"ĠØ³ÛĮØ§ØªÙĦ":11600,"ĠÚ¯ÛĮÚ¯":11601,"Ġonline":11602,"ĠÙĦØ§ÛĮÙ¾Ø²ÛĮ":11603,"ĠÙ¾ÛĮÙĨÚ©":11604,"ĠÙĩØ±Ú©ÙĪÙĦ":11605,"ĠØªÙĪØ±ÙĨÙħÙĨØª":11606,"vent":11607,"Ø§ØªØ±Ø§":11608,"ĠÙħØªÙĨÛĮ":11609,"ĠÙ¾Ø±ÛĮÙĨØ³ØªÙĪÙĨ":11610,"Ġholly":11611,"ĠØ¨Ø§ÙĪØ±ÙĩØ§ÛĮ":11612,"ĠØºØ±ÙĪØ¨":11613,"ÙĨÛĮÙĨÚ¯":11614,"ĠÚ©ÛĮÙģØ±ÛĮ":11615,"ĠØ§ÙĦØŃØ§ÙĤ":11616,"ÛĮÙĨÛĮØ§ÙĨ":11617,"Ġlive":11618,"Ġden":11619,"ĠÚ©Ø§Ø²Ø±ÙĪÙĨ":11620,"ĠÙħÛĮÙĪØ²":11621,"ĠÙĤØ±Ø§Ø¦":11622,"ĠÙ¾Ø§Ø±Ú©Ø±":11623,"ĠÙĨÛĮØ³":11624,"ĠØ§Ø¹ÙĦØ§ÙĨ":11625,"ĠØ§Ú©Ø«Ø±Ø§":11626,"ĠØ§ÙĪÚ¯Ø§ÙĨØ¯Ø§":11627,"ĠÚĺÛĮ":11628,"ĠØºØ¨Ø§Ø±":11629,"ĠÙħØ®ØªØ±Ø¹Ø§ÙĨ":11630,"ĠÙħØ§ÛĮÙĨ":11631,"ĠÙħÙĨØªØ´Ø±Ø´Ø¯Ùĩ":11632,"ĠÙģØ±ÙĪØ´ÙĨØ¯Ùĩ":11633,"ĠÙĪØ³ØªÙģØ§ÙĦ":11634,"ĠØ¹Ø¨Ø§Ø³ÛĮØ§ÙĨ":11635,"ĠØ±Ø¨ÙĪØ¯Ùĩ":11636,"ĠØ´Ø§ØªÙĦ":11637,"ĠØ´ÙħØ±Ø¯Ùĩ":11638,"ĠÚĨØ±Ø¨":11639,"ĠØ§ØŃØ¶Ø§Ø±":11640,"Ù¾ÙĪØ³ØªØ§ÙĨ":11641,"ĠØ§ÙħÛĮØ±ØŃØ³ÛĮÙĨ":11642,"ĠØ³Ø§ÛĮØ²":11643,"ĠØ¢ÙĪÛĮÙĪ":11644,"ĠØ±ØŃÛĮÙħÛĮ":11645,"ĠØ¨Ø§Ø±Ø³ÙĦÙĪÙĨ":11646,"ĠØ´Ø¬Ø±ÛĮØ§ÙĨ":11647,"Ø¸Ø§Øª":11648,"ĠÙħÚ©Ø§ÙĨÛĮØ²Ùħ":11649,"ĠÙģØ±ÙĨØ§ÙĨØ¯ÙĪ":11650,"Ø§ØªÙĪØ±ÙĩØ§ÛĮ":11651,"Ø§Ø¬Ø¯":11652,"ÛĮÙĨØ³ÙĪÙĨ":11653,"ĠØ§ÙĨØ§Ø±":11654,"Ġnor":11655,"ĠØ´Ø§ÙĨØ²Ø¯Ùĩ":11656,"ĠÙĨØ§ÙĤØµ":11657,"ĠØ®ÙĪÙĨÛĮÙĨ":11658,"ĠÙĨØ§ØµØ±ÛĮ":11659,"ĠÙħØ²Ø¨ÙĪØ±":11660,"ĠÙĨÛĮÙĪØªÙĨ":11661,"Ø¨Ø§ÙĤØ±":11662,"db":11663,"Ú©Ø±ÛĮÙħ":11664,"ĠÙĨÙĦØ³ÙĪÙĨ":11665,"ĠØ§Ø±Ø§ÙħÙĨÙĩ":11666,"uch":11667,"ĠÙĪØ¨Ø±":11668,"ĠØ³ØªÙĪØ§ÙĨ":11669,"ĠØ±Ø¨Ø§":11670,"ĠØ§Ø³ÙĨÙĪ":11671,"Ġsf":11672,"ĠØªØ§Ú©Ø³ÛĮ":11673,"ĠØ±ÙĨØ¬Ø±Ø²":11674,"ĠÙħØ¯Ø§Ø±ÛĮ":11675,"Ġdom":11676,"Ġlink":11677,"ĠØ¨ÛĮÙĪØªÛĮÚ©":11678,"ĠÚ¯ÙģØªÙĨ":11679,"ĠØ±Ú¯ÛĮ":11680,"ĠØ§ØªØµØ§ÙĦØ§Øª":11681,"Ø§Ø³Ù¾":11682,"Ġbut":11683,"Ġmont":11684,"ĠØ±ÛĮÙħÙĪÙĨØ¯":11685,"ĠØ´ÙĩÙĪØ§ÙĨÛĮ":11686,"ĠØ¨Ø§Ø²ÛĮØ§ÙģØª":11687,"ÛĮØ§Ú©":11688,"ink":11689,"ĠÙĨÙĪØ§Ø²ÙĨØ¯Ú¯ÛĮ":11690,"ĠÙĨØ§ØªÙħØ§Ùħ":11691,"ĠÙħØŃØ±ÙħØ§ÙĨÙĩ":11692,"ĠØ¢ÙĦØ§ÛĮ":11693,"ĠØ§Ú©ØªØ³Ø§Ø¨":11694,"ĠÙ¾ÛĮÚ©Ø±Ø¨ÙĨØ¯ÛĮ":11695,"ĠÙĦØ§ØªØ²ÛĮÙĪ":11696,"Ø§ÙĩÙĩ":11697,"ĠØ±Ø§Ø¶ÛĮ":11698,"ĠÚĨØ³ØªØ±":11699,"ÙħÙĩØ¯ÛĮ":11700,"Ø§ÛĮØ¯ÙĪ":11701,"ĠØ¬ÙģØ±Ø³ÙĪÙĨ":11702,"ĠÙĪØ§Ú¯Ø°Ø§Ø±ÛĮ":11703,"ĠØ¢Ú¯ÙĩÛĮ":11704,"ĠØªÙĪÚ©ÙĪÚ¯Ø§ÙĪØ§":11705,"ĠÙ¾ÙĪØ±ØªÙĪØ±ÛĮÚ©ÙĪ":11706,"ĠÙģØ±Ø¶ÛĮ":11707,"ĠÚ¯ÙĦØ®Ø§ÙĨÙĩ":11708,"ĠÙħØªØ£Ø³ÙģØ§ÙĨÙĩ":11709,"ĠØ¯Ø§Ú¯":11710,"ĠÙĤØ±Ø§Ø±Ú¯Ø§Ùĩ":11711,"ĠÚ©Ø§ØªØ§ÙĦÛĮØ²":11712,"ĠØ§Ø³ÙģÙĨØ¯ÛĮØ§Ø±":11713,"ĠØ§ØŃÙĪØ§ÙĦ":11714,"ÙĪÙĨØªÙĩ":11715,"Ġroad":11716,"ĠØªÛĮØ±Ø§ÙĨØ¯Ø§Ø²":11717,"ĠÙĦØ§ÙĪ":11718,"ĠÙĦÛĮØ¯":11719,"ĠØŃØ³Ú¯Ø±":11720,"ĠØ±ÛĮØ²Ø´":11721,"ĠØ±ØŃÙħØª":11722,"ĠÙħØŃÚ©ÙĪÙħÛĮØª":11723,"Ø§ÙĩÙĨÚ¯":11724,"ĠÙħØ·Ø¨ÙĪØ¹Ø§ØªÛĮ":11725,"ĠØ§Ø´ÛĮ":11726,"ĠÚ©ÙħÛĮØª":11727,"ĠÚ©ÙĦÙĪÙ¾":11728,"ĠØªØ´Ø±ÛĮÙģ":11729,"ĠØ±Ú©Ø§Ø¨":11730,"Ġscience":11731,"ĠØ¯ÙģØ§ØªØ±":11732,"ĠÙĨÛĮØ§ÙħØ¯Ùĩ":11733,"ĠÚĺÙĪØ±ÙĨØ§ÙĦ":11734,"ĠÚ¯ÙĪØ§ØªÙħØ§ÙĦØ§":11735,"ĠØ§Ø´Ø¹":11736,"ĠØ§ÙģØ´Ø§":11737,"ĠØ¨ÙĪÚ¯":11738,"ĠÙ¾Ø§Ø±Ø§Ø¯":11739,"ĠÙħÙĨØ¸Ø±Ùĩ":11740,"ĠÙħØ³ÙĦØŃØ§ÙĨÙĩ":11741,"Ġawards":11742,"ĠØ§ÙģØ±Ø§Ø·ÛĮ":11743,"ĠÙĦØ§ÛĮÙ¾Ø²ÛĮÚ¯":11744,"Ġhal":11745,"ĠÙĪØ²Ø§Ø±ØªØ®Ø§ÙĨÙĩ":11746,"ĠØŃØµ":11747,"ĠÙĨÙĪØ´ØªØ§Ø±ÛĮ":11748,"ĠÙ¾Ø§ÙĦØ³":11749,"ĠÙ¾Ø²":11750,"ĠÙ¾Ø§Ø³Øª":11751,"ÙĪÛĮØªØ³":11752,"Ġdc":11753,"ĠÙĪØ§Ø³Ø·":11754,"ĠØ§Ø³ØªÙĪØ§ÛĮÛĮ":11755,"ĠÙ¾ÙĨØ¬Ø§Ø¨":11756,"ĠÙĨÛĮÚ©ÙĦ":11757,"ĠØ¢ÛĮØ¯Ø§ÙĩÙĪ":11758,"Ġlibr":11759,"ĠÙ¾Ø±ÛĮØ´":11760,"ĠÚ©Ø±Ø§Ùħ":11761,"ĠÙħÛĮØ§ÙĨÙħØ§Ø±":11762,"ÙĪÙĨÛĮØ§ÙĨ":11763,"Ġhen":11764,"ĠØ§ÙĤÙĦÛĮÙħÛĮ":11765,"Ġconst":11766,"ĠÙħÚ©ØªÙĪØ¨":11767,"ĠÙĪØ§ÙĨØ¯Ø±":11768,"ÛĮÙĨØ§ÙħÛĮÚ©":11769,"ĠÙĪØ§ÛĮÙĦ":11770,"ĠÙħÙĪÙĦØ¯":11771,"Ġbay":11772,"ĠØ§ÙĦÙĨÙĩØ±":11773,"ĠÙĤÙĨØ¯ÙĩØ§Ø±":11774,"ĠØ¢Ø±ÛĮØ§ÙĨ":11775,"ĠÚ¯Ø§ÙħØ§":11776,"ĠØ²ÙĪØ§ÙĦ":11777,"ĠØ´ÙĨØ§Ø³ÙĨØ¯":11778,"Ġenglish":11779,"ĠØ¯Ø³ØªØ§ÙĨ":11780,"ĠÙĤØ§ÛĮ":11781,"ĠØ¬ÙĩØ§ÙĨØ¨Ø®Ø´":11782,"ĠÙħÙĪØ¬ÙĪØ¯ÛĮ":11783,"Ġseries":11784,"ĠÚ©Ø§Ø¬":11785,"ĠØ·ÙĪØ³ÛĮ":11786,"ĠØ±ÙĪÙħÙĨ":11787,"ĠÙħØ°Ø§Ø¨":11788,"ĠÙ¾ÚĺÙĪ":11789,"ĠÙĤØ¯ÛĮØ³Ø§ÙĨ":11790,"ĠÙħÙĨØ¯ÛĮ":11791,"Ø§ÙĦØ§ÙĨ":11792,"Ø§ÙĩÙĨØ¯":11793,"ĠØ¢ÙĦØ¨ÛĮÙĪÙĨ":11794,"ĠØ±Ø¤ÛĮØ§":11795,"Ø±ÙĩØ§":11796,"Ġfort":11797,"ĠØ¯Ø®ØªØ±Ø§ÙĨÙĩ":11798,"ĠÚĨØ§Ø±ÙĦ":11799,"Ø¨ÛĮÙĦÛĮ":11800,"ĠØ§Ø®ØªØ±Ø´ÙĨØ§Ø³ÛĮ":11801,"ĠØªØ§ØªÛĮ":11802,"ĠÙĦÛĮØ¯Ø²":11803,"ĠÙĨØ¸Ø±ÛĮØ§Øª":11804,"Ġpict":11805,"ĠÛĮØ§Ø¯Ø¢ÙĪØ±ÛĮ":11806,"ĠØŃØ¨":11807,"ØºØ§ÙĨÛĮ":11808,"ĠØ®ÛĮØ§Ùħ":11809,"ĠØ®Ø¯ÙħØ§ØªÛĮ":11810,"ĠÚ©Ø±ÛĮÚ©Øª":11811,"Ġlar":11812,"Ġinform":11813,"ĠØ¨Ø§Ø²Ø±Ú¯Ø§ÙĨØ§ÙĨ":11814,"ĠÙħØ³ÙħÙĪÙħÛĮØª":11815,"ĠØ´ÙĪØª":11816,"ÙĪÙĨÛĮØ³Ùħ":11817,"ĠÚ¯ÙĦÙģ":11818,"ĠÙĩØ§Ø±ÙĪÙĦØ¯":11819,"ĠØ±ÙĨØ¯":11820,"ĠØ¢ÙĩØ³ØªÙĩ":11821,"Ġdn":11822,"ÙħÙĨØ´":11823,"ĠØ¢Ø´Ù¾Ø²":11824,"ĠÙĨÙĪØ²Ø§Ø¯Ø§ÙĨ":11825,"Ġretriev":11826,"Ġmg":11827,"ĠØ§Ø¯Ø±Ø§Ú©":11828,"ĠØ§Ø³ØªÙĪØ¯ÛĮÙĪÙĩØ§ÛĮ":11829,"ĠØ¨Ø±Ø·Ø±Ùģ":11830,"ÙħÛĮÙĨÛĮØ³Ùħ":11831,"ĠÙħØµÙĪØ±":11832,"ĠÙĪÛĮØ¯ÛĮÙĪ":11833,"ĠØµØŃÙĨ":11834,"ĠØ¢ÙĦÛĮØ§ÚĺÙĩØ§ÛĮ":11835,"ÙĩØ§ÙĨ":11836,"ĠÙĪØµÛĮØª":11837,"Ġsuper":11838,"ĠØ§ÙĤÙĦÛĮØ¯":11839,"Ø³ÛĮØªÙĩ":11840,"Ġcc":11841,"ĠÙģÙĤØ¯Ø§ÙĨ":11842,"ĠÙħÙĪÙĨØ±ÙĪ":11843,"ĠÙĨØ§ÙĨØ³ÛĮ":11844,"ĠØ¯ÛĮØ±ÛĮÙĨÙĩ":11845,"ÑĮ":11846,"ĠØ¢Ø±ÙĨØ§":11847,"ĠØ¬Ø§ÙĨØ¨Ùĩ":11848,"ĠØ§ÙĦÙģØ¨Ø§":11849,"ĠÙ¾ÙĨØ§ÙĩÙĨØ¯Ùĩ":11850,"ĠÚ¯Ø´ÙĪØ¯":11851,"ĠØ§ÙĨÙĤØ¨Ø§":11852,"Ġalex":11853,"Ġoper":11854,"ĠÙĪØ§ÙĦØ¯":11855,"ĠÙģÛĮÙĨÛĮÚ©Ø³":11856,"ĠÙĪØ³ØªÙģØ§ÙĦÙĨ":11857,"Ø¨ÛĮÚ©":11858,"Ø§ØµØ¯":11859,"ĠØ¯Ø§ÙĪØ¯":11860,"ument":11861,"ĠÚ©Ø§Ø¨ÛĮÙĨ":11862,"ĠÙĪÙĪØ±ØªÙħØ¨Ø±Ú¯":11863,"ĠÙħØ³Ø§Ø¬Ø¯":11864,"Ġsb":11865,"ĠØ¨Ø§Ø±Ú¯Ø°Ø§Ø±ÛĮ":11866,"ĠØªÙĪÙħÙĪØ±":11867,"ĠÙģØ±Ø§ÙĨÚ©ÙĪ":11868,"ĠÙħØ¹Ø¬Ø²Ùĩ":11869,"Ø¯ÛĮÙĪ":11870,"ĠÙģØ§Ø¶ÙĦØ§Ø¨":11871,"hed":11872,"ĠØ³Ù¾ÛĮØ¯Ùĩ":11873,"ago":11874,"ĠÙģØ§Ø·ÙħÛĮ":11875,"ĠØ§ÙĤØ§ÙħØªÚ¯Ø§Ùĩ":11876,"uel":11877,"Ú¯Ø§ÙĦ":11878,"Ø¯Ø³Øª":11879,"ĠØ§ÛĮÙħÛĮÙĦ":11880,"ĠØ§Ø±Ø³ÙĦØ§ÙĨ":11881,"Ġfer":11882,"ĠÙĦÙĪÛĮØ¯":11883,"ÙĪØ³Ú©ÛĮ":11884,"ÛĮÙĨÛĮÙĪ":11885,"ĠØ³Ø§ÙĨØªÙĪØ³":11886,"ÙģØªØ¯":11887,"ÙģÛĮÙĤÛĮ":11888,"Ø¹Ø¯ÛĮ":11889,"ĠÙ¾Ø±Ø²":11890,"ĠÙĦÛĮØ¯ÛĮ":11891,"ases":11892,"ĠÙĨØ§ÙħÙĨØ§Ø³Ø¨":11893,"Ø³ØªØ¯":11894,"ĠØ¢Ø±ÙĪÙĨ":11895,"ĠÙĨÙĪØ¨":11896,"Ġcre":11897,"ĠØ³Ø¯ÙĩØ§ÛĮ":11898,"ĠØ±ÙĪØ²ÙĩØ§":11899,"ĠØ²Ø§Ú¯Ø±Ø¨":11900,"ÙĪØ±Ùħ":11901,"ĠÙģÙĪØªØ¨Ø§ÙĦÛĮØ³Øª":11902,"ĠØ³Ø±ÙħØ§":11903,"Ø¢ÙĩÙĨÚ¯":11904,"Ġni":11905,"ĠØ¨ÙĨØ¬Ø§ÙħÛĮÙĨ":11906,"ÙħØ§Ø¯":11907,"Ø¢ÛĮ":11908,"ĠØ¯Ø´ÙħÙĨÛĮ":11909,"ĠØ§ÙĨÙĪØ´ÛĮØ±ÙĪØ§ÙĨ":11910,"ĠÚ©Ø±ÙħØ§ÙĨÛĮ":11911,"ĠØ±Ø§Ø³ØªØ§":11912,"ĠÙħØŃØ¯ÙĪØ¯ÛĮ":11913,"Ø§ÙĩØ¯ÛĮ":11914,"Ø¦ÛĮØ¯":11915,"ĠØ§ÙĨØ¯Ø§Ø®ØªÙĩ":11916,"ĠØ³Ø§Ø¹ØªÙĩ":11917,"Ġfranc":11918,"Ġgeorge":11919,"ĠØ³ÛĮÙĦÛĮÚ©ÙĪÙĨ":11920,"ÚĨÙĨÚ¯":11921,"ĠØ§ÙĦÙĪ":11922,"Ø±ÙĪÛĮ":11923,"ĠØ¯Ø§Ø³":11924,"ÙĪØ¯Ø´Øª":11925,"Ø²ÙĩØ§ÛĮÛĮ":11926,"ĠØ¬ÙĨØª":11927,"ĠØ§Ø³Ù¾ÙĪØ±ØªÛĮÙĨÚ¯":11928,"Ø³ØªÙĤÛĮÙħ":11929,"ĠØŃØ§ÙĦØ§Øª":11930,"ĠØ¨Ø±Ø§Ø²":11931,"Ø±Ø§Ù¾ÛĮ":11932,"Ġgar":11933,"ĠÚĨÙĩØ§Ø±ØµØ¯":11934,"ĠØ¨Ø´Ø±ÛĮØª":11935,"ĠÙħØ§Ø¬Ø±Ø§ÛĮÛĮ":11936,"ĠØ¹ÙĦÛĮØ²Ø§Ø¯Ùĩ":11937,"ĠØ®Ø§Ú©Ø³ØªØ±":11938,"ĠÙĪÛĮÙĨØ³ÙĨØª":11939,"Ġhollywood":11940,"ĠÙħØªØ¹ÙĩØ¯":11941,"Ġfun":11942,"Ġwel":11943,
[...]
